a 500
01
ff
f3
06
fa
f3
f8
0d
0c
fa
f4
0e
f4
02
06
fb
fd
eb
f3
f6
07
fc
f0
09
06
0e
01
eb
09
04
e9
06
f3
ee
ed
ee
f0
09
ff
03
f6
fd
f8
10
f9
fa
f3
f2
ff
00
fe
03
06
ed
f4
f0
e9
ff
e6
f9
f9
eb
f8
01
0b
0a
ee
e5
f3
fd
02
05
00
f7
01
f4
fc
fd
f6
f2
f8
ed
0e
f9
f2
0f
00
f5
01
02
00
08
02
fd
ed
0c
fb
09
f9
eb
f3
f9
fe
ed
0d
11
01
01
f8
f3
0c
ea
f5
ff
0a
0a
fd
ff
ef
f6
01
e5
00
f2
f5
0c
0d
f2
0b
fb
fe
f6
10
ed
02
0a
ed
0a
ff
f1
fd
01
fa
fe
fb
08
f5
ec
04
f5
f7
00
f6
fd
0c
f7
06
06
f5
ea
0b
e8
f7
f7
08
fb
f4
12
06
08
f8
f3
07
01
fd
0c
0c
07
f9
f4
f9
fc
03
fc
e5
fb
00
04
fe
0a
04
ec
09
fb
f8
0f
fe
0e
0a
fb
0e
f8
f3
fc
0a
03
07
fd
00
f1
ff
f5
ed
fc
00
05
fa
09
f9
fc
f7
ff
f8
0d
f4
00
f2
fe
f2
03
ef
09
09
ef
02
f4
00
fd
fa
0b
fd
03
07
e4
fc
fd
f5
fe
ff
f9
02
04
f5
f2
ee
05
05
06
08
05
ff
ff
f3
f3
fc
f8
ff
f5
fe
0c
00
f1
fb
00
04
04
02
06
ee
f8
09
ff
f9
f8
02
01
0d
ff
ef
f8
02
03
fc
01
09
f5
ea
fa
0d
06
e5
fa
fd
fc
07
f2
ec
f6
f8
fc
ed
e6
02
ef
11
03
f7
fd
f2
f1
0b
f3
07
0d
01
fa
f4
0e
0c
f2
f8
01
f3
fd
05
f9
00
04
ff
01
fd
01
f0
f7
00
07
eb
0a
f3
fa
eb
fa
f4
fd
fa
eb
f8
f6
10
f7
ee
05
ee
eb
06
06
f3
fd
06
fa
02
0c
07
08
fb
ff
fe
0d
f4
0c
fc
08
0c
f8
fa
fe
07
f7
03
05
fe
0e
fd
04
fd
eb
fd
01
fb
ed
fd
fe
fd
ff
fa
03
fb
06
fd
01
f3
06
fe
f2
ff
09
02
ef
06
06
08
fb
ff
0d
0b
01
02
f7
03
f6
df
f9
f6
f7
ed
f6
f7
04
0f
08
04
07
00
02
02
fc
f7
09
f0
09
f3
0a
07
f9
f1
f3
f8
0b
03
f3
fb
0d
f9
05
f1
f8
00
fd
0e
01
f5
fc
fd
06
07
fb
07
f7
f6
f6
f4
fb
fd
fd
ed
0b
fa
04
0b
0d
fa
03
08
02
fb
f6
02
fa
07
06
03
e4
0b
0b
09
0a
f7
fa
ff
f1
fd
09
ff
0f
03
02
fa
fd
f4
f5
fd
02
fd
f5
f2
06
0a
02
f8
01
fd
ff
f2
09
0e
fe
e6
ef
e7
ea
09
ed
fa
fd
fc
f8
01
f9
13
f9
0a
ec
f8
fd
05
fb
fd
f5
fb
f9
0a
01
02
fc
fc
f1
0a
03
fc
0c
ef
09
11
fc
f3
08
07
06
0a
02
00
fe
0f
10
f8
e7
f9
01
04
f3
ed
fc
f7
f3
f0
ea
f6
ee
06
0b
fd
ed
fa
f6
f9
fc
01
f9
f7
0f
03
f7
01
f8
0b
04
0b
08
02
f3
07
f8
0b
04
fa
03
00
f1
f2
0d
ff
02
ff
0e
f3
08
f3
02
08
00
ed
0e
ee
e7
f1
02
00
f7
e6
02
08
f8
00
f4
ff
01
f8
00
fc
04
f2
ef
0e
f4
01
f9
01
f3
00
0a
ff
fd
fb
f7
07
f7
05
f6
0a
f1
ff
fd
fe
fd
f2
fe
fc
0c
fb
fc
fb
f0
f7
f4
fa
0e
04
ef
0e
fc
fc
0a
fb
0b
fc
eb
fa
0a
09
e8
f6
07
04
ee
0e
f0
f2
e3
09
00
f4
f4
06
06
ef
0c
e6
0c
ed
f5
fb
fd
06
01
f9
0a
0b
fa
fa
ef
fd
fe
06
f8
06
0e
fd
fd
ef
f6
00
ea
07
0a
fd
fa
01
ee
f3
ff
ff
00
f5
02
fe
ff
ed
07
07
05
f9
03
fc
04
f2
f3
eb
00
01
04
f2
fb
f1
0b
05
fa
fd
07
0a
06
00
0a
f8
fd
f9
04
fd
f7
04
f7
0a
00
e5
eb
e9
f1
db
07
fb
07
fc
02
08
fa
f7
04
f2
f3
f6
fc
f9
0c
f1
0b
fd
fa
06
ee
f3
fb
03
04
0a
09
ed
f4
04
02
ec
f1
fb
f7
05
f7
0a
06
f2
03
07
08
07
02
f1
f6
fe
ef
03
02
f0
eb
05
f1
fb
0b
f2
05
f5
f9
fc
fa
fb
fd
0b
ff
0e
0e
f8
0f
03
00
fb
12
fe
f7
08
05
fe
f8
fb
15
06
fc
03
0a
fe
f2
e8
06
f5
f4
f3
f5
f8
ef
03
f8
09
fa
fc
f1
01
fe
f7
fc
09
ec
ff
f7
0d
f2
fe
f8
f2
06
ee
e8
07
fe
f6
f1
11
fe
fe
fd
0c
f3
0e
01
02
08
0a
f4
ed
08
f8
08
01
f9
f2
11
0a
00
f3
ef
ff
fd
f8
0a
ff
ff
04
09
f2
fe
f0
fe
ff
04
02
0b
04
fe
00
fc
f3
f7
fd
11
fd
01
ff
ff
04
fa
0e
f0
ed
fb
0a
fa
00
f6
08
fb
f8
06
fe
fe
08
ed
f9
e9
fe
0c
01
fd
0c
fe
05
f9
f7
0d
01
02
07
0c
eb
fb
0e
fc
09
0d
0e
10
02
fa
f9
04
ef
f1
fb
01
06
f5
fe
f4
06
f9
fc
fb
0f
09
00
02
f9
f6
f9
fe
f3
0f
fd
fb
fd
f5
f9
ef
ea
08
f4
f9
06
fc
00
fa
f8
f5
fa
f2
06
f7
fd
02
fa
f2
0f
fe
f4
09
fa
fc
fe
f9
ec
04
e5
02
fa
f7
f3
ff
10
00
01
f3
ef
01
fd
02
f0
fd
f7
f6
eb
07
f5
01
08
0a
fd
0d
f3
0f
f7
f7
06
f8
ff
f3
0b
fa
06
ff
0e
05
06
00
02
03
f3
f4
ff
fb
00
fc
ee
fe
0b
ec
06
f5
fb
f9
06
ff
06
01
06
ec
fe
01
fb
e9
08
08
0b
02
02
06
00
f8
f7
02
05
00
f8
f6
fc
fa
ff
0d
f4
fc
e9
0f
08
0c
01
03
06
f0
f0
e9
05
02
05
f9
fb
f5
06
01
f6
fe
06
0d
0b
fb
03
f9
f6
fc
fc
07
f8
02
f4
08
06
05
04
f0
f3
04
fc
fb
05
08
05
01
e9
f4
f4
f6
0e
01
fe
05
f6
09
07
fe
06
f5
fa
f5
0c
01
f3
f8
f9
eb
0e
06
05
fa
fc
f8
0e
e6
f5
fc
01
12
e7
06
06
fb
ee
f9
08
fc
fe
06
fc
0d
01
fd
00
ef
fb
01
f2
02
ea
f3
0f
09
ff
07
f8
03
f5
06
fc
f7
08
03
f8
0a
ff
12
ff
04
e9
f2
00
0a
f8
ee
05
08
f1
05
fe
f7
09
f9
f5
01
08
f2
fc
ff
f9
fb
05
ff
02
fe
09
fe
0b
01
07
f9
09
05
f9
01
f5
f2
f6
fc
fe
00
0c
05
03
f1
f7
10
13
02
f6
ff
fc
fe
02
fa
fe
0c
fe
fd
04
fc
05
fe
f9
05
fe
fa
00
ff
fe
0b
f4
08
fc
08
fe
fe
0c
02
fe
00
f5
f7
00
07
04
f8
02
04
f6
fc
03
02
03
00
0a
08
0b
fe
0c
04
f7
03
06
ff
04
f6
04
09
16
fc
08
05
fd
ff
f9
00
0d
f3
01
fb
fc
01
fa
f9
03
f1
fb
f8
00
f6
f8
fb
f3
ef
ff
02
0e
05
fc
ef
0b
f6
fa
fa
03
06
fe
f8
fa
f0
0a
02
01
f9
f9
fa
01
f9
04
f1
0e
fc
fa
fc
03
06
f6
f7
f5
11
fc
0f
fd
ff
01
11
0a
ec
ff
10
ff
fb
06
07
f6
01
06
04
fb
09
ff
0a
ff
0c
fb
f2
01
03
01
f9
07
fc
06
fa
06
09
ec
06
f8
04
f5
02
0c
02
02
01
fb
f8
04
fb
ef
04
02
fd
02
fd
00
0f
fa
01
f7
06
ff
f3
04
0a
f8
fa
fb
f8
fc
fb
f4
f7
fa
06
ff
ff
0c
f0
f5
01
fc
fe
07
fc
f9
fe
01
02
0c
04
ff
07
00
eb
fa
00
05
17
f2
02
f9
11
fd
03
e9
f6
06
02
f7
f7
f6
f1
05
ff
ff
08
00
f8
f2
f2
08
0a
ef
06
fc
01
00
fa
05
0f
04
03
02
03
08
0f
f8
04
00
02
f8
f7
00
0a
f6
f2
0c
0d
f9
f4
fb
fb
08
04
06
03
fb
0b
fa
05
00
00
01
06
f1
fc
13
02
fd
f0
fe
f1
fd
04
fa
08
fe
fc
fa
02
ff
fe
f4
03
0b
03
00
f9
fa
f3
fe
f6
08
04
01
01
f1
0c
fb
f0
03
fa
f9
f5
02
f5
f8
f7
ff
04
f8
09
02
0c
fc
fe
fa
0b
05
05
05
fa
17
04
00
02
f2
fa
fd
f9
fe
fd
fd
fb
fe
f2
f7
01
fc
ff
01
f5
f5
f8
fa
0d
f8
0a
fa
04
04
f5
f8
fe
02
0e
01
01
00
06
03
fd
fa
08
fd
f5
fa
fb
ff
05
f9
fd
01
00
f6
ff
ff
fa
08
02
fd
f2
05
06
fa
02
12
f9
f1
09
fb
02
04
fe
fc
fa
02
12
05
07
f0
ff
ff
03
05
06
fb
fd
02
ec
f1
ee
06
fa
0f
f4
00
fb
fb
f7
fe
ff
00
fd
fe
fc
08
02
10
fb
ff
ff
fe
fe
f7
fb
f4
07
08
fc
03
0d
0f
0a
03
fa
f6
02
fd
00
01
f7
f6
fc
f7
fe
0d
f2
fd
fa
f7
ef
fc
00
02
04
06
f4
fd
09
0a
fd
ec
06
f7
0c
f7
f4
fb
fc
f6
fb
01
f4
fa
fa
05
fc
fd
00
fd
03
fc
06
00
ff
02
09
f7
fa
ff
f9
f6
07
01
06
f2
ee
05
02
fe
ff
fa
ff
fb
03
fe
0b
00
0c
fc
00
0d
fc
fb
00
03
f7
0a
00
f4
fb
fc
ed
fd
fb
04
02
05
fc
04
03
ec
fa
fc
f6
05
f7
f1
f9
ff
f3
f7
f4
0a
fb
f7
ff
0c
01
fb
f9
fb
04
fc
fc
06
fe
ff
06
e7
fd
13
09
ec
02
00
ea
f1
f9
fb
01
fe
03
09
08
f2
f7
f7
04
f7
f0
00
fe
fa
f8
05
f6
f6
0a
01
02
0e
02
0a
02
f4
04
ff
05
06
fe
02
05
03
09
f6
0b
fa
00
f8
fe
f5
01
f5
ee
ff
08
fc
f9
fd
01
fc
07
02
fa
0a
00
00
00
fd
f6
02
05
07
05
13
04
00
fb
09
f2
fb
fe
fc
f5
f9
f4
00
f4
f6
f3
06
f9
00
07
fb
01
06
f9
f3
f9
f3
f4
fd
05
fe
fb
02
04
01
04
fc
fa
05
0e
f2
fe
0a
02
02
ee
ff
f5
05
fa
03
04
f5
f4
00
f2
02
fe
f9
03
0b
04
f7
fc
05
f0
f8
02
04
04
fc
f5
ff
fd
fa
04
10
fa
06
03
f5
ff
f8
f0
0c
0c
fb
0e
03
fd
fb
f7
ff
fa
f5
f8
06
08
f5
f0
ff
f9
00
0b
06
00
05
f7
03
06
09
fa
f4
fd
04
04
fc
06
fd
0b
f7
f0
10
01
02
f1
f6
02
f8
f4
0b
fb
05
ff
ff
fa
f5
01
f9
12
fa
09
f6
06
07
ff
00
fe
fd
fe
f8
f2
f9
fb
0f
f3
02
fc
fc
09
03
08
03
f8
03
06
f4
05
f8
ee
0b
f7
fa
f4
10
05
04
fc
fb
fb
fd
fd
ff
fc
07
f4
02
09
04
f1
fc
f3
04
01
fa
fa
05
00
01
fb
00
0d
05
08
04
fb
f1
00
fa
fa
0b
f5
fb
fe
f4
f6
01
09
fa
f6
03
ff
fd
08
02
02
f8
08
03
f8
02
fe
04
05
f3
fd
fe
f0
f6
00
09
f2
04
00
fa
01
05
f9
02
fd
fa
f5
f7
03
fd
08
03
0f
fd
06
fd
f0
fb
f8
06
fd
fe
fd
f9
02
f0
00
01
ff
f8
f1
fe
ea
08
f4
f4
09
f2
ff
06
f5
04
02
ff
00
f8
07
01
f1
06
0d
01
fa
08
ef
fa
02
0b
05
00
fe
05
07
fe
04
f7
03
00
00
0d
10
f4
f5
13
f7
07
fb
10
03
fe
fb
f2
fd
ff
06
06
03
f3
03
05
fe
f5
00
ff
f9
f5
fd
0a
0c
0a
01
00
02
00
fe
00
01
06
f8
f8
00
fe
ee
02
0a
03
f5
fb
fe
fb
f9
09
f2
0d
fc
05
08
f4
f3
00
02
08
02
f4
04
fb
f8
f6
0e
ff
08
fb
08
f6
ed
fc
f0
fa
03
11
01
0a
f7
0b
04
0c
0d
fa
f6
00
01
01
02
0b
ee
00
06
ee
f8
10
11
fc
06
05
f9
00
f9
fb
03
f8
ff
11
0e
07
08
00
f1
05
ea
fc
12
07
fe
f6
03
05
02
fb
fc
f4
06
fc
ef
0c
f5
08
01
f4
ed
02
08
fa
04
01
0b
ff
f9
fd
fc
ff
02
03
fd
f5
fa
04
f9
f1
ef
f6
f1
0b
fb
f9
ff
f6
00
01
01
ff
02
06
fd
f5
f8
0b
fc
02
04
ee
0f
f5
01
03
fb
07
ff
f1
f4
06
fd
05
fb
f7
fa
ff
0d
08
0a
00
ff
fb
ff
0d
f5
fe
fe
ff
08
08
fe
f8
f7
f5
ff
04
00
f3
06
f8
0a
fb
f9
fd
f8
01
f4
f9
fa
01
03
04
f7
f8
fa
ff
f1
0c
04
ee
f8
05
fc
08
01
03
08
04
05
00
04
fb
09
fa
eb
04
0a
05
01
f3
f6
eb
06
fe
ff
0a
09
fd
f6
fe
fd
f0
fd
fa
fe
ef
02
0d
02
04
fc
f5
fc
f6
fa
04
02
fb
06
03
03
02
f2
fe
fe
08
f6
fc
f7
02
00
08
02
f3
f3
00
fb
f5
f6
f8
f8
f6
f4
09
04
fe
01
0e
fe
f3
06
f7
01
05
05
fc
f0
06
0a
fe
00
f9
03
f9
fb
f5
fe
07
f4
f1
fd
01
ec
fc
fe
ff
03
08
07
01
fb
04
06
03
0a
fc
00
fd
f9
00
00
05
fe
01
09
ff
0d
00
f7
06
fb
00
04
f8
01
0a
04
fe
fe
07
06
f8
fb
05
ec
f7
f9
00
ff
09
f5
ff
07
ff
09
fa
08
fc
f7
f7
02
02
05
0b
fa
05
11
00
08
00
f9
06
ee
0a
fc
fc
fb
06
01
03
f9
f1
fc
01
02
05
04
01
f7
08
fd
07
f9
03
06
f9
05
07
02
ec
f4
f9
07
f4
fb
fa
00
f6
f7
f6
01
f1
04
0a
04
f3
fe
07
07
fb
06
0c
f0
f8
0a
e9
03
04
02
03
fc
e7
f0
fb
05
06
02
f1
0a
f3
04
f5
00
f5
07
f8
ff
06
f8
0b
0a
f1
f6
08
00
00
01
0a
f2
02
ff
fa
fd
fe
07
09
f5
02
f6
ff
ff
ff
fb
03
04
f9
01
08
ff
f9
03
0c
fd
04
f2
07
08
06
04
0a
0a
ff
ed
f6
03
07
ee
09
06
06
fd
ff
f1
f4
00
f9
09
04
fb
02
fd
05
f6
fd
01
f5
fe
ed
07
0f
fb
f3
fc
07
04
02
02
00
03
04
fa
f2
fa
fc
f8
07
fa
fc
f3
07
f7
f4
fd
fb
08
06
fa
14
05
fb
0a
fc
fe
02
04
fd
f8
ff
f7
03
00
06
f6
04
05
ff
07
f1
fe
fb
06
03
ef
04
f6
03
02
fa
fc
01
ff
06
0b
01
f9
fd
04
00
05
0f
00
06
f9
fa
e8
f2
00
03
f0
f6
03
05
04
fe
f0
05
08
f8
f0
f3
fa
00
fe
f1
fe
06
ea
f5
e9
f7
03
06
11
06
02
00
08
fe
f8
e6
00
fa
e8
f6
ff
f3
05
fe
04
03
ef
06
00
fe
03
0d
f1
f2
fb
10
02
f4
ff
fa
03
fc
05
0c
f8
0d
08
fe
f2
fb
fb
f8
fe
06
03
fb
01
01
fb
04
f4
f6
06
fb
01
fe
05
f1
ef
f2
08
eb
02
01
ff
02
07
05
f9
00
03
fe
01
f4
03
ee
04
fd
03
ed
ff
f8
09
fa
f8
f8
06
f8
0a
f8
fb
02
00
08
fa
f6
fa
02
02
04
0b
02
e2
f7
0a
fc
f9
05
f7
07
0d
f8
09
02
08
0a
06
02
07
05
f8
0a
ff
02
03
fc
f3
09
fc
08
fb
fb
fd
02
06
07
fe
fb
02
fa
f4
04
f1
f6
f7
f7
fd
f2
06
fd
ff
fd
fd
0c
f6
08
fe
04
fb
f4
0a
04
0a
fa
fc
f5
03
01
f5
f9
fc
f6
0a
fa
02
ed
0b
03
f6
01
04
03
04
f9
02
07
fe
ff
06
f5
08
01
06
fd
03
05
03
08
0a
fa
03
fc
fe
08
0b
08
f7
05
ff
f8
ff
06
07
05
f1
ff
0b
0c
04
01
fe
f5
04
f3
03
03
02
fd
ff
06
05
01
08
04
fe
01
f6
ec
f8
06
fb
04
f7
04
05
00
01
f4
0a
06
ff
00
f1
0a
fb
00
fc
03
f5
04
0c
11
f9
eb
fd
f2
fc
f7
02
02
01
11
03
fc
0b
f7
ff
ff
ff
06
01
f1
00
06
01
fb
04
f9
fd
fc
f9
01
05
01
fe
05
02
f7
02
01
02
fb
ef
f1
f0
fd
0b
0a
f6
03
04
fc
07
fb
f4
01
10
04
06
fb
04
00
04
f4
f8
0c
f3
04
02
fb
ff
ff
05
fc
f4
fb
06
f6
e9
07
02
06
05
07
f4
00
03
04
08
02
04
fc
f4
f7
00
00
05
f1
01
08
fe
f7
f6
03
08
f4
0a
01
ed
f3
fa
fd
05
00
f9
f9
f3
ff
ff
05
fb
0c
f6
fb
01
02
f8
f3
fa
fd
f4
fc
09
f2
08
04
00
fc
02
04
f3
09
0b
07
04
f4
06
05
0d
f4
fa
f4
11
fc
05
f6
ef
fa
f8
fe
f3
01
0e
09
fc
f0
05
03
fe
f9
f4
04
01
fe
f4
f2
03
05
03
f1
02
08
f8
06
fb
fe
f6
04
f7
02
07
f9
0c
fa
fa
ff
03
04
fd
fc
08
f3
03
f8
15
07
f1
0a
06
03
03
05
f6
ec
09
f9
ff
0a
fc
fe
fe
ff
02
ff
00
04
0a
e9
05
f8
05
0a
05
07
04
fe
f3
04
fd
00
f4
f2
01
02
04
f6
fe
05
fd
f6
0d
05
07
01
f1
f2
fa
00
fd
0a
fd
f7
f4
f0
e8
ec
06
ff
ff
f9
06
03
01
f6
04
04
02
03
04
0d
f0
fb
02
01
0a
fc
f7
fb
07
f3
f9
f8
04
01
07
0c
f4
f6
f3
07
f4
f3
01
fd
ef
e7
01
02
05
0d
05
03
01
08
06
fd
08
04
02
02
05
fb
01
08
f9
04
f6
fe
fe
f8
fd
0a
03
fa
02
f7
fc
00
00
02
06
fe
f9
04
06
03
0c
00
08
fa
fd
0d
f4
f9
f9
05
fd
ff
08
fd
0e
fc
f2
f4
02
03
10
f0
09
fd
e9
fb
ff
0f
04
fd
08
fd
f0
f4
f8
01
05
fe
fd
05
f3
f6
09
02
09
00
04
04
f7
01
01
03
03
ed
02
ee
0b
fd
f2
ff
02
fc
0a
f6
fb
f8
03
07
f2
fe
f6
f3
fc
0f
ff
02
05
06
0a
f2
f9
f5
04
07
08
fb
ef
02
eb
05
00
06
03
fe
00
01
00
05
fc
f1
06
fc
f3
f7
ff
00
fb
08
02
f6
fe
0e
fd
ed
fc
ee
09
fc
ff
04
ff
01
ff
f3
fc
ee
fc
08
01
06
f4
01
05
08
00
0c
f5
f4
fc
fa
02
05
ff
fc
f5
0a
fd
ff
08
06
01
ea
f6
04
04
fa
f7
08
ed
f2
e9
f6
05
fa
0d
f7
04
04
07
06
f1
09
03
f9
02
03
05
00
00
00
e8
04
05
05
02
01
ff
f9
f2
03
ff
05
ff
ed
f5
07
05
ff
f1
fb
ff
f5
01
f9
0a
f1
f8
fb
01
f7
02
f5
fd
03
fd
03
08
ff
f0
00
0e
04
01
fe
f6
f5
09
00
fd
ec
f5
02
fb
08
06
04
fc
07
08
ff
fc
06
0b
04
fb
fd
0c
00
fb
fb
fd
f8
05
09
00
0b
fb
fb
fb
f9
04
03
fe
02
f9
fa
fb
f9
02
0c
03
0b
09
fc
fe
f1
0e
00
00
f7
fe
03
07
03
f7
0e
fd
f5
ff
fc
ff
f8
f6
fd
05
f5
fd
fe
00
0b
00
ff
05
fa
07
f5
02
ff
0a
f6
ff
fc
f8
fd
08
f4
02
f9
fd
00
fa
08
03
f8
fe
f7
fe
06
03
fb
fe
0d
f8
03
00
00
01
06
02
fc
f6
06
fe
07
fa
fa
11
f2
03
fd
f7
08
05
f8
06
04
02
fb
fb
06
f8
fc
f6
f0
fc
fe
f6
fd
fe
01
0a
04
f8
fd
ee
fc
f6
fd
0a
fd
01
06
fb
07
fb
f5
06
ff
f9
06
09
02
01
ff
0d
00
09
00
00
fc
fd
fb
fd
f8
f7
04
02
f6
fe
ff
ff
02
02
06
06
f7
f8
01
fa
f5
f4
f8
0b
02
fc
f8
fc
fa
f6
f9
f8
f5
fe
fc
f8
07
ff
09
04
fd
00
fa
ff
00
04
09
09
fa
02
ff
fa
f7
10
fb
01
03
f5
02
08
f9
03
01
01
f1
01
ff
ff
f5
06
07
ec
07
0b
01
08
07
f5
f3
f4
00
f5
0a
00
f9
f7
f5
fe
fc
00
fe
02
f9
09
0b
02
fa
f5
f7
fc
05
06
0e
f2
f3
f8
fd
fa
03
fd
fb
0b
06
00
fa
f3
f5
fa
09
f7
f9
03
00
fc
fc
fd
ff
03
0a
08
07
f6
fb
12
fb
fb
fb
ff
02
f5
fe
fd
fd
05
fe
02
f0
08
06
0b
03
f9
fe
ff
0a
00
fa
fb
fe
fa
f6
04
f8
08
00
01
01
00
f7
02
09
fa
fc
06
08
f5
fb
f7
06
02
f5
fc
04
fd
01
f6
0a
0a
f7
f9
fb
fe
04
03
ff
04
f8
fd
fb
f8
fa
0a
05
05
fd
f8
fe
fd
f6
ef
06
fa
f4
fb
fd
fd
fb
00
00
f8
f9
f8
06
fb
11
02
fc
07
fd
fc
06
f8
f4
01
fd
08
fa
f0
f7
f9
f7
f4
00
06
fa
09
f9
03
02
00
fd
fc
ff
f9
fc
0b
0b
f6
f5
05
05
00
f5
f2
00
ff
07
03
04
02
f9
f5
01
00
fa
01
fa
f4
f9
02
0b
f4
00
07
0f
02
fb
fe
f8
02
01
03
09
01
fc
06
04
04
02
00
fd
fa
f3
0a
fc
fb
fc
fb
f2
fa
06
06
07
0d
01
07
f9
f4
f4
03
02
fd
01
07
fe
ff
f7
04
0a
fe
fc
00
06
ff
02
fa
fd
f6
07
04
fb
13
07
04
fa
f5
f9
f7
fc
09
fe
f9
f3
f7
fd
03
f9
fa
fc
f9
fb
f8
f9
09
fd
f4
f4
0a
0e
ff
fd
f8
03
fc
06
fd
f7
06
00
f7
fe
00
f9
fe
09
05
02
0d
fd
f6
09
fc
08
0d
f7
05
04
fd
f2
09
f6
fd
0a
fd
07
fd
fb
f9
f5
f1
09
f7
fb
f5
fc
fe
08
f9
fd
06
11
09
03
fa
f6
07
fd
02
fc
01
11
fc
fd
0a
07
f8
ff
10
03
04
fc
f8
00
00
f3
04
ff
f9
06
01
0f
0a
02
0c
f5
f7
fd
ff
f8
fa
fc
f5
f8
03
f7
0d
f8
02
f8
f8
f4
fc
0f
08
fc
fe
f8
0a
10
fd
00
fe
f8
fa
09
03
00
f6
fc
07
f5
09
f4
f9
f9
0b
fc
f7
13
f8
07
f3
f7
f8
f8
fb
03
13
f3
00
fc
01
fc
04
08
fe
04
fc
f1
f5
00
fe
0d
fe
0c
fb
f8
fa
0a
0c
08
f9
fa
03
fd
f4
ff
0a
fb
01
09
08
01
f9
fc
f4
fd
f6
fe
f6
ff
fd
00
08
fd
f6
f5
07
01
f8
ff
00
10
ff
08
01
fa
ff
fe
03
ff
fc
0c
00
03
fe
fc
0c
07
00
f9
01
07
fd
f5
fc
fc
04
f6
0d
04
fd
02
f8
f8
fc
ff
06
0a
fd
10
fe
f9
f9
f6
f8
fb
fb
03
f7
00
04
11
ff
06
ff
04
05
fc
03
fe
f9
05
ee
fc
fd
01
04
04
01
fc
f2
fd
f9
f6
fa
0a
fa
f4
0c
01
f3
00
02
09
09
fb
fb
fd
0d
fd
fe
fb
fb
fb
fd
09
f9
ff
01
ff
fa
0a
fc
09
0a
f8
fb
ff
fe
01
fe
fd
0d
f1
fc
fa
f9
fa
06
fb
f1
fb
11
fd
00
fb
fd
0f
fa
07
08
f5
07
fc
fa
f4
fa
f7
05
01
f8
fa
03
f9
fd
07
03
fb
01
05
05
04
11
fd
01
07
fe
04
07
06
01
ff
f7
09
ff
f9
fd
fb
fc
fb
f7
f9
fd
08
fc
02
ff
01
02
fc
f7
06
fb
f7
04
fa
03
05
00
fe
0f
fd
03
f7
f8
0b
03
fb
fc
f4
f9
0f
05
0c
10
02
fa
f9
00
f6
fe
0c
f8
fd
f8
f7
05
f6
03
02
f4
02
f5
06
fd
fa
fd
f5
0f
f7
f8
f8
f8
01
fb
04
fb
03
02
00
00
f3
08
f6
06
fa
f8
09
02
fd
fa
fc
06
08
f9
fa
ee
00
fb
fb
09
fc
00
fc
f9
f7
12
fb
05
01
ff
02
fe
0f
10
fb
f6
fd
fa
09
fc
ee
f3
f9
fd
ed
fc
fe
fa
fd
04
fb
f5
06
f9
02
f5
ef
07
fa
fd
01
04
f9
09
fd
02
f7
05
00
01
fe
05
02
04
f7
07
fc
02
ff
07
0a
f9
09
f9
0e
ff
fe
fc
f4
f8
06
05
fd
06
03
fd
fe
f9
f8
08
01
fb
fc
08
06
00
01
09
00
02
07
f8
f7
0b
05
f7
ff
fb
11
09
f6
f9
fb
ff
f7
03
05
fa
f8
fa
fa
01
09
fd
0e
07
fd
04
fa
fe
0e
05
ff
f5
03
f8
08
ff
0b
00
08
fc
06
f8
f8
f6
05
fa
fb
00
05
09
f3
f0
f9
07
04
0f
fa
f6
fd
ff
04
02
02
f7
f8
fb
02
fa
fb
08
fb
ff
f4
f8
03
fa
fd
ff
0a
f6
ff
05
00
fd
02
fd
fd
f6
f7
04
fe
fa
fc
fa
09
09
16
fd
fd
f8
f5
fe
fe
ff
fd
fc
fa
f9
05
fb
03
fe
f6
f9
f8
ff
09
fe
10
09
f8
06
00
00
05
f9
fa
00
fa
10
f7
03
02
f3
f7
fb
01
02
f6
f9
fc
fb
f5
f2
02
02
10
fc
07
10
f1
f3
f7
f4
f9
07
f4
01
f8
f6
01
01
f7
fc
f8
0a
fd
f7
fd
03
0c
f1
02
fd
fb
04
0f
ff
07
fc
fc
fa
01
03
ff
0a
fe
02
f9
fc
fc
f3
fe
04
f9
ff
fd
07
fc
fd
f4
f5
01
02
fe
fe
ff
f5
05
0b
0c
ef
01
06
f8
0c
08
03
fa
f3
f9
fc
01
f9
ee
fe
05
fc
fb
05
f3
02
05
fd
ef
0a
09
05
f9
ed
fd
f8
00
ef
f6
0e
fb
fc
e6
fd
02
08
06
f5
04
f8
01
0b
02
07
f9
09
00
0c
05
0e
fc
05
0b
04
f8
fe
05
ef
fe
09
fe
05
05
f0
07
00
fd
f8
07
03
f3
00
03
0c
00
07
fe
eb
f7
06
0e
04
0b
e7
ee
f3
14
0d
fd
fc
06
f1
f8
ff
0c
02
0f
fa
f1
f4
f9
f4
f9
f5
00
0a
f7
ef
f2
f4
f4
03
01
ff
fb
ff
f7
07
07
f1
f1
0a
fc
03
06
02
f5
00
05
f1
00
f7
0b
06
04
ed
fa
f0
01
02
f9
fc
08
fb
fc
03
fe
f5
f7
07
ff
f9
03
07
f9
fe
e9
08
01
fc
03
fb
fd
f4
01
fd
f8
04
fa
ec
fa
02
fb
ff
fe
00
fb
01
09
f9
06
06
05
07
ea
07
e8
ea
f7
05
f9
0a
fd
01
fd
ff
0b
f9
ef
ed
02
fd
04
fb
00
ff
0c
11
ec
fa
06
04
f8
f7
09
f7
03
06
fc
f6
01
fb
f1
f3
0e
fa
00
00
fc
fc
ff
01
fe
07
01
ed
03
07
08
00
fe
f5
02
f3
04
ec
07
f8
0f
07
fa
ff
06
06
fd
fb
02
ff
fc
f8
06
fc
f8
f1
ff
fd
0a
02
f9
06
f9
fc
03
0b
fb
fd
02
f5
fa
e2
0a
f9
f8
fa
f8
0a
09
f4
f8
04
06
f3
01
03
0e
e7
fb
06
f8
f7
0d
f3
fd
f5
0b
08
05
fb
ec
04
0b
04
0f
0a
fa
fe
f8
05
f1
fc
f8
f8
f1
f5
00
00
fa
03
00
02
02
00
ff
01
03
07
fe
ee
08
0b
0b
ef
ff
fd
f6
f4
02
0b
02
0b
f9
fe
fe
fe
08
f7
fa
0d
f9
07
ea
00
01
05
eb
f0
04
f4
0c
09
01
fe
f9
f6
f2
f6
f6
f4
fc
fe
ec
05
03
f8
fe
02
02
07
01
06
ff
04
ff
0c
01
fb
08
ee
fd
f8
fb
ea
fc
f8
05
f9
05
04
07
f4
09
f1
05
06
03
ff
e7
07
03
f4
06
fa
f4
fb
0c
f8
07
06
01
09
f6
0a
08
fa
0a
f0
fd
f6
f8
f0
06
04
f9
fb
06
f5
eb
0c
06
0d
03
f9
04
f0
f8
f2
09
f9
02
01
fa
01
f4
08
02
05
02
03
f7
ff
fa
f9
f7
00
07
04
00
f7
fc
e6
00
eb
09
f2
05
ed
0d
fb
04
f9
ff
fc
e5
ff
fd
03
ea
03
09
f6
f8
02
05
fe
00
f6
01
f5
ff
09
04
ff
fd
fa
10
00
05
f2
f2
eb
0a
f7
f8
f0
ee
f6
0a
04
00
07
06
09
0e
0b
ed
fb
ec
f3
ff
fe
f5
0a
05
ef
e9
06
fa
fd
05
f9
08
0d
f2
f6
e9
07
f1
fc
03
09
f6
fd
05
09
f4
07
eb
fa
0c
ff
07
e6
06
fd
00
fe
fe
09
fe
00
ea
05
f5
02
0c
ff
06
fc
09
fa
06
0a
fb
07
05
fa
fd
08
12
f5
fe
eb
f2
fe
fe
f8
02
02
06
e8
fb
0a
fb
04
09
ec
f1
fd
05
f4
00
08
fb
01
09
fa
f7
09
f2
f1
ff
04
f5
0a
f9
ef
04
fb
fc
f7
06
fd
04
fe
fd
0d
fc
09
08
f8
03
f8
ff
eb
08
08
ed
fd
fa
f7
08
0a
f4
04
f3
00
07
0a
0a
09
f7
fd
00
ff
fa
07
02
f9
fe
f4
f0
ff
04
f5
07
09
fd
0e
01
f8
01
fd
0d
02
fc
f3
f5
ec
02
00
fc
f5
02
f4
06
00
05
f9
00
05
0a
ff
06
f9
0f
02
f8
ed
0a
ff
fd
f3
09
0b
07
fc
fe
fd
0f
12
03
00
fb
07
0f
ff
ff
01
05
05
f2
fc
fc
0b
07
f7
01
ec
00
01
f2
fe
0c
04
08
05
05
fc
fc
02
ff
ed
06
0d
eb
f0
03
f6
ff
fd
0a
fd
fa
ff
10
05
ed
f5
0b
04
09
00
fa
02
fc
e7
f2
fd
0b
e9
f5
06
00
0a
fb
0b
fb
fa
f5
f5
fe
ff
06
fe
08
fd
f8
fa
f8
fe
f8
fb
ed
fb
ed
06
fc
ee
09
03
fc
09
00
f6
05
08
ed
f1
02
ea
02
01
10
f1
ff
01
fd
ff
fa
ff
fa
fc
07
f0
fd
01
05
01
fe
fe
01
02
05
ff
f7
01
f4
f4
fc
00
f9
fc
01
e7
05
f6
f8
fb
fe
f8
ec
f7
e9
08
fd
ed
01
ff
f9
03
08
fe
02
00
f0
01
f1
ed
fd
f6
0c
06
ff
11
09
04
fe
f8
04
03
fe
03
fe
08
03
06
f3
0c
ff
0a
03
08
f5
fd
ff
fb
fd
fc
0c
08
05
10
f9
0c
02
0c
01
ea
f3
0b
0b
03
01
f3
06
01
01
03
fd
0e
0d
03
00
05
fa
03
06
05
0c
f6
f8
f3
01
f6
02
f0
0b
02
0b
f0
fc
e1
fd
04
f0
03
f4
04
06
ef
fe
fb
07
04
f5
06
f8
f7
f9
f6
f4
07
05
f6
f2
09
fb
06
ff
0d
f8
fa
07
fc
fb
fd
fd
f9
fe
ff
01
fa
f4
03
ea
fa
f1
07
02
00
0a
0a
fc
f7
0b
02
f8
ec
07
f4
fc
08
08
fb
fb
02
ff
10
f3
09
ea
f1
f1
fe
f9
fd
f1
fb
01
09
f8
fc
0b
f9
fa
f9
ee
02
fb
0b
05
e7
05
ff
01
f8
f3
02
fb
f4
fc
f9
fa
03
04
08
03
f7
ff
01
f8
fa
fc
00
fa
fe
f8
e1
ed
01
05
0c
04
00
f0
fe
04
f6
00
05
04
fa
f6
03
fa
05
fd
04
f0
08
f0
f2
f4
f8
fc
f6
0d
07
fd
fd
0b
06
fa
ec
fe
03
f5
08
f2
03
f3
ff
09
05
00
08
07
f4
00
f9
f4
fe
ff
f3
f2
00
02
f6
f5
ff
05
fc
f5
fa
f8
0c
05
ff
f7
f7
f0
ee
04
f7
06
fb
05
fd
f8
fb
eb
fc
f8
f0
05
06
01
fb
0d
06
01
f5
f7
03
f8
0b
eb
00
ef
fb
f5
f8
f6
07
08
fa
f3
05
f7
fe
07
09
0f
ea
02
00
0b
00
03
f4
f0
09
f1
04
01
f1
0a
03
f8
f2
ef
0a
0a
f6
fc
fe
fb
00
ff
fc
ff
f8
06
05
fd
f9
09
fd
00
0e
05
0c
04
0b
fb
ff
0b
fa
03
03
f9
02
09
ff
fa
0a
fa
ed
05
ef
0e
f9
07
01
08
07
08
fb
fe
0d
0b
fa
07
f6
0c
f8
0f
07
f9
f8
01
05
f9
ee
00
05
fd
fe
fb
f6
01
fb
f4
fb
f1
05
ff
07
03
fd
02
f4
f5
07
09
fd
fd
09
06
ee
03
0c
f5
f9
01
f4
f0
01
09
01
fd
ef
fb
fc
ff
00
f8
08
f5
f7
fe
01
06
fd
02
fd
f7
01
07
fa
f7
02
08
03
00
fa
f4
02
f3
f7
ef
f4
0b
05
f3
fa
fd
03
f7
04
01
12
07
fe
f2
fb
08
fc
f0
fb
f6
fb
00
fa
f4
fd
f7
fd
f7
f7
01
0d
fe
f6
03
14
fe
00
07
02
02
00
fd
05
03
03
f9
fa
08
03
f9
fb
f8
f4
f0
09
ff
f9
fd
03
00
00
08
f8
fe
fb
01
f4
f6
fb
f0
ec
fc
fd
ff
00
fc
fb
14
fb
00
0b
05
10
ff
f9
10
0d
02
00
06
f7
03
fe
f0
f8
fe
fe
f5
02
01
fb
eb
f8
fa
11
0a
04
fc
0a
06
fb
fc
04
03
12
03
00
f7
02
02
f6
fb
f6
0a
f5
03
03
fc
ff
01
f2
09
fd
01
00
01
f9
05
01
ed
fa
fa
fe
06
01
ff
fc
02
04
01
f8
02
ff
f7
f9
fa
f8
f3
f5
01
f2
06
f7
fc
fa
f5
fd
00
f2
01
f9
fa
ee
f9
0a
ee
0a
fd
fa
f4
09
f8
fc
08
04
06
01
ff
fb
fb
f7
fa
fc
ed
f8
fd
07
f1
02
05
fd
f8
fa
06
f6
fe
fc
fb
01
02
f7
f9
09
f3
fb
11
01
ff
ff
ff
05
f9
fa
06
fb
01
05
02
f6
07
f6
00
fb
ff
ff
f1
00
05
f4
fc
06
0d
ff
04
02
fa
fa
fe
f5
01
ff
05
fe
fd
fb
08
fe
05
ff
fe
03
00
fe
f3
f4
08
0a
fd
05
fd
f7
fa
f6
f9
ff
01
02
fd
f5
0a
ff
03
f6
03
f3
fb
03
07
fe
14
04
fe
ff
0c
04
fb
04
03
fb
f2
fb
f2
02
07
02
ea
00
fd
fc
fb
f0
f7
fe
00
fd
03
f7
07
00
f4
00
f8
0d
fe
ff
00
f0
f9
fc
03
f4
f8
00
f8
04
f9
ff
fd
f1
f4
f9
fd
00
12
ff
ff
fc
fd
ff
04
fe
f7
f5
f9
0b
09
e8
00
fc
fd
fc
08
f5
04
fa
fe
05
fb
04
fc
fb
f9
f7
f8
fe
f5
f4
ff
0d
fa
ee
00
01
07
04
00
fd
03
ff
08
07
f3
02
15
02
fb
08
05
02
f9
f5
00
f9
16
fd
02
07
f0
fc
f7
ef
ff
f5
ff
0a
f7
03
04
fd
fe
04
f5
fd
fb
07
f6
06
fd
05
ed
ff
00
03
f6
02
07
f2
f6
fc
04
fd
00
e8
f5
fb
f9
0b
fa
fd
03
f1
f2
ff
f9
02
00
fb
f7
00
f2
04
fa
04
f2
0a
fe
f4
f0
f9
0b
10
03
08
01
f5
05
05
fb
f3
ed
05
01
01
08
0a
00
0c
ec
f6
01
fb
06
04
fd
00
f5
13
fe
06
f7
03
f7
ec
ff
f6
02
01
01
f1
f7
02
ff
02
f9
02
fb
f9
06
fb
05
fa
0c
02
f9
04
06
02
fe
02
03
fe
f0
f3
fc
03
15
fd
fc
f3
fb
fc
fc
f2
ff
fc
fb
ff
fb
05
01
f4
00
fe
f4
05
05
f9
ff
01
07
fc
f9
04
fe
04
fc
ff
00
fb
06
fd
f5
05
fa
02
03
fa
fa
ff
ff
fb
09
ff
ff
03
fb
ff
f9
05
04
f1
0a
03
02
fd
05
02
ff
04
00
ff
ff
f1
f8
f9
00
f5
fa
ff
0f
fd
00
f7
02
12
fe
04
02
f5
fa
0a
04
02
fe
ff
fd
fd
05
fd
f3
02
f6
ff
ff
04
03
0b
08
f7
12
fb
fd
f6
01
02
fc
f9
f3
f5
0b
ff
ff
f7
fc
01
04
fa
f7
f9
f6
f8
07
ff
fb
f6
01
fc
00
f4
f7
06
fc
fe
fd
f8
11
fe
f7
ff
11
04
fd
f5
fe
f7
df
02
fe
00
01
0a
f9
ff
fe
06
02
04
04
f8
03
f5
fc
f3
fb
fe
ff
f7
fc
02
06
ee
e6
f3
01
fd
ff
f3
02
16
05
05
fc
ea
05
04
fe
f0
f9
fb
fd
fe
0f
03
f3
f8
fa
fd
f7
ff
01
ed
f9
ed
fd
f4
fc
ff
15
ff
07
01
01
fd
fa
ff
f7
06
ff
09
06
11
03
f1
f7
f8
09
0b
f4
f9
03
fe
fd
fe
03
04
fb
07
00
f9
00
fc
ea
fc
f7
f8
f5
00
00
f6
f4
f4
07
fa
04
0f
03
02
10
fe
fd
f9
03
fe
03
fb
fb
09
0a
fa
fc
f7
09
fe
ea
09
00
00
ff
f7
02
f3
ff
00
f8
f4
ff
02
ff
02
fa
fc
0c
02
fe
fb
09
00
fb
0c
fe
f7
03
0e
fd
01
03
00
02
00
02
06
f8
fa
fc
03
f3
ee
fe
f9
fd
fc
fc
f7
0c
02
fd
05
05
fc
fd
f3
fd
10
05
01
fd
02
fd
f7
f9
fd
f4
02
03
04
f7
06
f8
fa
ff
01
fe
fe
ee
fa
f5
03
07
fa
f8
00
02
0a
01
03
02
fe
02
02
14
f6
ff
fa
fc
fc
07
fe
f7
f4
fc
f9
fe
fb
01
02
fb
02
12
f8
00
fe
f5
f6
f4
f8
03
01
00
0d
f1
0f
05
fd
fe
00
03
07
fa
ff
08
f0
04
f6
fb
ff
00
00
00
00
f7
fb
f1
11
fa
01
e9
00
0f
f9
fe
ff
fe
fa
ff
ff
f1
00
ff
05
fe
03
0b
0a
fa
0a
f7
0c
f9
05
f5
04
04
04
12
fe
ff
ff
fb
f5
fb
f6
fe
04
03
06
02
f6
03
fb
fb
fe
0b
10
0f
f3
f8
03
fa
f1
ff
07
fc
0f
fc
fc
fc
ef
10
04
04
17
fc
fa
f9
03
02
00
f7
00
01
05
f5
10
f3
07
fa
01
f5
fc
f8
05
f9
fd
03
02
08
fb
00
f9
02
fa
04
06
fa
f9
f3
05
f4
12
00
fc
f1
06
fd
0b
ee
05
fd
ef
00
fb
f4
00
f3
fe
ec
06
fe
11
0d
07
fd
01
00
10
f8
01
ee
01
00
fe
fe
fd
f5
ff
07
fc
f1
05
f6
03
ed
00
fe
08
0b
f1
f6
ef
ff
ff
fd
ff
f7
f3
03
ef
00
02
f3
fa
02
00
fd
0d
01
fb
00
00
08
ff
09
f9
f8
07
f0
f8
f3
f2
02
08
00
00
fb
f8
ff
f0
15
00
ff
f8
f6
fe
f2
03
00
f4
f8
fc
03
08
ff
f9
fa
f5
ff
01
f5
fb
fd
ff
ff
f1
0c
fb
f7
03
ff
f7
fc
ff
f4
03
01
f6
fb
ff
f1
fc
fa
ff
ff
13
f5
f7
f9
05
02
fa
fd
fe
ff
f2
f8
f2
f9
00
f3
f7
f8
f7
08
fa
fc
f7
f3
0f
00
f8
fa
05
09
fc
05
00
f6
f8
f3
01
06
08
f5
f3
09
fd
0b
09
0b
06
03
ff
f2
fc
f3
ff
fd
f1
01
07
08
07
f8
02
f9
08
0a
fc
fe
fd
0a
f8
fd
03
0b
11
09
f5
07
02
0c
0a
f2
04
00
08
f4
eb
fc
f4
f9
02
05
0c
0a
05
f5
0b
09
f5
02
f7
fd
05
08
f2
fc
07
05
f8
06
fd
ec
09
02
fb
f9
f9
07
fd
f7
eb
fb
ff
f3
f6
03
f6
f0
f1
f6
08
09
08
05
fc
ff
03
f0
0e
ed
00
fc
0a
01
fc
f9
0a
01
fc
0c
08
f8
f8
0a
fd
fd
03
f9
03
0b
f6
fd
fc
f8
01
01
03
ff
f6
f9
01
fa
f9
fe
07
fb
02
fc
fc
ff
f5
05
f3
fd
03
08
08
01
ed
0e
0a
fc
ff
f1
f4
0b
fe
05
ff
fe
fd
fe
fa
08
06
f4
08
f2
01
04
f5
fc
ff
f4
fa
08
09
f1
fe
09
f8
03
fc
f7
0e
fe
09
f8
0e
f2
fd
f6
fc
fe
ff
02
f7
0e
ff
fe
06
05
02
0a
ed
05
ff
01
09
07
06
fc
02
0c
f7
04
f3
00
f8
10
f0
08
f9
04
f4
f4
09
02
f6
01
fb
06
03
08
02
ec
03
0c
f6
ee
f2
04
0a
e7
03
fb
01
f4
fc
f1
f5
03
fd
fe
00
01
06
ec
01
fd
f5
07
00
f4
fe
f6
f8
f6
03
f8
03
f5
05
04
07
05
09
ef
fd
f8
f9
f2
fd
05
0c
fc
04
03
f8
f9
0b
fe
08
f1
f7
0e
f9
f9
f2
07
09
fd
f6
04
ff
0b
f8
01
eb
02
01
06
ff
02
fa
f5
f2
fa
00
fa
05
f5
0a
04
08
f5
fb
fb
04
fc
f4
fb
12
ec
fc
0c
ff
f0
ff
09
01
0b
f9
02
f4
02
f0
07
fa
fb
08
05
0e
f8
f9
0c
f8
11
f8
05
05
03
00
fa
fd
04
04
01
fe
fd
01
0e
f5
01
05
00
02
0c
02
0d
04
fe
05
fb
f8
f5
00
01
04
0a
04
00
05
fb
f5
09
01
0c
09
fa
0d
f2
07
02
f8
fa
fa
07
f5
02
ff
fa
05
f7
f8
11
04
f9
04
f9
04
0a
0a
fb
05
f3
0a
f3
f8
05
09
08
06
f7
f1
fc
f5
fe
03
ff
02
f3
fd
03
03
fd
f6
0a
05
03
0e
00
ff
f9
fb
06
09
fc
07
ff
f9
fb
f4
f7
fa
fb
fe
fc
fd
02
f7
02
f4
fc
07
ff
01
00
f8
0b
f3
00
08
04
0b
05
fb
f1
fe
fb
05
0a
f1
09
f7
ff
f5
fb
f5
f9
05
fd
07
04
03
fd
06
07
fb
03
fc
03
fd
f7
ff
04
f6
01
07
0d
03
f3
00
f7
02
f5
f0
04
f2
f6
0b
fb
ff
04
fd
04
f9
fb
02
f0
f6
06
00
07
06
fa
f0
02
fe
f6
fc
07
f3
fd
f5
f8
f6
f9
08
f6
01
f4
04
0a
f8
00
f0
09
0e
ed
f6
04
08
fb
ef
00
f6
fb
09
ff
05
09
00
f6
0a
04
fb
f4
ff
00
03
fc
f8
0a
03
0a
01
ec
fe
f8
03
00
f3
fb
e7
f4
f9
0a
05
f2
02
01
f8
fd
07
07
0c
f7
0b
01
02
f8
f4
0e
fc
f1
f7
fe
e9
f2
08
05
fb
03
f2
09
f5
f9
ea
fb
fd
f9
f9
ff
03
f5
09
03
f9
fb
02
02
10
fd
00
03
10
00
fd
ff
01
f9
f9
04
ff
fe
fe
f6
f8
fd
11
fe
f3
f0
04
fe
05
f8
0d
06
fb
ff
08
03
0b
00
ff
ff
05
fa
0a
fb
f7
01
f0
03
00
09
f5
0b
fd
03
fc
fe
05
f8
f7
05
07
f2
f4
07
02
fe
02
fc
ff
05
01
fe
f7
05
00
fa
0a
04
fe
0e
f8
f8
0d
02
fe
fc
f7
f2
fa
e6
0c
09
fe
fd
05
0a
02
f5
f8
0a
0f
fb
06
fe
04
fa
04
09
fc
fe
f8
ee
0f
09
03
f4
07
f7
0d
03
f3
f8
01
ff
03
f5
f7
09
0b
0c
f2
0b
01
f5
0b
01
05
f7
fe
03
ff
07
f6
0a
fe
fc
fa
06
f1
fc
fd
f5
fd
08
fd
06
02
07
f5
06
02
f4
f6
f9
03
fa
03
fc
02
ff
0b
f6
01
03
06
0d
ff
07
02
01
03
f9
05
01
08
11
00
04
f4
0d
fa
08
fd
e8
00
fd
00
f3
03
f2
f6
f7
04
01
fd
0a
f8
11
06
06
03
f9
08
f8
09
05
ff
f9
ee
f6
fb
f5
ff
f0
fe
f9
f2
fc
07
09
f1
f8
fe
f4
00
fe
fc
fa
fe
f4
f5
f2
01
fa
09
04
ff
03
0a
fd
0b
0b
04
ff
09
fe
fa
00
07
f7
fa
fb
03
fb
04
ff
03
07
f3
fb
ff
ff
fd
07
f6
f2
e8
0a
f5
06
f8
0d
f8
f8
01
06
f9
00
f8
02
ff
0b
fd
07
fc
e9
f8
fd
f9
f0
0a
fe
fe
fd
fa
f9
01
ec
fe
0d
f7
09
f9
fc
f1
f7
ff
fb
ee
fd
fc
02
f8
03
08
06
08
05
f9
fc
09
0d
fe
f3
05
09
fe
0a
f7
0e
01
f9
09
fa
07
fd
fd
ed
fc
fc
ee
05
f6
0b
ff
08
f1
08
01
fb
fb
ff
f7
f2
f8
08
09
00
ff
fc
fb
fe
00
01
fb
fb
fc
ff
04
fc
f7
07
fd
02
02
02
f6
f1
f1
04
f1
09
05
0c
f4
fc
07
f6
0b
f5
f4
01
05
0f
f8
f7
09
0d
05
09
09
f8
fc
f8
f4
f6
f4
fb
05
ff
0b
f2
01
08
ff
05
f7
f7
fb
01
00
04
f2
f5
ff
05
f2
fc
05
f9
f8
04
06
f7
02
0e
fc
09
03
f0
f9
03
f5
fb
fe
fa
06
fd
07
0d
fc
09
0d
fd
0c
f8
ed
07
0a
f8
06
f9
07
09
ee
08
0d
09
fd
0e
fe
f5
09
f8
0a
08
fc
03
00
00
f6
fc
ff
f1
07
04
fc
f4
07
05
00
02
ef
03
0f
f4
02
f4
05
03
0c
f9
f1
06
fb
02
05
09
02
f7
f1
00
09
fa
f9
fd
fa
0a
ff
f6
04
08
05
fd
01
06
08
06
08
02
02
fc
05
fb
08
0a
03
f4
07
fa
0b
ff
f7
fe
02
09
0d
f4
09
09
02
f6
f9
f5
05
06
08
03
ff
03
f6
f6
f5
0f
09
07
ff
0b
f7
f9
f4
f8
f8
05
eb
f8
ff
f9
f6
11
fc
03
fb
00
fb
fd
05
fd
ed
f3
f3
09
fa
02
ff
f9
08
0e
fa
03
05
01
fc
04
00
fe
fe
f6
fe
09
09
f7
02
f2
03
0d
ff
0b
f4
03
05
fb
fd
fb
f9
fe
f2
0b
fc
03
fb
0d
00
ff
f4
05
f8
ff
02
01
ee
01
fa
03
fb
f9
01
fa
f9
fc
fd
04
04
f4
03
f8
0b
07
08
fd
00
0a
06
fe
f4
fb
03
01
08
fd
05
09
00
f9
fc
07
fe
01
fc
ff
f8
f9
05
fa
08
ff
fb
fb
ff
09
00
e9
fc
0c
03
ff
ff
02
ff
fa
ff
09
03
04
0d
f9
05
f5
f9
03
f8
09
ef
ff
04
05
ff
fb
08
ff
02
00
ff
fc
ea
fa
0f
03
01
00
fa
01
07
fa
0b
02
0d
0c
0a
fe
f5
fc
fa
fc
04
08
f8
01
02
01
04
eb
fe
f7
0b
fd
08
0a
fd
f8
f0
fd
f7
f7
f7
fc
fb
fa
f9
f7
0a
00
fe
0f
00
03
01
fb
fa
0b
f2
f9
ff
f5
f7
ff
07
02
f9
07
01
ee
fd
f6
f7
f9
fc
ff
ec
05
00
03
f7
fd
f9
04
01
fc
fd
03
06
04
fe
08
f8
05
fd
ff
fa
05
f5
fc
07
fd
07
01
f9
05
0a
0b
02
ec
ee
fb
ff
e9
f9
03
01
fe
00
02
00
fa
f5
ff
09
07
0f
fc
f7
f1
fa
fd
fd
07
ef
08
08
fd
07
09
07
f4
05
0a
0d
03
01
fc
fb
06
fe
0f
fd
f1
f4
f9
fc
fb
03
fc
fc
00
00
0f
ff
01
06
fe
05
03
07
fc
fd
05
f8
07
fe
fd
fa
03
08
01
04
ff
01
ff
ff
05
f2
fd
fd
f8
02
fd
01
05
fb
09
07
fa
03
05
07
f8
05
f9
f5
f7
0a
ff
f7
f6
fb
00
fd
05
0b
fc
06
ff
06
05
f7
05
f2
04
fb
fa
04
01
05
fd
02
04
f6
0b
fb
13
00
00
ee
02
fd
fc
02
01
fb
ff
fe
00
04
f8
04
f9
f2
05
04
fd
03
04
f0
06
f5
f1
fd
f5
04
0d
07
f9
f3
02
01
f7
07
fb
fc
e2
fc
f0
0a
f2
03
fa
fc
f8
0b
f5
08
fe
0c
01
00
fa
08
03
02
ff
05
fb
04
09
00
03
00
0b
fd
06
03
06
02
fb
00
fe
fa
01
ec
fd
00
08
04
fc
ff
f0
fe
00
01
05
01
f2
fa
00
0b
01
fe
01
f3
01
f4
03
ed
00
03
fc
04
f0
ea
05
06
f9
05
11
f5
0a
f5
02
fb
fd
03
fe
fd
fa
fc
f9
f6
01
f7
06
0b
00
f8
fd
fc
f1
06
09
02
05
f6
0c
13
ff
08
fd
fc
f4
f8
f4
ff
f8
fc
01
05
00
00
fa
0b
03
0c
fb
fc
00
ff
fb
03
0a
02
fe
0c
01
f9
fb
fc
07
00
02
fe
ea
02
f9
fe
02
f6
09
ff
0a
f7
fc
08
f9
03
01
0e
05
f6
07
03
11
fa
fa
02
f0
02
0e
02
09
05
ff
fd
f9
0b
01
06
02
ef
00
fb
f9
03
09
f6
fe
02
02
02
f3
00
00
00
07
08
ed
02
f5
0d
fa
05
fd
f3
fe
f4
f5
fc
0a
05
ea
fa
f6
08
f8
f9
10
fb
fc
08
fb
f3
03
09
ff
04
fb
fe
01
0a
0a
f7
fc
03
02
fb
09
fc
00
07
09
09
05
0b
ef
f3
fe
0f
02
f7
02
ff
f9
06
00
09
f4
fc
05
08
fe
fb
0d
09
02
02
06
fa
f0
fd
f8
02
00
00
ff
fe
fd
03
f6
f9
ea
00
ef
fe
f3
f8
f2
09
ff
00
fc
fd
04
fd
f5
fd
02
f2
0f
fc
fe
00
f8
07
f7
fc
03
07
f7
ff
ff
02
04
0d
f7
06
fa
fb
01
05
f9
04
01
01
04
00
02
fe
01
ee
f5
02
00
00
fb
fd
f3
0b
fe
f1
01
f1
00
fe
01
fe
02
04
fd
09
04
01
00
fd
f9
f8
01
f9
fc
f3
00
eb
0b
fc
07
fe
fc
00
f8
fc
f4
fd
05
01
ff
03
fa
05
fb
e8
00
f7
fb
ff
04
03
02
04
02
05
09
00
03
ff
05
0e
f8
00
f9
fb
0c
04
0a
06
06
fb
f5
02
01
f7
fe
07
fe
00
f1
08
0a
f7
f2
f8
0f
09
00
e4
fc
fc
0c
f3
fd
03
fd
fc
ff
f4
01
0a
ff
fd
01
01
f5
fb
fd
02
06
f8
04
fc
fd
f9
0b
fb
fa
05
fb
00
f8
09
05
fe
fd
fc
f5
f9
08
f9
03
05
07
f3
fe
f7
00
fa
fd
04
ff
03
fd
07
ff
f1
02
f0
fa
03
0b
00
02
08
06
02
01
03
04
03
f9
fc
0a
f7
ff
08
04
02
f6
f7
00
fd
f9
f5
0a
01
fc
09
fd
f5
04
03
00
f9
f8
01
fe
fe
fc
fd
f0
02
fd
fb
fc
fb
fe
07
f9
f6
fb
fe
f8
f5
04
ff
0d
f8
fd
fb
0f
fb
f9
0a
05
04
ff
fb
06
01
0e
fd
00
09
06
f9
ff
f4
ff
06
ff
f4
08
03
f6
10
08
fd
fd
03
fa
f5
06
f9
0c
f6
05
09
fd
fd
f8
fe
07
fc
03
07
fb
f9
08
f8
ff
06
02
07
0a
01
08
eb
01
f7
0b
08
fb
07
06
eb
02
fc
fe
03
ff
e9
03
fc
00
fc
fb
0d
f5
f9
06
fc
eb
ff
02
01
fc
0a
06
05
0a
06
00
05
ff
f7
00
fd
04
f4
fd
ff
f6
f0
f4
fc
f6
fb
05
fc
02
fa
f6
04
0a
0b
fc
0b
e9
02
fb
03
03
fe
04
0d
fe
f8
fb
ff
fa
fb
09
ff
0d
08
fd
01
0e
fd
0f
fd
00
f2
f6
00
f5
00
0e
04
f8
ee
f6
02
0a
f4
04
ff
ff
08
03
00
fe
06
07
ff
f6
07
fc
fe
fb
fb
01
0a
fd
fd
02
01
f8
0b
fd
fa
ed
06
f5
fa
01
03
01
04
f7
07
fc
03
00
fe
ff
01
f7
fd
fa
01
02
00
04
ee
f9
01
08
05
ee
fd
ff
00
06
09
f2
07
02
f6
05
ff
08
ed
07
00
04
f8
fb
06
fa
f8
0b
fd
ff
fd
00
01
f3
0e
02
f4
05
f4
ff
04
ff
02
03
04
fc
ff
f8
f0
01
05
0f
0a
ff
02
f5
0c
fc
03
02
f4
fc
01
03
fb
03
f6
0b
0e
f9
f5
fd
fe
0b
f5
f4
f0
03
03
03
04
00
fe
06
fb
ff
03
02
03
fc
fc
ef
0c
fc
0b
01
ff
f3
05
0c
03
f9
ff
02
00
01
07
ff
04
f2
00
fc
fc
04
0b
f0
08
03
08
02
06
07
f3
ed
00
e8
fe
fa
04
ed
07
ff
f6
02
02
f0
ff
03
f7
01
fd
06
02
0b
01
01
ff
0b
ff
f1
0f
0d
fb
f7
f9
06
0a
07
03
f2
fc
ef
00
f4
ff
04
02
01
00
ff
0b
fd
04
fe
ef
0d
09
00
f5
f4
fc
fb
f8
f3
07
03
fa
fe
f4
fb
01
07
ff
00
02
0b
00
09
f8
0f
00
00
fd
03
e4
e7
f8
f6
fe
f1
05
03
ff
fa
01
03
02
02
fe
00
f7
05
fa
05
fd
00
03
f2
eb
01
f7
fd
f6
12
0e
fc
01
fc
fb
03
04
03
05
07
02
02
00
fb
f7
f6
f5
fd
f9
fb
f4
f6
0b
f3
f5
f3
f8
12
fc
fd
08
08
fb
f9
03
01
00
fe
02
f7
06
fa
eb
05
08
ee
fc
e7
ff
08
0d
00
f1
fa
fa
03
01
03
04
fa
0a
05
09
ff
f3
02
fd
f5
00
fa
f4
ff
f0
06
07
fc
f3
f1
ff
06
fc
06
02
fb
08
07
00
00
f5
0b
04
00
fd
ff
fc
f9
02
02
08
10
0c
0d
ff
04
ec
ff
fb
06
fd
05
fc
04
ff
04
01
09
06
fc
04
f5
fa
fa
fb
f7
ff
04
f7
02
00
03
0c
01
08
06
fc
fb
f9
08
fd
0b
02
03
01
f5
0b
05
02
fd
07
ff
fc
09
fc
ff
03
f9
07
fa
ff
01
fc
ff
fc
04
f5
00
fe
06
f9
11
07
f4
10
04
fe
f7
f3
fc
fb
fe
0c
fd
fc
07
ff
ff
09
fd
f9
05
03
02
08
ee
03
ff
05
fe
00
fc
f7
09
0c
fd
f0
f6
ff
ee
08
fd
e6
03
f0
f5
ff
ff
03
07
04
ff
02
fe
fd
fe
00
ff
ff
12
06
f7
14
0f
ff
fd
fe
00
02
09
fd
00
fa
ff
01
08
01
fe
06
07
f7
e8
06
f5
ec
00
fe
f0
f9
06
fc
ff
0a
ff
fb
fb
ff
fb
0a
f9
fc
02
f0
ff
fa
ff
05
fc
00
07
06
fe
04
01
f8
10
f9
0c
fc
01
f4
02
0e
ea
f5
12
02
0d
f8
07
13
0c
03
fb
06
fd
03
f7
f9
03
10
f4
02
f8
fd
08
00
01
03
ee
05
fc
06
0d
02
fa
fb
f9
fe
f3
f9
00
fe
02
03
02
f7
03
07
0f
f5
f1
02
f6
ea
04
f6
f9
03
fc
fb
06
fd
02
f7
08
04
fd
0a
f7
03
fd
01
04
02
f3
03
04
0d
04
f4
12
fd
f9
01
f9
fb
02
f8
f8
f5
08
08
02
02
01
fc
fe
10
00
0a
01
fe
f3
0e
0b
fa
f3
f5
f9
04
08
f7
00
fe
13
ec
0a
fa
06
06
01
fa
ff
fd
04
0c
03
04
fd
09
03
f5
f7
f1
06
08
01
04
00
fd
ec
fb
ff
f7
0b
f6
fd
fd
04
00
fc
00
fc
ff
fc
ee
ff
0b
fa
02
06
f4
06
04
f7
09
0d
f5
fb
02
fc
0c
08
04
fc
fd
fa
fe
00
03
01
02
f9
07
09
04
f1
fe
0b
07
03
0d
04
e8
f4
04
07
00
ed
f5
fd
f8
04
fb
07
fa
ec
fc
fe
00
00
02
fe
fe
04
fd
03
0b
ff
06
08
02
02
00
05
01
fb
01
01
0a
08
ea
fc
f4
fc
08
0e
ff
f4
fa
04
12
fd
0a
00
fa
f1
f2
ff
fc
07
08
ff
02
f3
02
0a
fc
fd
06
0a
fa
fd
fc
fe
f6
f5
fe
06
01
f9
ff
10
07
0b
09
00
fa
fd
fb
f4
04
fb
f7
ff
f4
08
0c
01
00
ff
f4
01
00
f5
f6
05
fb
02
f7
10
f0
fc
0e
01
f5
01
fa
0d
fc
fa
0a
0c
fd
04
02
00
fb
f3
f5
01
f1
07
12
f9
00
f2
00
ec
ff
fe
0e
f1
fa
f8
ff
fc
08
f4
02
03
05
03
ed
01
06
fb
05
fb
f8
ff
fe
ea
fa
fe
ee
fc
f4
ea
00
f6
0a
fa
03
09
0c
02
0c
05
04
ec
f6
fe
01
fe
fa
06
12
f3
ff
fb
01
fa
00
f8
08
03
0b
f9
fa
05
00
fe
fc
0d
f9
03
07
f6
03
04
02
fe
f6
09
01
ff
f9
fb
fd
0e
05
0b
07
01
fe
00
04
ee
08
02
f8
fa
02
fe
fb
f6
05
fb
04
0f
fa
ed
fc
fe
fe
fc
01
f7
00
f8
04
fa
fc
02
e5
06
05
00
f7
ff
10
01
f2
f5
01
fb
00
f7
ea
02
02
02
eb
05
fe
fd
0b
fb
fe
fa
04
0b
fa
09
03
f4
f7
f4
06
02
04
f8
fe
01
f1
0c
fe
00
09
ff
fe
fa
f1
fb
03
10
00
00
fd
f4
fc
09
f5
f8
05
fb
04
09
0f
ff
fa
02
f3
00
04
ff
05
ff
f4
07
08
08
f5
03
01
fe
fe
fa
07
07
ff
04
eb
f7
09
04
f5
fb
f5
fb
fe
00
f2
03
fe
f8
fe
f5
fc
05
08
ef
f4
05
06
e8
fd
02
0b
03
09
fb
f9
ff
04
f4
08
e7
04
fd
01
02
01
02
fe
01
01
f5
fb
f1
f8
06
fe
07
0e
0a
fc
fa
f9
f3
02
ee
0e
fd
f7
04
04
f5
07
05
10
f4
f6
01
ed
04
ee
0a
03
ff
02
07
0a
f9
02
f5
0a
fd
f1
f9
05
ea
07
f9
ec
03
f1
fc
04
ff
08
f0
f5
04
fd
00
f4
00
f2
02
f7
06
fc
f1
f3
f5
03
fd
01
04
f8
ff
f5
01
04
05
f0
06
fc
fa
f8
08
07
f3
0c
0a
fe
f9
fc
05
03
f6
fe
06
f3
06
f4
ee
0f
f7
f4
01
fb
f7
04
f3
fd
fd
fd
fc
00
f5
07
0c
0d
09
00
00
f0
fe
f0
ff
02
03
fd
fb
01
04
09
ed
02
04
e8
fc
f9
f7
ff
fc
fb
0c
ec
06
f8
ff
05
f6
00
04
04
fb
02
f6
04
0a
e2
00
fc
01
f1
fe
f3
0e
f8
05
09
fc
fd
0c
01
02
f9
fa
0f
0b
f9
07
03
f0
f3
0a
06
02
f3
ef
f8
fe
07
fe
08
fc
0c
0f
f9
fa
0b
ff
f1
fb
fa
fc
0e
fe
0c
fd
00
04
fe
0b
fd
05
fb
07
04
02
00
ff
f9
f7
00
01
ff
fd
fc
04
fe
ed
fc
f8
03
01
0c
fa
ee
05
00
ff
00
00
f3
03
f8
f1
fd
01
f8
fb
fb
ed
e6
ff
01
f6
07
04
fd
ff
f8
00
f6
00
08
02
f7
f1
f4
ee
f5
0c
fb
fc
f3
f1
04
f7
f3
fd
fc
fe
06
f4
03
fe
05
09
f7
0c
e9
06
07
fd
fc
06
fb
fb
04
f4
03
f8
05
0a
f9
fe
f8
f7
0b
01
f1
eb
f1
08
f6
06
0d
ff
ff
06
f7
f4
ef
03
ff
06
e8
f7
0c
ff
f6
f8
00
f5
06
fe
ff
f3
03
00
03
08
fc
ff
04
07
0a
01
09
f9
f1
f7
06
07
ff
03
07
0b
f4
02
ef
fb
f2
03
07
fd
01
fd
fc
05
0d
03
f2
fb
fd
f9
f6
06
03
f7
0d
09
0c
0a
08
02
f6
04
f2
f4
ed
f3
f6
f6
eb
f1
ff
02
07
f7
00
fd
06
01
f4
09
01
f7
04
07
04
f4
f9
fc
fe
00
08
03
fa
00
06
02
01
04
09
f4
f5
03
fb
01
fe
05
fa
0c
ed
ff
03
fb
f6
03
fd
f1
03
f9
01
ee
fe
f5
fe
f0
f5
06
05
fc
01
01
05
f6
f6
06
f9
07
09
f9
02
02
f9
04
fa
06
0a
fe
09
08
f9
05
01
f1
02
f2
fe
fd
f8
f7
05
f8
05
04
02
fe
00
f9
f8
03
09
08
f8
f8
f6
f6
fb
01
f5
03
ef
f3
0d
fc
07
f1
0a
01
ec
fa
00
01
07
0c
04
f4
fc
08
f9
07
06
10
03
fd
07
0a
f5
04
ff
03
03
ff
08
fa
02
01
fc
f5
02
01
04
06
f9
01
fb
09
02
05
f9
01
01
07
06
f3
f7
06
02
fb
07
03
07
f0
09
00
0a
03
fc
f8
0b
06
fc
0d
f8
06
f8
f6
0a
ec
0b
f7
ee
f6
fd
02
0c
fb
04
08
00
f6
f2
f8
02
07
07
f1
eb
00
f0
f5
04
f3
f2
02
05
01
f5
02
03
e6
01
fd
05
f9
ff
06
01
ff
fc
ff
fd
f6
f7
04
03
fc
f0
0b
fa
ff
f5
08
07
0a
05
f5
f0
f8
04
05
fe
03
0f
f3
0c
f3
0c
07
07
00
f6
0f
08
08
01
f3
fd
fc
ff
03
fb
f7
01
07
f1
02
01
02
08
fd
09
09
09
f8
07
0b
fc
f8
08
09
08
07
fe
07
02
f8
fa
fd
0a
05
05
03
00
f7
f2
00
07
f3
ff
f8
f3
05
ff
00
f8
06
05
09
f8
06
07
fe
ef
f3
04
06
f9
0c
fa
fb
09
07
09
05
05
f8
ff
f5
fd
0b
f9
f7
fb
fe
03
00
f8
04
0b
fe
04
f8
fc
fe
f8
07
04
04
f4
ef
03
03
ff
00
f7
00
fb
04
06
fa
ef
0b
02
02
f6
ff
f3
fd
0c
f7
09
ed
f2
03
e6
f5
fb
fb
f4
fb
f7
03
09
00
00
09
fe
0d
03
07
00
f5
01
09
fa
03
f5
e8
f4
04
09
f5
fc
fb
f7
01
08
00
03
06
fb
09
03
02
fb
03
00
f4
01
11
01
07
fd
f8
01
08
06
00
04
f9
01
fe
fc
06
f1
fe
fd
fe
ec
04
03
01
fe
f8
f9
0a
01
09
fd
02
04
f0
fe
03
fe
f5
00
0a
ff
06
03
f7
fa
fb
f0
04
02
fa
ff
0b
00
07
02
05
fd
07
0c
01
06
f1
0a
f3
f9
04
08
05
f4
f5
02
f7
06
00
08
f7
e9
05
07
f9
06
06
ff
06
f7
09
09
05
f2
f1
07
f7
ff
00
f6
fb
fd
08
0e
f3
f6
fd
0a
fb
0a
09
f2
f5
10
05
ed
f0
fa
03
09
0b
02
04
ec
ff
fc
f3
03
01
fe
05
f8
01
04
f4
00
07
01
f8
f5
fd
f3
04
fd
f8
f0
03
fe
f8
02
04
fb
f6
04
f6
04
07
03
05
f6
f3
01
0a
ff
09
01
fb
04
fb
fd
08
f4
08
f5
01
07
06
fc
ef
09
f8
ff
f8
f8
0a
f5
f0
05
f9
f3
fb
f8
f7
f6
f6
f9
fb
fa
f9
04
02
f9
05
02
03
f2
f4
03
e7
fd
f3
0a
00
03
f5
f6
01
fa
fc
f0
ef
08
fb
f0
fe
f7
f8
f7
05
04
fb
08
f6
0b
0b
f7
01
f7
f9
f0
0c
08
05
ff
03
0e
fe
ff
fa
0c
07
f9
03
fc
08
0a
0a
08
f3
ff
02
02
0c
ef
fb
08
00
05
07
ff
f7
08
02
05
fa
02
07
f4
fe
04
ec
f2
0d
fc
ff
01
0a
f8
f7
00
f9
f6
01
01
fb
06
fc
08
fc
04
ee
0c
02
0a
06
07
00
08
04
03
07
ed
04
fe
09
01
f2
00
08
07
06
05
f5
f9
ff
09
0d
f6
f9
f7
0d
05
08
fd
ef
fa
0a
f1
05
fe
02
05
fc
fc
f3
fb
04
08
02
02
f9
05
f0
fa
fd
07
fa
07
00
ff
05
f8
07
f6
fb
f5
05
f9
f7
04
09
fe
fb
02
fd
06
fd
08
ff
f3
0a
ed
02
07
09
f4
f8
06
f4
fe
fe
0b
fa
05
f8
f1
f8
fa
f6
fb
08
0b
06
e9
f7
fe
ff
fb
f7
f4
f3
03
01
06
fd
f8
f3
f9
04
fc
f1
08
0b
fa
fa
fd
f1
0c
05
fb
f6
ff
f9
08
f6
fe
02
07
fd
f6
fc
04
fa
0d
fc
04
fb
f1
fe
00
0a
f9
f6
03
03
08
06
00
ec
f4
02
0d
05
f5
02
f7
04
ff
05
09
0a
04
08
00
07
03
00
07
f3
fe
f0
ec
06
01
00
06
f9
fb
09
f9
fc
ff
f7
03
e6
f8
f8
f4
fa
f4
02
fc
01
f4
fe
03
ff
fc
01
07
0b
ff
05
02
0c
04
0b
f6
f7
00
04
07
07
f3
f7
f1
ef
fc
f1
ec
fc
fb
ff
05
11
0b
f2
ff
f5
ef
07
fd
08
03
03
fc
01
fd
05
02
f7
fd
05
03
f5
ff
00
03
fd
0c
0c
f6
04
fe
04
f2
ff
fb
f8
f8
fe
f9
01
fe
fd
06
ff
fe
fa
08
f3
fd
f2
00
00
f6
05
fb
07
0b
07
0a
07
fc
02
fe
06
0b
03
01
f9
f9
03
04
05
fd
03
fe
05
fe
f9
fb
f9
fc
04
fe
fa
f9
f5
00
ef
fa
f8
f7
fd
02
fa
00
fa
01
08
07
07
f3
05
07
fc
01
00
00
04
fb
fe
01
fb
00
f7
f2
f7
06
fe
fa
05
07
07
06
f9
f9
f2
f8
f7
f9
fb
fe
fc
f6
09
f3
08
00
09
03
f4
06
04
f7
01
fc
f5
e6
e6
08
ed
00
06
09
03
05
00
07
0a
f8
fd
06
f8
03
f5
f6
f8
f6
04
ee
f7
08
04
05
f0
01
f7
01
f7
fc
f6
0c
fe
06
ff
f3
0a
05
01
fc
f9
f7
03
f4
08
f8
0a
f4
fc
fe
fc
06
01
fb
f2
fc
fa
02
f8
fa
04
04
0b
07
f8
f4
0c
04
04
08
04
03
03
f4
01
07
08
f8
f4
f5
f2
09
01
fb
02
0a
04
02
