fff8
ffef
ffff
ffdd
0076
ffdb
0037
0000
fff9
0021
001b
0068
ffcd
0000
0014
ff9a
fffd
0062
004e
0023
0056
0033
0058
ffb2
0031
0040
003d
0004
0076
0026
003c
0058
fff2
0012
005d
0065
0006
0005
ffef
0028
fffb
003e
ffc8
ffd1
005f
0018
0021
0022
0034
002e
003e
ff91
0055
fff4
0014
0047
fff5
003c
0007
ffce
fff6
0018
0030
ff9f
0024
fff9
000d
0068
0048
0055
ffde
002c
000d
0002
fff4
002c
fffa
ffe5
0017
0006
fff9
001e
003a
0007
005c
ffe5
000e
0027
003c
0051
0047
004a
003e
ffd4
001f
001f
0020
0023
fffd
ffbc
ffa9
0043
ffcc
001d
ffae
ffee
0044
ffef
0019
fffa
0048
0032
003d
0038
ffea
ffd2
0005
000a
ffd4
0030
002f
ff9e
0007
0036
ffc4
005d
ffd6
0028
004b
ffc6
0042
0036
ffff
0042
001e
ff9a
0030
0051
ffdb
001e
0065
0003
fff6
0006
fffc
ffb5
0013
0057
fffa
0033
0014
004d
0037
0049
fffe
006f
0036
0051
0039
ffe0
fffa
0067
0021
ff8f
0039
0020
0003
fffe
fffc
006c
002a
ffaf
fff7
ffb2
ffea
004b
ffc3
004e
0013
ff91
004c
fff0
ffdf
0028
0025
002c
ffea
ffff
000f
ff96
ffbe
0006
0030
0028
0010
0020
002e
0042
0028
0042
ffcb
ff94
ffd1
003c
0037
0057
0044
ffb0
ff90
0043
005c
0066
003f
fffc
0026
ffa3
0052
0002
ffca
005a
0006
003f
fff8
004c
003a
0011
002c
fff1
0066
0033
ff9f
0021
ffee
0014
002a
ffa7
ffd7
0040
0003
fff6
0032
002e
000b
fff4
0039
ffeb
ff9a
0045
ffc7
0012
003f
ffbb
0057
ffd2
0046
fffc
002b
ffb7
0022
003a
003a
ffb4
0024
0034
ffc8
002f
0001
ffc4
fff8
0039
fffa
0043
ffe9
0041
001f
0015
ffef
0009
0038
0019
0011
ff9d
0016
0034
0025
0002
ffe9
0018
000d
006f
ffc4
003d
000b
ffe1
ffe5
0032
ffaa
ffb6
fff6
000b
ffd7
0085
fff8
0011
ffb4
fff6
0034
0002
0053
0043
ff9d
ffcb
0006
0002
0052
ffe5
0040
0002
0058
0048
0050
ff89
0034
ffeb
0014
001e
0025
0002
004f
fffd
0035
0021
ffa2
0017
0030
0061
ffbe
004c
0041
0025
0013
0027
0021
0007
0007
003b
0029
0022
004d
002e
0013
fff4
0039
fffc
0058
003b
0069
ffb0
ffc7
002c
004e
ff9e
ffe9
fff5
fffe
ffd2
ffd7
002f
0000
002b
ffef
0054
0015
003a
0034
000f
0043
0028
0031
fffb
ff8c
0033
0003
002c
ffff
0035
fffd
0068
0024
0025
0031
0030
0026
ffe6
fffc
000e
ffd0
fffd
0035
0001
004b
006d
ffea
ffef
0031
0015
ffcd
003a
ffed
ffce
0007
0014
0037
0004
000f
ffad
0043
ffdd
ffb0
fff2
003b
004f
0049
0063
0013
0041
004a
0068
ffa7
002f
ffc5
ffe9
0031
0002
ffb1
0030
000a
ffac
ffd0
0035
0053
0010
fff5
ffc2
002e
005f
ffe3
ffc7
0027
ffa9
fff9
ffca
ffd7
0020
0003
0023
fff8
0025
0005
0054
0046
ffea
003a
0019
001d
ffc5
0048
0017
0015
ffc9
0033
0045
0028
0028
ffd3
fff6
fff5
ffc6
0000
0053
0011
0048
0026
ffd5
0003
0014
ffca
0013
ffea
0018
001f
0032
0019
004d
0035
ffe3
ffec
001f
002a
001f
0032
ffef
ffe2
003d
0027
ffa6
0034
001e
000d
ffdb
004d
003f
0064
fff9
0048
0036
004e
001a
ffc6
005c
ffef
005a
0005
0016
ffb8
003c
002a
0041
0031
fffd
0042
0036
0045
0068
0000
fffc
fff2
0003
0035
ffa5
0069
fff4
ffe8
0068
0006
0033
003a
0002
0016
0021
ffa7
0022
0051
0023
fff7
001c
003e
fff9
ff90
ffc6
ffea
000a
0007
0064
0019
0042
0038
0055
ffb2
0015
0019
003e
fff5
003a
fff0
0022
0032
ffda
003d
0020
0029
fffe
0012
ffe8
fff5
ffef
ffaf
0047
0051
0012
fff9
fff6
ffb6
0021
0036
0027
004b
fff0
ffea
ffa6
0051
0044
003e
ffe6
002d
0046
fffd
ffd3
001f
ffc4
0006
ffe7
0022
fffd
0037
0015
fff1
002b
0057
0025
0068
fff7
ff8e
0067
0006
002d
fffe
ffa1
ffc3
fff3
0023
003b
ffa6
0007
0021
0039
0024
ffa1
ff96
ff93
004a
0048
0000
001c
0038
0003
0052
ffe4
ffd0
ffaa
0015
0028
0012
0042
005f
0038
0003
0002
0019
0013
ffb3
ffc9
fff7
0030
0029
ffa0
ffea
0036
fff4
ffd9
0008
ffd1
ff99
ffe5
000b
0013
0047
0049
0069
ffe3
ffb2
ffb6
ffb8
fffd
fff3
005e
0060
0006
000a
ffa8
0008
ffb7
0016
0063
0027
0010
003f
0064
0055
002c
ffd2
fffb
0036
0064
ffd3
0047
ffe8
001c
ffb7
0041
ffdb
ffed
ffbf
0051
fff2
ffbe
ffbe
001e
fff4
003b
fffc
ff9f
ffee
0047
ff9c
0028
0023
fffb
ffd9
0005
ffc4
0049
0040
0017
005a
0049
0006
fff2
0048
ffd7
005d
005b
0020
0044
006f
fffa
ffd4
0020
ffed
ffac
ffea
001d
ffd8
ffe3
ffa7
0038
0011
ffcf
0014
000f
ff7d
ffe2
ffb9
001d
006d
003d
0046
ffe7
ffaa
fffc
0071
ffa9
0004
ffe0
ffee
0028
ffbd
0054
fff2
001c
0047
000e
ffb3
001d
ffaf
0053
0017
005c
0003
fff1
0034
002e
fff1
001d
ffbe
0019
003a
0031
ffd3
0030
004e
0000
ffe1
ff95
0001
0056
ffb1
fff6
ffde
ffbd
0039
003b
fffe
003c
0075
000d
ffda
0007
fff0
0023
0001
003d
ffb5
0002
0019
ffbd
002a
001c
ffe7
ffed
003d
0027
ffd4
0007
0013
0028
ffed
003a
fffb
0010
ffff
fff0
ff8a
001b
005d
0031
001d
ffda
002c
0056
001f
ffff
ffe9
0051
ffba
003b
ffeb
005d
0041
fff9
003f
0021
003e
fff5
fff6
ff91
fffd
0028
0036
0011
0069
0076
0035
0025
0036
002d
0035
0027
ffb1
0052
0039
002e
0074
0041
0011
0024
fffd
fffa
fffd
ffe9
0050
ff9e
0026
0054
0022
0072
0034
0002
fffc
0016
004b
0060
001f
000f
ffd7
ffd8
0066
0028
002d
0057
0017
003c
0063
0045
ffb1
ffd6
0055
003b
ffae
0044
000a
0079
000f
005b
ffa2
ffff
003d
ffdb
0058
0004
ffd5
ffad
0021
002c
ffff
0027
fffd
0051
0016
003a
0032
001b
ffc2
0081
004a
0042
ffa6
fff4
0018
005b
ff9e
0036
000d
ffc4
0075
0016
0018
0015
fff3
0023
