60 10 1 1
be
fb
18
e3
0e
07
10
db
2f
f4
14
f1
cf
e1
e5
e5
dc
f0
10
19
16
d1
da
fd
f6
f6
cf
01
08
09
d9
e9
10
18
32
20
f1
03
f2
f2
ec
1d
1e
0f
0f
04
34
31
08
0c
3c
01
0c
e3
fe
f9
c3
18
d0
eb
f8
f6
c3
13
ed
f2
e3
3d
1b
ea
f9
0c
f9
ee
29
07
2e
16
e4
05
1d
23
b7
ea
00
f6
1e
2a
f9
27
df
0f
34
21
08
be
ed
ef
cc
02
20
0e
06
0d
e5
1b
15
f6
14
09
d7
cc
f0
f9
21
01
08
fe
0b
de
03
d0
d9
fa
ea
05
e8
1e
1f
ff
fd
f8
e2
0d
27
04
09
fd
38
06
05
2a
ed
d2
19
0d
fe
ee
01
31
cc
ec
57
09
e8
dd
d8
11
20
0d
c1
ea
ee
0f
2b
2c
e3
04
fa
07
d7
1c
f5
fb
22
08
fa
11
30
f0
ff
f5
14
36
ed
1c
ec
e5
c6
fa
dc
d2
06
05
11
c3
0c
29
01
0d
18
c8
06
cd
1a
f9
02
fc
0d
a2
e0
03
11
dc
cd
da
09
e8
e7
56
fb
30
f4
fd
0d
0a
eb
2e
f1
07
18
ec
c9
03
14
d4
ab
06
1b
eb
fd
f5
1f
1a
f1
0f
15
2c
24
da
ee
db
e9
f2
e9
05
08
26
f1
0e
12
3d
f8
02
d8
13
fe
23
07
28
fd
da
fe
1a
04
08
1b
f4
fe
16
f3
00
fe
eb
48
20
e6
d6
0c
db
d7
01
de
ed
d5
11
04
28
ec
f3
f9
00
39
f2
bb
f4
03
db
19
ee
de
fc
b8
0f
04
db
c1
1c
ef
e9
d0
13
e2
1b
21
05
03
fe
05
05
e0
03
fd
08
d9
ec
e8
fc
23
ce
0f
09
0b
0e
dd
dc
04
2a
e5
06
0f
00
f1
2c
37
14
01
d6
0f
fa
07
f7
b6
d4
2e
e8
60
f5
bd
0e
15
e3
04
49
f4
ec
bb
ea
bd
dc
02
2b
24
f8
0c
f9
dc
0d
2a
0b
ca
f0
0a
da
07
d0
31
0f
3c
ed
d5
20
03
13
cd
0c
2e
f9
48
17
ed
19
eb
46
01
ef
e4
06
23
0d
f8
e4
0d
0c
16
42
fd
03
d5
20
1d
da
11
22
0b
f9
28
36
31
22
0f
14
e1
35
a7
4e
04
0b
e7
31
34
f2
13
e9
2b
0a
0d
d0
2f
da
3a
e7
f4
39
c9
e1
e4
20
ec
dc
f2
23
fb
e5
02
21
e9
fa
ef
e8
03
1e
06
ec
35
0f
04
e2
de
20
f8
f7
ff
39
da
13
03
f5
2d
ff
21
fa
dc
f5
f1
15
03
fa
45
dd
53
ed
fb
e1
b8
f8
34
25
27
1b
e3
00
ef
fb
17
15
3a
0b
2e
f7
14
db
e5
e8
30
06
ee
f9
ec
1f
f0
16
d9
de
f4
26
0a
27
de
da
f4
1e
19
f5
fb
ea
ef
fe
18
ef
1c
01
e8
25
05
f8
27
39
1e
09
e4
01
e9
fc
37
f5
0b
19
de
1c
15
3b
ea
0f
fd
16
e0
44
fa
16
36
fd
62
d1
ff
2b
f9
05
ef
df
05
4d
32
12
bd
01
c9
28
f8
f2
0a
e2
17
1b
d8
05
e7
09
0c
20
1f
15
f9
18
0b
e5
0f
ea
0e
bb
2f
27
2b
01
ea
e2
29
db
bf
0c
21
00
11
f7
f6
e5
3e
0d
05
e0
20
06
00
07
06
f8
ef
0a
da
29
34
09
08
15
37
ef
19
f9
fe
0e
f2
f4
1f
e0
25
1a
c6
e2
2b
00
f6
03
08
f5
f5
fa
db
06
13
f7
49
09
10
cd
11
2e
16
e1
0a
2a
de
20
0c
0e
30
fa
0c
02
f8
0a
28
e0
0c
14
0d
f3
d7
d7
db
ed
1d
19
0f
e3
fe
e2
e0
0f
0d
f5
06
0a
c3
08
35
32
4c
0a
d7
00
17
18
06
ee
04
f1
fe
33
30
06
fa
db
ef
fb
15
e1
30
06
2d
b6
ec
f2
0c
ee
08
eb
cd
1a
e7
02
25
08
fc
c7
04
03
00
f7
d6
0b
f7
1e
ec
0f
13
fb
14
34
cf
e3
0f
df
13
46
3e
14
fd
0b
f5
07
02
d9
05
28
0e
18
02
13
e1
59
fb
fb
08
28
0e
21
06
0c
06
fa
e1
2f
3a
ca
33
21
e8
00
f4
df
1a
1b
42
1b
21
03
18
d5
df
13
fe
e4
3a
04
eb
2f
51
bd
f2
dc
fe
e0
f5
f0
30
12
02
de
ea
f9
fd
cf
f0
e9
ea
ea
e7
fe
ed
db
15
0c
fa
45
1d
d6
15
09
0e
31
3c
18
05
f8
fd
08
03
e3
16
26
d3
34
e4
0b
0e
24
27
32
06
c0
eb
cd
16
09
d8
32
28
31
ee
ef
e5
23
ec
02
4a
2e
e6
06
d7
22
02
0c
ef
0b
cc
06
2e
c9
1d
e8
c9
e3
22
06
10
19
cb
f1
e4
f9
fc
f6
d2
0b
d8
dd
f6
eb
d0
1f
07
e1
17
22
e8
f9
f2
ec
27
f3
21
fc
37
0f
1a
12
08
09
fa
1a
11
01
fd
db
db
d5
fa
41
e7
0a
2c
2b
ea
02
ec
ec
ef
09
fe
f7
e3
f1
fa
2b
c1
cd
0a
11
e9
ec
e0
16
26
ea
fd
0f
d5
f2
29
de
e5
e8
fb
14
f8
f9
23
10
ff
cc
ff
1f
01
d1
11
f3
0c
d3
02
21
26
ee
3d
df
f4
00
fa
d9
1d
3f
23
34
cb
12
08
d9
15
ec
e5
3e
d3
ed
fb
f2
23
1e
f3
1d
00
fe
e8
3c
ec
cd
cc
ed
0f
0d
ef
fb
14
e2
13
1f
e1
39
ef
09
f3
c6
f8
0b
f0
23
03
e2
3c
13
d7
0a
22
ec
0c
23
13
28
ed
c5
ea
2e
05
fc
e4
c7
e8
17
d0
1b
33
de
f8
e8
fc
ef
06
3b
d4
1c
d4
e5
ff
1e
c7
1a
07
e2
ef
08
ed
1b
03
f5
da
03
27
e0
ea
ca
d1
ed
f9
0e
b9
fa
10
f3
b9
fd
00
e7
00
0e
eb
0a
ea
d5
13
e7
17
00
f3
ee
d1
10
e2
f0
0b
11
f2
1b
1c
30
ff
d4
f0
da
26
dd
ff
e1
05
3c
f0
01
f1
10
00
0b
fa
ff
c2
25
f8
e4
d7
1c
e5
ec
f6
db
0f
de
28
db
f5
2c
ef
ee
04
27
fc
f3
cd
29
b8
16
01
00
b1
11
f4
f7
f3
1b
06
f7
f9
15
e5
c8
0f
14
06
4a
13
42
11
e3
00
f7
f7
21
d6
be
ec
fc
13
ed
24
e5
e1
ae
2b
db
b4
24
e2
1c
29
0c
da
07
01
03
01
08
04
0e
2b
c5
d8
20
07
f9
09
3f
bf
0b
27
2a
05
e2
06
4d
e3
ff
c1
00
bf
fb
29
ed
00
ec
22
da
06
f2
0f
19
f6
e1
d1
09
4a
0e
f3
ff
00
f5
fd
e6
4e
f9
24
e7
39
0f
2b
0b
fe
da
e5
ea
39
f3
2d
17
03
d2
00
33
ee
42
dd
b5
e2
25
d9
a4
b3
04
e9
06
f9
1e
f8
de
04
07
f8
ca
0c
fa
fc
0b
cb
2f
35
0d
30
f9
09
f0
f7
1b
f7
ec
08
c0
0b
0e
ed
fe
f5
cc
0a
d8
18
02
e1
e8
08
0b
0b
eb
0a
fb
f3
10
da
fc
e2
1e
38
02
1e
25
d6
11
d7
08
f3
1d
0f
f7
12
14
0e
e6
e4
09
32
fb
14
fd
fe
fd
2b
fd
e5
f2
08
cc
e6
02
21
db
f1
05
e7
e6
12
fb
02
25
d7
20
07
16
16
f9
e6
f4
10
e6
13
08
ac
e6
1c
f9
1d
14
3b
c4
dc
12
ff
30
0a
eb
f2
e1
e7
0a
1f
de
0b
08
08
f6
12
ea
1d
f2
23
a0
09
07
ed
f8
d4
e9
6b
f8
dd
99
10
e5
07
2d
19
d3
e6
bd
21
cc
e4
e1
b1
06
f1
ff
fa
15
f9
fe
31
e0
d9
12
f5
d7
02
0c
41
fc
ff
1f
12
17
e7
1f
0f
36
cd
f8
f9
06
ed
16
f5
fd
ef
d6
