c0 20 1 1
fd
07
d8
ff
05
3a
e8
1b
0f
fb
10
e6
01
0e
1e
06
fe
f5
10
e2
05
0d
17
0e
05
f9
f1
0c
10
e7
19
1a
ee
da
fc
17
0f
e0
13
f6
f9
08
10
de
f6
22
00
d4
1d
0c
f2
e6
eb
1f
f9
25
cd
43
2a
1b
1b
f8
f6
fa
ea
e4
05
06
d5
ef
f9
26
04
cb
da
03
f2
df
fe
ef
f3
e9
01
06
e0
07
e2
ee
e2
2e
ec
03
e2
0a
e4
0d
fc
35
d5
f2
27
de
f7
f5
f1
f3
e4
f8
e6
13
03
a7
22
2a
15
ed
f7
03
ec
ef
28
1a
e4
25
01
f2
01
19
f6
ea
15
ff
18
03
02
01
08
f9
14
0a
ef
0d
e8
f5
ed
4a
fb
e5
dd
fb
03
0e
0d
26
f3
fd
e5
0a
fb
e0
0f
01
01
e2
f3
d0
f8
01
3e
1c
f7
11
dc
ef
f9
06
ef
0a
1a
e2
00
17
fb
32
05
e1
f5
ea
e4
04
02
0c
fb
f8
f2
c3
08
f7
02
00
10
c1
fc
e2
00
ea
0f
e8
04
14
f1
23
ee
09
f1
e4
df
0f
00
02
dc
31
07
0b
ef
28
fa
fb
ce
e3
14
17
3a
f9
f8
fd
40
26
12
28
e7
ea
48
f8
45
0c
fe
fc
f1
0b
e4
07
fb
f8
22
de
0c
17
1c
30
28
ec
21
fa
de
13
ff
26
f6
02
05
08
e6
25
cb
00
31
1c
da
d9
0e
14
ed
f4
01
e8
fa
da
ff
f0
06
04
ef
04
00
19
16
ed
f5
e9
13
43
00
0f
07
ee
fa
fb
10
f9
10
d5
0b
e9
14
f2
fa
21
03
ea
1e
23
bc
2a
d7
1e
f2
14
08
e9
1e
d7
13
d8
2d
f8
ed
f5
f5
17
e6
0b
c7
b4
e6
0a
27
19
07
18
f7
f6
17
d4
02
15
f1
fa
f0
18
f7
e9
f4
ea
02
0b
15
d8
04
12
09
00
e9
26
df
06
fa
1f
f5
25
fd
0b
04
eb
d3
01
ee
32
cc
02
f9
02
1d
de
29
06
e6
06
b2
28
fc
17
10
28
40
e1
fe
01
2c
dd
05
ff
26
36
f8
20
3b
fa
f8
fe
07
f0
f0
22
09
13
15
de
de
f9
16
e9
0d
f2
d2
1a
fd
ec
eb
0f
14
06
02
06
f8
17
f1
d9
ea
2b
dd
ce
1c
eb
03
00
ea
da
f1
e3
e5
db
1b
13
dd
ea
dc
db
0c
e4
fb
1e
f5
ee
4d
e8
0f
ea
16
f2
2f
e9
ed
fa
df
e8
02
ed
c6
46
ef
12
11
0f
21
14
e7
0a
ec
ef
c6
c8
fe
08
0c
05
34
1e
26
0a
cb
1c
df
df
15
fa
1c
24
1b
20
d8
f2
f8
06
04
12
32
0c
14
f5
02
31
da
cb
14
fc
d9
c0
f1
14
fe
01
f3
1e
09
10
e3
15
e7
0d
11
fa
1d
22
f3
0e
10
15
df
e6
21
f9
08
0f
0b
10
06
23
dd
f5
ec
21
07
cb
00
14
e9
02
00
36
1b
d0
35
ef
13
06
f5
04
fa
da
1f
e9
1b
1b
25
e5
17
0b
08
0b
fa
ea
09
03
f5
0a
21
fe
32
f9
00
14
f1
0f
1c
04
da
0c
ec
ee
df
fd
0f
1d
d3
e9
0a
f7
d1
d4
ff
c4
16
0e
f5
0d
08
1f
dc
f4
1d
06
40
f1
bf
f8
e8
0a
e5
eb
07
2f
e6
0a
ef
e2
f8
fa
da
ef
21
0a
0e
f9
07
fc
11
d4
1e
e1
1a
03
e3
0a
15
d5
f4
ec
e7
06
fe
2d
06
f5
ff
f1
ee
20
e6
f9
ca
0d
37
1a
e0
24
2b
05
1e
13
31
f8
3e
02
12
f4
f1
35
29
d2
eb
00
26
f5
f7
2b
13
12
05
32
13
07
f1
fa
e9
22
1c
fb
1a
05
1a
ee
cb
18
0c
0a
f3
07
e9
0c
d9
1a
12
eb
f9
e0
35
16
19
03
01
e4
17
19
05
03
13
04
da
d5
12
f5
e5
fd
e9
f8
03
c8
2b
cd
2d
32
03
12
09
e1
14
07
0a
73
0b
db
0a
0b
15
df
e9
2f
d1
f5
06
16
0b
07
03
10
dc
cd
f8
ff
03
31
e5
fa
f9
fe
00
15
21
1e
f4
23
04
2e
14
07
25
f8
e7
1f
1c
d8
1a
0a
0c
cd
e0
2b
0b
0d
c3
ae
9d
d2
ee
f2
16
f6
da
ef
27
f7
ff
f2
2b
04
18
2b
03
09
24
fe
14
ea
04
e6
04
db
0d
e1
1a
0a
da
ed
03
05
d7
1c
14
f2
cf
42
1c
13
db
b3
f1
15
00
d4
fd
fd
31
0d
f6
f7
2c
07
e7
f8
25
02
ec
01
0b
23
21
18
04
e6
f0
fc
29
04
d1
38
1c
11
f8
f9
1d
05
f1
fc
ff
0f
21
e8
18
f2
01
eb
37
0f
09
e9
21
27
06
d9
0b
fe
e5
44
f9
00
fd
ea
10
21
02
f9
05
f9
c7
df
06
bc
ee
e6
fd
03
e6
05
0d
f6
16
24
0a
05
ff
e8
05
1d
c9
fb
15
0e
f8
d3
09
10
0f
06
02
1d
08
14
03
2a
f1
f1
d9
06
1d
0b
f5
20
e9
e7
fd
21
ea
de
eb
fb
db
06
02
0a
e7
e1
06
fc
f2
ee
2a
bf
f8
0d
0b
19
03
ef
00
0b
eb
12
fd
16
f4
01
e1
da
f6
09
ff
f4
13
04
f7
0b
fb
f9
f1
c9
fb
e5
17
0a
fc
fc
1e
10
f4
2a
13
ef
19
d8
de
e9
e5
f0
16
cc
c4
fb
f7
f5
11
19
e8
ca
11
f9
30
dd
11
f7
02
ef
ff
0b
13
06
ec
4a
f1
07
29
ef
03
f7
d9
fd
ee
fa
27
03
ff
f2
3e
0d
0c
fc
18
04
fe
db
2a
14
04
04
0d
18
ee
0b
d9
2c
ef
f3
0b
fa
0e
e6
e4
ed
4c
fa
f9
ed
16
ef
31
0b
10
fe
e3
00
f3
0e
fd
e5
17
37
03
f4
08
ef
e3
14
ef
0a
e4
eb
02
fa
02
0d
ff
e4
f2
f5
f3
27
43
ff
3e
17
e9
0b
f8
d2
1a
e9
22
1f
e7
17
15
10
ff
09
13
dc
10
0d
19
0a
04
01
ef
29
1b
0a
f7
28
f8
0d
e2
fb
12
21
19
f6
12
10
08
0d
23
06
11
d9
f9
e5
1d
f5
05
e8
fe
ec
1b
fe
fc
f7
2e
27
03
01
da
fc
2a
0b
1c
f8
0f
01
12
29
f6
c3
3b
ff
03
f9
05
e7
e1
fd
ea
23
d8
0d
2e
f3
21
04
fe
e9
df
f0
2f
14
13
1b
16
17
b2
e2
11
1e
e1
ef
10
d7
fd
1c
29
06
46
04
e7
12
ea
32
30
03
0b
ec
fa
ca
00
eb
fc
06
06
fe
ee
e3
f9
f4
ef
f3
02
01
20
14
00
2d
df
f8
ec
0b
e9
10
10
12
07
1b
f2
f1
3c
ee
07
2c
eb
13
08
06
d7
da
0e
fa
e4
d4
da
01
14
0d
0e
db
f8
f8
0e
3e
0a
de
ff
f1
3c
09
ef
e7
fa
2b
fa
f0
00
0b
26
e3
03
e3
28
01
1f
f7
09
2d
12
fe
2a
18
03
f4
16
12
15
f4
15
48
e0
22
ef
f6
08
06
f6
f4
35
31
fe
03
dc
16
cf
0d
eb
e1
e1
e4
2e
d1
fd
2b
11
04
26
01
06
10
e3
13
18
13
dd
03
00
03
e4
f9
0a
e2
ea
04
f2
18
fc
2e
09
0e
29
fa
00
ff
f1
f5
01
f2
28
03
f6
11
ed
f2
ed
cc
0b
26
fe
fc
06
ff
fe
11
d2
e4
21
02
ef
d7
1f
ff
fd
e3
09
d8
02
f4
02
eb
fb
23
1c
15
f5
f9
cd
db
01
03
0f
37
1d
05
3a
11
22
13
09
e8
f5
d6
13
1c
0e
ec
ff
3a
26
10
43
ea
25
b7
0b
0d
e3
1c
0e
cb
05
0e
dd
02
00
f0
da
02
ed
eb
dc
d8
02
f7
d7
ef
d0
db
f9
d0
11
0f
d8
ed
da
07
f0
18
f3
bd
0c
f6
be
f8
e5
da
fe
1a
24
f9
45
d3
f9
d7
e1
0a
f2
12
d1
35
da
e9
11
d0
2e
da
bd
09
fd
ea
e5
de
1d
fb
4f
f5
ee
fb
1d
e0
f8
07
fc
f3
f6
45
fa
17
e5
04
1b
08
15
00
02
08
38
f9
0c
0a
49
07
1b
33
e2
f7
f6
1b
10
e4
e8
e0
27
2d
1d
d3
0a
ff
0e
f8
f2
d4
00
00
1d
07
10
1e
04
0c
f6
f2
f1
c4
21
07
fa
11
ce
e8
1a
02
25
e1
f6
02
3f
01
ef
f9
1e
02
fc
1f
2c
0e
e7
ea
1d
fb
01
03
2b
0f
04
19
fe
0d
12
f9
06
31
dd
13
eb
c1
ec
ed
f0
e2
1a
06
e5
f2
30
20
f5
e5
d3
ee
07
f1
d5
0a
e7
fa
ce
13
f8
09
fe
e1
f2
10
ec
f4
fd
06
ed
fa
17
34
ed
ff
bc
ff
2e
03
ff
c5
2f
21
09
fe
1c
f6
c9
f5
20
0c
20
12
f9
08
f4
0d
09
fd
eb
1d
06
06
e5
0f
f0
23
fe
df
0b
1d
0c
fa
2a
f8
f3
ee
00
fc
10
22
f2
f4
f6
fc
0f
e6
24
0b
10
e1
fb
07
f5
e6
2b
43
fc
12
f4
e9
3a
2d
16
2c
eb
e8
f7
14
34
2a
fc
0f
e2
fc
22
1e
ef
0a
26
52
e8
de
fa
19
f6
19
02
ff
08
da
f5
02
fc
41
fc
fe
01
06
fb
e5
e5
f6
cc
0a
02
f5
ee
1e
e7
f2
eb
03
05
da
ed
d3
e6
1a
0d
1d
fb
19
13
fd
f2
fc
13
09
f8
12
f9
11
f1
21
08
e8
0d
f8
0d
00
09
ce
14
dd
08
e5
09
0c
dd
2c
d0
eb
f0
d2
0b
0b
eb
11
2d
d9
04
1b
df
f0
0c
12
09
e0
f8
fb
e7
07
05
fb
e3
f7
fb
03
e1
fe
0c
f9
f7
1c
0e
1a
f4
21
15
fd
e4
25
fd
12
e8
49
47
ee
02
29
f8
0e
37
e4
f4
16
40
ef
f5
f6
02
d3
22
11
d6
f0
e2
c1
01
15
ed
f5
3f
f0
06
d9
e0
0f
1a
ef
07
29
02
22
f6
f8
01
06
10
0e
1e
dd
11
12
07
f6
13
0e
05
1e
ed
19
01
da
05
2a
03
19
14
05
18
09
fa
e8
54
05
1c
16
2e
01
e9
dd
ef
e6
17
be
27
0e
f0
eb
f2
d9
2c
15
11
fa
ea
ef
21
cd
02
07
e2
0d
e1
ea
0b
0d
03
1f
20
ff
e2
24
2e
16
f2
f6
3b
ee
ef
e7
ed
12
f6
22
f8
08
18
f9
fa
d8
04
e9
fd
e9
20
23
f6
0f
f1
17
08
3f
01
09
0a
05
db
02
01
03
ed
04
d9
28
dd
18
13
12
df
1a
13
00
f5
d2
14
da
ff
1e
dd
25
fa
04
07
06
d9
10
fa
02
e8
fe
ea
46
19
fa
fb
df
ea
f8
26
06
eb
d9
28
4b
f4
05
f7
19
e9
f8
ed
fa
f7
fd
35
e7
12
1c
09
25
fb
fe
1d
15
08
1a
20
1f
12
1c
fe
de
0f
ef
ff
04
07
03
f5
f4
38
31
fd
e4
e4
f3
f6
06
de
03
1f
24
1b
fe
0d
f9
27
24
f0
37
1b
0c
04
fe
eb
0d
1e
e0
20
01
16
ef
fd
f7
0e
17
2d
12
fb
fa
f6
20
03
ef
f7
13
dc
0f
0b
fc
e4
0b
fe
d9
0e
10
e0
ef
0b
11
f5
18
ef
ff
e2
fa
10
ee
e7
37
f1
05
49
eb
ea
09
fe
f3
fd
11
35
f1
1b
2c
26
0d
0d
f6
db
0d
cc
f4
ea
1a
fe
2e
1d
1c
bb
1d
0f
3b
0b
f5
ed
27
1d
fb
df
14
0b
1a
f1
21
dd
0d
f8
f1
19
fa
1b
fc
f4
fd
ff
09
02
31
09
f2
29
cf
03
fe
f6
15
00
fc
09
29
df
0f
19
eb
d8
11
16
f8
e7
07
e9
dd
f1
20
ff
ef
ef
0d
f7
19
05
1f
09
1a
f7
01
0d
f8
1c
00
f3
33
17
de
ee
02
0a
f4
ea
0e
0e
f2
2e
3f
14
23
ed
12
2d
1c
ea
fc
15
df
16
0e
01
1b
e0
11
e7
0e
d9
05
0b
e4
06
16
fa
f9
05
16
f7
e9
f6
f7
ea
d9
f8
11
c4
26
12
21
db
ce
07
06
d8
01
01
0b
19
07
2c
f9
1f
02
0d
f6
e1
10
dd
cf
06
1d
ed
10
f4
ff
18
05
1a
eb
f5
c5
fb
08
10
1b
24
41
12
e2
e5
df
35
18
01
e1
0e
05
13
c5
05
c1
f2
1c
26
10
08
04
ef
2d
19
04
0e
0a
50
c5
dd
fe
d6
f9
1f
29
0c
f1
ef
09
21
30
01
4e
e0
fc
c7
01
0e
11
1b
b3
d8
c8
15
11
08
0c
07
fc
d7
09
b4
e7
fe
01
fb
f4
07
0d
dd
dc
df
1b
09
ee
13
19
fa
fd
fb
f6
17
32
d4
c6
15
d3
eb
e8
0f
17
f2
0c
f0
02
0b
f8
e5
df
13
ea
d1
28
ed
0b
cb
0d
fc
32
f2
de
ee
19
02
11
fb
d5
e8
09
ee
02
24
44
d5
f8
11
05
e2
fc
fd
0b
14
e1
fc
ed
fd
35
1d
eb
04
de
f5
18
05
f1
10
0c
f7
0a
19
e1
d3
46
2f
26
20
fc
0c
e6
21
1e
02
fb
17
fe
eb
ed
0e
1c
0b
05
05
f8
1a
09
ed
fb
f9
18
5c
31
d9
fe
fe
21
0e
02
21
dd
d8
4b
fa
f2
0d
ed
12
f1
c9
d4
f5
d4
13
22
0b
fe
08
bd
e0
ed
0f
f4
0f
15
12
04
ef
18
2b
25
11
ef
03
24
0d
19
2e
0d
1c
0b
f4
f8
02
ec
eb
d8
f5
1a
16
11
34
0b
3f
17
f2
0d
ab
f6
03
f6
08
c7
1a
d7
f7
11
0f
d4
0f
fb
f6
d6
1c
d2
28
0a
dd
29
f3
02
dc
c5
fc
f1
f8
ff
fa
0d
e7
0e
18
04
e9
e8
0b
0a
fe
18
fe
0d
eb
f8
13
06
39
fb
0c
e7
fa
dd
09
31
05
b5
ee
d3
1e
18
e6
03
12
e7
03
0a
21
07
e3
44
d6
14
01
2a
fd
00
f2
e3
f0
dc
2f
02
0a
e7
17
04
16
f9
f3
03
27
1a
f3
fa
db
07
2c
28
2d
d6
f2
f5
e4
d9
46
1b
e3
0b
1a
e5
23
fa
00
ee
ff
13
f0
0b
f0
df
2d
e1
11
05
fc
ed
09
15
1a
0c
15
07
27
fa
12
d7
15
02
02
fb
ed
e9
ee
3a
1a
f6
33
18
db
b1
1e
e0
08
01
25
ff
cd
18
0c
fa
ed
35
e2
28
03
13
0c
d1
07
f5
0d
ed
0b
12
fe
ed
10
07
09
01
2a
24
f7
0f
0f
0b
bf
00
07
19
06
1f
e7
f0
1d
40
ee
1b
10
29
c7
07
fd
e8
d8
e5
f8
10
02
09
f3
fd
da
f4
15
0b
e2
fb
1e
0b
17
df
10
f6
db
f7
08
d6
17
06
06
ff
04
08
f6
e7
27
20
0d
cd
15
09
04
02
24
0f
0c
fc
34
1f
fe
05
1c
f5
e3
25
f4
01
10
1a
e5
db
2a
d4
0b
0f
e9
05
e6
28
03
ec
f4
0b
1d
f2
00
17
04
f3
08
2a
f9
db
19
f2
06
e6
ff
09
00
29
28
be
21
48
da
1e
18
ee
df
2a
ef
ca
0b
d5
1b
f4
3a
3d
ed
ec
e4
f5
f5
18
1d
e5
da
ed
bf
ed
1d
d2
d7
e2
e7
dd
04
09
06
1d
01
fb
19
21
0d
e8
fc
e9
e7
fb
3e
e2
f0
e8
fe
df
20
03
28
00
db
3b
14
f8
e1
10
d6
17
eb
d9
f9
f2
06
15
00
14
52
e3
09
f4
3e
d9
cf
04
ef
ff
c6
ef
f9
e2
12
f1
2d
e7
f4
ef
03
0b
06
de
33
d4
f2
ca
09
02
11
c3
0a
ed
09
00
ef
d1
3c
08
ce
f5
4a
ff
f9
ec
f0
ec
ec
47
e6
f2
24
02
2a
f9
16
fc
02
e6
f0
1f
08
00
fb
fe
03
d8
f8
da
fa
0c
e3
00
0f
d3
21
e0
f5
26
14
0a
e2
2d
04
b3
1a
0a
df
05
20
f2
17
18
13
1b
1f
fb
e1
0e
ec
b3
18
d7
0c
f0
f8
eb
e9
16
f9
fb
c5
bd
58
47
f7
1e
44
ff
ef
cc
20
2e
f4
07
11
06
f0
f5
d6
f6
fa
f3
14
f0
26
33
17
24
18
11
1e
25
0c
0c
cb
d8
e1
0e
1b
d6
36
42
32
06
1c
d6
d5
de
ff
1c
b1
1d
fa
d5
c1
43
f0
ed
ff
01
18
01
03
e1
f3
12
f1
01
36
f1
00
e2
2f
e0
f6
11
ec
e4
17
16
e5
1b
24
1f
24
00
0d
dd
09
1d
f5
01
e4
02
df
17
d5
e6
0d
02
f1
f0
cf
01
21
20
06
d9
ec
fd
fb
e9
34
d1
f0
0a
19
f8
d6
f3
08
c8
f4
ff
15
07
e7
04
ea
f9
e9
f9
0e
14
ff
c3
0b
18
0a
15
f1
fb
f9
f4
f2
22
ff
01
19
f8
f9
1f
0d
ec
03
e8
03
08
1c
12
f6
18
e6
12
ee
ea
05
d4
0a
06
fa
06
f9
de
9d
52
fd
ee
1c
25
e9
fd
db
fe
d0
f8
0f
e4
ef
df
eb
0a
00
fc
05
e6
0c
f3
f0
1d
53
e7
37
15
12
ed
06
0f
fb
ef
02
19
f6
e3
1f
f3
17
19
32
e1
25
d3
26
d9
f4
19
ca
de
d8
f1
ea
d1
ea
0a
05
f5
fd
40
eb
0d
ec
0b
03
05
e7
e0
40
d9
ee
ed
1f
0c
f4
e0
18
14
1e
2f
0e
01
20
1f
ff
f0
1a
1a
fa
f1
f8
c0
f5
ed
09
2f
fb
df
15
31
1f
e5
12
e6
ef
08
ec
2e
fe
ee
f5
df
fc
15
3e
21
e5
25
fd
d9
eb
00
ec
05
0c
35
10
15
0a
fc
0b
0a
24
14
2e
0e
e9
06
19
0a
fb
fa
00
14
fe
e9
21
ff
fe
05
08
d9
14
f0
09
07
e6
0b
04
1f
f4
14
f7
f3
11
ff
f4
e4
fe
de
ec
18
00
35
2c
b3
23
48
fd
ea
26
08
2d
50
3b
ea
07
ec
36
3e
fe
00
fd
e8
df
1d
13
16
2d
08
f0
43
e7
08
38
18
cd
22
b5
15
04
df
fe
03
21
ef
e5
1a
21
f6
2d
16
fd
e4
f1
21
f4
c5
d9
e7
1a
08
fd
18
38
04
19
fb
ed
22
ec
2e
d1
d3
12
e9
10
d2
12
11
2a
3c
08
1c
f0
10
e6
e7
ee
08
1f
16
bc
02
fb
04
fb
fd
3e
f7
f8
07
ed
07
d4
13
ef
dc
f8
fc
1f
ce
16
0a
d2
2f
21
c9
ff
2e
1e
ef
e8
ef
00
0c
24
c6
12
d5
12
0c
ef
fb
ee
09
ef
f5
f2
20
08
de
ff
26
35
10
fd
17
0f
06
30
14
14
e9
f6
e5
ec
18
08
f5
13
f8
e8
09
da
32
df
04
07
04
e7
07
eb
ef
e5
47
fa
00
f2
0a
e9
17
17
1f
e3
df
e5
0b
01
12
1e
1d
20
1d
12
df
06
27
0e
17
27
f7
c8
f7
f3
e7
d8
d4
f1
26
e7
00
23
fe
12
07
13
de
fd
f9
02
05
d1
ee
f5
0e
34
1a
0d
31
ee
dd
0e
01
fc
28
03
2d
28
ec
08
e3
1c
fd
c2
36
35
21
ef
d0
ef
04
0d
eb
17
06
f6
ff
b5
08
04
c9
13
ee
e2
1e
f5
19
04
fb
fb
ed
1b
e6
17
0d
ec
00
11
1f
f2
0d
07
cf
05
f9
10
25
1f
fe
f3
c0
b0
e6
eb
f4
f3
31
e5
f3
df
2f
16
21
e4
d1
f4
f8
0a
19
2b
37
de
d3
0f
de
0e
26
25
f3
1a
12
18
0b
05
da
f6
ef
18
fe
e0
18
19
1b
d1
03
ef
25
31
30
e3
f7
02
e5
1f
e8
fd
d7
e8
1b
42
06
c1
32
d1
bb
f5
3f
18
34
f4
e9
d1
2b
28
e4
0d
26
31
f3
f5
ee
0a
ee
0e
03
00
1d
d7
f8
fb
1f
df
12
09
08
19
1d
db
0c
00
0f
3b
e2
19
04
18
12
fb
c6
0b
b2
13
04
16
fa
fe
f7
ff
37
1f
fa
0d
f0
fc
09
15
f3
03
fa
15
fb
d8
24
ec
fe
07
fb
b4
ed
d4
26
f0
fb
e5
ec
f8
18
fd
ed
e6
2c
b5
16
dd
f0
e5
ef
23
cc
15
f7
0b
de
12
10
db
3f
f3
20
06
f8
e3
15
1f
11
f3
f7
fc
15
ec
08
1b
fc
04
03
d5
ea
df
28
1c
d1
0b
e4
f5
df
e9
f2
1b
e6
13
15
f6
e7
07
f2
13
08
15
19
24
05
e1
0e
12
d0
e2
f8
0e
cb
49
f8
09
f9
11
0a
0f
06
e6
f2
f1
04
02
0d
13
1d
e5
07
2b
e9
0a
17
ec
d6
18
13
28
12
0f
04
de
4d
10
ec
dc
12
17
13
f3
bf
04
ff
e5
16
07
0e
0f
f4
fa
29
ee
dc
e8
04
08
f1
12
06
dc
0c
f8
d7
2e
c6
f0
01
2f
ec
1c
16
28
0a
08
05
eb
e4
e4
30
04
fe
d5
0d
e2
09
e0
49
fd
15
f7
ed
dd
df
09
ee
01
05
e7
e2
c1
dd
f6
bc
21
09
cd
dd
03
f6
0c
2d
c3
f3
f8
05
fb
2b
f9
e4
10
35
2e
b7
e6
16
29
d3
1f
00
2e
39
04
29
de
f0
ef
fa
0f
e2
0c
1c
1f
f0
24
0c
3a
f0
de
dc
dc
1a
21
14
d5
fb
ed
f9
33
1d
07
b9
d2
17
0a
0f
19
1a
d7
f4
ff
e6
f6
0e
01
21
f9
16
22
d2
f9
45
cc
0d
ed
15
df
01
02
d9
f4
15
10
e9
0f
fd
0c
e4
23
11
02
0b
fd
0a
f0
02
da
e9
11
ef
c8
11
f5
f4
ff
2c
00
d7
0d
1b
fc
16
2a
28
07
2e
b6
ee
1c
f8
0d
02
f3
03
f8
0f
e4
0d
d4
fd
07
fb
41
e1
18
d3
25
30
04
fa
48
03
e1
d1
f4
dd
1c
21
f7
f6
00
ec
e8
fd
0e
e6
d7
21
25
eb
eb
32
d3
e8
03
ef
d2
ed
17
0e
de
eb
fd
15
fa
25
fc
1a
e4
17
19
07
f0
f8
d6
da
e5
f3
14
fa
1a
f3
02
17
24
d5
ca
e8
ff
fa
11
18
ef
0d
3e
e1
34
ed
fd
14
fc
fa
28
18
ef
f8
2b
d6
21
27
c8
07
28
0b
d9
1f
fc
f5
f7
4a
2f
fb
25
13
1f
07
ea
24
dc
04
fc
f5
fb
e5
20
fe
25
eb
e9
1b
0f
20
f5
e9
f1
09
02
ff
31
10
1e
24
23
e2
4a
19
ff
41
f9
0b
1d
1b
f8
d5
ef
07
32
33
ff
04
fe
e9
06
e1
c9
11
30
fe
15
23
ca
dc
1b
2f
08
fb
ff
0d
fb
fb
17
16
ff
bd
0b
cb
fb
b1
e6
20
c8
3d
06
fc
00
1b
20
fa
fc
c7
39
13
35
b1
16
fb
d6
0d
fd
0d
fe
fd
f4
1b
fa
06
1f
d8
07
f6
fe
15
04
05
fa
05
13
0c
10
e5
c2
2a
ef
1a
fe
b0
e1
08
f7
10
0e
fa
f8
fb
ec
d7
eb
04
00
f2
1c
e4
17
34
22
01
f2
20
0a
27
eb
e6
f2
ff
d7
0d
f3
ff
1a
e7
21
d5
04
f1
2d
35
03
d8
1b
de
16
24
10
da
0c
02
fd
f2
f4
22
0d
0e
28
3f
fd
f2
0f
1b
d5
ed
10
f8
c2
06
20
24
ed
e6
f1
03
f2
19
d5
fd
fd
0b
e4
e1
1c
18
07
ae
e8
21
fe
02
e5
0b
04
db
f9
15
f5
e0
ea
1f
ff
fd
0c
f4
04
fb
fe
00
fd
18
f2
15
10
ef
02
24
0b
f9
f2
f7
27
0b
36
c6
0c
1f
20
1f
ee
db
f1
fa
fc
ed
fa
e7
1f
e3
25
f8
10
0e
c9
f0
eb
16
f6
02
0c
f6
0e
03
1a
24
20
1c
df
e0
1c
ee
f6
09
d1
14
16
f1
26
10
2e
19
13
04
ea
26
20
ec
0b
f8
e4
13
fb
e5
20
09
c6
ee
ff
fe
ef
11
f6
05
0f
06
eb
14
cf
28
e3
0f
f4
10
ef
d5
16
f4
1e
f9
fc
23
2c
bc
1f
2e
f4
08
18
ec
01
f8
ec
e1
07
1b
f8
33
ce
f4
16
ef
f0
f1
f3
bf
0b
fb
f3
f5
f2
04
22
05
e1
fb
05
ff
02
00
1a
0a
21
f8
09
fb
0d
21
e2
2a
ec
0e
1a
ed
ea
04
fc
24
0b
17
23
fb
e8
09
ec
ce
0f
24
f7
f6
13
23
e6
ea
03
2a
29
eb
eb
d8
1b
12
f9
18
19
fb
49
b4
ef
e2
08
fc
de
f9
eb
05
f8
01
01
cc
3d
eb
1f
0b
f5
0e
f9
00
02
01
22
ee
22
f7
f2
0f
19
1f
f8
e9
23
08
3c
e2
15
ff
e3
ea
ec
50
15
01
0e
f7
02
eb
03
19
38
fe
1b
f7
27
ec
f8
f8
ee
1d
d7
ff
de
0a
0e
06
ee
f1
f6
22
f7
04
0e
22
fe
eb
e5
ba
fd
ee
0e
ff
02
f7
14
0a
df
12
c9
f1
cd
e6
22
17
f6
be
18
e6
cf
12
0c
30
f6
1b
e4
03
fe
ff
e6
09
ec
06
ff
ec
24
f7
d5
12
1a
38
f6
06
e4
f1
04
01
f3
30
26
0d
05
20
04
0d
31
06
1e
0e
34
13
11
ed
e1
f9
07
fd
17
f1
06
e5
08
f8
eb
ea
15
18
e5
ee
03
0b
e7
0b
1e
d5
da
16
08
f2
21
04
f7
2a
00
fc
fe
1e
e6
03
1e
c1
0d
21
27
12
0c
24
10
03
ea
dd
06
26
f2
ef
12
29
02
f2
d6
11
ea
f8
d0
16
1b
33
fd
ff
35
00
12
0f
15
0d
31
f7
1c
ce
06
15
e5
1f
d8
f2
f7
de
e3
cb
fe
f8
f7
06
04
1d
1d
0c
fc
ef
06
eb
dd
ec
17
ac
c6
f7
33
0e
0c
f5
e2
f7
37
07
28
08
f6
cc
1b
f6
f4
fa
12
0f
03
fa
06
ef
0f
1f
f1
01
52
0f
df
00
0c
0d
04
e6
ee
fb
f0
1b
10
10
e2
01
fe
f2
fe
06
f5
1c
22
ec
dd
16
0c
34
10
0e
00
01
05
03
ff
f4
0a
fc
f4
da
de
ed
57
ff
db
04
f8
2c
15
08
1a
f7
f7
0d
fa
df
3e
09
0a
e9
10
02
18
f9
1c
31
05
d0
db
01
ec
fa
dd
24
fd
e1
1c
d8
00
18
01
15
f6
22
e6
f2
fa
24
d7
b9
f5
34
23
0f
d1
11
2f
cc
ef
0f
d2
23
ed
2a
13
07
c8
e9
0c
fe
dd
e9
17
19
db
b6
1a
f4
23
dc
f9
fc
1b
e4
48
27
1a
11
19
ff
10
e6
eb
0a
24
f8
fd
da
ef
0b
2c
27
07
27
04
fd
fe
2a
1a
d2
ff
0f
0a
29
05
25
0b
e4
1e
e9
ff
06
05
03
c2
03
cb
f5
01
f2
3b
05
e4
e1
06
0c
ee
12
2f
3b
fd
18
1a
07
23
02
e6
25
f1
fa
de
f8
ed
f6
10
08
ef
05
eb
18
15
06
00
05
1d
09
29
f1
0c
ec
0a
fd
db
25
d5
ca
09
dd
2b
0c
d8
c7
d6
da
f7
0e
07
04
e0
9d
04
03
e7
ff
f3
2d
ec
f4
fc
1b
f3
0c
1f
0f
0c
35
ec
01
e7
22
e1
bb
14
da
11
d9
02
f9
10
0a
fb
0e
21
cd
16
0a
1a
02
f9
16
33
24
09
d5
07
e9
ed
fa
1b
f2
e5
e8
25
0d
05
0f
e8
ee
2d
39
e0
08
25
2e
00
ec
1a
29
de
01
1d
28
f1
26
13
1a
06
f2
12
00
05
47
11
21
07
e1
1b
1f
ba
07
e2
02
08
21
f2
f8
15
b9
df
07
e7
da
e4
0a
01
0e
f2
0a
51
16
e5
27
12
33
e1
f5
d8
f8
ea
f9
26
0e
18
f8
02
e8
1f
b7
de
f5
19
e6
1d
f6
12
fb
dd
40
01
0a
de
0d
ce
ee
13
04
29
1a
31
fd
0d
0a
db
fa
09
f1
01
0f
10
20
1a
20
f6
ea
1e
e9
ee
dc
fe
00
1f
12
ee
e6
16
f8
ec
16
fe
24
f0
e0
f3
ef
13
1e
1d
0b
07
e5
c9
ff
f8
fc
db
ed
e2
df
f5
ee
10
dc
18
0f
e0
fc
1a
cb
03
fb
f2
f3
13
3e
fe
eb
3a
e1
f6
f5
e9
f8
03
16
e1
d7
ff
f6
f8
eb
dd
e1
15
0a
f7
e0
22
e6
07
f6
0f
e7
ed
22
08
17
ed
dc
f4
08
e2
07
02
05
e6
c0
d9
08
16
dd
cc
ff
f7
f7
f4
ed
f7
27
f6
0f
f8
15
02
de
36
1b
0b
1b
f3
01
fd
e8
1b
10
0e
f8
da
1e
e6
04
2f
16
e9
e7
d7
05
01
fc
1e
21
03
23
fb
ff
06
27
13
ef
07
f8
f1
04
ea
d7
fc
30
f6
df
2b
49
e3
0c
eb
f1
f0
fc
fd
f6
e4
09
38
e7
df
04
e6
03
e7
e2
39
18
15
18
e8
dc
ce
17
d9
0f
ee
f8
fd
14
ff
f9
06
23
e2
c5
fd
f3
02
ff
1a
24
14
1a
fc
09
fb
f7
42
ba
f4
fa
1a
fe
02
10
ea
f2
29
18
fb
e6
12
01
c2
fc
e9
ef
21
e5
f3
f8
15
e8
02
33
1f
eb
e1
0b
bd
e5
da
b2
fc
34
d6
ed
f5
ff
e7
09
fd
f5
0a
ed
0e
fc
f6
fa
fc
aa
2f
1e
00
04
12
f6
04
15
f6
12
0a
03
28
e3
d9
24
e5
0b
db
12
0c
49
2c
da
0d
f6
c3
cf
f9
39
17
00
0e
30
0c
03
00
e8
25
07
c6
1b
07
08
ce
46
f0
f8
fe
e6
03
04
15
d1
0f
d6
fc
12
18
d7
f8
fe
fa
f2
06
d7
0b
1c
1c
f0
e1
00
ef
f5
29
f2
ed
0b
0e
fa
24
29
d7
ef
f8
08
f0
d3
f3
20
06
ff
f7
e5
04
1b
1e
17
ee
f1
fd
11
fe
e6
f4
ce
2e
00
18
06
f0
16
fc
30
03
23
0a
00
ea
0e
da
df
1a
16
f6
05
1c
f1
06
0c
02
02
fb
f6
f9
f7
09
d5
1d
fe
f1
1b
f1
09
f6
02
f6
0c
f6
01
eb
ff
04
18
fd
f2
04
ae
f0
df
ea
23
fb
09
fa
04
13
fa
e7
06
14
3c
24
ec
1c
f1
26
1b
18
f0
f8
ef
f6
05
2b
2e
02
ff
e8
d2
ed
1a
cb
08
f7
37
2b
16
25
ff
d8
01
24
3f
de
e1
f9
1a
1f
e8
13
1b
ec
3a
0a
02
09
00
f9
1e
1b
f1
06
00
ff
12
23
08
e2
31
05
11
0b
05
f3
21
de
ff
ee
fe
e7
02
0d
07
18
e8
09
e2
10
e7
e3
fd
d1
f8
10
fb
e5
f7
06
f0
fb
fc
e5
1a
fc
23
ea
1c
0f
18
19
e5
0d
f2
0c
f4
06
06
08
f4
fc
fc
1c
04
f6
1c
2a
04
21
1f
fa
24
1a
d8
ef
ec
23
f8
f4
f2
fa
f6
e0
1d
2c
fe
f3
0a
13
e7
f4
f3
cd
e4
fb
f4
ec
21
0d
e5
0e
ee
09
08
11
fe
db
ef
fe
1d
1d
07
f9
cd
0e
17
18
07
0c
07
fa
da
14
ff
e0
f6
0a
2a
fd
e1
33
f2
f6
fe
e2
f3
02
09
08
18
27
fa
cf
fc
08
fa
20
f2
39
ed
fe
dd
e4
ea
eb
06
14
0a
15
0d
fe
14
2d
e9
e4
0a
0a
1d
06
02
13
15
10
f8
ce
e8
fc
f7
18
19
da
25
e2
09
f9
03
38
c1
22
14
f7
07
16
15
10
2f
f9
e3
ec
28
17
02
fb
e2
d7
e8
e6
e2
e7
e7
ec
05
f5
16
d5
16
10
e7
fc
02
0b
1f
c3
26
04
e8
23
d5
bd
1c
36
23
fb
f3
fc
e0
1a
ed
0d
d6
de
18
08
0b
01
ee
16
1d
f5
05
0e
ec
2a
17
fa
ba
f5
d3
