00a1
fe94
001a
004d
ff35
fefe
ffea
febf
ff95
fd8c
fdf8
ff88
fe8a
fd8d
0059
0065
ff42
fe0c
019f
0074
fe88
00c4
0115
01a8
ff88
ff8f
fed5
0057
fff3
ff71
fffe
ff37
0139
0021
0114
ffb7
00b4
ffc6
ffda
fe84
01c9
ffe0
ff26
0104
021e
ff5d
0261
fe79
ffba
0163
fdaa
0240
fee7
01f8
0134
ffe4
007a
004e
0014
00d1
01cc
0070
ff71
ff5b
