180 40 1 1
05
f8
05
fd
11
0a
ee
fa
0a
ff
fe
12
0e
f8
04
08
f4
f0
ed
06
08
0a
fd
ff
07
05
ff
fa
d5
0e
ed
f8
f8
01
f2
01
07
fd
f7
0d
eb
07
fc
16
14
0a
01
19
0c
09
06
fa
f7
0f
12
08
e0
26
12
f8
f2
fb
06
14
ef
08
0d
ec
0a
17
0d
11
de
fa
01
06
f4
f8
06
fa
ed
f6
09
02
11
02
19
ff
05
02
fe
03
05
f4
e0
ef
05
04
f3
e8
02
04
fb
fd
0a
ec
f8
12
f9
fb
0b
02
02
ea
05
12
f5
01
0d
f2
02
0c
08
09
09
ee
0b
fc
f2
17
0e
fe
fc
f9
ef
06
1d
07
f8
0c
12
fc
08
11
fe
0a
f9
f2
fa
12
f6
00
01
fc
ee
06
f9
1a
f1
f9
f9
0a
01
fe
0c
ef
ff
1a
f7
ef
09
fd
09
00
09
04
fc
f1
fe
fa
00
f5
f6
07
fc
f9
fc
03
0f
f9
ed
ff
f5
0b
0e
06
0a
01
f9
0a
09
e5
f5
f2
06
14
f6
14
f6
f7
1f
f1
fa
07
f1
0d
fe
02
f2
f7
0c
06
f7
0e
f8
01
ff
00
0a
f8
fc
f0
fe
f8
00
ea
0b
0e
00
f8
01
13
ef
f9
0b
ee
03
fd
f5
0a
fc
f1
06
07
fc
fb
04
ea
17
fe
ff
0a
04
ec
f5
04
02
11
01
0a
08
06
06
11
01
f5
14
0b
13
f4
f5
ff
f4
13
08
f8
f1
09
1b
0d
fe
08
13
f4
13
e8
0f
09
f8
0d
12
f5
1a
03
f3
ea
ff
fd
ec
12
f7
ff
ef
03
01
ef
f7
f6
03
04
f1
04
fd
10
0a
11
03
f5
f8
03
0e
03
fc
fb
f4
f9
f4
12
1a
02
03
0b
f3
04
04
01
09
fb
f1
f1
ff
ed
fd
10
04
0a
ff
ee
e0
01
0c
0a
14
f2
03
f8
04
0b
0f
f8
0b
ff
0b
f6
01
fb
19
f8
f5
06
0f
de
e3
f7
05
f5
0e
0c
ee
f9
f2
fa
fd
f8
e6
0e
f8
f6
ff
04
10
00
15
fd
ff
fc
f4
f7
fe
fd
f8
10
f1
1c
0a
05
fd
09
f8
03
fd
fa
07
f9
11
1b
fd
18
11
f8
fb
f9
fc
f0
09
0e
03
e0
f9
0c
ea
fa
f0
0a
00
ee
07
16
08
01
06
fa
fd
0b
04
f8
05
0e
15
0d
01
f2
02
f8
02
fb
fa
ed
fe
00
11
07
01
10
06
02
f6
04
01
f1
fb
f5
0d
10
0a
08
f1
fa
fd
fe
fc
f9
06
08
01
fa
02
03
04
ee
fd
12
03
03
0d
f7
09
f2
11
13
0f
f1
f2
04
ea
10
13
17
fe
e9
f6
ee
11
fd
00
0a
ee
14
01
f5
0a
f4
fc
eb
03
0d
f5
09
f8
df
0f
03
f9
00
20
f5
0d
f8
08
fc
1d
f3
0a
1c
07
02
0f
04
0a
00
ff
01
e0
f7
15
05
0b
0d
fc
09
14
f4
05
0a
06
f3
14
f8
09
ff
f7
06
fb
07
f3
0b
0a
08
ee
fa
01
05
04
ee
0b
e0
ef
00
00
05
14
03
f9
1d
15
ed
18
ff
fe
0e
f9
05
fe
07
0a
05
f9
09
f2
05
fa
07
fe
e4
05
0a
0f
ff
f1
0b
01
02
01
fe
0d
fb
f2
12
fb
f1
f6
0b
f0
f1
09
e8
0a
f5
df
ef
06
0c
fa
08
06
f6
13
fd
f2
f3
f3
10
fd
e9
06
ed
23
ef
10
fa
05
04
05
15
f0
04
f9
05
09
07
07
03
f4
ff
0f
00
05
05
f3
07
09
fe
03
fc
12
e6
fb
ec
07
11
fe
f3
14
19
00
fb
17
12
fd
10
fb
17
0d
00
ed
13
03
0b
0a
1b
1f
12
ef
05
fa
f9
fd
f7
f9
fe
fd
f0
fd
ef
0a
0c
17
f3
f8
fc
e5
06
17
f7
04
05
16
0c
0b
00
fe
f6
07
fe
f0
f1
10
f7
0f
f8
f2
17
05
fc
ff
1e
09
ee
f5
0a
13
21
0f
11
03
f6
0a
0f
08
f4
f7
ed
04
0f
f3
18
f3
f7
07
fb
13
0d
fb
05
f1
f6
f6
0c
f4
fe
00
01
02
f4
17
fa
f9
04
f6
f2
fc
fe
fb
02
07
fe
f9
fd
03
01
00
f7
fb
f4
0e
0c
06
00
11
f9
e7
12
25
ea
0c
13
10
dd
12
e4
12
09
f7
04
1f
fd
f1
ed
fd
20
10
fe
fc
03
dd
f0
e3
e7
fd
02
0a
06
1f
ee
ff
08
08
1f
e6
0a
fa
ff
f8
05
d9
17
07
fd
27
16
0f
f9
f3
03
03
0e
ea
fb
05
d9
06
00
0a
08
e7
14
f4
18
07
0e
fe
05
df
f8
f6
21
03
fc
0e
f1
16
f7
19
11
e0
10
0d
fc
f8
16
03
03
14
1a
08
f3
03
fe
0a
fb
fc
0a
12
f9
fb
ee
ef
ff
1b
f1
23
06
f9
ea
00
18
0f
00
e9
ef
e9
0b
ef
f5
ff
05
fb
0b
fb
f1
11
f2
16
13
12
13
0f
0c
f9
f9
f7
0a
0a
fa
f4
f7
f1
fc
12
fd
19
ff
13
03
ee
f8
f9
01
e8
ef
ec
fc
15
0b
01
f1
0d
f6
fb
08
e4
e9
0f
06
f4
f8
00
f2
09
e8
ff
1f
f8
0b
f9
0a
11
f9
00
00
02
f1
04
f0
f6
ff
0a
f6
e8
04
01
fc
0d
ff
ff
0e
03
f0
ff
0a
f8
28
05
f9
01
07
0c
23
ec
00
e9
04
09
01
0e
f1
fd
fb
05
f7
06
f3
0c
02
f0
f7
00
f4
0a
ff
f4
fc
06
f5
08
f9
09
03
05
01
ef
f6
05
05
05
f0
ec
f7
07
fd
f8
06
dd
0c
f0
fb
f4
f4
f5
e1
ff
09
16
fb
03
f7
04
04
f7
09
fd
10
02
0a
02
0b
06
0b
fe
f0
e9
fd
0f
1a
27
ec
e9
eb
06
03
fd
0d
14
e1
fb
dc
fa
05
f4
18
02
fe
f6
0e
0a
09
f8
04
01
0a
03
f7
14
f3
08
07
f3
ff
ef
eb
09
fc
fb
f2
fd
1b
ff
14
fe
eb
fc
f4
fb
1e
ea
09
f5
f4
fa
e5
1e
07
f9
f9
ee
15
15
eb
07
ef
0c
02
0a
f7
fc
fe
07
f0
ff
f2
f8
f6
12
fb
fc
0d
0b
ed
0b
fe
f3
f9
f9
04
0b
fd
07
fa
0f
fe
00
f2
06
f7
08
0a
f8
ee
0a
0c
00
12
fa
0f
f2
03
00
ff
fb
00
e4
02
ec
00
0d
f6
07
0e
f8
09
23
09
02
f6
fa
08
f7
07
0d
00
00
05
f8
02
03
f7
05
03
07
fe
f4
f9
03
ec
fe
fe
12
e8
f5
08
06
02
fd
f7
01
e5
ee
ff
0e
f0
0c
fc
d5
fe
01
07
05
fb
03
04
12
17
01
04
03
f2
05
f9
0c
10
fa
02
00
0c
ee
01
11
f4
e3
04
fa
0f
f9
03
f5
f3
01
f6
09
07
04
f4
0e
fc
fc
f7
03
fe
08
f1
15
f5
f2
0a
f9
f6
03
f0
00
0b
f8
fc
fe
ec
0a
0a
ef
eb
01
fe
f5
f6
13
ed
ef
02
12
0c
0d
26
f0
fe
1e
eb
0a
e4
e5
1a
03
09
e1
0d
00
0b
e8
27
03
0e
f7
14
11
02
0f
f4
01
0d
f9
fe
06
fb
00
08
01
03
f5
fb
ec
ed
f8
fb
df
07
e9
fe
f7
dd
fc
f5
03
28
e9
fa
ec
01
e7
ef
15
0d
0a
f7
fb
ff
00
13
00
f0
07
f9
e8
e5
20
06
13
ea
16
fa
e6
10
06
e8
ed
10
fb
fb
07
fb
0f
0a
03
21
fd
db
f6
f0
09
f7
f7
08
0d
e8
fc
fb
e8
fa
0f
f6
0b
e7
02
02
19
e6
ec
0d
e2
0a
13
15
05
fe
fa
27
ed
10
e5
f6
12
02
fd
01
f2
02
f6
e8
05
04
f0
fd
ec
f6
1e
0f
ff
ed
fd
fe
0c
0e
08
e6
e5
fc
01
f0
02
e8
1b
0e
f0
1b
f7
02
fc
f4
11
04
02
fd
f9
ef
01
f9
f5
07
11
ff
0c
f5
e2
f9
11
fa
09
08
f5
01
03
fd
09
0c
f1
ec
fd
eb
fa
06
f8
f4
06
fc
15
03
f7
06
ea
f3
12
1a
11
e4
fa
ff
07
11
07
17
05
f0
12
06
19
ee
0a
06
fc
f3
05
14
04
fd
03
fa
f7
f4
03
fd
00
ff
e0
ff
01
05
07
f4
ff
12
fd
fd
10
f9
02
f0
fd
fb
06
08
fc
08
11
09
05
f1
fb
07
e6
fc
07
0c
02
f3
0a
fb
ff
17
0e
fd
0a
fa
09
02
ff
02
f6
06
f6
fc
11
fd
fd
07
fb
fd
fa
fd
fa
04
f7
01
f7
0c
f8
f1
11
fe
02
02
fc
fe
09
f3
fa
fc
02
10
fe
f9
0d
f5
ff
11
10
e7
fe
f7
e8
ee
04
f5
0c
ef
01
f7
f0
f4
ef
ee
06
02
0e
f7
f2
00
1a
02
fd
f0
fe
f4
13
ff
f1
01
eb
fb
04
15
08
fb
f4
06
08
fd
f0
06
f4
11
05
0d
05
f8
01
02
f7
fd
f9
08
13
ef
ec
13
0d
ff
fd
0a
15
0b
04
f7
ed
02
f6
fe
0c
08
08
eb
0a
0b
f7
fc
20
f7
0a
19
0a
f2
f6
22
02
09
ee
0c
08
0b
01
fa
f3
ef
08
0c
ff
f6
ff
f5
fe
0e
fb
fa
f4
ef
fe
f4
fd
11
fc
f8
05
24
04
fc
00
f1
f8
05
00
2b
ff
00
fb
06
00
14
fe
0b
f7
1b
04
03
ea
05
07
e9
f0
0b
f7
f1
df
0a
f3
f4
fb
f3
f5
fd
0d
0c
f4
f3
f5
09
01
1a
e8
e7
f6
0a
16
0e
eb
01
05
fc
00
04
03
f4
06
12
0e
13
fe
02
0b
e9
fc
01
01
fa
08
0c
05
fd
02
ff
e7
0f
02
fd
1b
01
f5
09
08
fe
fa
ef
02
04
fb
01
fa
fc
f0
0e
fc
2b
00
fa
16
f9
03
12
07
f6
ec
0a
07
12
12
db
07
fa
fa
f0
fc
02
03
09
fb
02
fa
12
00
fb
fb
f7
e3
f7
0a
fe
f5
fa
07
03
eb
0b
08
fa
ff
ea
fd
f9
f9
f4
0f
f4
04
19
f8
00
0c
09
fe
f0
06
e6
e4
02
08
f3
f8
01
f8
09
1a
0e
f1
0c
f2
0d
ff
f6
09
f9
1c
eb
06
10
0e
ff
00
f6
0c
f5
0a
0c
fa
e8
03
10
18
e4
0e
f5
00
08
e3
0a
f8
0c
06
00
00
05
11
fe
e7
f5
fa
f4
fc
19
19
fc
fe
fe
f4
fe
fa
fd
15
eb
06
1d
0e
f8
f6
ff
10
e6
ee
e1
06
02
09
09
fe
02
10
ed
fa
00
ff
0e
01
1d
fe
0a
0d
f7
06
fd
ff
f8
04
00
f5
fe
f7
14
06
f5
ff
0e
fc
03
f7
12
f5
00
09
f0
ec
0d
f4
02
e8
10
0a
fc
0a
f5
fa
03
f7
06
0d
f4
fd
ff
fe
11
14
fb
02
0a
0d
14
0a
0a
fd
fc
fc
fa
f3
d2
05
0a
02
eb
37
07
0b
30
09
ee
07
03
16
05
1c
ee
17
e2
f3
fb
f8
0b
fd
08
17
0d
07
f4
fb
f1
f8
0d
03
1e
11
0f
22
06
12
f1
0d
fe
01
ef
03
f6
ff
f4
e1
0e
05
05
0a
2a
f4
f7
0a
f8
0b
05
fe
0d
10
00
ee
01
fc
00
fb
fe
ff
0f
0f
08
fb
ff
f5
06
12
03
05
f3
0d
01
0f
ff
eb
00
fe
03
0a
fb
05
ed
01
08
fd
e3
0b
00
f6
0a
08
09
0d
04
fb
f2
ee
04
0c
fe
0a
fa
e6
f0
02
01
f6
00
fe
04
e7
f8
fa
fe
21
eb
06
02
ef
02
01
f5
15
0a
0a
fe
06
07
17
f0
0a
ff
1d
ed
06
f2
f4
ff
f5
0c
f5
0d
fc
f0
f9
ed
f9
e2
fe
10
01
0a
07
f0
fd
ea
09
ff
0b
17
07
f2
19
fe
e3
fb
00
f3
02
f1
f6
fd
0c
fd
0d
10
f4
fb
df
15
f5
02
f9
00
07
03
fd
20
01
f2
05
fb
09
f5
fd
09
04
ff
fb
18
f3
fa
1a
e2
e7
01
f3
10
05
f0
06
e8
ea
f2
f9
07
fb
07
fc
ee
fe
f2
05
fa
13
07
f4
04
09
18
fc
fa
14
f2
fe
f2
fd
0d
fe
ef
f9
eb
f9
f3
fe
12
0f
f1
ef
f6
fa
01
fd
fd
0f
e9
fe
f3
fc
0c
0e
11
f0
f4
ef
fd
02
00
13
fa
e0
0f
0d
15
05
08
18
0f
f0
fc
04
12
fe
03
09
0e
02
f8
0d
f1
ff
08
04
f2
0b
f6
fb
03
f2
f1
fb
0d
0e
03
06
04
f9
12
1d
fb
21
00
fc
10
fd
0a
ec
08
fa
f7
fa
ec
f7
f4
fe
ee
ee
14
11
fe
f8
0f
0f
07
fc
fe
0d
f9
24
fa
0b
0a
ff
fc
f9
ea
05
09
0a
0c
fc
e3
ff
15
0b
f4
0d
0b
d9
12
16
05
04
07
fd
e7
f8
05
fa
09
ff
f2
06
0a
f9
fe
fe
02
13
17
03
f1
09
f0
fa
f5
07
04
fe
f8
04
e6
02
f9
0a
fd
f5
ff
00
f9
10
00
09
02
f0
00
f5
07
ee
15
00
0a
04
02
fc
ff
f1
fa
ee
0a
06
fb
f2
fd
08
f5
04
14
00
17
f3
e7
fc
df
06
01
0f
1a
08
0a
f2
f0
f9
19
ee
fd
00
e3
df
f3
18
06
f5
0c
16
0c
04
15
0e
0c
ef
fc
05
f7
0a
01
05
ec
fb
f4
f0
15
00
ff
fa
0f
0f
07
f1
00
05
f3
01
02
fe
fd
01
f7
ef
11
e0
15
f8
23
e4
e6
f4
08
e0
09
fb
13
f7
f7
05
03
06
1b
fd
0a
04
15
09
1a
09
08
ed
e9
11
12
d9
f7
f4
f9
15
09
20
03
08
12
08
fe
04
0d
05
0b
ed
00
09
db
10
fa
18
07
20
f5
f7
12
05
ff
0d
f2
13
e6
00
06
06
15
02
fc
0b
f5
02
00
03
fc
15
fa
f4
13
f6
09
0f
f0
f4
fc
de
22
ff
0e
04
0a
08
07
00
02
fd
01
fa
06
f9
fa
f3
06
f5
09
ee
f2
e6
f9
df
0f
02
f8
fb
12
06
f9
15
f9
ed
06
e1
03
0d
07
17
ec
01
10
06
00
29
f5
02
fd
f8
13
f7
02
00
1a
fb
fb
0f
f7
0b
1c
fd
02
06
0a
0a
ed
18
04
d7
fb
04
03
09
0d
ee
ff
ee
08
02
fe
02
05
13
13
f7
f5
f4
0e
0a
06
13
f4
1c
ff
17
fd
03
f9
0c
fb
00
f0
f3
0c
ef
f5
0c
fe
05
0b
ff
f6
fc
0b
06
1a
f2
03
f8
01
03
0d
ee
f0
0f
f3
e4
fd
14
f6
05
17
f3
04
ff
04
00
ec
fd
07
f8
09
11
07
fd
01
13
0a
07
f2
d9
00
09
0a
ed
f5
15
06
0e
ed
f7
ed
e9
fa
f8
01
e8
ed
16
f2
12
f4
f8
08
ec
02
0c
f9
13
ff
0a
03
f0
01
f3
05
06
ee
ec
f9
13
f3
f1
02
01
02
01
12
f5
ee
09
f6
f6
e0
f4
16
08
ea
12
11
0a
fc
fb
07
f8
03
f0
0a
f6
14
fe
01
f9
0f
11
f3
08
04
03
00
03
fc
12
0b
f8
0a
04
05
18
12
f8
01
01
10
fe
fa
e6
f1
06
f1
01
05
e8
fd
00
15
e6
f6
ef
1f
06
f8
00
0f
ed
f3
f3
e9
18
f3
ff
09
06
02
fa
fd
f3
ec
02
f8
fd
f7
06
1c
08
f3
0f
fb
f5
e8
e7
01
14
11
0e
f9
e5
fe
fc
0c
fb
04
04
f2
02
f4
01
fc
00
00
01
19
09
0b
ff
0c
fc
fd
fc
f3
f9
04
f1
f7
fa
0e
fe
02
ee
06
f1
04
00
fc
07
01
03
09
01
0b
e7
00
f7
f5
00
02
05
ff
ec
07
e3
13
ff
05
00
fd
f3
08
07
f2
10
10
f4
07
fc
f2
f7
10
fd
0b
ff
12
0c
04
f9
f2
07
f3
f8
01
ef
05
f0
18
07
f3
06
05
f8
0c
09
fd
fc
03
ee
03
fd
14
09
fd
05
fc
15
02
03
0a
fe
ff
07
f6
f6
03
f0
f7
f6
f9
f6
06
ed
0b
e4
f4
0f
08
f4
f0
0b
fb
fe
04
fa
12
ee
fa
03
f4
12
01
eb
f5
f7
0c
18
0c
fb
e7
0b
f1
02
fb
e9
e9
f6
ee
f3
fb
0a
d4
fc
ed
1c
10
f6
f0
01
0d
ff
11
08
fa
f1
f8
1b
0a
09
f7
01
09
f6
e4
ed
fe
14
02
ee
fd
fe
fe
03
06
e6
02
ff
ee
01
03
f4
05
02
f4
f8
ff
fd
fb
0d
f9
eb
f9
fe
f9
0a
0b
08
11
08
03
f2
06
26
0a
01
fb
13
f8
07
02
03
1a
fe
fb
11
05
0b
13
0c
f4
f4
19
03
f5
fd
0a
06
11
fc
06
fd
fd
0d
fe
ff
f5
03
02
08
1e
05
f6
08
fc
05
ff
09
f4
16
00
f9
01
0a
08
f8
de
03
04
18
08
04
e1
05
08
ff
03
fb
16
fc
07
16
f6
0c
e9
10
01
fb
19
f2
06
0f
ff
e4
15
0e
06
f7
07
0b
0c
e8
ee
ff
e5
ec
04
07
f1
07
e6
ec
0e
00
07
02
ec
02
09
f8
fe
0a
f0
09
fe
09
0d
fd
11
11
f5
f8
f6
16
09
fa
e7
14
03
fd
01
01
0a
fc
f4
02
17
f8
08
f5
0b
ed
05
fa
19
08
ff
10
ff
03
04
01
fc
e9
fb
f5
01
0c
10
13
e9
e7
fd
f2
15
ff
fc
e7
f7
fc
14
05
f4
05
00
06
02
ff
0a
00
e7
fe
f7
ea
f1
10
fd
f8
fe
fe
1a
0c
ed
02
02
04
07
0d
05
fb
f2
f6
f1
0a
0f
f7
f6
04
fd
09
05
11
10
e4
0a
0d
f9
fc
fb
0e
01
fd
fe
0c
0a
00
f8
14
fd
02
08
03
fd
05
f3
08
e3
ec
ff
07
ed
08
06
00
01
fb
02
01
f8
ef
f0
0c
06
fe
10
fc
ee
0a
10
fc
f0
e6
fb
f7
ee
03
f9
f9
f4
f5
e8
02
f1
00
13
0a
f0
f3
f8
0f
0b
00
07
06
fa
0c
0f
09
ef
02
eb
21
0b
0e
13
fe
04
fd
eb
0a
ff
fd
fa
f6
07
01
02
ec
fd
0e
fe
05
04
fd
fd
13
f2
f5
09
07
f2
f6
08
01
09
14
fa
10
0d
f1
f9
f1
11
e5
01
01
fd
10
f5
0b
e8
f1
05
11
f8
0b
08
07
fe
0f
01
f0
fa
0c
06
0b
fe
f6
11
fb
05
f0
f2
fb
0d
05
0f
08
13
0a
02
fb
fe
09
f6
f8
14
ff
ef
04
00
f7
ff
08
17
1c
ee
f2
08
f1
18
0d
0d
ff
f7
12
0a
fb
e4
09
14
0b
09
fc
f3
ff
0b
fd
f2
fd
ee
25
09
05
0a
07
0e
02
f3
f7
13
09
02
14
0f
01
f0
0c
ff
10
f3
0a
fc
14
01
f9
03
11
1d
07
fd
15
05
f5
0d
f4
01
13
fa
04
e4
02
f3
01
06
fa
f5
15
03
fc
0f
00
fa
08
12
07
09
0f
ec
06
21
fe
06
03
06
06
fd
f6
e8
02
fe
fe
ff
ea
02
00
15
05
e4
11
0b
04
0c
01
10
00
ff
05
01
06
ff
fb
e4
f9
08
f0
fa
f1
09
0a
fb
02
0b
fa
04
f6
fb
f0
f6
f7
fa
0b
05
ff
03
02
ff
06
f9
05
ee
02
fb
11
fa
f2
fe
11
ec
f7
f9
fb
f5
e6
fe
09
0c
e5
fe
fd
f4
0f
fc
01
0d
e7
ff
01
0f
02
04
fe
00
03
0f
07
f9
07
06
f7
fa
13
02
0b
0a
00
fd
06
03
02
f8
f8
01
fe
01
f3
03
fc
e8
13
f8
fc
0e
f1
ee
f7
f4
1b
f0
fc
02
ec
f8
01
fd
f1
00
0f
06
01
03
fe
09
07
10
e1
fd
0b
fc
04
f8
08
fd
08
03
00
04
04
f9
0e
07
ea
f3
05
fb
0b
fc
04
06
05
f9
04
1d
fb
fc
09
02
03
04
0a
08
0b
0f
10
05
16
fe
0b
ef
10
f8
f6
0e
fc
0e
fb
03
02
fb
08
f6
e2
10
f6
ec
09
0b
f4
00
0b
ec
ff
0c
f9
01
0a
fd
02
0c
f5
e6
0a
ff
01
0b
0f
01
f4
fa
f8
08
07
07
e4
e8
00
10
f9
00
fe
15
05
f8
1b
04
0b
fd
fa
01
1d
05
0b
10
17
f1
04
f6
1c
07
0a
f6
e7
fd
07
00
0a
01
04
04
ff
0c
fd
f8
03
fe
e1
05
ee
f0
fe
1e
22
f4
17
10
0a
08
fb
f9
fa
0b
fb
f8
0f
26
0c
0b
f5
06
07
28
fc
00
f1
0b
05
e9
ef
fc
01
10
ff
f4
e2
fc
fb
f9
fd
19
04
e8
e9
ef
0b
02
07
11
eb
0d
04
10
09
0d
06
04
0a
19
02
fb
f9
00
ef
09
24
0e
1b
0b
fa
0b
11
0f
0b
ee
e8
1c
14
15
fe
e2
09
ee
0a
05
fc
0c
0b
00
fd
05
10
f3
fa
ee
fa
0e
08
ef
f5
0d
03
01
03
e3
07
16
2b
08
01
fc
00
fe
f8
03
f7
f2
fa
12
04
0a
0c
f3
00
15
ff
f9
0e
eb
01
0a
13
ef
f7
1c
f7
02
00
fe
04
04
fd
e1
11
e9
ea
02
08
fa
08
f2
f1
fd
dd
00
10
10
f3
19
f7
21
ee
02
0f
0a
fa
f9
02
df
0c
f4
0d
16
01
04
f9
ff
f6
e4
d7
17
e8
0e
fc
0d
f7
f0
04
0e
f3
04
05
fd
ff
fb
02
06
00
fe
f5
0e
ed
f9
fc
0d
fd
03
fe
13
08
f9
03
fe
f0
15
02
06
fe
16
0f
f5
0b
13
f8
0c
0b
03
01
ed
fc
f9
fd
00
0c
fe
f6
02
01
fc
07
00
f5
05
ff
f8
fc
f1
0b
03
f2
f0
fd
fe
04
fa
03
e4
f4
f2
0e
1a
11
ee
08
23
02
02
0a
15
f7
02
06
02
0c
fa
06
01
1c
fd
e7
05
0c
1b
11
14
06
0d
0d
00
05
00
02
fd
05
0e
ec
fa
07
04
fd
0e
09
fb
f3
03
17
fb
11
09
f6
13
fa
02
02
05
e9
07
13
07
f0
f8
09
06
f2
fd
01
f0
ff
f3
ef
10
f7
07
01
ff
23
0e
0a
f8
e4
ec
02
1e
ef
ff
f8
1a
fb
f9
1d
0c
02
e2
0a
fd
f3
0f
ef
f9
e8
15
09
0f
10
fa
05
03
f6
e8
f1
15
06
e5
f9
00
e5
01
fb
f6
0b
e7
f4
fa
19
fb
07
09
17
04
fa
f5
0d
f5
f8
00
ef
fc
18
ee
fa
00
f6
01
ef
13
15
ec
0c
06
03
e6
1e
12
e8
f0
f6
f4
19
13
15
0d
f8
0c
05
f7
0f
1d
e2
ff
f8
00
05
0b
01
df
fc
f6
f4
05
fb
f5
07
fd
12
08
0c
fa
0d
ff
09
00
fd
f4
f7
07
eb
e5
e1
11
fb
fe
0b
06
17
07
fc
09
fe
0f
12
0c
f9
e9
05
16
00
08
0f
e7
24
f9
13
fc
22
21
09
0d
e7
0c
ec
0e
ed
f7
0f
0d
05
eb
02
0e
f5
ed
fb
fc
f6
f9
f6
fd
1a
15
12
08
f5
09
d9
f2
ee
07
02
fe
04
11
f1
d2
11
08
fb
08
24
03
02
00
03
f7
f9
fa
0d
16
0e
17
f2
0c
07
df
f6
ee
f6
ed
07
02
f5
f3
f1
03
07
06
f9
f1
08
0f
0a
fe
22
f4
fb
20
14
01
12
06
08
f0
ff
0f
f3
02
01
08
ff
f5
0a
fb
02
ee
06
08
fe
fc
06
fa
0d
fc
03
0c
fb
0d
10
06
ff
ff
ff
09
04
f2
f9
ee
f5
eb
f5
01
01
f2
f9
03
f7
00
f9
f8
fa
fc
0a
fe
f8
05
fd
01
04
f6
07
ff
08
1e
2a
07
19
04
ff
07
0c
f1
fb
f3
ee
f5
fe
10
f7
f4
0d
02
22
03
fa
1e
f6
f2
fc
ee
0d
17
17
10
09
e9
f0
fa
ed
0f
07
13
0b
da
0b
0f
04
fc
04
13
07
0d
e8
07
f1
09
12
27
e9
f3
0b
09
07
06
10
0a
e9
fb
01
04
07
02
1b
ff
19
06
f7
06
03
0b
01
f6
ff
0d
e9
02
05
fd
e9
f8
08
06
03
fd
05
04
1d
0a
ff
15
15
fe
0a
ed
08
f6
f0
15
14
07
04
ee
02
08
fd
fe
0b
08
0a
0c
fa
f2
13
e3
00
0a
f0
15
f9
07
fb
09
f9
00
17
f7
f7
ed
ff
09
02
fe
01
f1
0c
26
02
0f
d1
09
1b
f3
11
12
00
01
e7
e8
08
fb
f1
f7
02
07
13
13
06
ff
00
ef
08
fd
02
f4
03
f4
fe
0c
04
13
f9
ee
fe
05
11
19
f5
15
fe
f6
0b
f5
11
11
ff
06
0e
07
12
18
06
f3
fe
14
e5
ef
01
ed
ea
10
08
02
ff
ec
05
01
ff
00
08
f6
f8
d8
1c
fb
14
04
03
ff
f9
07
fc
f5
01
06
f2
0c
2d
03
fa
03
02
f9
00
0c
12
f1
11
0c
fe
19
13
1e
fb
e4
03
ec
04
fc
f5
f7
f2
0b
e7
ff
e8
f7
e8
12
01
0f
07
f4
05
17
0b
12
04
11
10
16
0c
f3
02
03
17
02
01
f3
06
06
12
e8
11
f6
fa
1c
da
f5
f4
02
f9
00
f4
03
23
f0
26
fd
03
13
f2
15
08
ea
02
00
f0
fa
fa
0e
10
1a
f8
06
f0
fb
f0
09
15
fa
05
0b
f3
08
17
f9
f9
0e
01
07
f9
ed
14
f3
03
0b
13
23
09
09
02
0c
03
00
f3
09
22
06
ed
ec
f8
03
fb
fc
06
fb
16
03
fb
ff
e4
e8
16
f2
15
f7
d8
f8
14
f6
01
ed
fa
de
e6
e1
05
03
0a
06
ec
04
08
fd
04
03
19
01
00
f9
ed
19
1b
f7
f7
e0
15
ea
fd
11
f9
f3
f1
13
ff
00
f8
f3
f8
03
f0
1d
04
fd
f8
0f
1f
f5
fd
e0
09
ee
16
02
f8
0e
eb
fb
e4
e8
ee
f5
f2
f0
f2
02
f0
11
f3
fe
05
0f
fd
07
02
f3
01
f3
03
01
fd
02
ef
0d
02
ef
01
11
f9
11
eb
07
ec
07
06
08
09
f7
06
f5
ee
f5
dc
0d
00
e6
01
fb
e8
eb
0a
06
06
fd
f0
fc
f8
ea
07
17
f2
ea
0a
f0
fe
08
ec
08
e5
03
fd
f9
f6
fd
02
ea
12
ff
e8
08
10
0a
14
0c
f5
f8
03
08
ea
0c
f7
09
0f
10
00
0a
0b
07
fa
10
f4
0f
f1
f1
03
f1
11
02
ed
f8
fa
05
08
f0
14
10
11
fd
f2
fa
02
fe
11
f4
ff
03
08
03
f3
0d
fa
f8
08
10
f6
0a
11
f2
fa
00
07
07
f9
ff
00
ed
fb
02
fc
17
0e
1c
04
ed
f3
07
f2
01
e0
11
ff
05
fe
08
ef
18
fc
f9
06
03
e9
f0
18
fb
11
ef
ff
2c
09
ed
01
0e
00
03
03
fb
fb
fd
10
02
01
f0
17
ed
03
f4
ec
08
04
13
08
ed
1c
fb
ed
ee
f0
f6
e4
f8
e9
f2
05
fa
f1
f4
f4
24
fd
0f
ef
02
02
12
12
ed
f7
09
0e
ff
ef
f1
e7
01
0e
fd
fc
17
fa
ff
ff
fb
ea
01
f0
00
02
06
04
01
03
02
e6
14
f5
06
ec
15
f7
0a
e6
f1
f3
fe
0e
fd
f1
00
e9
08
1a
27
09
f7
11
1a
02
03
12
06
f6
ea
10
fb
f7
22
ff
f3
f3
f8
14
03
0d
0b
fb
04
06
0f
f8
f6
00
eb
1b
ff
11
0b
fc
ec
12
06
fe
06
17
ff
fc
0b
09
f0
0f
05
ff
f3
11
08
10
03
05
fa
ed
19
f9
06
f3
13
ec
07
fe
0a
13
10
0b
04
06
f3
f7
1d
0a
02
17
e2
02
f8
fc
00
05
f8
e8
04
0a
03
01
ff
fa
09
07
0c
ef
f9
00
08
07
00
f5
0c
ec
06
06
f1
14
e7
0c
05
ff
eb
13
07
00
f7
f5
ee
f1
11
0a
01
f1
09
ff
fd
f9
ef
f5
f7
08
fc
1a
05
09
fe
0a
f3
ec
0d
eb
fd
05
05
f8
e6
08
16
ff
f2
11
11
10
04
06
ee
08
07
08
fd
0e
0b
0b
ef
17
f1
eb
09
17
0d
06
0c
11
00
e3
f4
10
f9
0c
fd
ef
ff
16
0b
0c
10
f7
0b
10
f7
07
16
ea
05
19
f8
f7
04
18
0e
08
0e
05
f8
fe
f9
01
06
fa
07
e6
06
03
12
02
fc
fa
00
00
0d
f5
f3
02
04
fa
00
06
0d
10
00
ff
ea
14
0c
f7
f6
01
0a
fe
fd
f5
fb
fe
ff
fb
fc
03
ee
07
07
f8
0c
fc
03
fe
f2
fb
f5
03
0f
0b
f9
00
02
01
f6
10
0b
fc
ed
0c
f8
05
06
f6
fa
f3
14
0d
04
fe
15
f1
f5
f0
01
f7
f1
f9
fd
fa
fc
06
f0
18
04
02
0c
01
04
f3
fc
fe
ea
f7
16
00
fa
09
05
05
07
02
ef
06
05
05
06
0b
f9
05
05
fa
ff
fc
0f
00
f4
d6
06
fe
00
fd
fc
05
fb
12
0f
08
0a
fd
f8
01
07
10
fe
00
0d
ea
1c
fd
f4
f4
f5
f5
07
12
f1
0e
fc
fc
f8
f7
14
f9
09
15
0d
15
f2
07
f5
11
f4
f3
04
fa
f3
e6
0d
ff
f3
09
08
e8
0a
09
06
f0
f7
10
f5
fa
fb
04
fb
19
05
fe
ed
00
08
e9
0e
f5
17
f4
09
05
0d
e8
f0
f1
fb
f6
12
04
04
11
f0
fa
f1
f0
f9
0b
09
03
0b
02
e7
ff
ea
f6
fd
03
f7
10
03
08
fd
13
03
01
fd
f4
0a
03
fa
01
f8
ef
0b
f9
03
04
02
0e
f6
f5
ed
fc
fd
e7
03
e7
f9
fa
06
01
12
06
f5
12
e6
00
01
1d
f7
09
fd
00
19
f6
f7
ff
0c
f2
f4
f4
14
0b
18
f0
04
05
fc
09
ff
14
05
07
02
09
08
06
fe
13
0e
ec
f8
03
15
f7
f9
11
14
f2
fd
08
05
f8
09
0e
02
fd
07
1b
fc
14
ff
01
f2
01
f8
0b
19
fa
08
0a
10
05
f4
06
0a
0c
ef
f1
00
02
fb
f8
0c
f9
04
fc
ef
f5
f9
00
e8
fb
f2
f6
fe
0d
0c
fa
fe
09
fc
f8
0f
0d
f2
11
1e
f4
00
04
fc
15
f1
07
0b
1a
f2
24
0c
ec
f3
0d
ed
f5
06
09
02
06
ff
f2
ee
04
03
09
08
f8
ed
e0
f5
11
01
04
f6
e7
ff
0c
18
14
fb
fe
07
f5
fc
f7
0e
ee
f5
1b
06
02
0b
f4
fc
15
e3
f6
18
09
01
09
07
09
03
03
00
15
07
09
f8
0b
ff
0c
15
ed
ef
e6
14
13
12
fa
f5
eb
03
fb
fc
e7
f8
0c
f7
16
f6
0d
07
f2
f4
fe
04
ff
ee
13
16
05
ef
08
e8
19
13
fb
12
07
f4
ee
0b
fe
02
fe
f5
ff
fb
08
01
1a
de
0b
01
fa
02
fa
08
fa
fb
f7
11
fd
f9
f9
e9
e7
0b
09
0c
0a
fd
f7
00
14
fd
08
fd
04
13
ff
e2
ef
fb
04
f8
0b
0b
04
fe
fa
f3
fc
15
fc
16
ff
fd
0d
fc
04
eb
fd
e9
f7
09
fa
00
0f
fb
00
ef
0c
02
ee
f5
17
0f
f3
fd
ff
f1
fb
f3
f1
08
fd
f4
f7
0c
ff
fb
0d
fa
e3
00
09
07
07
0a
02
04
0a
03
07
fc
fd
02
07
0c
fc
06
0a
f8
ff
10
fb
f5
11
03
03
fd
06
ec
05
0a
fa
e7
05
f8
0e
0c
00
05
fc
06
00
f8
09
e7
f7
f0
0c
f8
0d
fd
09
f4
f2
f8
03
fc
f9
06
fb
0c
08
fb
11
f2
0a
ef
f9
fc
03
02
f4
09
01
fb
fe
0d
f7
fd
0c
05
02
f8
0c
01
f7
f8
00
fe
ef
01
f0
f8
05
03
f3
03
01
fa
10
e7
07
08
eb
fe
13
03
0d
fc
17
ff
07
09
0b
fa
f1
fe
fe
fd
fe
fd
f9
eb
03
f5
05
01
0a
e9
fc
f1
f1
f2
07
10
09
fb
01
f9
fe
08
eb
06
f9
1e
0d
05
14
08
07
e7
fe
fa
f8
f8
e7
0a
0d
ee
fe
02
f4
01
f5
03
f6
fc
19
00
07
f4
f3
f5
22
01
fe
01
fa
ec
ee
f6
fd
fa
fd
f6
0e
fa
08
f7
fa
14
0c
ff
f1
0d
fe
ff
02
08
05
f3
0a
ff
f6
fe
00
fb
f6
02
07
0e
08
f4
f9
06
f8
f3
f5
fa
fd
f0
fb
fa
fe
01
fb
f8
f4
fe
05
1c
03
f8
eb
f5
ef
01
fa
f3
fb
f9
f3
03
05
e4
00
04
07
f1
f5
20
03
00
14
f6
ef
f6
03
d8
fd
f4
1b
fd
f8
09
03
00
f6
fa
0a
04
0c
f2
f4
0c
fd
04
04
fc
00
0a
16
00
02
fb
0a
10
0c
f2
06
00
16
f9
09
0b
fd
f2
13
fd
f5
f4
09
f2
0f
f3
13
fb
fd
03
13
19
fa
11
06
fa
f9
f6
f3
07
ef
ea
f8
16
fc
07
04
06
08
fa
03
05
00
f6
fc
02
f8
02
f9
08
f8
04
0a
f5
0b
12
e9
12
14
f6
06
fd
10
eb
fc
f4
f6
01
f4
0c
fb
05
ff
fb
02
10
f1
ff
10
01
08
16
09
02
ff
09
00
ee
01
f0
11
01
f5
fb
e4
fb
03
03
13
fc
11
01
07
0e
f7
fd
ff
07
f9
fe
01
fb
fe
06
ec
12
09
00
06
ff
0a
09
01
fd
00
09
09
f0
03
0b
08
04
fd
03
ee
f0
e8
f7
0c
fa
fb
06
09
07
08
15
f2
f3
ea
fc
fe
fe
f1
04
fe
e9
13
fa
0a
07
ea
01
13
01
0c
05
f5
ec
02
08
01
1c
09
ff
00
f1
09
f3
f4
04
f5
0b
fb
e3
ef
f3
e3
08
04
ed
18
ee
df
0b
ee
f5
fd
e6
f4
ff
fe
0e
ff
ea
f1
fc
fa
fb
f6
f5
fc
ef
0e
ee
04
10
08
06
0c
16
07
f8
ff
03
ec
fd
06
ff
ed
f5
ee
e5
18
f8
ff
fc
f6
ff
e8
f4
0e
eb
11
f4
f5
0d
01
14
03
03
0f
01
08
f0
fe
03
05
09
ff
0e
f8
f8
ff
f9
01
f8
fb
fb
e5
f7
01
00
f8
1a
01
10
01
f9
ef
f7
0e
f3
f3
ff
01
f5
16
00
f9
ef
f2
01
17
02
f8
f3
02
fb
ec
11
fd
0a
f5
10
ff
11
0e
f4
12
00
f6
f9
0b
f0
06
f7
0d
f2
f8
e7
dc
f8
04
00
f4
0b
fc
f9
f4
09
f3
09
fc
f8
ef
13
12
04
f1
ff
f4
f6
08
0c
01
09
00
fe
10
0e
07
16
00
08
f0
fe
0c
f4
e5
02
09
0e
f5
fa
f6
05
f6
19
f9
03
03
0b
01
f8
07
fc
0b
f9
1e
16
e5
25
f6
f8
01
f8
ff
12
f5
f6
25
fc
10
0b
f1
02
01
11
08
02
15
fd
0c
f8
00
01
09
02
ec
05
0c
f8
01
05
03
00
e5
0a
05
f8
08
ff
ec
10
ff
05
f7
05
11
12
f0
04
05
fc
fa
ef
f1
0f
05
04
12
13
0d
f5
08
e3
fc
07
fc
f3
fe
06
ff
03
03
02
f8
f3
00
04
fc
f4
e6
fb
fb
fe
0a
07
ff
fd
00
0d
e8
12
15
0b
ff
fe
18
01
14
05
03
07
0c
f8
f7
fa
01
1a
ef
ef
f4
0a
21
09
ec
1a
fd
0e
fe
0b
f5
fc
15
0b
f2
05
fb
f7
e6
03
ee
ef
fb
0e
ea
f9
10
12
fd
14
07
fc
f9
f0
06
01
0a
05
1c
ff
03
0b
04
0c
fe
e6
fd
fc
fc
f7
17
fe
13
ed
fd
f7
fe
fa
02
01
06
14
0c
f2
04
09
fd
02
11
ea
00
03
1a
02
13
f4
d8
06
12
ee
05
e8
03
0b
25
fe
fc
03
0b
f8
09
13
09
f9
07
ee
06
04
f4
0b
f4
09
eb
fa
e5
ee
ef
03
11
07
e7
02
f9
e8
0a
fb
f1
f6
e4
10
f6
ed
1d
f7
f5
15
15
00
cc
08
f9
df
f9
03
ff
03
e7
fb
19
02
e1
fa
1f
ed
09
f8
1e
fd
03
ff
fb
f3
12
0d
02
fc
07
fd
01
08
0f
13
fa
fc
09
0d
01
f7
05
e4
ee
ed
0f
01
f1
fb
01
f8
11
05
12
ff
06
06
0c
f2
f4
e8
0e
f7
ea
1f
fd
06
ff
e3
ea
ed
fd
13
fc
d2
16
f3
18
0c
12
fd
e6
13
f6
0a
e6
fa
f3
09
09
fe
ff
d2
fd
02
fe
ea
0b
ee
0d
fe
f9
ff
00
fe
f8
06
fd
fa
f7
02
01
09
fc
eb
ec
df
06
f2
12
12
e9
f6
17
e9
f5
15
0b
f9
e4
fa
f8
1c
f0
fc
eb
fa
09
0e
19
ee
0d
0d
13
09
fe
0e
f5
03
08
0a
f6
09
00
0a
f5
11
0d
09
03
f5
12
07
0b
09
10
f0
0e
f7
05
08
00
02
fc
09
fc
fc
01
ec
1d
f6
0d
e4
f4
f4
0a
0c
0b
00
0e
f6
08
03
03
04
03
f8
05
12
f3
15
0d
04
f1
f1
fd
ff
ea
04
0a
e4
16
10
0e
13
ff
f7
fd
ff
fb
09
fb
12
04
f1
12
fe
00
fa
08
07
07
f9
06
07
0d
07
ff
10
ed
ee
11
fd
ff
ec
19
ff
ef
10
0e
f8
f4
04
fc
fa
ed
10
0b
df
02
0d
f6
fa
ef
fc
de
fd
00
04
0b
f3
04
fa
07
fd
fe
ed
26
07
08
08
f4
f4
fc
fb
f3
0f
0e
fd
03
dc
07
fa
f9
0d
f5
0a
f1
0a
ee
06
12
05
0f
08
02
06
0d
08
ef
fe
09
04
ff
fb
fd
fd
ff
ee
f4
fe
fd
f7
fa
fe
01
12
ed
f1
0a
10
f9
f6
f9
0b
fb
00
03
06
03
ff
f0
f7
ef
01
f9
ef
04
02
01
02
f6
0a
02
fc
f2
ef
fd
f9
fe
11
f9
f6
0e
06
06
0c
f4
fc
ef
01
0c
0d
06
00
fd
ed
fa
0e
0c
fe
00
07
fd
06
f0
fa
00
f2
f1
09
f0
ef
04
ff
fb
10
f4
fd
08
08
e5
12
07
02
ff
27
06
fe
13
eb
f0
17
0b
e9
f9
fd
08
05
f9
0f
0f
f5
1c
ff
ec
01
09
fd
fd
0e
fc
f2
f5
ee
15
fe
e6
f6
0a
f4
04
ec
05
0f
f9
00
13
13
03
07
02
07
03
01
05
18
05
f9
fd
06
01
1f
09
f4
fb
09
0c
00
15
00
fc
f7
f9
11
f4
ff
f0
00
f2
df
fe
fb
05
0a
07
f5
11
eb
08
ed
f3
ec
f8
da
fb
16
06
ef
eb
ed
09
14
0c
04
fd
01
f9
fc
00
10
06
0f
ff
09
eb
fa
0b
01
fc
fb
05
0c
ee
19
00
00
f4
12
ff
11
e4
27
f2
ed
0b
f4
f4
ef
f9
12
12
e6
03
0c
f3
01
03
19
15
e4
ee
ee
02
f3
e7
f2
0d
10
06
13
02
ef
0a
0d
05
04
d6
ed
fe
04
19
11
fd
fc
11
fe
02
19
f0
ff
05
ee
13
f5
ec
13
18
0a
0c
ec
1a
0a
0d
0d
04
e7
0e
f2
fb
ff
ec
0b
05
03
10
04
03
03
ff
fd
06
08
14
ff
f3
ef
ff
f8
00
01
07
ef
0b
ff
15
02
fe
ef
0a
04
f7
ff
1c
04
f7
ec
1c
ff
eb
12
df
ec
fe
f4
ec
f8
02
e9
fd
ee
14
f4
fe
06
06
03
0d
13
04
f1
fa
05
fd
02
06
f1
fd
ef
1c
09
07
f2
05
0b
f7
08
06
04
0e
03
06
fa
01
dc
0c
0b
f5
f6
0b
08
02
01
f7
07
fa
12
fc
02
01
03
f7
e9
ef
fc
fe
f3
f0
08
10
0b
06
f7
f9
11
0f
fb
0d
e2
03
0f
06
f6
f5
fc
0f
ff
05
f8
ee
f7
fc
12
04
ef
09
02
f5
fc
0f
e9
e8
0a
03
23
0f
eb
ef
12
08
08
fe
ed
0e
06
04
e7
10
13
0d
03
02
f3
05
f5
12
f6
e6
f1
13
04
f8
f9
03
01
12
0f
fc
fc
ec
d6
1e
e4
f1
f0
ea
f0
e8
f3
fa
03
01
df
0e
fa
f3
fb
1b
04
ec
01
07
eb
01
02
14
00
33
0f
e9
ff
13
16
0f
fd
fa
f1
0b
ed
fd
fa
f5
05
09
15
08
f6
11
05
df
04
05
f6
0c
f5
0a
16
03
1e
16
ff
fb
08
f2
10
04
f8
fb
10
e8
fa
e9
f6
f9
09
f7
29
08
f4
0c
03
12
28
f2
12
fe
0c
fa
02
fb
ef
e5
e8
fa
fc
f1
05
fd
0b
04
12
04
e8
17
11
08
00
00
f3
e9
f9
16
fe
ef
f3
0c
fa
19
ec
10
f9
02
06
0e
f7
03
1f
18
05
0f
25
ee
e0
f4
f7
fe
f0
09
e3
10
fa
12
e5
f5
04
f6
0e
ee
f0
f2
fc
e4
0c
d5
15
0d
e7
f2
0f
08
f8
00
0c
fb
09
07
f2
09
0e
e1
00
fc
fe
08
00
04
ed
e6
09
fb
ff
0e
0f
12
09
08
0a
03
e9
f9
f4
ec
fd
ff
fc
eb
f6
06
f3
12
15
fa
0a
fe
ff
0b
e7
13
f8
0b
f5
ee
f7
14
fe
fd
14
0c
f6
f8
0d
fe
fc
06
e4
f3
0a
f3
f8
f9
07
02
09
0b
1a
0f
10
18
05
07
09
e4
05
fe
00
06
f4
02
f8
eb
1d
1f
f6
0a
fc
03
0d
e9
fe
00
f2
f9
1b
f0
e7
07
f8
06
26
ed
fb
f1
eb
0f
03
ff
0a
fc
f7
08
0c
f8
02
fb
f4
09
f2
f6
f6
00
08
11
16
f9
0a
05
05
f4
09
03
f6
05
05
03
05
07
ef
fd
fc
00
f9
09
ff
05
10
12
f6
fa
00
08
09
ff
04
f4
f4
f3
f1
fe
f2
fa
f8
e4
17
fb
fa
0c
07
ef
f6
ec
07
f8
00
e9
fc
f4
04
f4
fb
10
e3
06
12
fc
fd
13
02
02
07
de
e0
12
05
14
0c
02
03
fc
19
e3
e4
2b
f9
fc
13
04
ef
f8
f0
fa
fc
08
27
17
fb
fb
0a
fd
f9
17
07
fb
f0
f0
0c
f5
04
f9
fd
d6
0c
11
f8
07
e8
0d
0c
e5
ec
2e
07
f8
01
03
ed
f9
1d
10
03
ff
0c
0f
f5
f0
f8
09
e7
f2
f8
f9
02
f1
07
f7
f9
ff
f8
15
fe
f0
05
f5
ee
fa
f9
09
01
f7
ff
fb
f4
fa
fa
f9
fa
06
f4
04
0f
02
05
eb
08
fb
0b
13
12
ed
01
f7
04
14
00
fd
eb
0e
0a
03
0b
ea
f9
f6
1b
09
f5
fe
09
12
09
eb
f7
06
fe
06
ed
ed
0b
0b
f9
f2
f5
0d
ff
f0
f5
09
fd
ef
fe
f9
ff
f9
02
05
ed
03
13
29
0a
03
0f
03
f6
0e
0b
0c
f4
0e
e3
15
03
ec
03
fe
ee
0d
0a
0e
08
01
0b
0d
06
fb
0b
f2
0e
02
fb
09
ea
ee
00
f2
f9
f1
16
f4
f4
ed
fb
fa
14
05
10
0f
1e
10
ed
f9
f4
19
01
f4
00
0d
04
0d
fe
0e
f7
fe
0a
03
fe
e9
00
00
02
fc
ee
f9
08
f3
09
fc
05
ed
fb
f5
fd
fd
11
f4
0d
10
14
06
03
f0
0a
12
04
fb
f1
11
07
ff
f6
1b
11
0c
f2
0b
05
ed
09
e3
fc
13
09
ff
0d
ec
fd
fa
dd
fd
0f
0d
0a
f4
e8
02
f8
f3
09
f7
0f
f8
e2
04
04
ff
ee
02
f7
dd
f6
fc
fd
00
05
fb
07
f7
13
f3
07
13
03
0d
f6
fb
11
05
01
f2
fc
12
fb
fa
01
fc
de
f8
ff
04
ee
0c
f8
fb
fa
e6
fa
fb
fc
fa
02
ed
0d
01
ef
12
fe
08
0b
03
09
03
f4
06
fd
02
f4
08
0e
ee
fe
24
00
00
10
f4
fd
1f
03
f6
11
12
00
0a
21
02
f4
1d
f6
f9
ef
f3
fb
fc
1d
f2
01
07
fc
02
f0
ee
f5
f8
ff
fb
14
13
f6
0d
f4
06
fc
0f
ec
ec
f1
fd
fa
0e
05
25
00
15
07
f6
15
05
fd
f5
10
02
ed
04
f7
f6
f3
05
0a
19
ff
0a
02
01
fc
17
0a
01
05
fd
ef
07
fd
f3
f6
fe
ff
03
f3
0b
00
01
03
fd
09
05
15
02
08
fd
01
09
ef
06
09
05
04
fd
01
0b
03
fe
f6
00
00
ec
08
13
04
f4
04
10
1e
00
09
fa
f8
0b
08
02
0b
fd
e9
fd
ff
02
ff
fa
e7
14
11
fc
0b
18
f8
00
17
fc
0c
05
fd
04
09
e5
06
0e
04
fe
01
10
0d
fe
1f
16
0b
06
f6
13
10
f1
ff
f2
02
0b
06
00
23
09
ee
17
ff
f4
ea
ff
fa
e8
f2
11
04
01
01
17
da
ed
06
ee
f8
f9
0d
fe
ff
04
dc
f5
07
0d
f3
ee
1a
02
f9
fd
fb
fb
02
f7
fd
15
ed
03
06
f2
11
f1
09
18
ef
0f
00
fa
ef
fa
01
08
fd
f7
0c
e7
f1
0c
fa
e7
01
0e
13
fb
e7
04
fe
fb
08
fe
f1
11
fc
f1
19
f4
e3
ea
04
03
ec
07
07
eb
f6
fd
e9
fa
09
f0
fb
14
f7
f5
ee
00
03
08
f5
f3
ec
02
05
0d
05
09
fc
f1
0a
0b
2c
fc
14
0a
fa
04
ee
f9
f8
08
0b
00
fc
10
f5
05
02
01
19
f7
fb
f8
ff
f2
f5
ea
fd
16
e7
fd
e9
1d
13
03
eb
0d
0c
fd
fd
fb
f3
f9
ec
0f
df
f7
f6
e7
f1
12
e9
e9
f9
fe
ef
14
0e
05
0a
f9
0d
02
05
12
0e
07
f8
25
f4
fd
f9
e7
fb
f1
04
12
e9
0b
eb
0e
12
f3
f6
03
0e
13
f5
0a
09
fc
fa
fb
02
06
02
08
fa
14
f6
0d
ef
e7
14
ff
f8
01
eb
05
13
10
0a
f5
f8
f3
0a
f9
f2
05
ff
07
f2
ec
12
fc
f7
f4
07
f0
f3
0e
fa
f5
0e
f3
f1
05
05
08
00
04
f6
fe
f5
07
fb
10
07
f5
ed
13
f8
fd
fc
00
13
f9
0b
f7
fd
ea
f0
f0
17
f6
08
fb
02
f8
ff
f8
ea
f7
03
0a
f2
ef
01
05
00
e7
ea
11
f9
f2
11
fe
fd
fd
f7
f2
06
f8
02
03
fd
01
12
ef
00
1d
0b
f4
f5
10
0a
f6
fc
f8
fd
14
08
ff
01
0a
fe
03
00
fd
ff
ef
fb
07
e9
f2
0d
ef
09
f4
dc
fa
15
06
01
11
17
0b
f3
06
0e
15
01
06
00
00
dc
fb
fd
11
da
ff
ea
0f
0b
03
04
04
fb
ef
00
fb
04
ef
ff
fe
fe
e5
fa
11
fc
f8
00
e8
07
f8
fd
06
0a
0c
ff
02
f5
01
0a
ee
06
d1
e6
0e
07
00
06
ff
0a
fe
03
ff
03
05
e8
e9
00
ec
fd
07
04
ed
eb
f9
04
06
02
fb
10
fa
08
1b
f3
f4
0d
02
f0
ec
fc
f9
fa
03
1c
ff
01
f8
e8
ee
1b
00
2b
f3
07
f0
fd
0e
06
0e
0a
f7
ee
eb
fa
0e
ff
fd
02
f7
0a
f3
fc
fb
02
fa
fa
04
ff
00
14
14
09
fb
fb
08
17
f2
1c
16
eb
fd
fe
fa
0a
fa
f6
f6
0f
1a
13
f2
fb
fe
fc
fe
01
09
14
fd
ff
fe
08
0d
fc
ee
1f
0e
0e
df
18
f8
0e
f5
09
f8
f8
0b
0b
fa
f0
fd
11
0f
f5
04
08
fd
ed
0d
11
08
f6
df
1b
f6
ea
f5
fc
f9
08
18
05
1d
f7
f7
2b
04
02
19
fe
03
f3
0a
0f
ec
12
05
0c
01
ff
1f
02
f8
16
e0
0d
ff
fc
07
03
0d
06
f5
eb
14
f2
f7
f8
08
ff
fb
f8
1e
11
ed
f7
01
fc
05
07
f9
f1
14
ee
f3
01
ec
ed
02
06
02
04
ff
f4
fe
10
1e
f2
15
ef
fb
f3
f2
02
00
f7
f7
01
07
05
0d
fc
f3
02
f1
f7
00
fa
03
fe
fa
0e
fc
e2
0b
fa
02
fd
09
04
fa
0a
fa
14
09
13
04
10
02
0a
09
07
13
fd
1e
01
f9
08
06
ef
f7
00
11
ed
11
03
ed
1a
f2
f7
02
06
ef
fa
f5
07
f4
f8
09
02
09
03
f2
f1
19
f1
09
1d
23
f2
fd
f3
f6
dd
e8
ec
f5
01
17
09
20
f6
f9
04
06
04
13
f5
fd
fd
05
08
ec
ef
fe
25
22
fd
fa
04
f3
16
00
01
03
f6
03
00
fb
15
f5
eb
e7
fb
f2
fc
e5
ee
18
02
09
01
fc
fc
09
ed
d9
fe
ef
01
fc
03
06
08
ed
03
10
e9
1e
fe
0d
f8
eb
12
04
f0
06
10
15
f7
f9
e3
f6
ec
22
04
e6
e9
03
e8
fe
0f
01
0c
0a
f5
0a
fb
18
f9
fe
0f
04
fd
00
08
12
fa
15
03
fc
19
06
12
03
0e
02
05
08
08
ec
0e
f2
04
f9
04
0f
f5
e9
e9
f6
f2
0c
ea
0b
ff
fd
fa
0a
fd
f8
10
f3
fe
f4
0a
03
fd
f6
03
f5
fc
00
f8
01
04
f6
e3
f7
fd
fc
0e
f4
14
01
07
09
02
fd
0d
fa
03
fb
fa
1b
f6
08
e8
02
ed
fb
f6
fc
e4
00
fe
f0
e9
08
03
e1
f1
f2
ec
09
0e
fb
ff
fb
0f
0a
fb
ee
0b
ea
df
de
fe
1c
f4
09
15
ff
02
02
03
01
ec
11
fb
0b
03
f5
07
01
fc
13
03
10
02
06
fa
05
00
f2
03
dc
06
f4
0d
ee
f9
f9
fa
fe
e6
f7
fa
fc
06
01
f8
09
13
fc
ea
0b
05
fd
0e
f2
f3
02
02
fe
fc
04
f0
fc
fb
f9
f9
fb
00
00
0a
10
ff
01
00
fc
f4
19
f6
e0
fd
f5
ff
fb
f9
fa
11
f0
09
0f
ee
fe
fe
f3
0c
f2
06
e5
04
f9
f4
05
1d
06
1b
f9
08
0e
fc
0c
ec
fa
f2
f8
ea
ed
01
03
0a
fe
0e
fe
0c
ea
17
05
09
05
e8
1a
13
19
10
0c
0a
f2
eb
f0
f6
e6
02
f3
e9
04
21
08
02
17
06
06
eb
fd
0a
f6
fa
01
15
f5
ec
04
f9
07
0b
ed
02
f0
f9
13
07
fb
12
01
11
00
e9
12
24
f5
f9
0b
0f
f7
e8
f2
09
f7
e5
17
05
f8
fc
f6
f7
08
ff
08
05
0b
f8
08
02
e0
f1
03
0f
0c
fd
f4
f6
02
f5
f2
16
fa
26
0d
09
e6
15
f6
00
fe
ff
05
10
eb
ec
f8
ee
08
00
23
1b
09
f0
fd
10
f7
0f
12
fc
f4
09
ee
16
0c
00
f4
e3
2b
f9
17
04
0a
e0
04
f8
00
0e
0f
e0
0e
f8
fe
f8
d2
21
ef
07
0c
00
0e
09
f6
01
ca
f0
fb
ff
f1
06
fe
10
07
03
19
1d
12
02
f9
01
0d
f9
00
f8
fc
ea
05
03
f5
f0
01
f4
f8
01
06
10
f2
f8
0a
02
0d
fb
02
0e
02
fc
f0
11
1e
17
00
03
f3
02
13
fa
f7
f2
f2
f6
05
09
ee
10
ed
f7
27
09
0a
f8
18
f8
15
09
e2
f3
10
16
f7
0c
11
0b
08
fc
f1
e9
f9
f8
03
f2
0f
f6
06
f1
03
f3
09
05
05
e4
0b
01
19
09
f7
1e
fb
fb
03
fa
07
fe
0b
09
00
02
f2
ff
18
f6
00
11
e6
08
0d
ea
f6
f6
01
f9
ff
01
01
fc
08
03
03
01
01
02
0d
05
fd
ff
1a
01
01
f8
0f
01
f8
f4
fe
16
f8
fd
fc
f6
09
07
03
f1
fb
07
fd
07
f5
fb
e8
f1
09
ea
f6
f9
0d
03
f6
17
0a
fb
03
02
1b
03
02
0a
fb
0c
fb
f6
0e
05
0f
fc
e4
08
07
f2
06
01
05
f9
f7
f7
06
08
fe
f7
fb
07
e8
fa
0c
0c
09
09
fb
05
0c
04
f2
f4
0a
08
f7
02
f3
f7
01
16
02
0b
fc
ff
13
f9
ef
f7
08
ff
f4
10
03
05
fe
02
f9
f1
fe
ff
f4
11
fe
00
12
0b
f1
ef
f9
f9
f7
fc
0b
01
06
03
0c
ee
01
e4
07
06
04
02
0a
fe
07
0a
06
f3
f0
fb
01
02
05
14
06
03
ef
f7
0d
0b
01
fe
f8
fc
02
09
f7
f5
00
0a
03
0f
08
f4
f8
0f
04
0c
06
09
0c
1a
fe
00
03
10
08
00
09
fc
fe
21
08
0c
f4
1e
ec
f5
f7
ea
f1
12
ff
ed
ff
06
02
16
1a
18
fd
fe
06
f5
01
f7
24
1b
1c
e9
01
02
ee
ff
f2
03
fb
ff
f9
0c
0a
f8
0b
19
20
00
01
ef
f8
10
f8
f9
fc
ff
1c
04
1a
01
07
07
02
f4
e3
08
fe
0d
06
1b
00
0c
14
0c
03
e4
08
02
fd
ea
e9
07
fc
f8
00
0c
f1
06
f7
03
00
05
f9
f1
f1
09
f4
03
12
f0
d9
f2
fb
f3
fc
1b
06
ff
f2
01
19
09
fb
ee
f1
e6
f4
dd
00
fe
f3
07
fa
f7
19
02
ec
05
0c
f8
19
f5
08
ec
10
f8
08
ea
f8
06
01
0a
df
05
f5
03
17
0e
f7
f4
09
03
f2
fa
f9
e6
f3
05
f6
01
f5
f9
ff
0a
07
0d
05
f8
01
13
eb
03
f9
f7
0d
f0
f8
e9
14
ed
05
ff
ea
ef
f9
fd
f6
fe
fa
07
f5
ff
03
f7
01
05
ea
f1
e9
f7
08
0a
0b
0b
fe
e9
09
e7
24
0a
ec
f3
f8
f1
01
02
19
f7
f5
16
01
05
f3
04
f3
f4
f6
fc
07
0a
28
08
1b
f9
07
00
1e
03
01
ec
0f
ff
0e
12
05
02
ff
e9
11
f8
fd
18
05
f4
0c
ff
05
12
f7
09
0a
1a
fe
17
0a
fc
02
0a
05
f5
fb
ff
fe
18
00
17
0a
fc
08
ec
0c
00
05
f7
08
fe
f0
00
15
fb
f4
fb
ee
0a
07
04
10
e3
e9
0a
f3
1f
02
f9
f3
12
20
f6
03
04
0b
ed
12
f6
f0
ff
fa
fc
01
ff
1c
fb
ff
ff
fd
fc
14
0b
0c
ef
12
06
ff
0f
e5
ed
f8
1e
f8
02
0e
18
f8
00
0a
04
f9
f5
04
06
f8
f6
fe
ff
fd
05
06
fb
04
fc
fc
17
14
07
f7
01
02
f8
00
19
03
fc
03
ea
00
08
18
04
09
f1
e8
ff
00
0b
e8
fe
0e
0d
0d
03
f9
03
f8
f6
04
fb
13
07
ec
f6
f9
02
0a
f7
05
ec
09
0b
03
05
00
ef
04
fc
1e
06
1f
f9
0d
12
ef
08
07
fa
ee
fe
fb
fa
04
f5
14
00
e1
07
ea
f9
0a
0e
01
fe
fd
06
0c
04
f4
fc
14
05
0c
05
01
12
04
f3
18
fc
fb
ff
ed
19
02
06
0a
0c
16
f9
fd
fd
eb
e3
fe
f5
08
02
15
f2
fa
fb
f7
16
f9
0f
fc
0c
0f
02
1e
f6
02
fc
f1
fc
07
0c
01
01
13
06
11
0c
07
02
13
fa
0a
07
eb
05
f9
05
fe
07
f8
fb
01
02
10
08
ff
01
ff
0b
05
03
0d
0b
11
f7
f8
d7
09
02
ff
04
f4
05
f8
ef
04
10
f7
14
01
f5
de
fb
0b
ed
ef
13
19
17
03
fb
0d
fe
e6
0a
15
02
fa
f0
15
db
18
0c
11
f8
f5
0f
1f
da
ff
fa
02
0a
04
fd
e6
ef
15
f7
f8
06
05
10
04
02
14
f0
e2
0d
04
fd
ec
ea
0a
07
fe
00
00
12
15
fa
0b
02
f4
f9
26
f9
12
fa
ea
f2
ff
fd
fa
ed
fc
ff
fb
fe
ff
00
ec
02
02
ff
00
0d
06
f8
fd
fd
09
0e
04
ed
05
fd
15
09
ff
f7
16
ed
0c
fd
f7
00
f6
15
fd
ea
06
07
0a
dc
e6
05
fd
19
e6
ed
01
17
fa
10
e5
08
09
0e
06
fd
0b
f4
ed
f2
f2
ed
11
f7
14
e0
f4
ef
ee
07
fe
02
14
fc
ef
ed
0e
fd
fe
fd
19
e4
fe
06
ff
f5
eb
eb
0d
f5
fe
fa
f2
ef
f7
f5
0a
fd
04
07
fc
0c
f6
ef
09
fb
e7
0e
00
e3
f1
e2
ef
00
1b
02
ef
19
04
0a
08
09
fb
ee
0e
f0
01
06
02
eb
0b
15
fd
f0
ed
0c
ee
08
00
f9
e6
f7
03
f9
f3
0b
f9
01
04
0e
12
03
fe
fa
f1
0a
fa
f8
02
fb
0e
01
18
04
10
ff
ff
1b
02
f8
11
ff
04
e8
f2
ff
f9
06
01
ec
0c
02
0d
f7
01
ff
1f
f6
ec
f7
e8
11
0a
f3
f4
10
00
03
f0
fe
ff
f2
ef
fa
f5
0d
e7
04
f0
e3
07
03
f4
05
f2
f1
f9
fe
0b
f9
f1
16
ed
f7
01
0e
ef
f7
08
17
06
ff
03
12
04
f0
03
fe
fd
fb
0e
00
fc
ec
0c
ff
03
e6
ee
0e
fa
fb
09
f9
05
04
f1
06
f1
f5
14
12
1a
14
fb
08
18
0c
11
08
ea
08
17
fc
07
00
e9
ee
0d
03
ed
03
06
0d
0b
01
08
f5
ef
ff
fe
09
f5
09
fd
f8
f3
01
f4
11
e3
13
01
fd
01
fa
f3
0a
08
00
fa
10
09
03
00
07
11
04
fd
fe
06
05
03
f8
fc
f1
fa
03
fc
fb
f3
e6
0c
ff
0c
0c
13
0b
ed
f5
ff
01
05
f7
09
fb
02
04
14
f4
01
08
04
f0
01
13
f6
03
0a
f8
00
0f
f6
f8
0a
f1
f9
ef
f6
fe
ff
fd
06
f8
f5
09
0e
00
f9
09
f8
f5
04
05
06
0d
fb
fe
10
f0
fe
fe
10
02
09
0f
fc
04
06
01
08
f5
e2
17
02
fd
06
05
10
f8
ff
f1
f5
12
0c
f9
0b
ee
00
e8
fe
07
e1
03
fd
f5
02
0a
0b
fe
f4
0e
00
fb
13
00
dd
fc
07
ee
f5
ef
f7
fb
f8
fb
ff
03
fe
ed
01
f6
17
09
eb
0a
f3
05
f9
05
f6
01
07
20
07
e1
00
f7
1a
05
f4
ea
fd
0c
e6
00
07
f8
f2
f7
27
0a
fe
f6
fd
01
07
fe
12
f6
01
fd
05
f5
01
fd
fd
f5
10
02
ff
fc
f0
0b
f8
10
f2
04
f8
0e
0a
f8
05
fd
dc
f1
f7
fa
0c
fd
1a
0c
07
12
fe
f9
11
0a
09
04
10
fd
fb
e0
10
ff
f5
02
08
e6
f3
03
13
f5
f6
e8
0f
17
f1
05
0f
03
fe
09
24
05
07
ff
09
e9
f6
e8
f5
eb
fe
fa
fe
0a
ed
f7
01
0a
07
fb
fa
ef
15
01
06
e3
14
04
f0
1e
ed
ec
08
ff
f0
fc
f9
f1
fa
04
fd
05
08
fa
03
fd
16
0a
fb
db
03
01
fb
f0
02
fc
fc
0a
fd
07
ff
09
f9
ef
07
ff
fd
f6
0c
07
11
f8
01
f8
04
00
13
f3
f6
ec
ff
08
fd
04
03
fc
04
fc
0a
ff
02
00
02
02
fd
0c
03
0e
11
02
0a
fd
fc
01
08
0e
15
e9
0e
0c
f9
04
f3
fd
f9
07
fa
04
fe
fc
01
00
05
ff
07
1b
ef
0a
1f
09
f4
fc
f8
0b
18
ff
08
09
20
ff
13
1a
fb
fb
01
08
0d
0f
05
00
fa
f9
f0
10
f4
0b
e6
11
e7
ec
e7
1e
fd
1b
10
f8
fa
23
f7
f8
08
00
f9
01
08
fe
13
0f
07
04
09
fe
01
fa
29
f9
da
14
ed
fc
07
ff
fd
f6
04
f6
fd
06
03
09
06
fb
f2
fc
01
e2
d5
11
e7
01
06
0b
07
e8
07
ff
fb
ff
fc
f9
ec
ff
00
e5
04
f5
f0
06
05
19
fe
07
04
f5
0f
e5
fd
03
09
06
01
f0
f3
16
04
01
ee
07
ff
ff
f0
fb
14
f3
0e
fe
e6
f0
f6
f4
fb
fc
e8
0c
09
02
fa
00
fb
10
06
e3
f5
05
01
0a
03
18
0d
ef
f9
ed
fe
02
0e
f6
0e
06
04
f7
fb
f4
f4
0e
f9
01
01
ef
08
f6
0a
13
fc
02
f7
fa
09
0d
0b
1c
ee
f7
00
0e
f2
fb
0a
f3
f3
0f
02
fd
f1
0b
ef
04
e8
17
10
f5
11
f6
01
04
f5
26
f8
09
17
1a
0f
08
fb
04
f7
04
03
04
04
20
06
f4
fa
10
0f
fe
ec
01
01
f5
ff
ed
05
12
08
e6
09
f8
0a
15
01
ff
04
f6
09
14
07
f6
f2
09
f9
0e
fc
f1
01
eb
12
11
0c
f5
fa
ff
fd
eb
f3
fd
07
0b
f2
fd
0a
fd
09
e8
04
05
f8
06
ff
ec
ec
01
f3
e3
04
05
04
14
05
fd
08
05
06
0b
0c
0b
fc
fe
fe
00
ef
1e
f5
f8
f7
f4
03
0a
0b
1a
19
ff
eb
01
fa
0c
f8
07
08
07
1c
19
fa
f4
05
04
05
02
f5
f6
07
ff
0e
04
fd
02
05
f5
1f
0c
19
f6
f4
09
03
04
ff
fd
e8
04
27
11
f9
f8
17
f5
05
ee
f8
09
03
e0
ee
0b
f7
fb
ed
01
12
ff
1a
fc
00
ed
ed
fd
01
0a
ea
0a
01
0a
fa
0e
08
ef
0e
00
ed
f0
fc
fc
fe
04
03
e7
07
f5
07
f8
02
11
ee
e8
ff
f5
02
0e
ec
ea
f4
06
1c
f7
f6
05
03
04
04
1a
fb
0d
fb
fe
0c
f1
fb
e9
14
f1
fa
e5
08
fc
08
1c
02
10
13
14
f9
0f
f7
f7
00
0a
01
fb
17
f9
ee
0d
f2
fc
fd
00
00
08
e7
06
07
03
f4
e7
fa
08
09
f4
f8
0e
f2
12
17
f6
fa
01
17
ff
09
0f
fe
16
fd
f2
0d
d6
07
05
fd
12
1c
f5
f3
fb
f6
ec
eb
0e
02
08
fb
fd
ee
fc
17
fc
07
f8
fc
ef
f8
05
f8
02
f7
ee
fb
0a
0d
0d
eb
0c
07
fe
14
0f
06
08
08
f7
fd
f4
05
08
0d
0d
09
01
13
ff
e7
fd
f7
f7
f7
f9
f7
f4
fc
0a
02
f9
ef
0d
04
09
f9
16
ef
05
0f
fb
01
0c
fc
f8
05
05
0a
00
f4
03
fb
04
fa
13
f5
07
02
fe
06
f5
fd
1c
05
ee
f6
00
05
03
01
fd
02
08
f6
0c
f3
fd
08
14
fc
ee
f4
03
fc
fb
0d
fc
f1
fe
fb
fe
05
0d
fe
08
10
01
08
03
07
05
fc
07
0c
04
f7
03
e5
f4
14
0e
f6
fc
e3
f8
0d
06
01
f4
fa
0a
e2
1e
07
0f
0c
ea
fd
f7
e7
ef
ef
04
10
f6
11
01
0a
15
0f
fc
fd
fd
e1
f6
01
e2
15
08
14
04
08
f4
06
0f
06
ed
f9
01
01
15
0d
1a
ea
fe
06
0a
f9
09
06
ec
f4
0a
16
13
eb
e9
0b
0f
04
1b
10
04
06
03
06
03
16
12
f4
09
08
02
1c
0a
fe
f5
0e
1d
06
05
f2
eb
21
de
fe
ed
0f
fb
04
08
ec
f5
04
f7
03
02
00
09
fb
09
fd
1d
f8
fb
ff
f5
06
e8
f9
e8
fe
17
08
e0
10
0e
0a
ef
11
f7
15
fb
0b
00
0b
fb
fc
e2
0f
12
08
02
e0
0a
fe
06
ee
0a
04
0a
e9
16
0e
f2
f1
06
07
ee
ff
08
01
02
0b
fa
fb
f5
1d
e6
09
f5
04
f1
1c
ed
fc
17
e3
ef
02
f1
0b
03
ef
f1
0c
ff
ea
f4
f0
01
01
12
ec
f6
16
01
10
03
0f
07
e5
fc
fa
16
12
0c
fb
f3
fb
0d
ff
ff
fa
14
00
0a
fa
fe
09
e1
18
fe
04
f2
f7
15
05
fb
0f
0f
ea
08
18
02
0d
f2
f6
f7
0b
00
00
fe
04
0c
ef
0a
02
f2
04
08
09
08
f8
fd
eb
0d
f8
fb
fa
0a
01
02
02
0b
10
0c
fe
f5
fa
07
15
07
f0
fa
f5
fe
f3
ef
06
0a
05
02
10
fd
05
f4
07
0d
f7
02
11
03
ea
01
f7
ee
fd
f0
e7
f9
0a
03
f2
05
ef
00
1a
f3
fd
03
ff
fb
06
f9
fd
07
e6
f5
09
04
04
09
15
f0
f0
03
04
fb
00
f1
e5
fe
fa
fd
02
01
f7
02
0b
ed
f2
f1
00
08
f3
09
fe
09
fb
0d
f6
fe
fa
e8
f8
0b
06
e3
fc
08
06
f1
f9
ef
f0
f6
fd
12
14
fb
eb
05
f5
0f
08
01
f5
ef
11
11
e8
f9
f1
fa
11
e6
06
e5
22
05
05
0b
06
11
f0
08
0b
fe
0d
f6
fc
ee
e0
0f
0f
07
eb
f7
15
0c
de
17
07
05
f8
e1
06
f9
07
f1
f4
fc
f2
e7
e0
f8
e9
f9
09
0e
fb
10
f9
16
14
0f
f8
06
04
18
f8
08
05
05
fb
00
1e
fc
02
05
ff
02
08
00
f5
f3
f2
1a
0d
f7
03
0f
fc
eb
f6
ff
fd
01
0b
fe
09
05
fe
f7
11
01
21
10
f6
f3
fd
fb
ff
15
08
df
f5
e9
ff
ff
f3
04
fe
09
0d
ff
f3
f4
fd
ed
03
ff
03
05
0c
09
f5
f5
fe
06
f1
ed
fa
10
0b
f9
e5
12
0e
01
02
eb
16
0e
ff
f4
f8
f7
10
0e
f3
f9
0f
e4
fc
11
e8
06
ff
fe
ed
ea
06
fc
f2
fe
33
ed
ed
13
13
0a
0a
0b
05
07
fd
14
f7
f3
1c
fc
f5
15
eb
fc
db
09
02
04
eb
fa
14
10
fd
07
0b
f7
00
f2
f4
14
1f
f9
0e
0b
09
20
0b
fd
e8
02
0e
ee
f4
f5
0a
0f
fa
12
02
03
ea
00
13
04
f6
fd
13
0d
fe
11
11
fd
f0
06
f6
fc
f3
fc
f1
0d
f1
e7
fa
00
0e
14
03
f9
11
f0
f9
04
06
ee
f9
f6
f3
05
15
09
1a
fb
0b
fd
05
1d
05
13
13
2e
10
e5
e7
08
f9
0d
ec
00
f4
0c
fa
eb
0d
f6
0c
00
f7
04
db
05
0f
fa
1c
15
04
03
ff
f5
03
f5
16
05
16
fc
05
08
fc
0c
10
0a
08
ea
eb
12
de
0e
fa
05
f8
fd
09
15
0b
fc
13
f0
04
dd
0e
05
10
03
13
10
05
0e
f9
10
05
04
01
fc
f7
04
fe
ec
08
1b
0e
e3
04
0f
0f
01
fe
11
22
0a
0e
07
03
f4
14
fc
ee
f1
f7
f6
0a
fa
06
f8
13
0c
f0
05
0a
01
fc
e5
fd
f5
f0
f6
f8
0d
fc
fc
13
f4
0d
04
f6
fc
05
e9
fa
02
fc
17
0e
e4
dd
03
16
f5
ed
f3
f7
0a
10
04
03
00
f7
06
02
da
13
09
04
f9
1d
03
ed
0f
12
0f
0c
18
fc
fc
ee
ec
ff
01
01
f8
ef
ec
e9
13
fb
f4
dc
f7
05
02
07
14
fa
04
fa
1a
1d
f9
f8
f8
f6
f7
15
ff
ed
e7
12
e8
03
11
ff
06
f8
fe
fe
00
1f
ff
f9
e5
fe
f8
00
06
1a
06
ed
05
ea
fd
22
03
04
15
ed
0a
00
f1
ff
fb
18
fa
f4
1a
f0
02
04
02
09
f9
01
04
0e
20
f7
f9
03
fb
ee
01
e9
f9
f1
f0
06
eb
11
fb
09
ee
14
ea
0f
e5
f8
09
f9
0f
08
ff
f6
03
ed
04
04
f3
08
01
01
ea
14
ff
09
f0
06
fe
f4
12
13
10
0f
0a
f9
fc
02
17
03
ed
f8
f3
0b
04
05
09
1c
fe
08
fe
fd
ef
0e
f5
07
03
f4
15
0e
09
03
05
09
fe
eb
20
ec
01
02
f7
f0
09
fc
f5
15
0f
08
04
12
20
f7
f1
d9
fc
0a
0b
f4
04
e6
fc
ef
ff
e6
fd
ec
f7
0c
fd
07
ea
04
f6
02
fe
0c
04
fd
07
f9
07
04
f9
00
0d
0c
0c
02
f5
fc
23
fd
f7
11
08
0b
01
01
18
f4
fa
0d
f9
04
f4
15
fb
04
0e
fa
f7
09
0a
06
ec
ff
08
fb
f9
0b
02
f8
15
01
f0
fe
06
14
08
05
f3
0c
08
09
ff
fc
fb
06
01
16
f5
0b
17
05
e6
0e
ff
06
f2
0f
f3
eb
06
f9
0b
01
01
0e
fe
00
fb
0b
18
fd
03
07
01
ff
fc
f7
e6
01
00
02
03
f2
05
0b
fb
12
1d
fa
0a
0b
00
0c
e4
f2
14
f9
1a
ef
fa
01
08
f8
fe
11
15
09
f4
02
13
04
02
0a
08
f5
0d
f3
fe
17
04
fc
fc
00
f4
00
fe
f6
11
fb
0d
f9
f5
0a
f5
02
f6
e1
10
fa
f4
10
16
04
01
0e
07
fb
07
10
eb
fd
fe
fd
f5
0a
03
09
06
02
00
fe
01
fd
f3
fc
16
f2
04
fb
f2
02
0a
fd
06
08
de
07
fb
04
08
f2
f9
00
12
ef
fd
f0
ff
04
05
05
fa
05
ed
02
00
fb
08
e5
13
fc
f4
0c
00
0c
f9
09
0a
0e
f2
03
00
ee
00
f9
fc
ff
04
f0
fe
12
04
05
17
f3
0a
fd
06
12
01
ee
fc
fb
0b
06
f1
fa
0e
ef
0a
08
fd
ff
ff
fc
08
f2
f3
fa
0b
fa
03
f5
f4
f5
15
08
0b
01
05
0c
01
11
0a
f8
f1
fc
fe
0a
ff
f4
f9
f7
13
0a
0a
ff
f7
f9
fe
ff
05
ff
06
ef
1a
05
ee
f5
02
04
f9
f1
ff
0a
ff
f4
f6
fe
fa
fa
f3
03
fc
f8
0d
05
04
f2
03
0a
ff
03
fd
f2
07
1f
04
0a
f7
f9
ee
fe
f0
0f
f8
fe
01
0a
ec
07
07
06
00
fd
14
07
ee
fb
0d
ef
15
ff
01
fd
eb
fc
ec
00
06
fc
03
05
00
0a
0e
06
fa
f9
08
0c
08
0b
fc
f4
07
05
06
fe
03
ee
e9
ff
08
09
03
fe
fc
fe
04
e7
15
14
0a
0f
02
1e
f4
f7
f3
ff
fe
f9
02
f9
03
ff
08
ff
04
fe
f0
fb
eb
23
0d
1e
fd
0f
11
06
ff
fd
01
ef
06
f5
05
0d
f0
06
f7
e3
f3
f5
09
01
0b
f3
00
00
f6
fb
15
f2
00
12
01
01
07
02
f6
0c
f2
f8
fe
f2
fa
10
13
13
04
f2
12
02
13
f4
e7
15
f7
fc
ed
ed
e8
fb
0c
03
16
05
fe
03
ec
15
04
f4
e3
ff
ed
0d
16
17
fa
e4
00
f5
f8
02
fe
f5
fc
03
f9
ed
fa
fb
f8
17
0c
0a
fc
08
e9
01
f2
0e
10
01
f5
eb
07
f4
fa
0e
10
ee
f5
eb
17
07
f9
28
12
0c
e7
ec
09
ef
0b
12
07
ec
e6
11
16
07
fc
10
e8
f4
eb
04
00
fd
05
fe
f9
08
fd
0a
19
f8
10
12
fd
fe
fa
f6
fa
0c
f7
fb
fc
15
f8
0c
ff
03
02
13
14
03
12
fd
f8
06
fc
05
ee
ef
d9
17
ea
00
17
03
fd
07
02
fa
13
14
08
08
03
21
f8
0e
08
e9
e7
07
0a
fc
f9
11
fb
f8
02
f2
01
04
f9
01
f1
02
13
e3
f3
07
fb
02
fa
fc
05
0a
fc
08
03
ee
ec
06
f5
0d
fb
fe
02
f5
e5
10
f4
15
0b
f9
f3
08
1b
0b
fc
f3
f5
0b
11
08
07
f4
f3
ef
f5
f0
09
0b
ea
07
f4
fd
0c
22
fa
fd
ff
0c
f2
0b
08
07
1f
08
05
05
11
15
ff
05
fa
05
00
04
ec
f0
f0
f6
fe
ef
f4
17
f2
0b
03
06
00
fc
00
e7
fd
02
0e
10
fa
0a
f2
10
08
00
08
f7
08
06
fa
13
02
fb
f8
f5
0f
eb
02
f4
17
0c
e8
08
05
fc
05
ff
f6
02
f9
1e
00
f3
ff
e9
10
0b
0b
02
f8
03
00
0b
f8
08
ef
fa
f7
f6
03
06
0f
fb
0f
01
0e
f7
f5
07
12
00
f3
fd
f7
f5
fb
f6
f9
fd
fe
f9
08
00
18
14
fe
04
18
fe
09
fa
05
08
e6
17
fb
fd
fe
00
f2
07
05
fa
f6
00
0c
0e
15
f5
f4
f2
0a
fd
16
f4
ec
f7
05
0a
05
09
f5
01
ed
12
12
0d
0c
f1
ff
04
fd
f5
fd
fb
da
f4
f9
19
00
03
19
10
e8
fe
02
f3
ff
0e
fe
f2
03
03
fe
fc
08
e8
06
10
03
e4
06
e9
f9
ee
f8
f7
f9
f0
0a
f9
02
ea
f3
07
05
f2
fa
fc
fe
1c
05
13
19
01
f3
f3
10
ef
07
03
04
ff
fd
05
09
06
05
05
f5
fa
f4
fb
f8
fe
03
07
fb
e9
08
06
fe
0a
01
fd
fd
fd
09
11
11
f9
0c
f8
08
ed
08
06
f4
f6
11
ff
f4
0b
03
ee
01
fc
fb
04
13
f6
0c
f0
f6
01
09
0b
fe
09
17
f0
f2
0e
e9
fb
fe
db
19
17
ec
05
1a
11
0c
f3
fa
03
25
e4
09
0d
f6
01
fa
f8
18
1e
e6
f2
fb
20
f0
ef
ff
11
0c
2a
da
08
00
2a
00
fd
0e
e7
03
f5
06
12
27
e9
d5
f6
d8
0f
0c
09
0e
06
11
e6
f4
ec
ff
0b
f1
02
16
fd
fc
f1
f9
0a
07
f7
e8
0a
e3
16
f7
02
01
fd
01
00
04
01
1c
1a
fc
01
1b
0c
00
fa
fd
fd
0c
fc
fb
f9
f2
04
f5
01
ef
fe
fd
f7
0c
0e
15
13
fa
e3
12
09
fc
f0
13
ff
09
07
eb
fb
fe
f5
f2
f9
fb
e9
11
fc
ee
fe
ed
08
f7
f2
f4
04
f9
00
f3
12
0a
04
f9
00
0a
0e
ff
ff
10
0c
06
04
fe
0a
f3
00
f0
11
0a
06
09
07
f8
05
0f
01
f9
00
07
07
e5
01
ef
e3
f8
02
eb
ef
09
fc
09
ef
e4
00
1d
03
fa
f1
11
02
00
04
f5
fc
06
00
fa
f5
f5
fc
0d
fe
fd
f1
15
0e
0c
08
f7
1f
1a
05
ee
11
16
f0
01
fb
0b
df
1d
0b
0c
06
fa
04
fa
f8
09
06
0b
0f
04
15
f4
fa
03
01
11
fd
ef
0b
0c
fa
f1
01
ff
ff
f3
10
01
f8
f9
09
ec
08
0d
0a
fc
f3
1b
ff
ed
0e
03
0c
f6
f5
e4
eb
fd
0a
15
16
0a
04
e6
ed
0b
02
f9
f9
f8
f9
00
0b
f3
02
0c
fa
13
f6
00
0d
f7
04
0b
08
e8
0c
0e
f9
e9
02
f6
fe
fd
06
02
0e
ff
0a
f4
06
ed
04
01
0e
e7
fa
04
12
e4
ec
f4
1e
f4
f7
01
fb
2b
f9
01
0c
f4
0b
f1
ed
05
ee
f4
0e
fa
fa
f3
fc
f5
09
0a
0f
f6
07
f2
f9
0b
fb
f1
02
f0
fb
f2
0b
08
0c
ed
fa
10
03
17
00
f4
00
eb
fb
d8
f2
f7
09
fe
fa
0c
02
0e
f5
fe
16
0d
fa
03
1a
05
0f
03
ee
f6
00
fe
f4
05
d4
20
10
04
ff
00
16
f5
f5
04
ea
0a
08
1f
17
f7
07
f7
0a
14
f0
f4
19
ff
04
f9
14
fb
e8
08
07
eb
0b
0e
f7
f1
0a
ee
0a
ee
14
f4
07
f0
04
02
0e
0d
06
fd
06
09
05
f4
10
f6
fe
f2
fb
fd
f7
08
ff
05
15
fc
f0
e7
05
02
01
05
00
f0
f6
f5
10
0f
ee
01
fc
f5
f8
f2
04
f8
00
0c
fb
fe
fc
f8
10
10
07
06
fe
f7
fd
f4
03
12
0c
f8
f2
f7
f8
02
ed
11
fc
06
00
09
fe
f7
0d
fc
0a
12
f1
05
05
fe
01
f9
0b
ee
ff
f8
05
09
03
ff
f6
06
03
04
02
f5
f1
f7
0d
ef
0b
fb
09
e4
f8
fe
16
f8
fe
f5
01
1a
eb
14
f1
15
f7
fb
05
09
e7
e7
03
f3
f1
00
22
02
05
f6
fd
fa
14
fb
01
0e
0e
f7
0c
f9
0a
f6
f5
fd
fa
f7
08
fd
fc
fb
fc
f4
0e
f8
fc
fb
00
fc
12
fc
f5
f5
07
08
fc
02
f5
07
f0
fe
fa
f7
f1
08
0b
f5
08
05
f5
00
fc
10
f7
f2
06
05
02
10
17
04
f1
f8
ff
f7
08
f5
01
f5
14
fd
fe
06
05
03
ff
0b
f4
1d
fa
1b
f9
0a
0b
0c
ff
f6
fd
fb
ec
00
04
f5
fc
09
0c
04
ff
fe
0a
09
fa
0a
0d
00
05
00
fa
ff
04
e9
f4
fb
06
f1
09
07
0c
fc
12
dd
01
f3
01
01
fd
09
0b
ee
ea
05
0a
00
fc
05
08
0c
ed
00
ec
e3
f3
e9
01
f3
1c
01
0f
ee
f5
ee
0a
f4
fc
fc
0a
11
01
db
0b
ef
0c
08
10
f3
ef
01
ef
05
0a
f7
e3
f7
ed
23
f7
03
1b
0a
f6
08
08
13
01
12
fd
f5
fa
0c
fb
f2
0a
fc
ea
04
ff
18
f8
f5
0c
f6
04
f4
fc
ef
03
07
06
fa
f6
09
16
f4
fc
09
ff
0a
f8
14
fa
20
fc
00
ff
fd
05
1b
f9
03
f9
02
03
f3
03
fd
f5
f7
f9
09
f7
f2
f6
07
02
11
e6
0b
e6
ed
fa
f6
01
f7
0b
f7
f8
f6
ee
f7
01
18
f5
0b
0d
0c
0e
f6
fc
f9
03
f4
02
10
f3
f9
e9
07
1e
f1
01
f3
fa
02
1a
f7
0c
04
ff
03
ff
fe
f8
0e
00
e1
10
06
1d
0f
ea
1b
0c
0e
08
f8
ff
01
fa
13
fe
ee
ff
12
04
fb
f3
16
f7
02
0e
e9
f7
15
f5
01
fe
fb
02
fb
f7
06
0a
e6
fd
09
ea
f6
ef
fe
0d
f5
ff
0d
06
02
01
f5
0a
19
00
0c
0c
00
0d
ff
f3
e0
ff
15
02
f6
f3
fd
e8
f5
04
0d
ee
0e
f3
ed
f8
06
07
0f
eb
01
fc
03
01
ec
09
0f
dc
f9
07
08
fa
fe
de
f5
fb
ff
ed
ec
08
fd
fc
f9
ea
16
0e
f3
ff
f5
fa
1b
07
f5
17
02
ff
f5
08
fc
f8
01
06
fb
fd
fa
01
0d
04
01
1a
fa
f4
0e
00
06
05
0c
04
e9
e5
ed
05
fa
08
0c
00
05
0b
0a
f6
02
0c
fb
f8
00
10
f9
f5
f2
f8
0c
f7
0f
01
fa
fb
05
10
0d
07
f4
0f
07
ff
eb
06
01
fd
0f
0a
fb
17
0d
f9
f6
0b
02
0b
01
14
f4
f2
18
fe
f1
0b
0c
01
f8
ee
1d
08
17
fd
f5
fa
0a
05
ff
10
03
05
08
fa
08
01
f5
01
0e
de
f3
07
01
10
ee
fd
e3
ec
1f
fb
06
18
f4
05
fa
10
f2
04
fe
02
e7
04
e5
03
00
f8
fd
02
fe
f2
07
1a
ea
0d
07
fc
04
f4
04
fd
08
ff
00
03
02
eb
f6
01
f5
0e
f6
04
08
0a
0b
03
dd
fa
eb
e7
ee
f5
e8
f5
fb
fc
f0
fa
07
04
ff
01
07
10
07
f3
13
01
e3
03
f0
fe
0b
0d
fa
e8
02
10
fb
ee
00
f2
ea
fa
02
0d
05
e4
fa
e8
08
f0
fa
f1
04
f9
02
04
dd
ec
ea
06
09
fe
f8
f2
0e
fe
f0
ff
ea
fc
18
f7
14
fb
0a
00
fd
02
03
05
14
0c
0d
1b
f3
fa
f4
fb
f2
fd
15
f1
f2
07
0b
fc
fa
f3
01
e3
0d
fe
dc
ef
08
0e
23
e5
0a
f9
fe
03
01
06
eb
02
08
0c
11
02
f9
05
fa
f3
0e
fd
02
fe
06
f4
13
f3
fa
f8
f1
fc
f3
03
fc
04
02
f5
f5
fb
0c
0e
f7
fc
10
05
04
e6
04
0b
f6
f9
07
f9
ff
f4
fc
02
fe
0a
ed
ee
f0
10
0b
03
10
01
f5
f6
0f
16
06
01
f3
e7
f2
0c
e8
01
f0
f3
ed
15
1f
fb
fe
0e
fd
fa
10
f6
f2
f5
fb
15
21
00
f7
f4
fa
03
06
f8
f5
02
d7
0c
fe
0d
01
fe
f9
f5
26
ec
15
ff
13
f0
1a
fb
e6
0c
05
1a
d9
00
0e
1d
11
ff
f8
f0
f9
f5
fe
f9
00
18
e3
f4
ed
0e
11
0a
fa
01
09
f9
2a
1e
09
ef
15
ef
fc
fa
ef
f5
f7
05
ec
fe
11
06
ff
01
02
01
07
00
05
ff
f0
00
ec
fd
0e
f8
f9
f4
07
02
13
f1
01
18
16
f4
0b
14
11
03
ef
0d
f8
f2
f8
11
05
ee
f5
05
f2
f5
0e
04
0d
f8
f3
0f
fc
f8
f2
f2
f5
0e
ee
f6
06
0d
05
fd
04
00
ff
03
00
00
f9
fa
00
fc
01
05
fb
ff
f9
ff
0c
0e
10
06
f5
06
ff
19
03
08
f4
02
fb
04
04
02
ff
fc
06
1b
fc
05
09
ee
00
ed
f8
ee
0a
1a
f5
0a
08
fd
f7
13
06
07
f7
07
fc
f0
09
2f
07
01
f9
0d
06
f7
0a
fe
06
06
fa
fa
00
0f
01
ff
0b
0c
03
0d
f7
f0
fa
0a
0a
ff
f9
09
0b
fe
fc
ff
f9
07
fc
df
02
f3
05
17
f6
f6
fc
fc
04
00
fc
ed
06
e7
0c
eb
04
01
e9
00
e6
00
17
1d
0a
03
03
07
f4
07
f1
00
ff
e0
ff
05
06
09
f2
fa
00
06
f0
fb
09
f7
fc
ff
ec
eb
f0
0c
04
0d
06
fe
1c
f4
01
16
e0
ff
f1
f9
01
e4
f1
f4
19
e7
fe
01
22
e4
06
f8
fb
10
f6
f8
f7
f4
f7
fb
05
e6
19
d8
f7
ed
21
0d
ec
f7
0a
e1
01
e5
f0
1b
0a
1c
17
f1
fe
f8
17
f3
ee
10
f9
07
05
03
02
03
0e
d5
ef
ea
0e
fa
e3
f2
05
03
28
00
0e
04
cc
04
db
fa
f4
03
1e
f6
02
0a
fa
0c
e9
06
0d
fc
e8
08
dd
ff
0b
11
0f
ef
13
ed
ff
ff
07
f4
ff
f2
f0
f8
f8
fd
02
e3
f4
fc
0a
0c
04
1a
0b
ff
ed
ef
f5
f7
14
04
04
fd
12
01
00
0a
ff
fc
f4
1f
fa
09
08
12
ea
08
fd
f2
ee
f9
f6
09
f6
01
13
ea
ee
07
fa
0f
00
0a
0b
09
fe
0f
f7
f6
0b
13
02
f6
fb
08
00
05
16
04
fc
fc
ff
24
fc
f2
0b
fa
08
f1
02
f3
05
f6
e4
f5
f7
02
18
fd
fc
0d
ec
07
f6
f5
1e
fd
25
0e
f0
fa
fc
02
ee
00
f5
10
01
db
fa
0b
fd
0f
fa
0d
1a
ef
fa
fc
e4
ef
14
f2
01
ee
09
f9
f7
ec
e6
02
f7
13
01
07
1d
07
ff
f9
ee
fd
fd
fd
0f
02
fc
0b
fe
f9
ed
f4
ee
fe
ee
f1
00
ff
f0
fc
ff
f1
03
0b
fb
fe
f8
02
fe
fb
ff
02
f7
ff
f4
f9
fe
fb
06
25
f7
f2
04
13
05
0b
03
07
ec
07
06
02
05
f3
0b
06
f9
06
04
f1
fe
00
f0
f6
0a
0f
08
fa
0a
0c
12
11
f0
fd
01
08
01
00
19
09
01
13
18
0b
07
08
07
12
03
00
08
0b
0c
fc
ea
fa
06
08
e8
07
fd
fc
03
0c
fc
fa
0e
f6
f1
00
e8
03
26
03
f8
08
0d
f4
ed
fa
12
08
ee
ff
05
00
03
0f
13
01
0b
03
04
0b
07
07
fe
fb
03
fe
03
0c
fe
04
05
ec
10
05
00
02
0c
ee
01
05
08
00
f1
fc
fb
00
f2
f4
03
09
03
ff
fe
ed
e6
03
03
03
f7
03
f2
f9
09
03
12
06
03
ed
10
fe
07
01
f5
02
05
fe
f0
03
f0
ec
f9
04
fa
d3
10
18
00
01
f3
0f
12
fb
ef
02
fa
16
f7
fe
0f
ff
e9
0b
fc
05
fb
fd
fc
12
01
e1
f5
f2
00
19
02
ee
ee
0f
07
00
02
0b
05
07
0a
08
04
09
00
fb
10
0f
1b
0d
de
04
00
02
04
0b
0c
f3
05
0f
fc
07
f9
06
04
16
04
ec
ff
e0
00
07
02
ff
e9
09
ed
1c
fe
f6
05
0e
03
fe
fa
0b
05
fc
04
f4
f9
03
00
07
06
fa
06
0c
1f
15
ef
12
f7
0c
16
ed
19
11
fd
f9
09
f4
e8
fe
f9
e5
fc
ff
fd
0a
f0
fd
0b
01
00
f1
0a
fb
09
00
04
01
00
0f
0a
01
f9
f5
12
fe
06
fc
0e
08
07
0a
05
17
09
0c
fb
0c
f5
11
f9
fe
ee
0a
02
f4
fe
14
12
00
02
02
fa
ee
01
f3
f2
f2
f5
10
08
f5
f2
ff
01
ff
fb
fd
fb
ec
fa
00
fe
fa
08
0c
f7
01
08
fa
02
e9
16
fd
01
06
f3
e7
08
fd
ed
11
04
0d
08
ec
08
01
fc
02
fb
04
fb
14
fb
ff
f9
fe
03
0e
fb
f1
f6
06
f2
04
f2
04
e0
f9
01
04
f5
f6
0f
1a
02
09
15
f7
f9
ef
fb
0f
1b
01
fe
ef
1d
07
f9
10
25
d7
0c
0d
09
f9
02
12
fe
fa
00
ff
0e
f5
ed
06
0a
17
09
fc
ee
06
f7
05
f4
e1
f3
08
ff
fd
01
fd
fe
f5
09
06
0a
04
0b
f2
00
ea
07
05
fb
04
f3
0d
0f
14
e8
f9
ed
ff
09
00
fa
06
16
04
f5
fc
04
07
0f
f7
16
f9
00
04
0c
0b
fb
01
ff
f0
03
0d
0a
0b
f8
03
00
ff
04
08
00
ff
0f
ff
1e
fe
ff
07
0f
fb
f8
12
17
0a
fd
18
0f
1c
f6
04
eb
fd
01
08
0c
03
fb
fb
00
f3
f4
fe
01
21
15
fa
18
09
12
1b
0a
18
13
f7
10
03
f4
ee
07
f7
f2
04
ef
04
ec
f9
fc
e4
f3
fb
f7
f3
f4
0d
e9
00
16
da
13
09
00
09
22
fb
12
fa
14
08
04
fb
01
f0
f0
fc
fa
02
0e
14
f2
05
0b
19
f7
02
e9
04
01
05
08
03
f7
ec
20
00
f2
02
e8
f5
08
f3
09
dd
e6
f8
01
03
04
f3
fb
0d
f4
f1
09
e7
0f
1f
04
ff
18
13
f2
fb
f2
1a
e8
fb
07
e7
ec
fc
05
f5
02
f3
fc
02
ff
ea
1e
f3
fa
ff
08
fb
f7
f8
00
f6
f2
e9
f6
ee
e4
e6
0b
10
1e
fa
f9
ec
23
e7
17
f9
eb
eb
f5
f6
e9
00
f4
fc
11
ff
f4
fd
05
13
f4
f7
fe
fe
e4
fe
0d
12
ed
fb
fd
f9
fd
f6
00
e5
fe
01
fe
06
0e
08
f1
fd
10
fd
01
ff
ea
f9
fa
fe
0c
04
0f
05
0b
08
09
f3
14
07
ea
e7
09
fd
03
05
11
e2
ee
f7
f9
fe
eb
fe
0c
f4
f5
02
07
05
fb
01
fe
07
09
fd
00
ff
fb
f4
f9
f8
f5
ee
00
fe
02
f7
f9
05
fe
05
02
f3
fa
0c
05
fd
e3
f5
16
fb
f9
15
fa
0a
f6
eb
04
11
06
03
0f
fd
ef
e4
fb
16
e7
12
0d
e5
1c
f2
fa
f3
e7
01
f9
e6
ff
ee
06
14
ec
01
ff
ff
ff
ff
f9
07
f9
fe
04
f9
23
04
0e
fc
bf
ff
07
e5
f6
05
ff
fc
0b
0c
06
f1
06
07
fc
0d
08
fd
12
f7
e7
f0
11
e8
fd
ef
fb
03
04
fe
00
e6
e2
07
fc
f7
0b
fd
01
f6
00
00
16
fe
fb
fb
fc
00
fc
05
f8
0f
0a
fa
02
f4
01
e4
f3
f9
f5
04
fd
04
14
fa
eb
00
fd
ef
f5
02
f8
0f
06
04
10
0a
0c
ef
f9
ff
04
05
fc
0a
ff
fd
fa
fb
fc
fc
0f
05
f8
11
08
09
04
ee
fd
00
fd
e9
f9
fa
fe
0f
fd
1e
f7
fe
07
12
f6
fd
20
f5
04
fb
f5
f4
0b
16
f2
fc
f4
04
03
0b
f4
e8
ff
06
ee
02
ff
14
ec
f3
e9
18
0f
0d
07
fc
fc
e8
11
ea
f6
f3
06
ef
f5
ef
fb
21
02
fa
f0
1c
e9
fb
ec
eb
f1
e3
f7
0e
e6
f7
f0
0b
f8
f6
24
ec
1b
f9
08
00
04
fe
fd
07
0d
0a
09
0d
f8
17
fb
e4
fe
11
f9
f9
f3
df
fc
df
ef
00
f6
03
eb
f1
1f
f0
05
f4
f1
08
f0
fb
f5
11
12
fd
05
fe
03
fe
24
09
0a
01
00
f3
13
f6
f0
fd
ee
0c
ec
e4
fb
10
f4
07
f7
f5
ea
fe
ff
00
08
f1
f1
fe
10
f3
06
ef
f2
02
0e
0c
0e
ff
00
e3
09
22
0b
0a
11
15
ff
0c
e0
06
f3
e9
f8
ec
0a
fc
f3
ef
03
ee
f8
0f
02
07
dd
04
ed
fc
21
09
0b
fb
00
f9
0a
12
05
1b
e5
fc
fb
fe
01
fa
ef
dd
f6
0c
19
fa
1a
07
00
20
fd
f1
15
f3
e1
06
f1
0f
08
fb
fa
ec
f8
f6
05
fc
d8
2f
f8
fc
f3
d5
fa
0f
e7
ed
ee
fc
0d
f2
fa
f1
12
ec
03
0a
e5
ea
21
0e
11
04
0f
e8
fa
13
03
fc
13
00
f9
f8
14
02
03
d9
fa
f1
14
01
f8
ee
02
f2
04
05
f7
06
12
0f
22
f7
00
ff
1b
fe
1c
e8
ef
07
0d
fb
06
f7
ff
0d
24
0b
f3
fd
f3
ff
f4
f9
06
07
02
ff
f9
20
ed
f8
09
1f
fd
fc
ff
f4
09
fb
fa
e4
fe
fb
0d
f8
fe
02
fa
0e
f3
04
09
ee
08
eb
e2
0d
04
07
04
03
f5
f0
ec
12
0c
fb
11
0d
fa
f0
24
0a
04
e1
05
1a
e5
05
06
12
f1
1e
f5
f8
f1
28
1a
1e
d8
fa
0c
0b
fe
f7
ee
ef
07
3d
0f
00
de
f4
04
f3
05
0b
16
06
fa
ff
fc
06
fb
fe
e1
f1
12
f6
fc
03
02
fd
f7
fc
00
ff
1e
f2
0c
f4
df
0e
f4
20
f3
01
ef
e4
f1
08
ec
ee
1d
ee
f9
0c
04
f9
ef
fd
e6
0c
e7
0b
ea
0b
13
0d
e8
fa
fc
0e
14
00
06
0e
16
09
0d
f0
0b
04
18
ed
03
10
fe
07
fc
11
fd
f9
01
06
09
0c
0d
fb
0e
fc
03
fb
02
1d
10
02
0a
f8
f4
f9
0e
ff
f0
e9
f2
06
fa
fc
fe
08
08
0c
15
fa
fc
10
fa
00
fe
f3
09
ea
00
f2
ef
ff
0f
00
1c
04
0e
fd
10
04
13
04
0c
06
f6
ea
fe
03
07
f7
fc
07
0c
ff
fc
f8
fe
fd
e9
03
fd
02
f8
fe
00
f2
1b
03
eb
15
00
11
02
0a
db
f4
f8
0b
01
03
f0
10
fa
00
f9
04
fb
fb
fb
f9
ef
02
f8
ef
fe
fb
0c
f7
ec
09
02
1a
0b
fc
01
11
10
ee
04
09
ff
f7
1a
05
fd
fc
f3
fd
f6
f9
f6
06
03
0d
06
09
22
03
ff
fb
fc
f9
f6
e4
e2
f7
18
11
18
01
16
16
10
e9
0e
f8
e6
fd
0f
fd
13
02
fd
05
11
14
f9
f0
15
fb
09
ff
f8
02
f8
16
ee
e1
e8
fa
13
13
ee
f0
ff
03
05
08
12
e8
03
09
09
f8
0b
ff
03
00
06
05
04
0f
15
f1
f9
ff
10
0c
fb
08
f8
05
05
04
fb
09
06
f7
ec
09
07
fb
e7
1c
db
f4
12
09
d0
f5
10
f4
f3
06
0d
e2
17
f0
03
0f
f7
fa
12
05
30
06
fb
fb
f7
fa
07
0e
ff
fc
07
fd
06
ff
f0
01
14
fc
fe
0c
f7
f9
01
0f
02
00
06
fe
01
04
0f
0c
04
e4
ee
fb
f6
f4
fd
f8
f7
f6
14
00
fa
f1
f8
f9
05
ff
e1
02
26
f5
09
f7
05
fc
0a
08
05
10
14
f9
08
15
f4
fd
18
20
0b
f0
f7
f7
fa
fe
fb
02
00
fb
01
f8
06
08
03
fd
ea
0d
0b
f6
06
0e
e2
0a
05
0f
0c
fb
ea
f8
0d
f5
ee
13
fd
1f
03
0c
fd
01
f7
10
ff
eb
ff
f9
fb
f4
0d
f3
04
04
04
fe
00
2a
09
f6
f3
01
09
05
09
e8
02
06
00
02
dd
09
00
0c
05
e2
eb
ff
16
fc
07
f0
0b
f7
08
07
0b
0f
fb
14
f4
05
0e
0a
ef
05
0a
de
01
0a
fc
0c
07
fa
f3
f7
f8
04
ee
06
06
f9
04
07
03
01
1b
fd
0b
03
fc
09
fd
ee
f4
03
03
f3
0b
0e
05
08
fa
08
02
01
fd
fc
09
05
ff
ee
17
f6
f4
04
f4
0a
1a
ee
06
0a
12
f1
00
05
f9
e9
fc
20
f5
10
f2
03
ee
e4
f2
15
17
f9
f8
ec
00
05
e4
00
fb
03
f2
15
f2
04
e6
f6
ff
ee
f2
ef
ef
f7
11
0f
0e
05
03
fa
07
05
f5
0c
11
11
00
11
01
fd
01
12
09
0d
fa
fc
fd
e8
04
03
ff
1f
07
0e
f3
08
05
fc
01
fb
f7
03
1b
11
ef
f6
0c
02
1a
01
f3
fc
df
05
07
0c
1a
03
f6
0c
11
1b
07
f4
f5
04
18
f2
ec
fa
f5
0d
0f
fd
11
fc
00
f1
03
24
0e
f6
15
ef
11
ef
0e
f6
01
1b
e5
00
04
f9
f0
04
04
01
0f
05
ee
01
08
02
0c
fe
fe
f3
ef
16
00
05
03
0f
f5
07
e8
ff
0b
00
17
fa
03
12
ff
fb
f9
0e
ff
00
04
0e
f4
00
f1
0f
02
fd
03
e7
ff
eb
21
03
16
02
f4
f7
0c
fd
f5
04
f7
fe
0e
fe
10
0a
f6
e6
e5
0f
05
e7
fe
e4
fa
ea
19
ea
0d
0f
ff
f7
f3
0d
fd
05
fe
07
f7
09
00
0e
ef
10
ec
06
13
10
ed
ed
08
fd
f8
10
e5
09
fb
ec
05
08
0d
13
fe
0c
e9
00
e9
ef
e7
0d
ec
e9
12
ee
04
ea
f9
02
fa
f4
f9
f7
fd
07
1d
f9
07
f6
fb
05
f5
03
01
06
ff
01
fb
e9
07
11
05
09
19
04
10
fd
ee
07
ef
ff
ff
e7
0b
f6
15
0e
02
eb
0c
ed
fa
ff
fe
fc
fd
0a
00
05
f4
0d
ff
07
08
03
0c
02
09
fe
15
04
ff
09
04
ff
0b
0a
12
07
08
0c
ef
f8
f8
0c
f7
19
03
e5
fe
eb
25
ff
fa
0d
07
f5
0e
f1
ec
f5
06
08
e9
06
10
0a
e9
03
0a
00
03
06
f1
10
f8
08
12
2c
ff
0c
ff
0e
f4
16
16
06
f6
01
06
f2
ff
f6
f8
07
06
f4
21
0c
fb
f3
2a
ff
f9
07
03
05
06
fe
15
ec
00
08
0d
fe
0a
06
f0
fa
14
00
00
fd
11
02
07
05
f7
06
ee
08
f0
fb
fd
09
0c
05
f4
02
f6
f1
f3
fc
eb
fc
04
f0
f4
09
0e
ff
fc
09
08
fd
0d
03
f7
21
fb
09
f3
f1
fd
f0
07
fd
f9
e3
00
f8
f7
f8
f3
f2
ec
ee
fb
03
f1
fe
04
12
15
f8
10
08
09
fd
01
0c
f1
02
0a
f6
04
09
0d
fa
ec
02
06
08
f9
08
ff
03
f5
01
10
02
10
03
1d
fc
03
ff
fa
ff
ff
fb
02
ef
02
01
f0
05
19
f8
0c
17
0e
ec
15
08
fc
ef
e8
05
fa
f8
e4
07
13
fe
0f
12
ef
0a
fe
02
12
fc
ff
07
f0
06
07
f5
03
04
fd
04
fb
f6
04
08
f3
0a
10
08
fa
f6
02
ff
fd
ef
ee
14
f8
f1
03
0f
10
f7
ff
0b
fc
07
fb
fe
0e
04
13
f5
02
05
04
0e
f1
05
01
07
fc
ef
10
fb
f8
fd
ef
f6
fe
01
ff
f8
00
01
fd
07
13
ff
ec
0c
ff
01
01
0c
ee
e9
00
f9
e5
f1
0f
f6
fc
ee
fd
fa
fa
09
fd
0a
03
f7
05
16
01
ef
04
07
07
ed
0b
0c
ed
fb
f2
e8
0f
01
07
f3
0d
07
07
08
01
0b
fe
02
f8
10
ec
e1
08
f9
07
09
0d
17
f9
fb
0d
f9
01
f8
fc
11
ff
06
08
01
dd
09
ea
fe
f8
f5
06
13
fa
17
fb
08
f8
f3
f3
06
03
14
fd
fc
02
0d
14
f5
00
f0
fd
02
00
fc
f2
f9
0a
e7
ff
03
10
fd
13
05
0e
f0
ed
09
ee
fe
03
13
f5
ec
f0
06
04
0a
08
f5
0c
0a
02
f4
fc
08
0c
04
f8
fb
f9
00
ff
f2
04
01
06
fb
f5
0f
fa
e8
f1
fc
10
f9
04
07
07
f9
00
0a
03
f1
14
ed
03
05
02
fe
0d
0a
09
f6
04
fc
fe
09
fb
08
00
00
0b
ec
fa
04
02
06
08
1a
08
02
fb
0f
09
f2
f2
01
1a
03
fd
02
ff
0a
1c
f0
fc
12
09
f2
13
f6
f3
0d
09
f9
03
f7
fd
f6
ef
ff
0f
fc
f9
16
ff
ff
f1
09
f7
00
04
06
02
f1
12
0b
f1
ff
f4
0b
07
09
06
02
0f
0a
05
f6
1c
00
f4
f1
0d
e9
e7
16
0e
04
01
03
03
03
de
09
04
f2
06
fd
07
f5
10
0a
ee
e7
f1
fd
ee
ef
04
fb
04
f2
08
12
0f
0e
e5
09
f4
00
f9
e1
0b
09
f4
02
05
0c
fa
fb
f6
10
05
0f
eb
07
fc
f8
ff
12
f3
da
02
0c
04
eb
f8
03
08
fe
fc
09
fe
f9
f2
01
02
f4
fa
16
01
00
fc
fc
0d
fc
ff
01
f1
05
e9
02
05
f1
e5
00
10
08
f7
ff
f0
02
fc
f6
fc
fc
01
0c
fc
f6
08
fc
fc
0d
09
12
fc
09
f9
ff
f7
fc
fa
f0
1d
04
ee
fa
f7
f8
07
f1
f5
f1
05
18
04
04
f2
fc
10
0c
13
10
03
f4
00
0c
fc
f5
0b
03
04
07
ee
1d
12
f2
ef
f7
f2
09
02
ea
06
03
ef
20
f5
06
0f
08
02
0c
09
07
1b
fa
fb
fd
ec
ef
0f
16
07
ff
1c
09
f1
07
ff
0b
fb
f4
0b
f2
07
f7
f5
05
fe
fa
0a
11
f1
f0
f2
11
f8
f7
08
f7
01
00
fb
eb
f2
f8
ec
0a
22
ff
ed
06
02
fc
0e
11
fa
09
f6
11
16
0e
fe
f7
18
ed
ed
e7
f0
fb
fc
0c
e7
00
02
e7
1c
0e
f7
f4
04
f0
ed
17
fb
ef
14
03
fc
14
0a
09
f2
f3
05
03
07
e8
f4
e8
09
f2
11
02
15
e9
e4
01
fc
fa
0c
0f
0b
fc
1b
f2
02
13
0c
1e
f3
08
10
ed
fd
f5
0b
01
17
12
0c
fe
02
0a
08
09
f2
02
04
fb
04
05
01
04
03
03
04
fd
13
07
04
0c
f8
fe
ff
06
06
0c
f2
0e
fc
f6
ff
eb
02
0d
06
e1
05
f2
0c
f2
0d
fd
04
0b
0e
00
0c
10
f7
fb
0c
02
fa
16
fe
0e
f8
f6
09
f0
18
04
16
f6
f9
f8
f2
fc
05
0c
09
fa
e7
fa
00
f1
07
10
fc
0f
f4
14
19
17
09
18
fc
0b
02
0f
0f
fc
15
e6
fe
e1
f3
08
fd
f0
11
f7
05
f5
01
0d
0c
ee
fd
fa
fe
f5
fa
f8
02
17
04
0b
f1
f3
06
fe
fd
15
04
f2
07
e9
1c
f4
06
00
f2
f7
fc
f7
0e
ed
01
fe
0a
fe
02
09
09
fe
10
00
0f
fa
fb
11
f0
0a
fb
e8
05
12
21
e7
1d
f7
08
ed
f0
fc
f2
03
0d
04
0b
11
09
f8
f6
0a
17
fa
27
0a
f5
03
f5
f9
02
fe
f7
e1
ff
07
f3
02
f2
f7
02
04
09
0b
03
17
d8
f6
1c
03
05
01
fd
03
00
09
f7
f8
00
fc
01
01
07
f8
03
1b
fa
f9
0d
fc
0d
fb
e8
12
e3
14
0b
04
0d
ec
0f
02
0a
01
08
f6
fa
12
06
0b
ed
02
fd
00
0c
13
f2
f9
02
0a
f0
06
f1
05
f7
02
0d
08
fa
0c
fb
07
05
f2
fa
f6
00
fc
ff
09
ea
f1
04
f9
08
f4
f9
1f
fb
08
f7
f3
03
f2
0d
05
fa
07
ef
01
08
f0
f4
00
03
03
0a
01
01
f8
e6
09
0c
04
03
12
02
fa
f6
fd
10
fb
0e
ef
fd
00
f9
f1
f4
2a
0c
03
0b
e7
23
14
f4
fc
fd
fa
0b
f5
00
00
02
fa
f4
f9
00
ef
f7
1d
f1
06
f2
0a
fc
f0
f8
05
02
16
fb
f0
17
03
fd
02
f3
ef
10
0b
f0
f8
fb
fb
e3
f5
0a
fe
0a
11
f4
07
f2
07
04
11
f3
0c
0c
23
ff
0d
12
06
fc
f2
27
fe
e8
12
f2
e0
0b
04
03
fb
e8
0c
00
01
ff
fb
0e
0c
14
f5
1e
08
04
ff
01
f9
e6
0f
0d
0a
cc
f5
fc
03
fb
03
ea
e6
03
14
ea
13
f2
f4
fe
00
f7
04
06
0a
f7
db
fa
00
01
0c
17
ea
11
f4
06
0a
f4
ec
f5
ff
1a
fd
0a
ee
04
fc
05
0d
fc
0d
0c
f9
fd
07
02
fe
fe
0d
06
0b
f7
05
f7
06
10
0d
f9
f6
fd
0b
13
07
ff
f7
03
01
0d
f4
ed
00
03
0b
00
f9
19
0b
11
09
09
f9
f9
06
19
0c
15
f1
0c
e5
f0
fa
f3
f1
fc
0a
f3
05
03
fe
ff
07
07
e7
06
f8
fd
f5
fd
fe
ef
04
da
f5
f5
ff
f1
f0
02
f9
02
ec
03
f4
10
f7
0a
ef
37
03
ee
ff
08
f4
ff
f3
fd
1e
0c
f9
fb
e4
eb
ef
18
ee
fd
07
f9
f9
00
01
f9
17
ff
04
2f
f7
f5
ef
f6
0f
07
10
fa
04
0a
1f
f1
1a
18
f4
eb
ff
eb
03
ec
fe
f8
00
f6
0c
09
23
f8
07
07
fe
00
0d
00
f9
ec
fe
04
05
06
f3
f8
07
05
fa
06
ea
f8
02
fd
01
03
03
01
fa
f4
fb
0f
fa
16
f5
f8
07
fe
0e
fe
02
09
0f
f4
e3
fb
0a
03
04
08
fa
fc
05
ef
0f
01
eb
0c
f3
ed
f3
09
ef
fa
f3
0c
fd
fd
09
01
08
fa
06
07
10
f3
fa
fe
f6
01
fd
fe
f7
11
0a
f2
f3
0e
0b
13
01
fc
07
fc
fa
e7
fe
f4
e3
f5
0f
08
03
fb
ed
0d
e1
09
ee
0a
0e
f8
f8
ef
f3
05
18
f3
fb
17
04
fe
fb
f0
04
0a
11
15
f9
12
fb
fb
fb
fd
f3
f5
1f
0d
f0
eb
fe
ff
01
fb
f4
0f
05
01
0d
fa
ed
ed
07
12
12
df
0e
ec
09
fe
11
00
ea
01
f9
fa
0c
f6
ff
04
0b
d6
f1
00
07
fe
14
14
ee
12
02
12
0a
04
f1
f6
ff
0a
ed
05
01
04
08
05
fe
e8
16
f7
ff
fc
06
fe
ff
fc
e8
00
00
13
0c
fe
0a
04
f2
fb
0d
ea
0b
f0
f0
fb
ff
e9
d9
fa
f6
06
07
f9
0e
f1
0e
10
f2
1d
00
05
0c
f0
ea
06
06
fa
fa
14
14
10
f0
f9
00
08
f9
05
fe
0c
0d
0a
15
f5
03
01
eb
03
08
0a
12
01
ff
08
02
20
eb
0b
ff
f9
f9
04
f5
f1
fc
17
eb
dc
07
f3
10
f4
fa
0d
ee
ed
f5
0c
fb
10
02
00
0a
0a
fe
1b
fa
08
01
f6
01
13
fd
f9
0e
fc
fb
fa
ff
d5
1f
de
f2
08
f5
f6
ff
fc
16
ef
f4
fc
1e
14
fb
04
03
11
fd
fc
fe
f0
ee
01
fe
ff
02
f6
1a
0c
03
15
f3
1e
e6
fd
f2
13
23
02
f5
e2
ef
ed
fe
de
f0
01
02
ee
f3
e7
06
ed
df
09
04
0d
f1
fe
fa
fb
e6
12
06
09
03
fd
02
04
11
f2
07
0d
06
f5
0b
09
01
ea
04
fc
fe
f8
f7
0f
03
f8
f1
0e
15
fc
00
02
0c
f3
16
0d
e9
05
0d
07
f6
fd
00
f5
00
f9
f6
08
06
01
f6
0f
06
08
15
ea
f6
fe
fe
f1
03
f5
02
01
06
08
fb
f2
f5
f4
fa
fc
f8
fd
fe
12
f8
fb
02
09
f7
f9
fa
06
03
03
01
0d
f3
06
11
f5
fe
f4
02
fb
e9
e4
fd
f3
02
ec
03
08
f3
0d
1b
04
19
11
f5
01
01
00
fc
0d
e1
f9
f8
01
e6
20
fe
e8
ed
01
09
02
10
f7
0f
0c
0e
f6
17
15
eb
0d
0b
0a
ff
0b
04
e7
fe
f5
f2
08
fb
02
e7
f9
ea
f3
f3
11
0a
08
f1
0f
e6
f5
06
f6
08
f3
0c
03
0f
fb
f4
f9
ee
00
14
eb
fc
fb
f7
06
05
fd
d4
0b
f0
e6
0a
16
03
f4
01
15
fd
e9
13
fd
e6
0c
12
08
fa
0a
f7
f9
e4
03
fe
fc
01
ff
fe
fa
01
01
08
e7
fe
fb
03
fa
ff
05
05
ef
fa
ee
f5
0d
0c
03
ff
07
fa
09
09
04
f3
16
f3
05
fa
f0
ea
0f
fe
f8
02
10
ea
0d
0c
f2
f3
0c
0b
f5
d8
f0
08
0b
ff
01
10
f3
0b
fd
fd
1e
e7
f5
fe
03
ff
f1
0c
f2
ec
eb
04
f8
f1
11
05
ed
f0
01
ea
0d
e7
26
e8
0c
0f
02
0d
f8
02
f4
f6
fb
0c
03
01
18
06
00
ff
f1
0e
0e
f3
f2
07
16
e2
01
0c
06
f4
f4
07
0f
12
03
f1
15
f7
10
fc
f7
01
f8
ef
1a
e9
ff
09
0c
f8
f4
08
fa
f7
13
ef
0e
02
0c
01
e7
f5
0d
fe
fa
eb
02
00
f9
0a
18
12
ef
0f
17
0b
fd
0c
f9
03
fc
f2
29
f3
10
10
f0
03
1d
1b
02
fe
0a
fe
0d
f1
f7
12
f9
f9
10
fe
0c
fb
21
0b
e8
e6
ff
e8
14
06
fa
0e
0f
22
e6
09
08
fa
04
06
f8
fa
11
e9
f7
fe
f4
e7
04
fa
1a
f8
f0
f8
fc
0e
fd
08
17
da
f5
0a
07
04
fa
0b
06
ed
f8
0f
01
04
10
15
f4
08
15
fa
18
0c
04
f1
0c
04
ef
e3
fb
1b
0f
fa
fd
ff
0a
f3
e1
03
10
ee
1b
11
ea
f8
0c
fc
fc
08
0b
f3
fc
fd
08
fc
00
ee
fd
0d
04
00
ff
ed
fb
ee
fd
09
f4
fd
10
03
f9
f6
fc
05
01
15
f9
06
05
fc
f3
f0
02
0d
03
0a
ef
10
e7
fc
01
10
08
f7
f8
ec
02
f5
fe
fa
f8
f6
00
06
f9
00
01
f2
02
ff
f7
11
f4
eb
f2
f9
fa
0c
fc
fe
fb
03
fb
0d
14
fd
05
03
0b
05
f0
fe
08
01
01
fc
08
f8
05
02
0b
fb
05
ff
0b
fe
0d
10
18
25
00
fe
fc
03
11
0b
fa
18
ef
f9
09
02
f8
f7
05
0e
10
09
00
11
07
fa
f4
03
0a
f9
f1
0a
fa
fc
08
ff
07
04
03
f4
00
fd
0c
0c
1b
0e
ef
ef
01
f3
fc
03
07
f5
0a
f9
03
e7
02
e9
fa
11
f1
ea
ff
02
09
1e
05
02
02
fd
13
fe
e6
04
0e
04
06
e8
ef
00
07
01
ed
0a
0c
e6
f1
f1
f2
f8
05
05
fc
f6
f5
fc
05
1a
ec
f1
05
f7
e7
f7
f7
01
f2
fd
11
fd
0c
00
fa
ef
fe
15
0f
01
0a
0c
f8
f9
fa
f5
09
e7
ec
13
06
08
0b
16
09
ea
11
01
0b
0d
0c
0b
00
0a
09
fa
ef
fd
02
13
fa
f5
05
f8
fb
01
ee
0a
0b
ed
00
0d
00
f9
0d
f7
16
fc
18
00
06
fc
fc
1f
f6
05
fd
0f
00
f2
0d
fd
02
f5
f5
03
23
f5
ea
05
ff
fa
df
03
05
f2
f8
05
08
09
e0
13
fa
02
02
f8
fb
16
07
07
f3
ff
06
11
f5
15
05
f5
fe
f3
ef
04
06
fc
07
fe
12
0d
10
0f
fa
fb
07
05
09
fd
ff
f5
01
01
e8
0c
ff
f0
e5
09
fd
e8
15
0c
fa
01
02
0b
00
fd
fa
05
f5
0a
00
f6
fd
eb
13
fc
f6
04
ec
15
f9
19
12
f9
06
f0
f2
f6
05
e6
03
09
0b
03
06
0b
07
0f
09
0a
07
14
0b
0c
f7
07
0c
f5
04
16
01
19
fd
00
01
ff
fc
00
08
f8
ee
ec
0d
16
f9
e5
e6
10
f8
01
f7
13
0a
f3
fe
fd
eb
0b
f2
00
ed
fd
16
17
ef
ed
22
ef
fc
0f
02
0c
01
06
02
1c
03
f7
08
04
f7
07
11
00
0b
fc
ff
ec
f0
fe
08
f3
0d
f5
f9
02
fd
f8
f6
f2
f2
f7
28
0b
f8
01
f2
07
00
f9
01
0e
1e
f8
eb
15
f5
03
04
06
fc
ff
16
f8
ed
e6
ec
fb
f7
fa
06
0d
0b
f5
f7
09
f6
00
0d
f0
02
03
f6
f4
1d
fe
04
f7
eb
21
15
ed
fb
07
0c
f4
ea
0f
02
09
08
e8
f6
1d
ed
ee
ea
ee
fb
07
0f
f8
02
ef
f5
fe
e7
05
f2
1a
13
f5
1a
ff
ea
1a
0d
04
ec
0e
0d
09
10
20
fe
e8
f1
e5
09
e9
18
ea
07
f6
f8
e8
15
f8
09
ee
17
03
f8
fe
fe
f7
07
13
09
0a
07
04
0b
07
fd
0b
f4
03
f8
29
e9
ee
06
0b
fd
f5
0d
ed
f1
08
f9
0a
0c
f6
02
01
f7
fc
09
11
fe
0e
fc
0d
0b
0c
02
10
dc
08
fb
09
ee
f5
f6
fa
f3
01
0d
f6
f9
ff
05
0f
f3
28
f4
1e
f9
07
f4
17
05
09
0d
0a
01
11
f7
04
fb
1a
f6
1d
f4
e4
10
fa
02
ff
0c
fc
0e
03
f2
0e
e4
fd
fd
07
17
08
14
fe
f1
09
fe
1a
00
fb
e1
e8
fa
14
f5
0c
01
ff
07
06
11
03
f8
e9
f2
da
06
f9
f5
01
f3
f1
fe
fc
fc
1a
fc
06
03
ff
fb
1b
f3
f3
fc
f6
f3
f2
e4
0e
03
f7
ff
f0
0c
03
08
04
f8
f3
ed
ff
eb
21
0d
f4
fb
fc
fb
03
09
03
fe
f0
e7
0d
1d
ec
ec
ff
ee
dc
fe
03
0b
00
01
ff
1b
f8
f7
00
ef
01
0c
19
10
f8
09
f6
fc
08
f2
0f
f8
13
fb
f6
11
18
f4
04
07
01
ee
10
fd
1a
e0
01
fb
eb
10
f2
12
fc
03
e8
0d
f9
f5
0a
fa
eb
fa
ef
f5
ff
02
f6
f2
fc
04
05
06
0b
01
f9
07
e5
07
0c
01
08
13
03
0e
08
1a
fb
ed
fb
fe
00
01
fa
08
fd
f6
06
04
02
09
f0
03
fe
01
04
f0
08
1a
04
fd
02
ef
06
fc
03
08
fa
ff
f9
ec
f3
fe
1a
ef
f9
0a
ed
09
07
09
0f
0a
0e
fc
e3
f0
0f
01
f1
10
ee
fc
f4
14
ff
ef
02
fb
f8
02
fd
fd
ed
ff
f2
0b
f3
f9
00
00
08
ef
f9
09
ef
15
0d
04
0c
f5
ff
07
f6
e5
08
0c
ed
10
fb
13
03
fd
fa
10
1d
0e
08
0a
0d
0f
eb
03
f5
f3
08
01
00
13
04
1f
15
fb
f2
08
f9
05
e9
0e
06
f6
17
ec
0b
05
00
01
04
eb
ec
f0
dc
15
fc
fa
09
fc
10
ef
08
0b
16
0d
0e
fa
eb
06
f9
0b
01
f4
fa
04
f4
03
0d
fd
0f
04
f8
f2
e8
08
fd
07
fa
f2
fa
ee
fc
02
f1
07
0a
0a
05
e1
f9
06
00
00
f2
0f
fa
0f
fc
04
1b
13
04
07
0a
09
fb
ef
02
00
fb
12
01
05
05
1c
f7
e4
02
10
ed
08
0a
e6
0b
02
02
f4
fa
0a
f5
fc
fe
fb
0d
03
fb
0a
f7
fa
fa
10
14
02
11
04
f6
f4
fd
01
01
0f
03
f2
0d
fd
ff
fa
0e
01
00
fb
08
fa
fc
fe
12
01
14
04
ff
f1
13
01
fb
fb
0e
fa
e6
06
f4
f5
05
0d
ed
fe
0d
fe
06
07
04
f6
fe
f6
05
fb
fd
06
f9
0b
fd
04
0b
0b
05
03
05
0b
02
fc
fb
ea
f6
ff
0b
13
0f
00
06
03
f3
02
04
01
fd
fa
12
f4
09
fb
eb
03
01
f7
f3
f6
ff
02
0a
08
fa
f3
f9
fc
05
f8
00
ff
fd
0d
f1
04
11
f1
fd
fd
f0
0d
0a
fd
11
f8
01
fc
fe
04
02
06
0c
0b
0f
f5
fb
f7
0f
06
0c
07
f7
f2
0e
03
f9
02
fa
ee
01
1c
ec
0a
f2
02
ef
fb
0d
09
0d
fb
1c
fe
fc
ff
0c
e3
ea
f7
fa
02
05
f5
fe
f1
03
eb
f6
fa
f2
14
fd
0e
ef
f9
00
15
05
17
01
1b
f9
13
0b
e4
fb
08
14
00
f8
f4
02
fa
fe
f4
01
0a
d7
00
f5
f6
05
df
02
0c
ea
ee
0b
f3
26
f8
04
f0
f7
f9
15
fa
fe
f7
f1
0b
e3
12
19
0e
10
f6
eb
12
06
e6
0c
f1
fa
ff
f7
fb
f1
ff
df
f9
0c
0f
1e
1b
04
02
01
0d
07
ea
d9
12
ed
0e
ef
f5
00
dc
07
0a
ff
f9
f8
ef
f6
e7
08
d9
fd
06
f9
05
f6
04
fe
f4
01
08
01
ff
0f
03
f7
fa
0b
f5
05
09
f8
f8
fe
03
06
08
f5
f6
fa
0b
f7
eb
09
ff
09
f7
ef
ef
05
06
fc
17
0d
f1
f2
07
05
fc
06
04
fc
fb
f1
0e
11
11
fd
fc
1d
f7
09
0d
00
01
ed
0f
fa
11
26
12
04
fa
ff
f6
19
10
08
1c
f1
fc
08
ed
f7
0a
02
fb
f0
e9
0e
f5
ee
e9
04
07
f9
10
09
f4
0a
fe
ff
0e
f3
f5
01
0a
0c
14
fe
ef
14
13
05
f5
fe
1b
01
03
13
f7
eb
07
fe
f8
12
ea
eb
22
ff
fe
f1
08
05
f7
05
e7
05
db
eb
fc
f1
f5
f9
11
eb
f0
05
fe
05
05
03
fe
02
fa
ec
ff
f8
f0
07
ff
03
f7
fe
dc
11
f9
f4
1c
f9
e4
fa
07
f4
27
f4
1b
0f
f8
fd
18
f3
f2
06
10
0d
0d
f8
fe
0d
01
fe
f3
fa
ee
07
ec
f2
fe
0b
fd
f6
ff
1c
04
e7
02
ee
0e
11
0b
0b
02
f0
06
07
0b
01
f9
f6
06
f5
f7
18
10
00
f8
fa
0b
ef
1a
f8
03
01
05
fb
01
ed
0c
fc
ff
f8
06
0c
02
ee
0a
fa
05
f3
fa
f5
06
f1
fc
fa
fd
00
fa
00
f3
06
01
10
fc
ff
0b
f9
fe
09
14
ec
ea
e8
ed
11
08
e0
06
05
09
07
f0
f6
fc
f6
fd
06
e6
f1
00
14
f2
ff
f1
f7
fb
02
f7
17
f2
f9
09
12
01
07
0e
01
fe
f6
fc
0b
09
05
f3
f4
f4
f9
05
ea
f6
dd
fb
27
fe
03
30
f6
10
fe
f0
fb
ed
0d
fb
f9
04
f6
02
fe
15
fe
01
12
00
fa
01
f8
07
0f
e6
ff
16
eb
dc
07
f5
fc
0a
16
02
04
0f
f4
fd
f0
05
f3
f9
ff
01
e2
00
fd
09
ec
f9
15
04
05
01
fb
13
ef
e6
fd
00
eb
ff
fb
03
06
01
f8
f7
05
fe
0a
fd
fe
0b
ff
09
f8
02
00
f2
f9
04
00
07
10
f8
04
06
01
ef
01
f4
fa
f9
02
0d
f6
02
eb
07
00
e7
fb
15
f2
04
f6
e8
fa
f5
08
10
fa
0d
1a
fb
06
05
02
0e
02
e9
13
04
fe
00
f8
f8
0b
f9
0b
04
1d
fb
fa
f5
0f
fe
04
ff
03
12
0b
0d
ed
ff
f0
04
fe
00
10
0d
f5
06
f5
02
f0
fc
f7
14
ed
05
ec
07
f3
20
ff
fd
06
0b
0d
08
f2
f1
00
f2
0c
0c
f1
18
f4
fb
fe
0c
fd
f7
fb
08
0b
fb
23
f4
f1
f2
fe
f7
03
fc
f1
f4
0a
15
03
e9
08
f6
01
0a
04
0d
0d
05
f2
ef
04
0e
ed
f4
f7
fb
02
05
09
fa
08
18
02
f3
f0
08
f2
01
07
fc
04
fc
09
0d
08
ed
fc
05
0a
02
08
05
11
f3
fc
f3
f4
ff
ff
0f
f4
e7
f1
07
0b
fb
f8
0b
f8
0b
06
0f
04
0e
f8
ed
fe
0b
14
09
fe
fc
f9
08
fe
fd
09
05
fe
f9
0b
0d
04
f1
fb
03
fa
f7
12
fc
08
fa
0a
ff
00
f0
01
07
e7
ff
fa
06
01
e8
f2
f8
f4
e1
eb
08
09
1c
ff
fb
20
13
06
ff
f5
19
e5
f7
ff
07
fe
f6
fc
0e
f6
ea
f7
1c
15
05
fc
0d
16
05
2d
0b
09
14
f1
fe
0f
1e
f5
0e
f6
ea
0c
dd
ef
0f
ef
0b
fd
05
f9
00
fe
f3
ff
10
f7
d5
f6
06
12
03
f9
02
f7
1d
f6
fb
0a
ff
fe
f9
fd
0c
fd
03
02
f4
f8
f3
fc
08
ff
12
ee
1c
09
f9
fd
0e
05
09
ed
07
00
08
08
01
fc
fe
09
01
05
fc
fa
00
1c
04
fb
08
07
04
05
fa
f5
00
f4
11
0a
ff
f8
f7
06
f7
04
01
fe
f2
f2
04
0b
10
fb
e9
0a
f2
ff
f1
f9
de
02
fd
08
29
03
12
1a
ec
f0
fd
15
ef
ff
f5
0f
0e
f9
02
fa
03
0e
f5
14
12
f1
01
0d
fa
23
ea
07
f5
fa
0a
ec
fe
fd
fe
0e
08
15
ef
04
11
06
f5
12
f7
09
10
f0
03
08
0a
06
04
0e
09
fe
11
05
f1
07
08
fd
02
00
fb
02
ec
05
f5
0a
fc
ff
09
f9
fe
03
f5
0d
f5
f3
ff
ef
ee
00
09
0a
03
ee
0c
fe
05
fd
00
0a
18
ef
f9
03
fd
07
00
03
e5
08
09
1d
04
04
f9
01
ff
f8
10
fd
fc
03
e8
f8
f5
e3
15
09
00
00
25
ef
01
ea
0b
f0
f8
fb
f4
00
fa
fa
f6
03
1c
fc
08
0a
f2
15
fd
05
06
00
fc
07
ef
f0
18
f9
0b
f9
ff
ff
05
ef
e8
09
f7
03
0e
fe
06
06
23
f1
09
ea
ff
09
03
fd
0c
fc
f9
01
03
ec
fc
f8
f7
0f
05
f5
df
01
10
03
10
04
00
1d
fa
fe
08
f1
08
12
f4
1b
ec
f7
14
e4
14
f7
fd
0d
0a
f6
f1
f7
ea
07
0f
f5
fe
04
00
0d
fb
09
00
fb
fb
11
27
eb
ee
f9
fb
fa
00
18
15
02
f8
12
f6
e7
01
15
08
0e
ea
ee
e6
e6
0f
06
ed
00
e7
f4
04
0e
05
f0
fd
fc
0d
fa
ff
ee
08
07
fa
03
f1
f5
06
06
f1
fc
11
fa
17
fb
08
08
e5
02
ef
f3
14
fe
fd
ee
f5
fa
ef
01
ef
ed
f6
05
01
03
fb
0b
f0
f6
12
ea
fd
f9
f7
15
eb
03
e7
04
07
13
fa
1a
03
ff
0a
04
fd
0b
12
0b
0a
06
01
05
f9
01
fc
f7
fe
13
e5
ee
fc
f6
eb
03
fa
15
fe
0b
fa
ed
ef
f7
12
03
fd
06
ff
0a
11
04
ee
00
f3
1e
04
2b
0d
0c
0c
f4
07
0e
de
05
13
0a
fc
1b
f8
07
2c
03
fa
ff
12
ec
f1
f0
10
f3
e5
fc
f1
f2
f7
f2
1e
f7
fd
e5
e0
00
06
06
14
18
f5
01
fd
0a
f7
05
11
09
f3
01
15
2a
e8
1c
f0
00
0e
0b
fc
ed
08
fc
00
02
0c
ef
05
01
f7
ff
e8
f3
07
01
10
01
f0
f5
fd
fa
ed
fb
06
f8
05
f9
00
fe
fb
02
00
00
ef
1c
eb
05
06
f3
05
f8
fe
f5
06
0b
ff
f9
01
0c
10
0a
ef
17
0b
0c
12
f9
16
da
f4
01
03
1d
f7
01
05
08
00
fc
ed
e8
e1
00
00
f0
02
ff
eb
00
f5
f5
f7
fc
ec
0a
f2
00
fb
0f
04
18
0f
f5
f3
05
09
f9
0a
fa
0e
fb
00
0c
12
04
02
f4
04
f0
f8
17
fb
12
f7
02
10
e4
06
09
11
fa
04
ec
ff
f9
0a
f5
f8
06
ff
0a
fb
ec
e6
09
08
fe
01
02
f7
fa
f1
0c
04
03
17
ea
08
27
f5
fd
f9
08
02
07
01
f7
f9
f8
0c
0e
02
e7
fd
02
ef
18
df
fd
18
12
f2
de
fe
f8
02
fc
01
ff
fc
e9
f9
0b
0e
f1
ff
01
02
0a
f1
05
f4
fa
fd
13
f2
0a
fc
f9
01
f3
fe
f3
14
0d
1d
fb
f1
f5
00
fb
f1
05
ef
0b
f1
fa
05
fe
fa
06
f1
09
08
03
0b
e0
fc
06
19
0f
eb
06
f2
08
01
08
e4
fe
f4
ea
10
04
fb
0e
2a
09
06
0e
f1
e7
ff
1b
0a
fc
08
1e
eb
f8
02
00
0f
fe
e5
fc
19
03
f6
f5
13
04
ee
f2
f3
ff
1b
06
06
03
0b
f3
17
f5
12
1e
0b
f5
03
f2
0e
db
04
05
0c
15
0d
1c
f0
00
02
ff
ee
ff
08
1e
e3
28
e3
08
e5
f5
f4
05
f6
07
17
f1
ec
e9
fb
07
0a
04
f7
0b
ed
0f
f5
04
02
ef
0a
06
05
06
01
03
ef
05
ea
09
f8
ff
f7
14
04
fb
0d
00
06
15
10
f4
f4
fc
01
f3
05
07
f3
08
11
fc
0a
ea
03
01
fe
06
07
00
0e
fc
02
e7
00
17
f7
06
f8
0e
0b
ff
11
11
09
fd
fd
f6
00
0a
f3
04
07
03
f7
f8
01
13
01
0a
f6
11
09
10
ea
0e
fb
04
19
0a
f7
f6
00
1f
f1
07
20
f2
08
e8
d3
f5
e9
05
03
fe
f1
fc
0a
2c
ff
08
fd
f7
f7
08
0d
0c
03
f6
fd
12
f5
08
f3
25
d2
09
ff
f8
fe
00
f2
08
08
0a
10
fd
14
ff
04
09
e6
fa
f0
0c
11
f1
01
ee
14
00
fc
0c
02
14
fa
0e
f9
ec
ee
15
01
f7
fa
26
11
fc
02
0d
07
0f
03
ed
08
f6
0f
f4
fe
f7
f6
f7
05
17
12
f7
01
fb
1a
18
fb
ed
05
09
f3
0d
eb
0b
f5
f8
03
0e
1c
03
fe
16
05
14
fe
0f
f3
fa
04
01
fe
08
f5
13
f0
ff
f1
16
02
f6
18
ea
d6
ea
f5
f0
20
21
fc
09
e6
02
ff
03
fe
07
f5
07
f1
01
fe
f9
f8
fc
fe
fb
03
0b
07
fe
ef
03
07
ef
12
e6
f9
11
ff
e6
03
f6
03
f6
14
06
f1
0c
f9
fb
ef
03
f7
06
fd
ff
fe
12
fd
f2
0a
f3
f9
0a
06
ec
fa
fa
f3
1a
01
ef
fc
11
eb
fb
26
01
03
0c
fa
01
06
0d
e8
00
f4
fd
1b
08
ed
ed
ff
0a
f5
01
0c
f7
05
0f
fd
0f
16
03
f8
f4
f8
fd
fb
13
03
f7
f5
fe
0b
f2
10
01
00
15
fa
01
08
0f
f1
02
f7
0c
fd
20
e3
e5
f1
1c
eb
ec
07
0a
ff
11
ec
ff
e1
f9
15
f4
fa
01
02
f0
08
fc
f3
f6
fd
ec
f7
09
f8
1c
01
17
e9
16
0b
06
ef
0a
eb
fa
f0
fe
14
09
20
f2
f9
09
03
fe
f6
15
0f
18
f9
f8
fe
0d
fb
11
f5
fb
01
fa
f6
1d
0f
f7
fc
23
08
ec
00
09
0e
19
f6
00
ee
0c
f6
10
f0
fe
19
09
ff
06
07
0c
0f
0c
f5
df
eb
01
fc
f5
0e
00
f5
f0
0b
fd
f0
17
fb
08
fe
08
03
04
02
ff
f8
fc
01
f1
fa
0f
04
16
fd
fb
00
f3
fd
0e
03
f9
10
29
12
f8
e2
08
04
ec
03
0b
06
01
ef
11
f2
f7
16
0e
09
f4
ef
02
f7
00
07
e4
20
13
11
0c
08
fe
18
ef
00
fa
03
0f
0a
05
05
ed
fb
03
02
ee
fd
f1
f9
11
f3
fd
fc
0e
02
09
f1
f1
0b
14
11
e0
02
f4
09
03
fc
01
09
eb
f1
06
ee
0e
fb
dc
09
09
1a
0f
06
e6
fc
0e
0c
e4
f4
14
ed
f1
01
16
f3
1e
00
03
13
f7
0a
d2
05
09
f7
00
f7
f7
10
07
05
02
f8
ef
03
f0
10
ff
e7
fa
11
23
e6
ef
08
06
f2
01
f4
07
06
0f
14
f1
08
06
f9
02
0b
10
00
0f
00
f1
10
07
0c
f4
f4
0b
ff
03
ff
09
01
09
05
08
15
f9
02
01
00
14
fd
01
f6
0b
12
04
05
0e
01
ed
0e
fd
f3
fe
0d
09
0e
ed
00
f9
08
19
f6
f6
f5
09
f0
05
03
ec
eb
01
ff
12
f5
e1
0c
fb
f7
f1
fc
f5
ef
02
fd
fb
0b
0f
08
f2
f3
e6
0a
fd
04
15
1b
fe
0b
0e
e4
09
d5
fb
14
f9
fe
fc
fd
f7
09
12
fe
09
07
04
11
17
ed
e7
0a
fe
19
f8
12
04
e1
fa
15
0d
0d
ff
14
15
ea
0e
0e
f8
04
fa
f3
f7
f0
15
f5
fd
ee
13
f5
07
0a
f2
ff
19
01
fe
10
03
ee
23
00
fb
f6
22
de
fc
13
0c
f0
fd
0b
07
f4
09
fe
e9
fd
1b
06
20
0c
01
fd
0c
14
fc
fb
f7
ef
f1
0a
0f
09
f2
0b
f9
13
02
ed
13
ff
08
f8
fd
ff
00
f1
ef
f9
f6
18
fd
17
fc
05
0f
fc
1b
08
10
f9
15
fc
0c
00
09
10
01
ea
fd
f8
00
03
07
04
25
ee
05
f1
fa
05
13
f9
07
03
0b
1c
f9
00
ff
fa
e8
01
0d
ed
ee
02
11
ff
0b
0f
ff
05
05
07
fc
00
fb
1a
0d
1f
ef
04
f4
ff
00
0f
f3
03
fd
04
03
09
f2
06
fd
e8
f4
04
06
0d
0b
02
fa
f7
03
17
f5
00
08
eb
fe
f4
01
ef
09
26
f9
ff
fb
fe
00
0e
f0
06
f4
ed
f7
ff
0e
00
02
15
0b
01
ec
f7
fa
f5
fb
05
00
ff
0b
0f
0e
0e
fd
22
06
01
eb
f6
08
f4
28
08
fa
f7
f5
f2
fe
e7
1d
0b
02
04
fe
f1
11
fa
09
03
f1
01
ed
f7
ef
06
10
fc
f7
fc
fa
0c
00
f4
0c
05
f6
ee
03
ec
f3
fe
03
05
02
06
06
0a
ed
09
0a
13
12
e4
0e
14
fe
09
ff
fa
06
1c
f2
00
ef
f7
f9
f5
f5
04
05
04
f6
15
22
0d
f2
03
00
f8
06
09
f2
0f
08
fe
06
fa
06
eb
03
e6
e8
fc
fa
f3
fa
fd
13
02
04
0f
09
01
f9
08
09
16
0c
f3
09
f9
0a
f8
f6
fe
e6
08
08
ff
06
f9
f4
00
f8
11
fe
00
04
06
00
0b
07
0a
f7
06
fd
f5
fe
01
10
f2
11
08
fd
f9
ee
fe
fd
f2
11
0d
f8
0c
08
f2
fa
fc
e6
0c
fe
f9
04
0c
f9
03
e9
ea
ff
0b
f7
fa
e9
07
06
ea
0d
ef
ff
0e
0c
04
19
fe
04
ff
01
17
02
f0
ee
f9
eb
ec
00
17
ec
1a
d7
e3
0c
ee
e3
f9
24
e8
ec
04
06
fc
10
00
07
01
fb
15
ed
ff
ef
13
0a
f9
ed
f0
0b
fe
f7
17
f9
ee
06
00
0a
08
02
04
0e
ff
04
f8
0b
02
ec
11
eb
ff
0f
ef
19
08
19
03
0a
ee
ff
0b
02
ef
fd
ef
14
f9
fd
0c
08
f4
07
0d
0c
0a
f6
f2
fe
ff
06
08
