240 60 1 1
07
01
01
00
02
03
fe
fa
08
f9
f6
07
06
02
f2
fe
f9
fd
13
f1
fe
0e
f7
f7
fb
00
fb
fb
07
ff
09
ff
fe
03
03
fd
08
08
00
fc
06
11
06
04
f0
05
e8
00
fe
f9
05
ff
11
fa
ff
f9
13
01
f5
10
09
fe
00
08
fc
10
00
10
00
fa
11
03
05
0e
fc
00
fc
02
01
fb
f2
03
03
10
f9
fd
00
f3
04
09
06
fa
f0
fe
f8
06
eb
ff
f8
02
06
ff
ff
fb
fc
ff
02
0c
04
fd
0d
00
08
03
fa
01
fa
00
fa
f9
0a
04
fe
07
05
01
fe
fa
01
01
f5
00
fe
fe
fa
08
04
ff
fd
04
04
fc
07
f6
02
f5
01
03
ff
fb
01
07
ff
02
02
f8
fd
08
ff
f6
06
fa
f9
06
0b
f6
02
f5
fd
0a
fb
fb
01
02
09
00
0a
f8
01
07
fc
10
08
03
05
0e
fe
0e
fb
f2
ff
00
f8
07
0b
f7
0b
19
ed
fa
f9
06
f5
08
01
0e
fd
00
00
f7
06
f3
f4
0d
fe
fe
00
0e
f8
fb
0b
f2
ff
14
ff
f7
0b
03
f2
0b
fd
0a
fc
f4
09
05
0b
fd
f9
00
01
0c
fd
0c
f5
03
fb
04
fb
eb
fb
eb
04
ee
05
ff
10
05
00
fd
fb
09
fc
00
f2
ff
ef
03
ff
02
09
f2
fa
00
f4
fa
07
04
fb
02
00
05
03
04
05
04
13
f9
ff
0d
0d
01
00
06
07
fb
01
f5
f3
ee
f8
fd
f2
fd
04
03
fd
01
fd
00
08
ff
02
07
04
fd
f9
fc
07
ff
04
0f
fb
01
07
0c
fb
05
0b
f7
0d
00
00
fa
fa
0c
03
04
03
f9
02
0b
0a
fb
01
f1
fa
0a
fb
fc
06
04
ed
0c
06
f6
02
02
f8
04
08
0c
f2
f6
fa
02
f6
f8
fe
07
12
f8
05
fa
fa
fb
ff
01
07
02
05
05
01
f6
0b
00
ff
f3
02
04
ff
10
00
fe
17
f8
fc
f8
f1
0e
f5
02
09
ff
fb
fd
f6
09
09
eb
0e
06
07
f8
eb
ee
00
ff
06
fc
06
02
0c
06
03
fb
f5
ef
fa
0a
0a
06
03
09
fd
f4
fb
f4
fb
fb
04
0e
0d
f5
fa
f9
0b
fe
ff
0c
fa
05
f4
f7
f7
ee
fa
f6
0b
fd
07
ef
0b
fb
f7
04
f0
f1
fd
09
00
0b
04
01
00
0c
f9
08
fa
0e
fd
ff
fe
01
00
03
f9
08
f9
01
09
01
03
fd
f9
f8
ee
03
fc
fc
fb
ee
fe
ff
08
fa
00
07
02
0c
09
fa
03
01
fd
03
f9
03
0f
00
00
00
f9
fb
04
fa
05
fd
01
03
f5
fc
03
f7
f9
01
ff
00
10
fd
fc
01
08
00
f3
fd
fa
f8
0a
f6
00
09
08
04
0a
fb
f9
fc
fb
f6
f8
09
00
08
10
fd
03
03
02
00
05
ff
02
fb
01
fb
fe
07
04
fa
f3
06
fc
04
07
01
07
fd
00
04
ff
0e
01
f9
fd
09
fe
fe
07
fb
f5
ef
07
01
00
10
fc
fd
06
ff
fd
f2
06
04
ff
04
f0
02
f6
00
fe
fb
06
ed
f3
08
04
f7
f5
05
f3
f5
00
00
10
f8
03
fb
0f
0c
02
ed
10
f6
0e
00
fa
ff
03
fe
06
fc
f8
11
f6
f4
06
00
ee
fe
fb
f7
09
ff
00
f9
03
f6
02
02
fb
ff
fa
fb
02
03
17
06
05
04
08
02
02
02
09
f7
06
f4
fe
f2
ff
ff
fa
0a
fb
ff
16
fe
0d
03
ff
fd
00
fd
fd
04
ff
05
ff
fa
0e
03
05
0c
05
06
06
05
08
10
f5
f9
00
fd
f7
01
fb
f9
05
fa
f4
fc
01
0b
fc
12
05
03
fd
16
fd
fe
fc
02
0d
01
fd
f7
02
f7
f7
04
04
fa
06
fc
fb
06
ff
f8
ef
01
0a
00
08
05
fb
fd
0d
01
f5
fd
08
fe
0c
03
07
08
05
f1
f9
fe
05
07
fc
07
01
ff
fa
f5
fc
fc
06
05
03
11
f4
02
07
fa
f1
04
fe
07
f7
f9
fb
01
fb
07
0e
fe
f8
fb
fa
03
05
f7
00
0d
f5
0b
16
02
19
fa
fc
f1
e8
f2
f5
ff
ff
0d
ff
f8
e9
ff
04
fd
10
ff
f1
fd
07
07
f6
02
fa
f9
02
01
f5
05
f4
07
11
ff
ff
fe
04
0d
05
07
fb
f1
02
01
07
fb
05
03
02
f6
00
01
ff
ff
08
09
fe
f9
f9
09
01
fa
f9
02
fc
0a
f6
06
01
ff
05
f7
fc
f7
03
14
f4
02
fa
fd
07
01
fc
0a
fd
fa
0a
fa
fe
f8
fb
0c
fd
fd
fd
08
07
f9
fb
f2
ec
01
04
ff
f7
01
00
05
ff
ec
f7
15
fd
0b
f8
fb
00
00
05
00
00
fd
03
ff
fb
fd
f0
f5
05
fb
09
07
fa
fd
07
f8
0a
02
fe
0c
f5
12
f9
fd
fb
fc
ff
09
fb
fd
ff
01
02
00
fb
ff
0a
03
f9
f3
fe
fa
f8
0e
fa
f9
fb
00
f7
f7
03
fe
fb
10
02
08
08
fa
03
f9
fc
f9
f0
fa
01
01
05
03
03
fd
09
fc
fd
f9
ff
06
04
0a
0d
02
f3
ff
00
00
04
07
05
09
00
f0
ed
fd
03
fd
f8
01
ff
ff
01
04
0b
07
0a
e6
05
ee
e9
f9
03
ff
ef
ec
06
05
07
03
fa
08
ee
04
fd
07
ff
08
0a
07
f8
fe
fc
00
09
03
0a
03
00
0f
12
ff
fa
fb
0e
fa
01
01
f1
f2
03
f9
0b
09
f6
08
fe
08
0a
ff
0a
01
f9
02
07
06
08
f4
0b
fe
fa
fd
07
05
04
06
10
f5
00
02
ef
f4
fe
00
f5
fe
ec
fb
ff
f7
0a
f7
02
01
f6
ff
fd
09
08
0b
0e
18
fa
0a
00
f7
04
01
fe
fa
fd
f7
09
03
f7
0a
fe
fd
00
0d
0a
02
fe
f5
00
f7
06
ff
ef
f6
03
fc
08
0a
fb
f0
fa
fc
03
0a
00
02
fd
07
fe
f3
15
10
02
f2
01
07
03
0b
fb
0a
f6
f4
08
fe
07
06
0b
fd
f5
04
01
f6
0d
f4
f5
fe
09
00
0a
05
f2
0b
0e
04
0a
00
fe
f9
16
f4
f4
01
f8
ee
0c
fa
01
f5
fa
08
f2
fa
07
05
04
0e
00
f7
04
0a
f8
02
fa
f9
f0
00
03
00
00
0b
fc
ec
00
fd
02
11
fc
fa
fb
00
0a
00
fb
fb
0a
06
f6
0d
f1
00
f7
00
fb
ff
05
08
02
12
03
fa
10
07
05
01
fb
fa
00
ff
04
f7
05
fb
fc
fd
00
f5
00
11
ff
09
fe
f0
fc
ff
f9
ff
02
fa
fe
ff
fd
00
fc
0b
0e
07
06
09
0c
fa
05
0e
10
07
fb
08
ff
f9
fb
fa
0f
ff
0c
02
0b
f5
f4
00
0b
f7
07
00
01
08
03
fc
18
fd
02
f7
0e
06
01
01
eb
26
f2
1f
fe
f2
ee
0d
05
ec
e9
02
ef
ff
09
f8
f6
04
0c
0a
fa
ff
01
02
04
fb
07
01
0e
09
ff
04
1c
fa
f3
fd
01
f8
fb
ff
08
fe
fd
ea
f0
07
f8
f7
f1
f6
05
01
0b
fc
fc
07
05
11
ee
11
02
01
07
03
fa
0b
0e
fc
fc
fa
fb
f9
0b
08
fe
f7
fa
f6
09
06
0a
f9
f7
f4
fe
0a
00
fa
03
01
f8
f5
fc
00
00
0b
f5
f5
10
fc
02
fa
03
fe
ff
02
f9
00
03
04
01
fc
fe
05
02
02
04
f4
03
fb
f7
ff
f4
07
fd
f5
ff
f1
10
03
01
0b
02
08
fb
01
01
f3
05
fc
ff
00
02
f6
f8
ff
ff
05
fa
00
f7
02
05
05
fe
f4
f6
00
f7
fa
04
04
04
08
f6
f6
ff
07
06
02
05
05
01
f7
06
08
f9
f5
11
0d
06
11
02
fd
05
fd
02
08
fb
02
01
f6
fb
fd
f5
0b
05
03
fb
f4
f6
04
fe
07
f7
f6
00
01
fa
f5
05
08
04
ed
f4
0c
00
ee
fe
04
06
03
fe
f4
14
fc
0b
fe
06
ff
04
04
02
fc
03
07
fd
01
05
fa
05
06
fc
01
03
07
06
00
06
f5
fc
00
05
f3
00
02
17
fe
03
00
04
0b
0c
00
0a
05
f0
fc
02
00
f8
fb
f9
fa
0a
f8
fb
fc
04
0e
07
f9
08
10
fe
f8
fd
04
f3
06
06
02
fd
ff
ff
fe
08
f0
ff
10
02
0a
0b
0c
fd
ed
09
07
02
f6
fb
0c
fd
f8
f7
03
fc
fd
03
f7
fc
ef
f9
03
07
ed
0a
fb
f7
09
e8
ff
f7
0f
0a
f1
f7
f7
fc
06
ed
04
f0
08
f9
10
06
01
0b
f9
03
eb
0f
fe
0e
0a
01
05
01
00
12
07
04
03
eb
00
fe
fd
fe
fe
f7
06
f9
ff
0e
02
f7
fe
0a
ff
ec
f1
f1
ff
ea
00
ff
0a
fa
06
07
eb
00
fe
f6
0a
f4
20
f5
f8
fb
06
fd
f7
06
08
19
07
f9
05
f7
09
f8
00
fe
fc
ef
fc
00
0d
06
ff
05
03
04
ff
0b
ee
fd
fa
f3
01
f3
08
0a
0d
f2
ef
fc
fc
07
0c
f2
f7
09
ff
12
fd
05
fa
f8
ef
fd
07
ef
fe
fc
09
ff
0d
01
fd
19
fd
0e
07
fc
0a
f9
f9
06
0b
fe
f5
ed
02
f6
0f
07
07
0d
f9
eb
fa
02
07
05
03
08
13
fb
fb
08
09
f8
fb
fd
ef
06
f5
03
0c
fd
05
f9
07
05
ea
05
fc
08
03
00
fa
00
fb
f9
f3
02
fc
fd
06
09
03
07
01
fe
0a
03
02
01
04
f4
06
f6
03
fe
f8
0e
05
f7
0f
fd
07
00
02
0e
02
13
07
fe
f9
07
fb
01
07
14
fd
e6
00
09
fc
01
f7
05
04
fa
07
fd
fb
04
f7
03
fd
f7
04
fb
07
ff
fe
04
05
06
05
08
f8
fa
0a
fd
fe
f5
fb
01
02
04
06
00
0b
05
fc
0d
ff
fd
03
06
f6
03
05
03
04
fa
fc
fd
fa
09
fb
06
fa
f8
0b
f8
fc
00
ff
fc
03
fa
fe
f5
0e
09
08
05
fc
f8
fc
09
03
f9
fc
00
fd
04
07
04
05
f4
00
08
fb
fe
f9
fc
08
01
02
f8
00
0a
fd
03
f8
fe
09
01
ff
ff
06
ff
04
fc
fe
0a
0a
f7
fb
fa
fb
f0
fb
07
00
f3
fd
01
fd
0a
fc
02
ff
08
fb
01
00
fb
fb
02
01
f9
03
05
04
fc
f4
04
02
fb
fc
03
fd
04
0b
ff
02
fe
fa
ff
02
f8
02
03
04
f3
05
f6
02
01
07
09
08
02
04
ff
02
08
08
03
fd
f8
01
08
01
02
00
02
0a
fd
0e
05
fd
fe
fa
fe
f0
05
00
03
09
fb
f2
f9
f9
f4
02
01
04
00
12
fb
fe
01
fe
fe
03
ef
f8
01
fc
fc
fb
11
03
fa
f9
f1
fc
03
fe
04
01
fb
f6
f4
00
02
fb
05
fb
fe
f5
11
05
fd
f2
02
ff
00
05
0f
fd
fd
f6
04
fc
0a
f2
04
05
fd
f0
07
f1
f3
00
06
04
03
eb
06
06
0a
ff
f9
0e
f7
ee
01
fd
04
11
02
fb
05
fd
02
02
fb
f5
f3
00
ff
05
fa
f7
f0
00
f2
f9
00
01
fd
0c
11
07
f5
10
f6
eb
fb
fc
f5
07
fd
fa
f8
04
0d
09
03
fe
0e
f6
02
f5
f4
01
f9
fe
01
fc
f1
f1
03
fd
01
f6
f0
0c
fd
02
05
eb
fb
0b
02
f6
13
04
02
0c
12
09
fc
04
fe
f8
03
12
fb
05
f1
02
00
fb
00
f5
0f
f7
09
09
0b
f4
0e
03
03
ff
ff
fd
00
00
18
fd
fc
07
fb
16
f6
02
f9
f4
05
01
fd
f6
02
03
0f
06
0b
fe
01
ff
fc
01
f9
fd
f9
00
07
04
f9
fd
f8
fc
fa
00
0c
f6
01
01
0d
00
f9
0c
0c
00
f9
05
f1
fa
01
05
fc
f6
03
00
07
01
f5
fe
fc
0d
04
f6
f9
fb
f5
0e
f6
06
0e
0d
fe
f6
0c
08
08
0c
03
00
0d
04
ff
05
fc
fc
fd
07
02
08
f9
f9
05
f6
f7
fc
f9
0c
fc
00
10
04
ec
0d
01
08
fc
02
f7
04
01
02
06
fe
00
ff
ff
fb
ef
10
f8
fc
06
fa
03
f9
f9
01
06
0c
08
f6
f5
fe
f7
ff
03
fb
fd
f6
03
f8
fb
ec
07
00
fb
f8
11
07
13
fc
09
05
f9
07
f2
ff
01
fb
f6
08
fa
01
fa
ff
f2
f9
07
06
fa
0b
0a
f9
fa
f6
02
f4
0f
f5
f6
0c
fe
ff
11
fb
08
0f
07
0c
f3
fd
04
fd
00
fe
0c
f4
03
03
0a
f3
1a
ef
f5
06
f7
0d
fb
f7
ee
fd
fd
fe
07
13
fd
fe
eb
00
0a
f3
10
f7
06
01
0c
06
f3
0e
fd
02
f1
08
ef
03
06
0a
fc
0e
fb
00
10
ff
f7
fb
fa
0b
0f
f5
f8
fa
0c
0c
16
ed
f6
fd
f2
00
ee
00
fc
fc
0d
fe
f6
06
0b
fe
fc
04
f9
f4
08
04
fc
00
13
f6
0a
06
01
f5
07
fc
f2
01
05
f4
0b
08
02
14
fe
01
f3
0b
fb
08
05
fb
f4
f0
02
05
f9
06
f2
0a
fe
13
f8
04
ee
fa
f0
f6
04
f9
0a
f6
f8
fc
06
ff
fa
fb
fb
00
f3
0e
09
f8
f0
fe
03
02
ef
0c
09
ff
00
f5
0a
f6
e9
fd
f7
fe
fa
fc
05
0f
01
06
f2
08
f9
f2
07
06
09
fb
0c
fd
10
0c
05
05
f4
04
05
f7
0b
01
12
04
02
04
15
f1
f9
fa
ff
f8
05
f3
f7
0d
0b
0c
03
0e
04
02
ff
fe
f0
f7
03
03
fe
02
03
03
06
f7
01
00
0a
07
04
10
03
fa
ff
f6
f4
f8
02
0c
ff
f0
0d
0b
02
08
09
fd
03
f8
fd
07
01
ff
09
05
fd
f2
fe
06
f8
05
ec
03
06
0e
07
fa
ff
05
fd
f6
f8
f6
ed
fc
fc
0c
09
0a
03
fd
0c
09
f1
fb
fe
06
01
02
05
f9
f3
fe
f1
f3
e8
f7
11
0d
f2
fb
f8
fd
0a
fe
09
07
01
0a
08
00
09
03
11
f7
fe
f5
f5
f3
fe
07
f9
fe
08
f5
05
06
ff
07
f4
fe
f4
07
06
ff
03
06
ff
f3
19
fd
f9
08
0c
f7
00
02
09
10
00
0f
f5
04
f3
00
f9
fa
05
fa
f4
da
f6
f0
10
01
f1
06
02
05
02
f7
00
05
fa
06
01
fb
04
f1
ff
09
f6
f2
ff
ff
06
fa
01
08
01
f9
f8
fe
fe
fd
04
fb
f3
03
0b
0a
f7
0c
f0
fe
06
07
05
02
01
11
e4
f3
f5
f7
11
01
f4
19
07
fa
f3
fb
01
28
0f
01
fa
21
0a
00
f1
f2
06
09
f4
f2
ef
f3
19
06
f9
fe
06
fc
f1
0c
fb
08
fa
ef
fc
01
03
ef
f2
00
03
01
fe
fc
f2
0e
04
fa
03
01
f7
15
fe
e9
00
f2
0a
00
1a
0d
f9
f2
f0
ff
08
00
ff
fb
fb
0a
06
07
e1
f7
09
f3
09
06
00
00
02
11
f6
01
01
02
06
fa
05
01
f8
07
fe
f8
f8
ff
01
02
03
05
ff
fc
13
03
00
0d
07
02
02
ff
fe
f0
04
fa
03
fe
03
05
02
04
f3
fa
05
04
01
04
01
f7
fe
05
f7
f8
07
fd
06
ff
02
05
f4
fa
f6
06
fc
03
07
fc
fb
08
04
01
01
f6
f6
06
f2
fa
f3
04
0c
ff
08
f2
fc
fb
03
ff
ff
00
00
02
fb
ff
08
f9
04
fb
ea
00
02
fd
f4
fe
03
10
f8
ff
06
fb
07
fb
02
06
06
00
02
00
0e
08
00
02
11
f4
f2
fd
04
0c
03
04
05
f7
f5
18
04
05
02
04
04
01
00
f3
f8
03
fc
fb
02
ee
03
ff
07
0b
00
f8
f8
ff
0a
05
09
05
07
01
0b
02
09
f9
08
fd
fa
0a
07
01
fc
08
0b
f3
04
03
02
02
02
f9
fc
fb
02
fe
07
f5
1c
f1
06
fe
02
05
00
04
ec
07
00
0a
06
f4
06
f3
ec
fe
ff
04
07
05
ff
01
03
00
fe
05
03
06
00
12
f7
03
09
04
06
f9
f8
07
0b
fc
02
09
fb
01
fe
05
01
f9
0e
04
ff
06
fc
03
ff
fa
01
fc
ff
fd
06
f2
fb
fd
03
f6
06
f0
fb
fd
fd
f7
f8
fb
02
04
ea
0b
fa
f7
f6
00
0a
09
ef
01
00
02
04
f9
06
f2
04
f4
08
ff
f8
f5
fc
fb
f9
ff
fe
fe
19
02
fc
fb
fb
f4
08
06
f6
f3
08
03
01
fe
09
06
15
fd
09
f2
09
05
f5
fa
08
08
05
f7
07
f1
02
fb
09
02
04
fa
fb
0a
01
f6
f9
0a
0e
0f
f5
15
07
f3
ff
02
0b
f1
fe
03
10
02
fb
00
0d
fc
19
03
0b
fe
01
0e
f0
fd
01
fe
fb
ee
0f
0d
05
ff
17
00
ec
ee
ee
00
04
fa
0a
0b
e9
f6
f6
fb
07
0c
ff
03
08
00
fc
fa
08
fd
0d
fb
fc
f7
00
0b
fa
fb
f7
f3
0d
fb
fe
f8
01
f9
01
03
03
f9
08
06
0d
02
0d
fb
f3
09
fd
e9
f8
f5
06
01
05
fc
02
fb
f7
ef
f1
02
ed
06
02
05
f1
01
02
fd
fa
00
04
06
07
ff
0e
fd
06
0e
fc
05
12
07
04
02
00
07
fa
02
f6
02
11
f5
f5
00
08
09
fe
14
fc
04
05
fa
07
08
09
17
02
0a
0b
05
09
fb
09
fc
f4
f5
0b
ff
00
07
06
f8
0c
1b
fa
f6
02
08
f9
e8
fb
01
fc
08
fd
0c
fa
fa
f9
00
02
03
fc
ff
08
f7
ff
f0
e6
e7
fd
15
ff
0e
09
fe
f7
0a
0b
f9
05
f9
13
03
f9
00
02
00
f5
f8
09
08
0e
fc
05
04
f8
02
00
f6
06
f3
1d
ed
0c
01
06
fd
07
02
fc
f3
01
f6
fb
03
00
ff
fe
04
08
fc
05
0a
03
01
fd
01
01
13
fb
0d
f1
01
f8
10
01
09
ff
ec
0c
02
05
fb
08
0f
0b
03
f6
0c
00
0d
02
09
f9
f4
f7
08
f5
f8
05
03
07
05
00
05
09
04
0f
fa
07
fd
02
ee
fd
fe
06
f2
03
07
06
fa
e9
06
14
eb
09
fd
01
fc
09
fa
fd
00
ea
02
fc
f5
08
0c
fe
00
13
f9
fd
07
f5
02
fb
09
06
07
ef
00
fd
fd
04
fa
0d
fb
f8
00
fb
fd
00
06
f8
ff
f4
ff
ff
04
fd
fc
fb
ff
fe
09
ff
0c
05
02
0e
f6
04
0d
05
0d
ff
fd
fb
fe
fd
fe
f2
fc
0a
03
ee
04
fb
fa
0f
11
06
f3
04
0c
02
05
04
ef
ee
00
04
0f
fd
04
fc
fb
fe
fc
0f
08
fe
04
f3
f1
fc
0b
01
f3
fa
e5
00
ed
05
f9
01
05
08
0a
e8
fa
f7
f1
03
ff
ff
05
00
03
00
03
f4
03
fe
08
0b
f0
0a
f8
02
08
07
01
f8
02
05
f9
06
04
fd
f8
fd
06
01
01
fd
f2
03
0d
02
f9
ff
fe
0c
05
09
0b
fd
fb
07
06
02
f9
f8
09
fa
02
03
01
01
f9
ff
f0
09
ef
fe
06
02
fd
ff
f8
00
08
00
03
06
05
04
fe
04
fe
ff
03
fc
fb
f4
f5
fb
fc
02
12
fe
08
fc
fb
fe
eb
05
04
ff
f7
fc
fd
04
08
f7
04
18
fa
02
10
08
0c
0a
fd
00
02
02
02
0b
f0
ff
fb
fc
09
05
f5
f4
f9
06
18
f0
fa
f8
00
ff
01
e9
f8
06
0c
fc
0a
f5
f3
00
fb
f4
02
04
0c
01
f4
0c
18
f3
06
f2
0b
06
09
fb
f9
f9
ff
0e
0c
02
f6
fd
0a
0e
0b
01
ed
03
fd
06
f2
f9
f6
0a
f4
03
00
fe
0c
f4
04
fb
04
00
06
05
03
fd
08
f8
05
0b
fc
f8
f4
00
05
03
01
04
fa
17
0c
05
f7
f6
07
fe
f9
07
05
01
0a
00
f8
00
f5
f8
06
fe
fa
f5
01
f6
05
02
09
0e
00
00
18
08
15
01
ff
03
fc
0e
02
ff
08
f6
fb
fa
fc
00
f4
00
05
fd
fd
fb
01
00
0e
fc
0b
fd
0c
fc
0d
07
ff
fe
03
fb
fb
f7
01
f9
00
fb
f4
00
06
f9
00
f6
01
ff
fd
09
fa
06
04
fc
0e
00
08
06
0a
f0
f7
06
01
f9
fd
ec
f8
04
fb
04
0c
0a
f9
fb
02
fc
fc
07
0a
01
15
fd
ff
08
fd
04
07
fe
fa
f5
00
fa
00
fb
0b
04
ff
03
f4
f7
07
fb
fe
f9
fd
fc
fc
04
f8
01
00
fc
06
ff
03
0c
0a
04
0c
fa
0b
05
00
fc
fc
f9
02
06
06
08
ff
00
00
0c
fc
16
0d
09
f7
00
06
03
04
05
01
fe
04
0a
01
f6
fb
ff
13
08
0f
eb
fd
fa
f5
f0
fb
18
01
f9
0a
fe
08
00
fe
f8
08
fb
07
03
03
06
0a
f0
f9
01
04
ec
04
0d
07
06
fa
03
f9
0d
13
0a
04
f8
f4
00
09
19
f7
f6
04
08
00
01
f5
ee
fc
ff
02
0c
f6
04
00
f8
14
05
0d
fc
0d
02
ff
f0
03
f3
03
04
ec
ed
f1
fe
fd
01
f7
01
06
f8
fe
fc
0a
fc
fd
09
02
f8
f4
00
01
f8
00
03
08
00
03
08
00
09
06
fd
fa
fc
fc
01
11
04
ff
fc
09
0c
0c
fb
f5
fd
0c
03
06
fd
03
05
ff
02
f2
f9
f6
0c
18
f3
04
08
02
06
03
f4
04
fd
05
03
08
03
03
0a
03
08
0b
05
fe
01
0e
04
fe
f3
fd
0c
0f
00
0b
01
f4
fc
0b
fd
0b
fe
0a
fa
02
f7
fd
fb
08
01
0f
03
0b
00
00
01
03
f4
fb
02
ff
03
f7
03
0c
f9
f3
fa
05
f9
fc
00
f4
03
0a
10
08
fd
0a
f4
fb
0d
f9
ef
fe
f7
15
04
07
fc
f7
07
fd
f6
f2
0d
fc
0b
ef
04
0f
fd
03
ff
f9
fd
06
fb
f6
f5
00
06
0d
ef
f8
ef
0c
f7
ec
00
fe
08
13
05
03
fe
f6
f2
04
f8
0d
02
ec
00
02
08
09
0b
f9
ef
03
fc
ec
fd
15
fb
0c
04
f8
fa
08
06
fb
0d
0b
fd
09
ed
f9
f7
04
fc
07
ec
f6
07
fc
06
05
ff
fa
fb
03
04
01
fd
07
f7
03
f6
0c
06
ed
fa
05
06
f9
0e
13
00
0c
f6
ef
00
f6
eb
0a
07
03
fa
11
05
02
fc
fd
03
0f
fc
04
f4
f8
09
04
fb
05
ff
00
0b
01
0a
fb
09
08
0c
0c
03
0b
14
f3
03
05
04
0e
06
f6
f9
01
03
00
00
fd
fc
03
ef
f8
f6
f6
fa
ff
06
0e
0b
f9
01
00
f0
f1
0e
f2
13
ef
0e
01
02
f5
f9
0d
f1
09
01
fe
f9
03
fa
00
eb
08
f6
fa
0d
fb
06
fd
fe
02
05
fb
00
08
0b
f3
fa
08
fe
fd
f2
fa
07
01
fc
ff
00
f8
fa
01
04
09
0e
1a
05
0d
00
f4
00
f5
05
0a
f8
fc
fe
fb
f9
12
fe
fe
f9
0c
0f
06
fa
fe
fb
fa
0a
07
00
ff
03
0d
fb
fb
02
fd
eb
13
fd
f4
08
e9
fd
0a
07
07
06
0c
06
08
ff
09
fa
00
01
fa
0b
04
f1
fe
01
f7
fd
0b
03
ff
01
fe
04
f6
02
fe
fe
f8
0a
05
fd
0c
02
f6
00
fd
00
fe
08
f9
ff
02
04
f5
fb
08
06
03
ff
f5
fa
02
02
0f
04
01
f2
fe
f4
03
02
fe
fe
05
ff
f5
f8
03
07
06
f9
f2
f9
01
fc
01
fa
01
f8
f9
08
01
fb
fa
f7
fc
0b
02
f9
f9
fc
06
fe
03
02
ed
f8
fa
02
06
fa
0b
01
fa
07
0c
03
07
f8
f4
01
08
05
fc
06
f5
0c
fc
f6
fb
f4
fd
01
04
06
f8
07
f9
05
14
f8
fc
fb
00
05
f4
ee
f1
02
08
ff
fd
07
fe
f3
00
fb
02
03
01
03
07
02
f6
f2
02
00
f9
0c
fd
05
f8
02
07
06
f9
08
04
0c
08
06
04
07
05
05
fe
04
03
ff
01
fc
f9
11
05
06
0c
fd
03
fb
0d
fe
00
02
f6
01
0e
f9
06
fc
fb
f7
04
f8
f6
ee
f7
f1
02
04
03
00
f0
02
12
f5
fa
01
0e
05
fc
04
03
02
ff
0c
04
fd
f2
09
00
fc
00
f0
fc
01
fb
07
00
11
01
fe
fa
00
f4
08
fb
09
01
04
09
01
06
09
00
f0
fb
ff
fb
0d
f9
05
00
03
11
02
fd
05
03
f7
f6
0c
fe
0b
01
04
06
06
08
09
f7
fc
fb
f8
fc
f6
f3
f5
09
03
f4
11
ee
17
05
05
ff
04
f5
f5
f6
03
02
07
f0
fa
f7
f9
0e
fe
fc
f7
f4
0d
f7
06
fc
f6
fe
09
fa
f4
01
03
0c
01
ef
fd
07
02
fa
f9
08
f6
fd
fc
0b
01
06
02
03
0e
24
00
00
07
ee
fe
0e
08
f8
f8
02
ff
03
00
f4
fe
09
12
fb
02
0b
f0
0b
17
fc
05
01
0e
00
f8
f5
02
01
f0
0b
0e
fd
fc
03
00
01
06
ff
04
fa
05
fc
fe
fd
15
08
06
f7
f8
07
12
03
f8
f4
09
04
f9
04
fd
fa
08
0a
06
04
01
fa
fa
0c
ee
04
fd
08
f8
0a
02
11
fc
11
02
f6
04
08
fb
0c
fc
00
05
0a
fa
01
02
00
03
05
fe
09
00
05
f7
15
fe
07
01
0a
fe
f6
08
f7
fc
04
fe
09
fb
f9
03
00
fc
03
fe
08
f7
fd
ff
03
0e
03
f9
05
10
09
04
09
07
ff
01
fb
07
0b
f5
06
f8
00
02
04
01
01
fd
fd
f9
ff
08
ff
09
fd
f5
07
05
f9
f7
ff
02
09
05
01
06
fb
08
07
09
0e
02
fa
0f
05
08
fe
07
f7
fc
fd
06
06
fa
05
fc
f4
03
fd
03
07
04
04
f9
00
ff
fe
05
09
00
ff
f1
06
01
07
02
05
fc
ff
01
fd
f6
06
f5
f3
0b
00
03
08
f3
ff
0a
fe
01
03
03
01
fd
ff
0a
fa
05
01
fe
f9
f6
04
ff
03
15
ff
f8
02
fa
04
ee
fe
f2
fd
f4
fd
00
fb
0a
fd
04
0a
03
15
04
fd
ff
ff
01
07
fa
fd
03
f1
ee
04
01
fa
fc
ee
04
03
03
07
fd
fc
0a
fd
03
ff
f8
fa
05
fe
fd
fc
03
00
fb
00
03
f9
11
03
f2
fc
02
09
04
f7
fd
01
0b
f9
06
07
03
fb
fc
f2
01
0b
fb
ff
02
fb
ff
f9
f2
00
07
08
0c
06
04
0a
fb
03
0d
05
04
00
0d
f9
fd
f8
fd
ff
f7
04
06
f9
05
fc
06
fc
fc
06
f1
fe
0b
fa
fe
05
f9
f4
fd
01
fc
fe
f7
fa
02
ff
03
f7
00
03
0b
02
00
f4
f9
04
00
f8
f9
01
05
fc
f8
02
04
01
fb
09
06
ff
00
ff
08
11
fe
fd
fe
fd
f8
ff
ee
fb
01
f5
ff
09
0f
fa
f9
ff
fb
03
f6
fd
fc
0b
01
f9
fe
14
03
05
fa
06
ff
fe
03
ff
03
02
09
00
13
06
09
fb
f8
f7
ff
0e
fc
fa
0a
0a
04
fb
fe
00
07
f5
12
03
e9
07
05
14
00
f9
f5
05
07
01
fb
01
01
01
f5
05
06
fe
f9
04
08
04
fa
0f
fc
0a
0d
fe
07
02
01
06
0e
09
f8
09
10
fe
01
02
f5
f3
00
04
03
fa
f7
00
02
f9
02
f5
f5
f6
f1
fb
f9
00
04
09
fd
06
0c
01
01
ed
f7
03
fa
12
fe
fc
15
fc
ff
ec
f8
f5
ef
ff
01
10
fa
f3
0d
f6
03
fd
04
01
0b
fd
fe
01
0b
fb
07
07
08
fc
05
08
04
0a
06
09
ff
f0
0a
06
0f
00
06
f2
07
09
fb
0d
04
f8
f7
fd
f8
07
0e
f6
fb
f8
11
06
05
fc
ff
f4
07
0d
f7
f3
f7
fa
fd
f9
0c
f8
03
05
04
05
fd
ed
f9
09
06
00
fc
08
09
ff
f7
03
09
03
f4
0b
fa
f7
02
0b
04
0a
f3
00
00
06
fa
fe
05
ff
06
fa
03
f9
0e
f7
05
05
03
ee
fd
03
0b
0a
02
ef
fd
15
00
02
04
02
08
fc
fc
07
fa
f6
fb
08
07
ee
fe
fa
00
01
08
fd
07
fb
00
05
ff
fb
06
09
14
f9
13
02
fd
fc
fa
f4
04
06
f6
fd
f9
fe
04
ff
fe
fa
f7
04
13
fc
f7
f0
02
fc
f7
f9
03
fc
10
f8
ff
f7
00
fb
f9
fa
f8
ee
f6
04
fa
ff
0a
fe
02
f9
fe
ff
fa
07
fd
ff
f6
06
f9
fc
fa
07
01
f9
fb
05
08
12
f6
ff
f9
ff
07
08
fe
10
02
f5
fa
01
00
00
f8
0f
09
f5
07
0a
06
ff
04
fa
fb
fd
f7
04
00
04
fb
07
ff
fa
fe
05
01
00
f8
03
07
ff
06
f9
02
f7
02
05
03
f9
01
f4
00
f5
fb
fc
0c
fd
06
02
fb
fd
0b
f6
05
00
07
11
06
09
fc
03
fe
f1
ff
f3
f6
fc
09
01
f8
f3
02
ff
08
ed
fb
0a
f8
0c
00
f2
fb
00
fb
fc
f8
f3
12
f9
f2
15
06
0b
f2
f5
0c
f9
fa
11
0c
02
0c
fc
11
f8
f1
f9
06
ec
ff
f8
16
fb
e9
fb
06
ef
fd
02
0c
fb
0a
06
00
fa
fe
00
02
fa
f0
ff
ff
01
10
f8
04
fd
f4
0d
f9
15
00
fc
02
f8
f9
01
01
ff
15
07
fb
10
f8
fd
fd
08
ff
05
0a
fe
00
fd
ff
11
f8
08
f9
03
02
06
fc
fe
ff
fc
f8
09
03
f6
09
15
f0
ff
ff
ff
07
04
f5
f5
f8
fa
02
f5
08
f6
f7
13
f9
01
fb
0a
06
f9
fd
fa
00
ff
0f
fa
f5
f6
f8
fa
f8
f4
f1
0b
03
14
02
00
01
06
f5
03
fe
ff
02
f7
04
ff
f9
f9
04
03
f6
04
0a
01
ff
09
01
03
ff
f8
08
fe
07
00
00
f5
0b
03
05
f1
09
fe
05
fc
fd
03
07
f3
fe
fe
fb
fc
f4
f3
00
06
0e
03
f5
ff
08
0a
ec
f5
f8
fa
0c
f4
f7
0c
08
f5
08
fb
01
f9
f8
ff
ff
fb
01
06
06
fb
07
ff
f6
fd
f6
ee
06
01
07
01
f8
06
03
06
f2
06
ff
02
00
02
01
ff
04
06
0b
02
0a
00
00
04
0f
ff
0c
02
fa
0a
fb
ff
fc
f7
0a
00
fa
f8
fa
01
fe
03
fd
f5
0a
0e
ff
00
ff
04
03
0c
fb
00
08
f9
f6
ff
01
08
06
f5
f9
ff
f4
09
01
fa
fe
ff
f9
0b
f2
f8
00
ff
02
f8
f1
f5
04
06
fa
06
f9
f0
ff
f6
fb
0c
06
f0
fd
0c
08
09
f3
ee
03
02
11
f4
fc
fb
05
f5
f9
ff
f4
10
01
09
01
fd
f8
00
08
06
0e
03
f5
f8
f5
ea
f6
f9
fa
fa
fc
f5
f9
08
0a
04
1d
f2
f6
0b
fc
fa
fe
03
fc
fc
01
fe
ef
04
fc
f9
09
0a
04
03
f2
fb
fb
0c
07
0a
f8
fa
00
16
f5
10
04
f9
01
fb
0b
f2
ff
06
fa
f8
10
f1
09
0f
08
11
13
04
00
f8
ff
fd
fe
f8
fb
f7
09
06
07
f6
0c
06
06
0a
08
05
fd
f0
f7
f8
f0
e7
06
04
f9
00
21
05
ed
fe
f7
f6
f2
05
0a
0c
fb
fc
ff
f6
f1
05
f0
ff
f6
fe
03
04
02
fd
0a
fb
ff
03
e5
fc
0b
04
0a
fc
fc
07
01
f8
00
03
08
03
05
00
00
f7
fc
05
fb
f7
08
f7
02
0b
fa
09
fe
fe
f4
0c
f9
fd
f7
05
02
03
fb
f7
0f
f7
fc
f6
fb
fd
fe
fd
f7
02
ff
fd
fc
f9
fc
00
03
04
ff
f9
fa
f6
ff
f2
f8
fa
01
08
f9
07
fa
fe
0a
03
fa
06
fd
fe
fd
05
fd
05
02
02
0b
02
ff
fc
0d
01
f9
f2
01
11
fb
00
f0
fd
00
07
fc
0c
f9
02
f3
04
fa
f9
fc
f9
f9
05
00
10
05
08
ff
05
fc
01
f8
00
04
01
04
04
f6
01
10
f7
0f
11
19
0a
f8
05
fe
06
06
f3
fb
f2
00
fc
00
06
00
04
07
ef
04
fe
fb
fe
02
01
05
fe
f2
fe
04
02
01
05
08
f6
07
f9
05
00
fb
fe
fc
f8
fd
f8
00
0d
0e
fd
0b
ff
02
f6
fd
04
eb
00
fd
07
1f
09
0c
04
f6
fd
fd
ff
02
fc
06
0e
08
00
09
07
06
ea
f6
fe
fa
fb
04
f6
02
fe
18
f6
fc
fb
fc
0a
f5
05
fb
05
fe
fc
fb
f3
f7
02
06
0d
f7
06
03
03
fe
00
0c
0a
0b
0e
08
0e
f9
fd
03
fe
fc
06
06
06
f8
01
03
fd
f0
05
fc
04
fc
fd
fd
0a
f6
fe
01
08
0b
0a
f3
09
f5
fd
01
05
02
fe
03
04
f7
fe
04
f6
fd
00
04
03
f6
03
ff
fa
fd
05
04
f5
f9
fb
fb
04
01
04
fd
00
06
f4
07
fe
00
f4
fc
00
fa
f4
00
03
09
0a
f9
f8
fa
fc
f7
08
ff
fb
0b
fe
fd
01
fe
01
00
04
05
00
02
02
00
fa
02
ef
f3
09
0a
00
fc
ff
fc
fe
fa
00
fe
05
04
f7
fc
01
ff
06
fc
05
fa
01
f9
06
07
fa
03
06
fd
05
06
eb
02
fa
fd
08
fe
fd
01
0a
00
fa
ff
f4
ff
fb
ff
f8
00
ff
01
ed
ff
0b
07
02
04
05
0d
04
fb
01
01
02
03
06
09
00
f3
f4
fb
f4
02
0a
f4
02
08
fe
12
fd
05
f5
05
10
00
ea
04
fb
f0
04
ff
f7
02
05
04
0c
fc
08
fa
f7
fe
12
fa
f4
06
04
0f
07
00
fd
f4
f3
ef
fd
02
fa
f4
f2
ff
04
ff
f8
f9
0a
f2
ff
fa
08
02
f3
08
f8
08
06
f3
00
f3
10
01
fd
07
00
08
02
f9
06
07
f8
08
15
07
00
ff
00
03
04
02
06
fb
f9
00
ff
fe
02
00
01
05
fa
06
05
04
f0
03
08
03
fb
13
f7
f2
13
0c
f3
01
ef
05
06
06
0b
fc
09
fb
f9
03
fb
02
fd
f1
01
fc
0c
fe
f7
0f
04
f8
f4
fa
ee
f7
0d
f2
ec
01
0b
fb
0e
0a
f5
00
f9
f5
fc
09
f3
00
05
0d
04
fa
fa
f4
06
ff
03
f5
fb
03
fc
f7
fd
0f
ff
02
13
f3
02
0d
03
fa
0c
09
0a
ff
11
fb
03
13
02
04
03
f7
fc
01
f7
05
fb
fb
07
0e
f9
12
01
05
0a
f4
0c
f1
f1
f3
0b
0d
f6
04
f2
ff
ff
f7
02
03
fe
f7
00
fb
fd
04
16
03
f8
07
0b
f5
f7
02
fc
0e
04
01
f6
f3
fb
f6
09
f2
03
ff
15
fd
11
05
fc
17
fa
fa
f7
ec
fb
fe
08
f8
ff
fe
11
f6
0e
07
f5
fe
fe
02
05
fc
ef
ff
02
04
0f
f7
e4
f8
09
fc
01
00
0d
04
ec
fa
0f
f7
f3
03
fc
05
fd
fd
00
f0
f7
f8
ff
00
05
f9
15
03
ee
0d
06
01
f5
09
f5
eb
01
fc
f3
fa
06
fc
05
08
0d
00
f1
09
fc
02
08
0c
02
fb
f1
02
05
fe
05
fa
f3
fe
16
ff
f8
f9
02
0c
fe
f3
01
00
ff
fe
f1
15
ec
0a
fd
f4
04
fe
f9
fe
fa
f4
02
fe
02
f0
fc
05
f7
04
16
f7
f5
f9
01
07
fc
0c
ff
f9
f9
0a
04
16
ff
df
06
fd
f4
e9
ff
00
f9
f1
f4
04
04
fc
f9
07
f4
fc
f5
ff
01
0f
00
f7
0f
04
1c
fe
f3
08
f6
08
09
fd
fc
0a
fa
11
f1
00
03
ff
06
16
fd
ee
fe
f5
0c
f7
fe
07
0a
01
f4
05
11
fc
fd
fc
00
ef
07
ff
05
f0
07
02
fe
ff
01
00
f8
0a
12
0e
0b
02
07
01
fe
03
02
f2
f8
05
ff
f8
fa
ff
11
00
13
f5
03
0c
f7
10
07
01
0a
f7
f3
fc
f8
0a
0a
fb
f7
f9
fc
0d
01
02
f2
21
f3
18
ff
f6
ff
fb
0c
01
ed
fc
04
ed
f8
0c
fd
f7
05
fe
00
fc
f5
07
f9
04
f4
0b
fa
01
0b
fe
1d
fb
00
01
13
0c
f8
00
fe
08
13
06
12
09
0b
f8
04
fd
f9
ed
f7
0a
fd
06
03
00
fd
02
f7
08
03
0f
09
e9
ee
f6
05
f4
07
08
0b
fe
00
ff
fe
0d
02
f8
03
fe
00
00
0b
f5
f4
ff
06
08
ff
fa
ff
f0
04
02
fc
f6
02
f6
fc
02
03
f9
f5
02
09
01
f5
05
f5
f3
0b
f6
e5
18
0b
04
f5
08
fb
11
08
f0
0e
07
07
09
f6
05
08
fd
17
03
f6
13
ff
ea
f9
0a
05
fd
f6
ff
0f
f9
05
f3
12
0d
f3
03
13
05
08
f3
03
00
04
00
09
fc
05
f2
09
f2
fe
f9
fe
01
07
ef
fd
f9
ee
ff
f4
04
09
06
0b
0c
f3
01
01
f7
15
03
f4
00
02
f0
f1
01
0d
00
0e
01
f9
e6
f5
ee
09
09
f6
ed
f1
00
fa
0e
0c
09
01
02
fe
04
ff
ee
12
07
10
f6
f0
01
05
fb
f1
fc
fa
fe
fd
00
ea
05
05
03
fa
02
f8
01
03
02
03
fc
f7
f1
01
09
ff
03
02
fc
03
f7
fd
05
01
0c
fd
fc
f4
fa
09
04
06
00
03
0a
0c
ff
00
f5
ff
fb
0c
fd
f2
01
0a
06
09
01
04
f1
f8
f7
05
fc
f5
f5
ff
01
fd
f7
f8
00
0c
f7
fd
0b
ff
08
08
f4
06
fb
ff
fd
05
05
00
ff
06
06
fb
fb
f3
05
fe
f6
04
04
fa
fb
01
fd
ee
06
00
01
fe
fe
0a
fc
04
f4
fc
01
09
07
09
eb
eb
01
fc
03
ff
0e
fa
f7
ff
fe
0b
fd
f8
09
0c
f5
02
fa
05
0f
02
fc
0e
f9
f6
fe
08
05
01
09
0e
fa
09
fd
fa
fc
09
01
04
fc
f9
0b
fc
04
0c
ff
03
fa
09
ff
01
0a
06
05
f3
f8
ff
13
ee
fb
ff
05
fd
00
00
ed
0c
f6
09
f4
ff
1a
ff
00
01
fe
fd
ff
fd
ef
0c
01
f7
03
08
f8
fb
02
f8
fb
04
0d
02
f7
fd
fc
07
fd
00
03
01
09
f7
fc
00
05
01
0d
04
ed
0c
01
08
08
08
fa
fd
07
00
fc
0d
02
fb
f6
01
f5
fc
f7
04
05
11
02
f8
f8
02
fb
09
f2
f3
f8
01
00
fa
0c
f3
06
04
0a
ff
03
f3
ec
fd
ff
f8
fb
07
00
03
00
01
09
04
fa
0a
07
fb
08
01
03
01
fe
f9
f7
fb
ff
fd
0a
fd
fd
0b
06
f9
f9
fa
fa
0c
02
ff
fc
f6
fb
fc
ff
00
fe
00
fa
05
f5
01
05
ff
05
08
fa
fe
0e
05
06
0e
f4
02
03
f8
08
fb
f6
f6
f7
fa
02
fa
0a
01
0f
03
f6
f6
ef
fa
07
fa
f0
09
fd
03
03
00
00
07
03
11
f3
ff
f8
02
03
01
fa
00
fb
08
03
fb
ed
ef
01
09
11
f9
fa
01
f9
fe
06
05
f8
fb
07
f8
fd
f9
04
06
0a
0b
fe
f8
f4
fb
f4
18
05
09
fb
fd
f5
f9
11
00
fe
fe
09
ff
06
0b
f7
10
fc
08
06
0b
06
ff
fe
10
03
fa
08
fe
0e
f8
fc
01
fb
0a
00
f5
09
07
08
ef
07
fe
fd
fd
08
0d
07
eb
f9
05
f6
07
f9
f9
f2
15
f7
e9
fb
f7
1e
fb
ef
04
ff
fc
f4
fc
12
04
0a
fa
0b
fe
07
ee
fc
f9
16
f5
00
f9
fb
02
15
f2
fe
f2
00
fd
02
eb
02
f6
e9
02
06
0c
f8
07
04
0d
ef
04
18
f9
f7
15
fc
03
0b
0a
01
fa
02
f7
fe
06
f1
09
13
ee
f5
01
ed
07
fa
ef
03
04
10
f9
08
00
04
00
08
0a
f3
f5
1f
ff
fd
02
04
0c
f7
fd
f2
03
05
fb
07
ec
02
0a
f8
f3
03
16
ef
fc
05
e6
09
01
fd
fe
11
fa
06
fa
03
f2
f5
06
ff
07
0f
fb
f9
f7
0a
f4
fb
ec
f8
0b
08
0b
f3
f5
0f
fe
02
02
fb
fd
f7
02
03
07
fe
01
f4
03
03
fa
ed
03
f7
fb
01
f9
fc
ff
04
04
0b
03
ec
0f
fa
00
06
11
0c
12
03
04
02
01
06
09
04
fb
fa
02
0b
fc
02
fc
fc
02
f4
12
03
fc
03
02
07
f1
07
f2
fb
09
f9
f6
ff
f4
ed
fb
09
01
06
01
0b
08
07
f9
09
0d
f8
08
fe
02
0a
0c
01
f9
0a
f7
07
ee
04
0b
fb
09
f8
03
02
03
03
f8
04
f8
ff
0c
ed
03
fe
fa
fe
fa
fe
09
07
01
04
f8
09
10
0a
f9
f3
f7
04
02
f8
07
fb
ff
fd
ef
0a
04
f1
fb
05
00
fe
ec
0b
07
ec
f8
f9
07
04
f9
f2
0b
07
04
06
f9
01
fa
05
ef
f4
fc
ff
fd
f5
f9
f0
fb
07
0d
f8
0a
ef
f0
f6
05
f8
0c
07
07
f8
0e
f3
05
01
f5
05
03
02
0f
13
08
fa
04
06
04
00
fb
fb
00
fd
08
fd
02
f8
00
fd
f7
f8
fe
fb
03
0d
01
02
02
10
0a
04
07
e8
f4
f9
03
00
f7
06
01
fa
f7
e6
f9
f3
0e
16
00
05
03
07
05
f6
0f
05
14
02
f2
05
05
fc
0f
03
fb
04
fb
0b
fe
fc
f8
f5
04
0d
e9
f9
f9
00
05
f9
02
00
fe
ff
f7
fd
06
fe
f4
f3
f9
0d
ee
06
0f
fe
05
03
09
01
fd
f2
f7
ec
04
ff
00
02
fe
14
03
05
f4
01
0a
02
0b
fe
12
fe
fa
f9
09
08
fb
f6
07
06
02
ed
11
00
07
0a
03
06
fb
07
08
ff
f7
07
02
fb
02
05
ff
f8
00
fb
f7
00
03
00
ff
0a
fe
fa
fb
08
fb
03
02
05
f7
07
fc
00
02
fe
01
f7
ef
f7
03
08
f9
f9
fd
0a
f9
ed
03
11
f3
ff
08
ff
13
10
f9
f9
11
f4
f2
f8
0c
fa
10
f3
0e
f7
0f
0b
f6
06
f1
02
14
fd
f5
00
0e
13
fa
fa
03
fd
0e
fc
f5
09
0c
ff
05
0e
f8
fa
08
10
06
05
00
f3
00
fd
0a
fb
f6
fa
fd
f2
fa
09
f4
fb
09
07
f8
fc
0c
00
f2
fc
ff
04
f4
03
03
ff
04
0b
e7
f4
0e
02
06
f9
fc
12
0b
f8
fa
fd
0c
f7
f9
09
01
fe
f5
07
00
f3
f6
fa
02
fd
f3
07
0b
f9
0a
00
09
fc
fb
02
fc
05
0a
01
fd
fe
02
fa
fa
fd
03
01
00
07
05
ff
09
01
fb
04
01
01
05
08
ff
05
f7
fa
ff
01
04
02
ff
ff
fb
fd
fa
05
f6
00
0d
fa
02
f3
fc
f5
07
f1
f9
ff
0a
0d
07
f7
01
0d
fc
04
02
f3
05
f6
06
f5
fa
03
0b
f4
fe
03
08
ff
02
fc
06
f7
02
02
08
06
01
0b
fd
fa
fa
04
02
04
fd
02
02
08
fb
f1
f6
fd
fb
00
ff
04
fa
ff
ff
01
0b
fe
fd
08
09
01
03
fb
fc
ff
03
00
f4
03
03
07
fd
fa
f9
0d
0a
fc
fd
fd
f9
0a
0b
f6
ff
f5
fa
00
09
06
fd
0b
f7
01
03
fd
0c
02
06
f7
09
03
01
11
fe
06
03
00
f8
f2
fa
06
04
01
15
f7
fe
0f
fb
04
fa
14
ff
04
f7
fc
fa
05
03
f7
01
fa
0e
07
0e
06
00
04
fc
11
09
02
04
eb
fa
02
fa
06
f9
07
f5
17
05
f4
00
03
0f
fe
fd
06
f1
fb
1d
fc
08
09
ff
12
0b
f5
fe
fe
0a
06
0e
fe
ee
ec
08
fc
06
0a
fa
07
f8
07
0b
04
ff
01
ff
fc
05
06
fd
fb
01
ed
08
fd
f3
06
f6
0a
fc
f4
ee
f0
09
fc
01
01
05
14
f8
0e
fb
03
08
05
fe
04
ef
fb
fa
03
12
f2
fc
f9
ff
f7
09
f9
01
fd
09
0a
f2
fc
fd
fe
ff
f9
f8
f7
06
fe
06
03
ec
07
06
fa
03
fa
09
02
ff
fa
06
f4
01
fb
fe
ff
f9
05
f2
ff
03
02
fd
0b
00
0d
f7
10
fe
f7
04
ff
fe
01
06
fe
01
fb
f7
fe
07
f8
0f
f6
02
0a
01
fa
f2
fd
01
fc
06
12
f7
fc
02
15
05
13
07
0d
00
00
03
fb
07
fe
04
08
05
06
ec
fc
f6
fe
f9
00
0a
09
06
05
f4
04
14
05
02
fa
01
f6
09
06
fd
ff
f6
f9
03
08
f4
f7
03
f3
ff
fc
04
fa
0c
07
f9
f5
06
f3
0a
04
ee
0b
f1
00
09
08
03
f5
01
0a
f8
0b
05
f5
01
fb
fb
00
06
fe
04
fd
02
09
ff
09
04
08
01
0e
07
06
0b
f6
fd
05
f7
fa
08
02
09
e8
0e
0f
0d
f4
07
fc
01
02
00
ff
0c
f4
00
02
f8
00
00
02
ff
f6
01
05
00
00
01
fc
ff
05
07
14
f0
06
05
f8
e8
05
ff
0b
0c
fd
ee
03
fb
f5
09
fe
fa
01
f7
f8
f6
fd
fb
fe
00
10
fa
02
f4
f5
fa
09
06
ed
ff
fc
fb
fe
fd
01
f6
f6
01
0c
07
ff
00
00
f6
fa
04
f3
fe
0b
0f
09
f7
fa
04
f5
0e
06
04
f3
fa
fd
f9
fc
f9
03
0b
05
09
fb
09
0a
f4
fe
00
f4
f6
fc
01
f9
06
0f
f8
fa
fb
00
f7
f5
04
fd
00
f9
04
fe
08
06
fe
04
ff
07
f7
01
0d
f4
05
ed
fd
fa
f4
f3
03
03
f7
ef
fb
03
fc
04
03
17
02
f6
0a
fb
04
f3
f6
03
0d
17
fc
f8
ff
02
f8
fe
f8
ef
f4
ff
02
fd
fd
0d
0b
f9
02
fe
01
fb
f4
06
03
02
05
ff
03
03
f5
0d
08
05
f9
04
01
f7
ff
0f
02
fe
f5
01
0b
f9
fc
02
05
fc
0a
04
02
05
fb
05
f8
02
13
fa
09
00
f1
0e
ed
02
02
01
10
00
ff
fd
0c
0a
02
f9
09
f5
05
04
0c
ff
fd
05
05
09
fd
03
04
f7
f5
eb
fa
01
03
fe
fc
fa
09
ff
f8
f3
00
f7
02
04
f9
04
ff
04
03
f4
05
00
fe
fa
14
04
04
ff
06
00
06
06
f5
07
00
0b
fa
f4
00
f7
ff
f6
0b
12
0b
02
07
07
f6
fe
04
02
03
10
04
01
f7
fe
fb
05
06
00
fb
e8
00
fc
0d
fd
07
fe
fc
02
fd
fc
02
00
f3
08
f2
e3
02
01
fa
fd
09
00
0c
fc
ff
06
0d
08
fe
f2
04
fa
ff
fe
ff
06
03
01
ff
f0
ff
fc
07
f2
05
07
08
01
f8
00
06
00
02
16
04
f0
09
fb
07
05
ee
f8
0d
0d
fe
15
0f
10
08
12
00
f7
fe
fd
fa
f5
ec
f5
04
f3
0b
fa
18
10
08
04
0c
06
07
08
f6
fb
f0
0b
0b
03
fc
0a
0a
05
04
0f
00
fa
08
0e
f9
ec
e8
fc
09
f6
fc
f3
09
f9
fb
09
ec
01
02
e9
07
0b
03
f0
00
f7
fc
09
ff
fe
09
0d
f7
fe
09
fb
05
fe
f8
09
0a
f4
04
f4
fe
f7
0d
fe
0a
fc
01
02
f9
0a
f7
04
f4
f7
02
0d
08
f4
01
03
02
09
fb
02
fe
03
02
fb
fd
fb
fb
fe
0a
fe
fc
01
f8
07
fc
03
04
fe
fa
fe
01
07
fc
f6
08
03
01
ff
e7
09
01
00
10
02
fb
fe
01
07
f3
f9
f9
05
03
f1
f9
03
08
fb
06
0b
f9
00
04
01
02
0c
06
f6
17
04
f6
0b
fc
08
f8
09
0a
04
01
ff
02
00
00
ff
f9
ff
01
0c
ff
f8
fd
07
04
fc
fa
08
f9
0c
08
11
f9
02
f6
f9
08
f7
03
f3
fa
0f
f6
f8
07
18
f1
fe
06
10
0b
ea
fd
12
04
f2
fd
15
02
f9
fe
13
0b
f3
02
f2
fa
04
01
0c
fe
ff
fe
fb
02
fa
f3
fe
05
04
05
f5
f7
ed
07
00
fc
07
04
f4
05
ef
fc
f5
ea
0e
ff
04
08
fd
01
fb
07
f3
f9
06
06
02
0e
fa
05
10
05
07
fd
fd
0d
e8
f6
f9
f4
f4
fb
e8
09
fe
0a
0b
ff
f3
0c
06
01
f6
00
f9
06
03
f8
fa
08
12
0c
fc
00
07
fd
fc
f7
04
fd
f3
00
f7
06
08
ff
f3
f4
18
00
05
0c
00
0e
f8
02
06
f7
ff
fb
fd
07
0b
f1
0c
16
12
fd
fb
08
f2
05
13
02
fa
fd
02
f6
10
08
03
0a
f6
10
0d
01
f3
07
01
00
05
f9
fe
fb
0b
fd
14
fd
09
00
f4
06
f8
fd
f4
fa
08
f3
06
f7
0c
0d
04
f8
fe
01
04
05
ff
f9
0c
ff
fa
06
0a
02
f5
07
ff
01
ff
fa
0a
f2
09
ff
f3
fb
f4
00
f6
fd
02
ec
16
f7
01
03
f6
01
fc
f5
00
07
fe
f5
07
fc
08
fd
03
01
05
06
14
fc
07
04
02
fc
f6
08
02
f5
13
12
f5
0a
03
06
01
fb
ef
fb
08
f4
f1
fe
10
ea
04
0e
00
03
09
fe
0b
0a
fc
04
fd
ff
0e
19
08
fb
04
01
05
e7
0c
f5
f6
01
04
04
0d
f4
09
00
fc
0f
04
07
fe
ff
02
fe
10
fc
fc
f3
ff
fd
f9
f6
05
fe
fa
06
f6
f9
fd
fe
fd
08
00
01
fd
02
03
01
01
f9
08
f5
ff
fc
04
f9
fc
f3
fb
04
f4
01
fe
08
fc
09
f9
00
05
00
fc
01
07
04
fa
04
00
09
11
04
fd
09
00
fc
09
f3
0a
0a
0d
f9
04
eb
03
09
00
05
f7
0c
0d
05
fb
01
0b
fb
f7
0d
07
f8
03
fa
f8
f6
f6
00
01
0b
f7
f7
f9
f7
04
fc
ff
f7
fc
09
fc
f6
fc
f8
eb
fa
0b
04
0f
08
00
03
f8
f3
05
03
f7
0b
00
ff
04
08
01
fc
0c
f5
eb
08
fb
04
fd
f4
fd
f2
fd
ec
00
fa
ff
03
fd
fe
f0
f7
fe
fb
f9
01
fe
04
f3
07
f6
ff
fa
01
09
03
fd
fe
04
02
ff
05
ee
0c
f9
0b
07
04
ec
07
f9
16
fb
fc
04
fd
09
07
fb
07
15
f6
fe
fd
08
fa
f7
04
04
fa
f0
04
fc
fc
e9
02
f5
f6
fd
06
fc
fd
f8
05
07
fa
08
0a
05
f9
03
08
03
f6
f8
0b
0d
09
ec
07
14
01
fc
f9
04
fb
07
0a
fb
fd
f6
05
04
0d
fd
f5
00
f9
01
0f
f5
f4
15
fe
0c
02
06
0e
00
f3
f8
fb
02
f2
f7
08
07
0b
10
0c
f7
07
f1
05
f3
f5
f9
f7
f9
e8
fb
fe
f2
00
fa
fb
01
10
f0
fd
e9
05
0c
09
08
fe
eb
fc
1f
fd
ea
f1
1e
12
09
03
05
0b
13
fd
f6
12
fb
0b
f7
10
f9
0e
0a
f8
0f
04
ff
07
03
0b
07
05
0f
fc
16
02
06
06
0c
07
fe
14
12
f4
f2
10
f9
00
06
e5
fe
e8
f1
fe
03
09
f1
ff
fd
0a
fc
ed
0b
0a
06
0e
0a
fe
08
11
ff
fa
07
02
07
f6
00
fe
03
05
00
00
0a
ff
f6
0d
f8
f8
04
07
e7
04
02
fc
09
fd
01
fa
fa
0b
fb
10
e9
09
02
03
04
f5
fc
08
f4
01
09
04
f2
0a
f0
02
01
13
f1
0c
14
03
ff
00
f7
02
f9
04
05
e7
0d
ed
08
e9
ff
fe
15
02
fd
fc
0a
f7
0a
ff
f8
fc
00
01
03
05
fe
0e
fd
07
04
01
fa
0b
04
09
f1
11
ff
fe
f9
f8
14
06
0e
ff
f7
01
fc
0a
03
05
02
fe
fd
05
f8
02
00
02
ef
ec
ef
fc
00
f8
f5
ec
0e
02
02
f4
01
fc
fa
f9
fd
01
08
03
f6
fb
05
13
f9
05
04
f3
fe
fb
05
02
04
ee
fb
fa
fd
fa
fd
07
01
04
0f
f5
fb
fd
f9
0a
03
07
07
01
0c
f7
01
f4
f9
00
08
0d
12
08
02
02
fe
08
03
fc
01
ff
11
0d
fd
02
0e
f3
fc
f5
01
fa
f8
14
e4
03
fb
03
09
13
05
00
0a
fc
fc
0a
01
f2
0d
03
03
0d
fd
02
f7
08
f8
0d
02
08
f5
fa
00
fe
f8
f8
fc
fb
01
00
fc
0a
ff
00
03
05
f8
03
08
01
00
0e
ff
09
09
0d
17
05
08
f3
04
ff
df
0f
0e
f7
04
01
03
0c
09
07
fc
f9
f5
f4
09
0b
03
fe
06
0f
09
04
09
fe
fc
0b
fb
f7
fd
07
05
04
02
fe
fa
04
00
fa
f6
fd
f6
06
f4
01
fc
04
f2
fd
08
09
ff
f9
f3
fd
ff
06
12
00
fd
fa
05
05
0d
fe
f8
0e
fc
ff
01
fe
05
0d
04
fc
ef
f1
05
00
01
05
03
00
06
07
fd
f6
0a
0f
09
02
f9
ff
ff
09
fd
08
fe
08
f7
09
0e
04
fd
0b
0e
04
0b
0e
f2
0b
f7
fc
0a
f5
12
0a
f7
f1
01
00
08
06
04
f1
fc
ff
ff
03
02
08
fd
fe
fd
f6
fe
0a
fe
f8
fc
fa
05
ff
10
04
f6
03
f6
0a
f9
03
14
f8
fe
fd
06
01
00
fa
00
04
04
06
fc
09
01
02
fd
f1
fe
fc
01
12
fb
01
04
fe
00
01
f9
fc
fe
ff
fc
fe
03
01
00
07
fa
02
01
0c
fe
08
0e
fd
f1
08
0b
05
ff
03
f6
09
01
f7
fd
09
05
fc
fe
03
0f
01
07
ff
07
00
03
fd
00
ff
f9
f7
ff
02
f4
fc
00
03
08
ff
05
01
fd
00
08
f9
06
06
08
08
0b
fa
f4
01
f9
fb
00
f0
0a
fb
00
09
fb
06
06
fc
06
0b
f6
0a
07
09
04
ff
fc
02
f9
f6
f9
0d
04
0a
03
fb
00
ee
f9
02
f9
0a
0e
0b
ff
0b
02
0c
fd
fe
02
fc
fc
07
0c
06
f9
fc
08
07
f8
fb
f8
07
0f
f8
f5
fc
f3
00
05
09
07
f5
06
05
ee
02
fc
fe
01
09
00
fd
02
02
f8
09
09
06
04
ff
f1
01
fa
f7
00
fe
15
fd
0f
00
03
14
fd
0a
fe
fa
fc
fd
04
f7
0e
f6
f3
f3
0f
15
09
06
07
00
f3
ff
fb
08
f9
fe
02
14
08
f1
00
ff
fd
f3
f9
00
f9
ff
01
0a
05
ff
fb
0b
fc
02
01
f9
f1
09
05
01
fa
08
f8
06
fd
fe
02
f5
fd
f0
fc
fa
16
08
fa
0d
12
02
17
0e
f9
00
08
06
f9
06
f7
f8
f5
09
02
fa
07
f4
fd
04
0b
08
0a
ef
fa
f6
05
fe
0e
01
0d
05
fe
eb
05
fc
01
f4
f9
0a
0a
f6
f3
fd
06
06
f7
06
0b
10
05
fe
f9
f7
00
ed
12
04
05
fc
fd
02
f7
0c
fe
19
05
06
0d
03
05
f8
06
f7
05
05
0e
fe
fb
03
09
f9
06
09
fc
f6
ff
ff
ef
fc
f1
f8
fd
08
10
0b
fb
fa
fe
fd
10
04
e5
fd
f5
ed
f4
04
e5
06
15
f7
f8
f4
fd
f8
06
07
fe
f9
fc
0f
fd
ff
f6
02
14
07
0b
f6
ff
04
0e
f9
0d
08
fe
fd
06
fe
00
ff
ef
fe
fc
0a
04
01
00
08
0e
f8
08
fa
00
00
02
fd
fd
fd
f7
ff
04
fd
05
ff
0c
0c
02
0a
fb
01
07
03
0b
04
09
fc
09
16
f3
01
f7
f9
f6
fc
f8
04
05
06
01
f8
f8
01
00
09
fa
ff
03
fd
0c
02
0c
ff
f8
06
00
ff
07
18
1c
f8
fb
0f
f6
02
fb
14
08
02
fa
06
02
0a
07
f3
02
02
fe
ed
00
f9
02
06
fa
f9
13
fc
ff
06
0a
06
ef
f5
01
0c
09
f5
f3
05
03
f6
03
fc
0a
07
f7
f9
ec
f5
03
eb
09
06
08
fa
f7
f1
04
e3
f5
ff
f7
fa
07
12
0c
fa
ef
fa
f0
0f
01
0b
ff
05
11
fd
fe
03
06
04
12
f2
05
fe
00
fa
00
fb
f8
fc
08
0a
14
07
0e
03
07
fb
fe
10
ef
01
0f
fe
10
00
f7
10
d5
05
14
10
f7
06
09
05
ff
0f
10
11
f5
04
0c
02
f8
01
fd
fe
fb
07
0e
fc
ee
09
f4
02
f9
f9
f8
09
fb
09
eb
04
fe
f8
06
f7
01
04
fc
05
fe
02
01
f8
0a
ef
05
fc
14
fd
fe
fb
ed
10
02
fc
f2
06
ea
e8
10
f3
13
f9
f3
0a
04
08
da
f1
0a
0d
17
07
01
01
fb
fe
07
f5
fb
fe
00
05
03
05
fb
04
00
f0
0a
04
fc
02
fd
0b
04
ff
01
03
06
f7
06
00
fe
fb
ff
ff
fb
fc
03
ff
f8
00
f9
fc
fe
ff
fa
07
fc
fc
f5
fc
04
03
fd
f9
03
05
01
06
f7
02
fd
05
fa
09
0d
fe
fe
fd
f9
08
fa
f6
fe
fe
07
04
06
01
07
02
12
f8
fc
02
04
01
fe
ff
f5
00
fe
fa
ff
08
10
fc
05
07
fa
07
f8
00
01
04
0a
06
0a
00
0d
03
fb
f9
f8
e7
00
09
f7
02
f7
09
0d
f7
07
0c
03
f5
07
fc
f7
08
03
f7
08
03
05
21
04
01
fc
0c
0e
ff
07
00
01
f8
04
f6
07
f8
ff
06
f6
fe
15
ec
02
12
0d
0b
f7
05
ff
07
f0
03
e9
f0
f9
fe
01
02
fc
f0
13
0a
08
ff
fe
f5
fc
13
19
02
09
07
02
ed
fd
f0
ef
01
06
0b
fe
f7
05
02
02
f8
0f
0f
fc
04
0a
10
01
0c
f3
00
07
f5
ff
01
f5
14
0c
0b
02
fd
fc
fd
0b
ef
fc
0c
fe
fc
f1
f6
05
07
f9
01
fc
fc
f0
0e
0c
04
03
02
06
f8
02
09
e7
f1
04
fe
05
fc
07
f2
f7
06
fc
fb
fa
0d
05
15
04
0b
f8
01
fe
02
01
03
07
0c
06
07
fa
00
03
08
fa
ff
fb
e5
08
fd
f4
0a
f4
05
00
f7
fb
05
f9
01
fc
0d
06
f8
fe
f4
09
04
07
0d
f0
fc
08
07
fb
04
fd
f9
fd
f4
08
07
fb
01
fb
fd
fe
fd
0a
06
01
00
08
0c
0b
05
f8
04
06
fd
ef
04
07
08
f9
04
fe
01
00
ff
00
0c
00
ea
f1
01
13
02
f8
01
04
fe
fe
fd
f0
ff
0b
09
03
02
f6
02
fb
f9
fe
f9
05
fe
02
f9
fe
01
06
05
00
fb
05
00
fe
fb
02
04
f9
0b
0c
07
04
09
0e
f7
f9
01
05
04
03
fd
06
0c
07
11
fb
fd
ff
fc
f9
f9
06
07
ef
02
ff
ef
0e
03
f3
02
02
f9
ec
09
ff
04
f2
f1
f8
01
05
01
fc
f1
09
f8
f7
f5
03
ff
fc
fd
f7
f5
03
fe
06
06
fc
06
12
fc
0b
08
07
06
04
f8
0a
04
0e
05
fa
f6
fe
fc
f8
01
0f
06
fd
03
06
0d
fa
fd
fd
fc
f6
f7
02
00
03
09
01
fd
f8
04
04
07
07
fd
f5
fd
f8
f8
fc
f1
00
03
fd
07
fb
04
07
f4
01
09
03
f1
08
10
02
ff
ff
fb
11
ff
f4
0e
05
f0
07
01
fd
ff
01
ee
09
0c
06
fb
f8
04
fc
ff
05
fd
fe
07
fe
0b
fb
ec
fd
fa
fb
00
08
fc
05
f3
03
f3
04
09
f5
f1
f7
0c
02
ec
fd
08
00
04
10
0c
f8
ff
01
05
00
01
0b
00
06
11
08
fe
f5
00
f9
00
09
fe
f7
07
f9
02
ff
fe
fd
f9
04
04
07
06
fe
f7
0d
fb
05
fd
02
fb
03
0e
04
0b
ff
f3
07
03
03
ff
fb
0b
10
05
f7
03
fb
fb
ee
02
0d
ff
00
07
02
fd
03
08
f7
02
0c
0c
06
0d
f8
fe
06
01
04
06
01
fb
09
f6
01
03
fb
f6
ff
08
0c
f9
0e
05
f6
05
09
fe
f3
f4
00
e9
fd
06
f9
fa
f8
fb
f7
19
fb
ff
03
00
07
04
ff
06
0f
fe
05
0d
01
f6
09
0a
fc
09
01
f6
f5
ff
fc
17
04
fc
01
0c
f6
06
f1
03
fc
f7
fa
06
01
fe
f0
00
f0
10
ff
f8
f4
ee
fb
09
f7
01
f9
ff
f8
0f
f0
ef
00
0d
0c
06
03
f8
12
05
f2
fb
fd
ff
ff
f7
0b
ff
08
02
f1
f9
f9
f8
fe
fa
fd
fb
07
03
06
fa
02
05
fb
09
11
02
fc
fe
0a
09
f8
02
ff
ff
04
02
03
f9
06
f9
f4
01
02
08
f5
fa
fe
01
06
0f
f9
00
03
fb
f7
f9
fc
0c
00
00
ff
fb
fc
ff
15
f6
f5
08
05
02
05
fc
ff
03
05
fe
ff
f2
fd
01
05
fd
fa
f8
03
03
f5
f3
fb
fa
04
00
f8
04
fa
f5
04
ff
ff
04
03
f1
0a
04
ff
f8
fa
05
08
f9
07
f0
08
02
fe
02
01
ff
04
09
f3
06
f4
f9
f9
02
fc
f0
0e
fa
10
05
fd
f9
00
fb
07
f7
02
fa
f8
03
ff
01
f4
f7
03
0a
04
0c
04
05
00
fa
f2
fc
ff
06
f8
f5
06
f1
01
04
05
03
fd
07
fd
08
f9
f8
00
05
f3
04
0a
08
0b
08
f7
05
f4
fb
00
00
f6
0d
fd
02
ff
fb
fa
02
02
05
03
08
0a
02
02
03
02
fa
fa
f6
02
07
fa
09
0b
14
f2
01
06
05
00
03
03
01
ff
f1
fd
04
03
04
01
0d
08
ff
04
0e
f8
02
f8
00
fd
01
02
ff
ff
10
fd
05
f6
fe
09
fc
f3
00
0c
11
02
01
fb
f7
07
04
f7
08
06
f9
fc
0e
01
ff
f4
02
01
02
12
00
fe
06
fa
01
fd
fa
05
fb
0d
02
f5
f3
ef
10
01
fc
09
03
fb
ee
0b
06
00
00
01
fe
01
12
f4
fb
0e
09
0e
09
04
09
06
14
06
fc
fe
ff
f8
03
eb
01
02
fc
fd
f3
fc
f5
01
03
ff
f6
ed
ff
ec
0e
05
fa
f1
0b
0a
f7
fc
f0
08
0e
fe
0a
fa
01
09
f6
0c
f6
10
14
05
05
f0
0e
f9
06
ee
ff
f3
f7
f3
f3
07
f8
f2
10
f1
04
f6
fa
f3
17
04
ff
f7
ef
08
fe
fa
0b
0f
fc
04
fc
0b
0b
12
ed
00
05
fa
0d
00
fc
f6
10
01
fa
f9
fa
f5
0a
0c
0b
02
fa
01
fd
01
0a
fe
0b
f4
fb
f9
ff
f4
ef
08
03
08
04
f7
0e
f0
06
05
f9
fa
ff
00
fc
00
0c
fc
ff
fb
0b
f1
0b
07
fc
fa
0a
00
05
f9
fa
fa
f1
07
fe
10
f4
fc
ed
13
ff
fd
fe
fa
fa
11
05
fa
fa
fa
ff
f7
fc
02
ff
02
fb
11
03
09
00
04
09
ff
06
f5
f8
14
f0
0a
05
00
fd
09
fb
fd
00
fa
01
06
02
fc
10
03
fc
fe
f8
01
03
f5
fc
0c
0b
01
f5
09
0b
ff
fc
0e
fe
02
09
01
f3
00
fe
f8
ff
04
ff
00
07
0b
06
0b
0e
01
fd
01
09
f2
ff
fb
f5
fc
fd
fc
f5
ff
fc
fa
ff
fd
11
03
07
fa
02
fd
10
fe
fe
fd
fb
f6
02
02
04
05
06
f7
07
fe
11
fd
0a
ff
ff
f9
fc
05
03
0f
eb
f6
03
01
ff
ff
01
04
f2
f8
fb
f8
f5
02
07
fa
fd
fd
01
00
01
f1
fb
06
01
02
f0
0d
00
07
fd
01
f9
01
ff
08
ef
10
03
f5
f8
06
04
0c
fa
00
02
06
f2
13
04
f2
fd
f3
ec
fd
06
0b
00
0d
07
09
03
00
ff
02
fa
03
f5
00
06
04
ed
f8
f6
ff
04
ef
ff
f7
06
00
fc
16
eb
00
08
fc
fc
ee
fc
e9
e8
f8
f3
f8
04
02
04
04
f0
09
03
04
00
15
fe
00
fb
0e
00
f6
fd
03
0b
09
ff
fa
fe
fd
16
ff
fe
f3
01
07
0a
00
0b
ec
04
00
00
0f
04
f8
f9
f9
0e
f8
05
f6
01
ff
fe
fe
05
fd
05
03
0e
fc
0c
f6
05
03
0e
07
09
f5
fd
f1
08
1b
01
fb
0a
f9
0e
f3
04
06
f7
01
f9
f4
0a
00
00
04
fe
f1
0b
f9
ee
f9
fc
fd
ef
f7
fd
fa
fc
eb
e9
01
fe
10
03
ff
01
0c
f8
08
08
07
02
07
02
fb
f0
15
fe
1b
08
f3
f5
0d
09
09
fa
ff
f7
fd
f9
f7
f2
09
fe
f2
01
0e
0d
03
01
0a
00
f6
04
f0
fd
09
04
f3
f3
f0
0b
09
f1
05
11
0c
07
13
f8
fb
f8
fb
f2
0d
04
e6
fc
fb
0d
00
ff
07
fc
02
07
f3
fe
fd
0e
15
0d
f2
f6
fe
14
03
06
0f
00
0e
10
f2
00
fa
00
01
f0
07
06
f8
07
fd
f9
fa
01
05
ff
fb
13
0a
f6
f7
f4
01
15
fb
ff
08
10
03
fe
00
10
00
f6
16
f0
10
0a
fd
e7
06
09
0b
fb
f1
0a
ef
08
01
fc
00
07
e9
f2
06
fe
11
03
f9
fc
02
05
0b
05
02
ef
12
0e
f7
04
ec
fb
02
f4
f8
0a
f5
f7
f9
f9
07
fd
f3
16
11
05
16
ff
05
f7
ff
f2
02
fc
fb
f3
fd
05
11
0d
f7
f1
06
f3
ec
12
03
fc
08
09
0d
04
02
09
00
0d
04
0c
08
0d
f6
07
ff
ed
06
01
f3
09
03
0f
0c
07
fe
ff
f9
05
06
ff
fd
f7
fa
08
fb
f6
fb
07
fa
00
f5
f5
00
ff
01
0b
fc
f5
13
0b
06
f9
02
f5
fc
fd
00
fb
fd
02
01
f6
07
fb
f5
00
01
15
10
f7
05
0e
05
0c
08
fb
fc
04
02
04
f6
06
0a
07
fb
03
05
ff
03
05
07
02
01
06
02
fe
fd
f6
f9
0c
08
01
f3
f2
fa
09
12
f8
06
08
09
00
02
01
f5
0b
fe
f5
01
fe
08
ff
00
f6
f2
fb
04
08
f5
fe
f4
f6
00
09
06
05
fb
ff
0a
0c
03
f9
fd
04
ff
f6
02
0a
fd
e8
08
f8
03
00
f9
02
f7
fa
05
f3
05
f3
09
09
fd
01
fb
f9
ff
09
fe
f4
09
f9
fd
fa
07
fc
ea
f8
fa
09
ff
f9
07
f7
0e
00
ed
fc
0b
fd
02
f6
08
fd
f6
f7
f8
ff
f4
0d
f1
0a
fa
02
fe
fd
02
00
04
00
fe
00
0f
01
0d
00
fe
f5
04
f6
fc
f5
11
09
01
00
f1
01
f8
f4
09
12
fd
fb
03
09
fa
fd
01
fc
ff
f5
fa
04
01
07
05
fd
08
f6
fe
0a
0c
08
f6
08
fd
1a
01
fa
fc
08
0d
09
06
fa
02
02
0e
00
fb
06
01
fe
09
07
03
f9
0a
10
f7
01
0a
0a
fa
09
02
f7
05
0a
08
05
02
00
04
15
ed
fe
f4
19
06
f4
f3
0a
f9
e9
08
04
f6
fe
e9
fe
fc
04
ff
01
fb
ff
ed
ed
0b
f7
fb
02
01
09
f0
ff
e8
04
f7
01
fa
07
f4
06
02
fa
f8
ff
f9
04
05
10
02
f7
fd
0f
ff
02
ff
fe
f8
f8
02
0f
00
f7
01
06
07
00
00
03
02
f9
f6
01
09
fc
07
fb
f0
00
fe
f8
fd
fd
07
fe
fc
f7
01
10
fd
fa
ff
02
fc
fb
02
04
08
13
fc
0c
07
f3
03
fa
f1
ff
0b
06
fc
fb
03
03
04
fa
05
0b
0a
ff
f4
09
f1
fc
03
00
fd
fb
04
04
f6
f6
f9
04
f3
f8
0e
ff
05
ff
0b
ea
f5
fc
ff
08
fd
f9
01
06
fd
ff
f8
fa
02
f9
03
06
06
02
fc
09
07
fd
fd
f9
fa
12
ff
06
f5
f5
08
03
f9
03
01
01
f7
03
0a
04
f6
ff
00
fe
fd
03
0d
05
e6
fe
f7
07
07
0c
fd
09
04
f4
e6
f2
f6
fe
ff
09
fe
0c
f7
f8
f7
ee
f6
f8
f5
ff
f5
02
fc
0e
fb
02
f3
07
03
f0
fc
0c
0b
ff
fe
fe
fb
f7
10
00
04
f6
03
fb
00
02
05
f9
fc
00
11
04
fe
0b
0f
ff
08
fd
f1
fd
f2
09
01
03
08
fd
03
12
00
08
ec
f4
0b
0b
08
ed
05
f7
0a
f8
fb
00
fe
ff
fc
0a
0d
f7
05
fe
fc
ff
0a
ff
fe
fc
06
fa
f9
f6
02
01
05
f9
00
0d
02
08
02
fd
f1
f5
f9
f7
f2
f9
fa
04
00
f6
fe
ff
f4
f3
08
09
0d
03
03
1b
07
0b
01
02
09
0b
04
04
f4
0d
10
fe
00
05
01
0d
ff
00
fa
fa
0f
04
fa
ee
f3
fd
ff
fe
fa
ee
fb
f1
06
03
fa
04
f1
01
f3
fc
fb
f7
03
06
04
06
03
e9
f8
f7
00
f7
f5
0c
09
00
f2
f8
04
04
fc
07
15
07
f6
00
f2
fd
f9
fe
06
04
fc
f9
fd
0f
fe
f7
fa
04
02
0b
f8
fb
0a
f7
f9
08
06
00
04
fd
ff
06
f0
fa
f7
f9
02
fa
fd
01
06
fa
10
04
00
10
06
03
fe
f5
05
04
ec
f5
0e
fe
02
02
f6
f8
04
f9
f1
fb
fc
fa
05
0c
fa
03
00
fe
02
17
05
f5
fc
ff
03
ff
06
f0
00
fb
fe
ff
fb
06
07
ff
f6
fb
0e
06
ff
fe
ff
0a
fc
07
03
01
f5
0b
05
fc
f9
0c
f6
14
ff
09
0f
fa
11
06
fd
fd
00
00
08
fa
00
00
ff
03
fc
02
00
02
00
f1
fb
03
07
01
08
ed
f9
fd
ff
10
f5
f9
fd
02
01
fb
f5
f7
fb
ff
04
f9
03
f9
f3
fd
01
f6
0f
0e
f9
fa
fd
f6
09
f9
f9
06
f2
04
f8
09
08
fd
08
ff
fd
fc
09
fa
07
fb
02
05
f8
04
0f
fc
fb
e9
17
f7
fc
fd
00
04
0f
f9
ff
09
09
fb
fc
f7
ff
fd
0f
fd
fe
02
06
05
fe
fb
fc
dc
f2
e2
ef
14
f1
f8
f1
0e
05
03
ee
0a
f9
0b
ee
07
fb
ee
07
01
13
14
0d
04
fb
f4
07
00
17
fd
f9
ec
f6
ee
05
00
f3
fb
fd
fc
f8
00
f1
ea
03
13
04
09
0a
fd
05
02
ee
06
fc
fe
fe
13
ef
f7
06
0b
fb
e3
16
05
0a
04
00
00
0b
fe
04
05
04
01
fc
f7
ef
fe
0e
00
e8
f9
fb
06
fb
06
f6
f6
ff
02
f9
00
fe
fd
03
ff
05
fc
04
03
fa
09
02
07
fd
00
07
09
fa
02
f1
06
02
09
02
06
fa
0e
02
09
0d
f9
fd
f1
f2
fb
05
04
f6
12
07
03
fa
f6
f8
f7
0b
00
f4
f9
00
f4
ff
fc
04
03
07
fe
ff
11
00
f7
fb
fe
09
06
06
08
04
fb
ff
07
0c
0b
04
03
04
0a
f8
01
fa
00
0b
fe
f6
fd
f8
05
01
ff
ec
01
06
fa
fd
f2
fc
fd
fc
fd
fb
00
0a
09
fa
fb
0a
08
f6
0a
00
fc
fe
04
1b
f9
f6
ff
03
0b
08
f6
03
02
02
fe
0d
05
07
fc
0d
01
ff
f3
07
07
02
fc
09
0a
03
ff
f9
fb
09
ff
fc
fb
f4
f5
f9
f3
fa
07
0b
02
fe
fb
f7
f9
f7
ee
00
03
f0
f8
08
fc
05
ff
17
f6
fa
f3
02
fa
ff
17
fc
f8
05
07
fe
15
13
01
fe
01
fb
fe
08
f8
0a
0a
04
10
f7
f3
0e
01
04
09
f8
fe
fb
03
05
10
04
19
0d
fa
f6
fa
f4
10
06
f2
00
04
03
f5
fa
01
fc
06
ef
f2
fe
04
f6
0a
00
05
f7
f4
f9
09
fe
f8
fb
00
09
fc
04
f7
0b
ff
08
fb
f1
fa
f3
fc
0b
f1
02
10
0a
03
0c
0f
fd
07
fb
06
01
05
07
ff
07
ff
f5
fe
f8
04
0c
f9
07
03
ee
01
04
05
fa
03
0e
06
f8
fc
f6
ff
05
fa
fb
08
01
04
f9
0b
f5
f8
02
f9
07
0e
ec
f4
07
f9
f9
f7
06
02
fe
05
11
0c
f8
07
07
f6
06
03
fe
06
fa
02
09
00
04
05
06
0f
11
fd
fc
0b
fe
00
03
0a
0f
fd
05
f6
06
0b
0a
f7
ed
10
f1
01
fb
07
08
ff
fa
f1
08
04
01
f7
00
fe
fe
fa
eb
07
fa
07
fd
0a
fc
0d
08
fd
00
18
fd
fe
f7
14
00
0a
0e
ea
ec
02
fe
f7
f0
01
fb
fd
02
fc
10
0b
ff
ff
fa
01
fc
1a
fa
09
12
00
01
e2
02
f8
0b
05
f8
fb
0f
f6
01
07
f3
0c
02
f8
07
f1
fe
eb
fd
fb
09
fc
f6
eb
e9
01
00
0a
09
0a
f3
04
fb
08
05
0c
18
0a
07
fe
f9
07
fb
02
05
05
0e
0e
08
05
e7
01
f9
fd
04
fc
fa
02
02
04
01
fa
fe
f5
10
0c
fb
f8
00
fa
00
f7
08
f9
03
03
01
06
04
fc
05
12
04
f3
ef
04
08
05
f3
f2
09
07
07
05
08
fe
f3
01
fd
05
0b
06
ff
fa
00
fb
fc
f2
07
f3
02
fe
fd
05
09
f6
01
03
01
0a
f8
02
fe
fc
f9
fa
04
f7
08
02
04
f8
fb
04
06
fd
fb
05
07
fc
05
f8
fa
00
f3
fb
ff
f9
05
fb
00
02
01
06
f7
05
0b
00
06
ff
fa
00
fa
04
06
05
fe
02
fa
00
fe
fd
00
0e
04
02
fd
ff
f7
f9
01
01
07
f2
f3
04
fc
fe
04
04
01
03
04
0a
0b
05
03
fe
f4
01
05
f7
fa
fd
fa
05
f3
f9
07
05
07
02
f3
01
05
fc
fa
fb
fa
04
01
01
01
f5
f9
f8
07
03
f7
fa
00
fc
fc
03
f5
f9
fc
0f
ff
f5
fc
f6
10
08
01
fc
00
04
02
00
ff
0a
fb
06
fd
03
08
ff
ff
09
00
ff
00
fd
fa
01
08
f8
fe
fd
00
03
04
fb
01
fc
10
f5
fd
05
04
08
07
00
00
fb
01
16
10
fa
ff
09
f5
fe
12
08
fd
13
02
04
03
f2
0d
fe
fd
f8
fc
00
ff
ff
fa
fd
f6
03
fe
f9
04
fb
01
06
07
f1
03
fe
f7
03
fb
04
fc
06
0d
fb
fb
17
ff
09
01
0c
f3
01
04
00
fb
12
ff
fc
04
02
f5
09
0f
f9
0f
00
0a
05
f5
02
fc
f4
f6
f5
04
07
01
07
f8
f1
fa
0b
0a
f2
f5
f1
12
f6
07
0a
0c
05
04
02
fd
02
00
0d
fd
04
fa
fb
f6
05
0f
ff
04
f9
0c
fd
f7
fb
fe
0d
01
f7
07
fe
fe
03
00
ff
07
f8
f6
fb
07
f7
02
04
00
03
f4
03
0b
05
04
08
04
06
fb
fa
08
03
ff
fa
03
03
10
0a
09
ff
01
01
f7
08
0a
f7
fb
07
0b
10
fa
fe
0d
00
f9
05
fe
05
fd
fa
00
f7
fc
fe
0d
0a
f5
ff
ff
04
fd
fd
f5
ff
f2
03
05
0a
00
04
00
f9
03
08
04
f8
fc
fd
0b
fc
f5
07
f8
02
f2
f8
fa
01
0e
fb
f9
fe
02
f9
10
03
f6
0c
08
02
f2
03
fb
07
fe
03
fe
02
f9
fa
ef
0c
fd
04
06
0e
f5
ff
0a
0c
fe
fa
f6
05
fb
05
01
01
fa
fb
f8
fa
08
0d
09
0a
fe
0a
f8
f6
09
fb
fb
f5
fc
f2
f1
05
fc
01
fc
ff
06
fa
f8
02
fc
f8
f7
f3
04
f0
fb
0a
0a
f0
04
fa
fd
0b
02
00
0f
00
00
07
04
06
15
08
05
0d
05
fb
fd
00
0a
01
fc
02
fe
10
06
f3
02
f6
0b
fd
fc
fb
06
ee
fb
07
0c
ff
f5
fc
fe
05
fc
fe
06
02
06
01
05
0b
05
00
05
06
0b
ff
09
05
fc
f2
f8
04
01
0d
fd
fc
f6
05
09
fb
01
f5
00
06
ff
fb
01
fd
fc
01
f5
00
fd
00
02
07
03
04
07
fc
f0
fc
fa
04
f7
fe
f7
03
05
fe
00
02
fe
05
fd
f0
fb
04
fd
04
0c
f4
f2
f8
ff
07
ff
0b
02
f8
07
fd
fe
02
03
fe
04
06
fb
fb
0e
0e
01
f7
02
fc
fa
0c
fc
fc
fb
f4
f6
f9
04
fa
07
0a
fe
06
00
f5
00
02
f9
10
01
fd
ef
f0
fa
07
09
fd
02
09
fd
06
02
10
00
08
fa
19
fb
02
07
0e
08
00
f2
0a
0b
07
fd
fa
04
f9
ff
fc
07
fd
fe
0a
02
10
05
fb
f4
07
ff
fa
00
04
0c
ff
03
05
fa
fe
02
16
0a
04
fa
00
00
ff
fc
09
02
04
01
06
fc
f5
f9
fc
f8
f4
00
fb
f8
01
fc
0a
f9
04
01
f7
fa
f5
03
02
f4
0a
14
03
f8
01
0e
fa
fc
04
f9
fe
ff
0a
f5
fc
0f
04
e8
fd
fd
f4
fa
fd
08
fb
fb
05
ef
0b
01
f7
fc
06
07
f7
fc
05
00
f7
0f
01
fe
fa
f5
fd
08
fb
fc
ff
0c
0a
09
08
0b
16
f4
04
09
f4
ff
00
fd
00
15
02
05
fe
fb
08
f8
fb
fd
fc
fa
15
08
01
03
01
09
01
fe
f6
04
0f
ff
f7
fc
fb
f9
f7
03
fb
08
05
09
f6
00
08
ef
f1
11
00
07
03
06
01
07
fd
f9
0b
f2
05
f1
06
fa
13
08
f2
fc
f9
06
03
0f
0b
e7
19
ec
ff
00
ff
f5
0c
01
01
f0
fd
fb
fb
01
fa
05
fc
fe
f9
09
0a
f4
01
05
07
f8
02
f1
fe
fd
07
fb
fc
07
f8
0c
f8
01
fb
02
12
fd
f7
fc
f5
fc
fd
04
05
10
fd
0b
f8
02
f3
02
01
04
05
04
ed
01
0b
fc
fc
ff
02
f3
0c
21
09
09
fa
f0
0a
fc
03
f8
09
0e
f9
08
fb
03
00
04
f8
fa
f5
19
fa
04
0e
0b
f4
0b
f3
f8
04
06
ff
f2
f1
05
06
fd
f4
fe
00
f3
0b
0f
02
04
fc
06
0f
07
01
04
ea
00
06
f4
f6
f6
f9
00
08
12
fb
f8
09
03
04
0e
0d
04
f8
03
07
f1
08
ef
f4
03
ec
fa
fc
03
f4
f8
0c
f8
0b
ff
00
fe
f8
f3
01
fe
04
fe
fb
f3
fa
02
0b
01
08
08
08
fa
04
ff
03
06
f8
04
06
f7
00
01
fb
14
0e
fb
0b
07
04
06
f8
02
fb
fc
08
01
fe
03
04
ff
08
f9
ff
fc
09
fd
01
05
f5
05
04
f7
03
01
f7
05
fd
fd
05
ff
ff
02
00
f4
f5
ea
00
fe
f9
04
04
01
fd
fa
03
02
fa
ff
04
03
07
fa
f9
f3
fe
02
f8
11
02
01
05
08
fa
15
f9
fa
fa
05
f1
fe
fc
0a
0c
f4
15
f3
10
fc
ef
09
02
06
06
f7
fe
f4
03
07
f8
fc
01
12
07
04
0c
0b
07
fa
f5
f8
ff
0e
03
f4
01
e3
09
0a
0d
0c
06
ff
fa
fd
ef
04
ff
05
f3
02
fd
0d
04
f1
00
f8
f2
14
0a
ea
09
f2
f3
ed
fe
05
ee
ee
ff
fb
0f
0a
0c
04
07
17
f6
0b
f6
00
05
f6
0a
ef
10
f2
01
f3
f5
fe
f6
fd
fa
0b
fc
f9
f8
fe
fb
04
0e
0f
00
fd
fa
f8
01
00
0a
00
03
fb
f5
f7
f9
f7
06
01
f4
f6
f4
06
01
0b
fd
f4
ff
0b
00
02
f9
f9
fd
f8
04
0b
fe
f9
04
06
08
10
fc
0e
0b
02
ee
05
fe
00
02
f3
fb
fc
ea
03
0e
f4
fa
fc
02
02
0e
ff
fa
fb
02
13
ee
05
0d
0c
05
0a
fb
da
0d
f5
ff
12
15
08
f9
f7
16
00
f3
06
08
fe
ff
01
01
01
02
fd
00
00
f8
01
fb
01
0d
f7
03
ff
fa
0e
02
fe
0a
0a
fd
fb
ed
f3
14
ff
0b
eb
04
05
ff
eb
fc
fe
f4
00
f8
08
03
02
0a
09
fc
03
05
01
f2
f9
04
0a
0e
f8
f9
ff
f9
f9
f9
f6
02
f6
fa
fd
ea
f8
11
fa
09
08
02
02
03
f1
fc
f2
03
f6
00
04
fe
0c
01
09
f7
01
fe
f8
ff
fc
fb
fc
f8
f6
02
fc
f6
fa
02
0b
fb
fc
f3
02
fb
06
04
0f
09
07
fa
01
0d
fa
0a
02
01
02
07
ff
fd
00
0c
09
07
02
fa
05
0f
05
07
08
06
00
06
03
f9
fa
f3
05
06
11
fe
ff
fe
0d
fb
0c
fb
fb
01
04
07
fc
fa
05
01
f0
09
04
f2
06
f7
0c
03
fa
f9
02
fd
fc
f7
fd
fd
f8
02
f4
fc
05
f5
09
f6
11
02
05
04
fa
f9
fe
f6
fe
f6
02
ff
ff
f4
00
10
fc
12
f3
02
04
fd
04
f8
fc
00
00
fd
fb
0d
03
ea
fb
09
fc
f2
13
04
11
07
f3
f7
f9
01
fb
02
fc
00
ee
03
01
fb
02
f6
f2
02
fc
0a
07
02
06
06
fb
07
f4
0a
02
03
0f
fc
ff
fb
fb
f7
fa
0a
04
ed
00
05
f5
0b
f7
02
fc
04
02
fd
01
06
ff
02
05
06
02
07
09
fa
0a
0c
06
01
fa
fc
0b
00
fe
08
f2
fe
f6
06
09
05
00
03
01
fe
05
03
0a
f6
09
03
04
fe
00
12
f6
06
0a
eb
ff
15
fd
00
03
f4
fd
f7
09
08
f6
05
06
fd
0c
0b
04
fc
0b
fe
f5
f9
04
01
ff
08
f8
02
f5
f9
fc
ff
0d
ff
04
f7
00
10
0c
01
05
0c
00
03
0f
f8
fe
fc
01
f7
fa
0d
f3
07
06
f9
fe
f9
fc
f7
0b
09
f5
04
16
01
04
02
fe
fb
ff
f2
03
fc
0c
f5
01
01
fb
02
ff
fe
09
ff
04
06
00
fc
03
ff
fb
ff
00
00
00
f6
fc
0f
ec
01
f2
1b
0e
00
f8
ef
f8
08
fb
05
f5
f5
07
0e
f7
fb
fc
03
fa
01
fc
f2
f8
fa
08
f6
10
fe
f3
f8
02
06
08
08
f0
f5
02
05
01
04
08
fb
f9
f5
fd
fc
07
ff
fa
00
00
fb
08
07
ff
fc
fa
fb
ff
03
fe
fd
06
fe
ff
f9
f9
03
fd
fc
fa
0b
ff
01
0a
fe
f9
f1
00
07
03
06
01
07
fd
fb
fe
00
ff
fe
f3
06
fd
06
00
0a
00
f5
0a
fe
04
07
01
01
00
fa
00
01
07
fa
01
02
ff
fe
f9
f7
fe
07
02
f7
0a
ff
f1
ff
01
f9
ff
f5
f1
fd
f6
fb
04
f8
0a
ff
01
fd
06
ff
02
f4
03
fd
0e
f9
00
02
0b
fa
08
fe
06
fd
fc
07
f7
fc
02
0a
fe
f5
f2
fc
02
f9
0f
03
06
00
04
05
02
ff
01
07
05
00
f8
07
03
f8
00
01
ff
f4
09
00
04
0c
ff
ff
fe
0c
10
07
fb
f7
ff
f9
ef
f4
fc
f6
0f
04
01
fa
05
fe
06
0c
fb
f8
06
f7
ff
fe
f4
fb
04
01
03
02
f8
01
f5
f7
05
f9
0a
13
f9
00
fd
05
0a
fb
06
f1
12
04
02
04
f7
f6
01
03
01
0c
0e
f5
f8
0b
f8
ff
11
0c
f5
1e
06
fb
09
f6
0e
ff
02
10
f4
f9
f9
02
0a
02
fd
00
0a
1f
f8
fd
f0
f1
0b
10
03
03
fa
fd
fd
09
10
04
10
06
0f
12
f3
05
02
e9
eb
07
fe
f1
fe
f5
fc
08
ec
e5
00
f0
03
02
fb
ff
03
ff
f1
0f
0a
04
fa
08
04
1b
12
f4
fe
12
0b
00
ef
05
04
08
fe
0a
f1
02
fb
05
f7
f9
fd
01
08
0b
0e
0a
f8
f6
06
f5
ff
fc
0b
f2
f0
fe
fd
0d
fb
f9
06
07
01
13
fe
fe
09
02
02
0b
06
04
11
ff
fb
0b
0b
fe
05
0d
f0
ff
01
fc
01
fb
ff
0c
f2
f6
06
03
08
04
f7
fd
03
fc
f6
0d
03
fb
07
09
04
00
08
fa
0d
f8
f7
f7
01
ec
00
17
07
fc
09
04
fa
01
fe
fa
f8
07
f2
0d
fd
fd
09
fa
07
05
02
fd
fc
08
fb
0f
f8
eb
0a
f0
02
04
ff
0c
f0
f9
00
f7
03
0e
fa
f8
03
fc
fc
ff
fd
02
f9
fa
fa
fb
ec
0c
03
03
05
fd
07
15
f9
fe
fd
00
0b
0a
07
07
0a
f9
f5
f9
fa
f9
0c
ff
03
03
09
fd
00
03
01
0d
ff
f9
09
08
f4
fc
06
06
04
ef
fd
03
02
fb
fc
fd
0a
16
fa
03
fb
05
01
fa
07
ff
0a
00
f9
f9
02
0c
01
fd
04
00
fd
04
02
fa
fe
fa
06
02
fe
05
05
f2
f9
fe
0d
08
00
05
05
09
fe
03
fc
05
f8
03
07
fe
ff
fc
04
04
07
08
0d
04
01
01
fd
f3
06
07
01
03
fc
0a
02
fd
fa
fb
00
04
f7
11
fe
05
00
07
04
08
fc
03
f0
00
fc
fd
fa
fb
01
ff
04
fb
01
03
f9
05
09
fd
03
00
f5
03
01
ff
fc
ff
ff
02
06
03
04
01
fe
08
07
fd
0a
08
ff
f5
fa
0e
06
fb
07
04
06
fe
fb
f9
0f
fc
04
f6
07
f4
f5
09
f8
f2
0c
09
fa
05
00
fd
fe
05
02
05
09
ff
00
fe
fa
f3
fc
fe
fd
fc
f0
f9
f2
00
09
fb
fa
00
f6
fb
ec
fa
01
00
00
03
03
f9
f4
0e
fe
0c
fe
0c
f9
0a
07
01
fe
01
fd
ff
08
00
01
06
03
f5
0b
0a
10
01
f9
00
fc
06
f8
ff
f9
f7
00
09
00
04
07
06
08
f9
13
f3
f3
fb
f6
fc
00
fe
04
ec
03
06
06
fd
07
ff
03
fe
0f
04
07
fe
04
ff
fd
fb
0f
05
f7
06
03
04
01
01
03
fe
fe
03
fa
f3
fb
00
04
f7
06
0a
fb
03
f4
05
02
fd
f2
00
04
07
f0
fb
0a
f7
fc
01
00
fd
f5
ff
01
00
fa
fd
05
f6
ff
06
ff
ff
03
09
05
01
f9
16
ff
09
fa
0b
f7
fb
00
f2
f6
f9
0c
00
01
fb
02
17
fe
04
fc
0a
f9
ff
07
ed
f8
ff
fe
07
fe
14
f1
ed
03
f6
02
02
fa
fd
f1
ff
10
ee
fa
00
02
ff
f7
0c
01
f2
f7
f7
00
01
01
00
0a
f2
f6
07
0b
f7
f8
11
f3
fc
03
f8
fb
05
f9
17
0b
03
f6
07
03
14
fe
ff
fa
0d
fc
fd
00
01
0d
fe
00
fa
e8
f6
fd
12
f2
0b
f3
f7
09
fa
fe
02
fc
00
08
0d
fb
fd
00
f3
fa
04
0a
ff
f4
fd
08
03
0c
01
02
02
0c
06
01
00
09
04
ff
f0
fe
fa
fd
04
04
fa
08
03
0b
02
ff
05
f5
f8
f5
08
fb
0a
f8
10
04
11
05
06
01
02
f9
f5
f3
01
0c
fd
01
04
fd
0e
fe
fb
f7
fc
01
06
fe
03
10
f9
f6
f5
ef
0e
fa
fb
01
fa
f8
02
0a
09
08
03
f6
f9
fd
fe
08
ee
06
01
fb
08
f8
06
ff
15
fc
11
e7
06
05
fa
ec
04
04
04
0b
ef
fe
07
0e
f5
0a
06
00
03
fb
f4
f9
04
03
ff
07
f9
fc
01
11
08
f9
03
03
0c
ed
00
fd
fb
fb
06
fc
0c
f7
00
0a
16
03
f1
03
01
02
0f
f6
09
14
f7
06
fc
fe
fd
0f
0a
05
0b
08
f4
fd
0a
04
f9
f3
f9
06
fe
03
00
ff
f9
09
fc
08
fb
05
fb
fc
fe
03
fc
fc
fc
f4
01
03
06
fd
00
ff
f7
f9
f5
08
fe
03
08
f7
fb
f7
fd
07
f2
01
00
09
ff
00
fa
f9
00
05
fe
fc
fa
fa
00
02
07
00
f5
00
0b
05
fe
04
02
fb
fb
00
fe
06
0e
ff
00
fd
03
0b
fb
02
03
03
fa
02
fd
0e
fd
fb
fa
f7
06
fe
06
f8
00
02
06
0b
f5
04
ff
fd
07
02
fb
fb
0e
fd
fa
f1
06
01
fb
f5
01
0c
ff
f8
04
fa
0b
0a
0f
07
fa
f1
04
07
0e
11
fd
fa
08
f8
f9
06
05
ff
02
12
16
02
ee
f9
01
02
0e
07
f9
ec
01
09
04
ff
07
03
14
f8
10
03
fe
ff
0d
ee
fa
05
09
fa
f9
f6
f5
fe
f3
f8
fd
1a
f1
fd
0c
00
02
08
00
f9
07
05
fc
05
fb
ff
0c
f5
f3
f8
f9
fa
fe
ff
e9
00
fd
ed
f8
0c
10
fd
07
f7
f2
01
fd
ff
07
fd
ff
02
0a
12
10
01
00
f8
f9
f3
f8
f0
04
fd
12
fb
f5
02
05
ff
f4
ff
03
fc
fe
07
fd
04
f6
0d
01
ff
eb
07
02
fc
0b
02
ff
fd
05
15
03
fb
f5
fe
04
03
07
01
fd
fa
fa
0a
ee
fb
07
05
04
ec
ed
fa
fb
0a
fd
04
01
07
f2
fb
f7
09
fc
f9
fe
f6
03
07
01
06
f4
03
00
00
04
fc
00
f9
f8
eb
02
fd
f5
01
09
02
f6
02
f6
12
05
05
04
0b
ff
03
fa
fe
f2
05
03
04
08
f9
01
01
f3
07
f6
04
f6
05
0f
fc
04
ff
00
09
f4
04
fd
06
0a
05
fe
f3
fe
fc
fd
f1
03
07
fb
05
04
ff
02
00
01
f9
fc
13
fe
fa
01
11
fe
0b
fa
0a
04
fe
f3
fd
fd
0d
01
fb
06
fb
fc
02
01
01
ff
f6
12
08
0a
fe
00
02
f6
08
fa
ff
fb
0a
f7
f8
00
f7
f7
f5
00
03
f6
0a
04
fb
06
fc
f9
01
05
f4
07
01
f9
01
03
fc
fe
fd
f9
fd
06
14
fb
f4
0c
fc
03
f4
fa
02
fe
03
02
fb
fb
fd
fa
10
fd
fd
08
07
04
05
fa
07
fc
06
02
03
f8
fc
0a
00
ff
ff
fd
ee
f1
11
ff
04
05
04
06
0c
f3
f0
10
fc
fd
08
00
0c
fd
fe
f9
f8
02
fd
03
0f
fc
fe
ee
04
fc
08
08
08
01
fa
fd
0f
03
0f
00
04
fd
05
f7
f8
05
f9
08
f8
09
f3
fa
fb
fa
02
03
00
ef
04
00
04
0d
01
fd
00
fa
fd
fe
00
02
fa
0b
fc
fd
f6
fb
01
ee
0a
fd
03
fc
07
f5
04
0b
06
fb
12
fe
0e
ed
02
00
f4
0c
05
fb
07
08
fa
1a
01
03
f9
fa
f4
0e
f9
e7
03
04
05
04
0a
00
fc
fd
02
f4
04
fb
fe
07
f1
ff
f9
06
fe
f3
06
07
08
f1
f1
01
04
f8
0a
04
fb
02
f5
0a
00
0a
05
05
ef
f9
ff
fe
03
03
00
02
07
ed
fb
ff
f3
03
fd
07
00
f0
fd
fc
06
fe
ff
f8
f0
04
10
f8
02
fa
04
f7
0d
0b
02
fd
0a
f0
04
0a
fe
ff
f2
f4
02
08
07
ee
e2
02
04
f3
f0
f4
09
f8
f8
f6
fa
ff
0a
ff
16
f6
0b
00
05
00
09
02
fc
0a
f7
f9
f5
f2
e9
04
f7
00
f6
f1
0a
03
04
15
01
fc
08
0e
f4
f2
fa
10
0e
f0
14
fc
ff
00
13
18
f4
0d
ff
f9
07
fb
f4
04
f7
f7
03
f2
0d
fe
f6
14
ed
01
03
04
f9
11
01
00
ed
03
ff
f7
10
14
fb
fe
f9
f4
f7
09
02
f4
02
fd
07
01
01
fe
ff
00
fa
05
f6
04
ed
eb
01
03
fd
04
03
04
fd
fa
05
f2
07
f6
f1
02
05
0f
00
04
f6
03
0a
06
02
fa
00
08
02
04
0a
01
07
fe
09
f8
f5
05
f5
02
fa
0b
06
fd
09
14
fe
e9
04
06
f6
01
04
fa
ff
fc
03
0a
09
00
01
f8
03
12
11
10
f0
01
04
02
f5
fa
05
08
fe
fa
f3
00
00
fa
04
0b
02
fe
01
03
09
07
0c
0b
fb
fb
f9
05
04
06
06
09
09
05
f8
0b
f7
13
07
f7
0d
f3
03
0a
ff
1f
fb
0e
0b
03
fa
0c
09
04
fc
06
11
02
fd
03
ff
0e
f6
09
08
06
0b
fa
00
05
fd
fa
fd
10
03
10
ff
ed
00
00
05
00
09
fe
02
0d
f2
11
09
05
10
0b
fb
fc
fb
07
05
fc
06
fc
02
f2
06
f7
04
01
02
fb
06
04
f5
08
01
00
fc
01
f5
f5
fb
0b
0d
f2
f8
f5
fa
fb
fb
fb
00
02
07
0f
fc
04
0a
04
ff
fa
f6
07
01
fb
fb
fb
01
00
06
ff
01
0a
0b
00
02
07
f8
f7
03
02
f7
01
fd
fb
fd
0a
0a
ff
0d
07
fe
00
05
00
fa
05
00
0c
fc
06
ff
f5
ff
0a
fe
f9
fa
fb
0b
0b
0a
f8
00
05
09
02
f5
fa
fb
0d
ff
fd
07
f8
fc
01
f9
06
0a
fa
fb
09
07
fb
ff
02
fa
03
ff
02
ff
09
01
fc
f0
07
f7
fc
01
08
fe
fb
fb
03
fa
fb
f1
06
fe
0c
ef
ff
09
02
f7
0f
0a
f6
02
02
04
05
fc
f7
11
fe
02
0e
01
ef
01
03
f4
02
02
fd
15
06
0a
0e
f9
08
fb
00
f9
fe
fe
02
00
fd
fc
08
00
04
f1
ef
f9
03
f1
fd
fd
05
07
0a
00
06
03
05
02
07
01
e5
fd
06
0d
0b
ff
06
0f
fb
fa
02
f9
fc
0a
03
fc
01
0c
f8
fb
02
0d
05
f9
f5
0c
04
f9
01
05
fa
fe
05
09
ff
05
fa
f3
03
fb
f7
15
f8
06
00
0a
fa
f1
f5
fa
f4
09
fc
fb
f6
05
13
f1
09
ef
ec
00
05
f0
02
fd
fa
00
01
fd
0f
ef
f0
01
f8
06
fb
01
15
0f
02
f4
fe
f6
f7
00
f6
f2
0c
fa
fd
01
f6
0b
ff
f2
05
00
0f
0a
fa
0f
10
03
f6
05
fb
f5
0a
03
04
fa
08
fc
01
ff
fe
03
ef
03
03
02
09
0c
fa
00
01
f7
09
ed
02
09
f4
09
07
fa
fc
03
06
07
02
00
05
f8
01
0f
05
07
f3
06
f5
ff
04
fb
0f
01
01
13
f7
ff
0d
03
f9
07
ff
fe
fc
06
fa
f7
04
05
11
04
0d
0e
0e
e3
05
01
02
ff
fe
f9
f9
f1
f6
07
01
f8
06
f9
03
02
05
fe
03
fe
fe
04
03
02
09
07
02
f4
06
f7
0c
03
f6
10
02
05
06
07
01
08
09
fc
f7
fe
fc
04
fd
fd
0a
ff
fd
06
01
04
00
f9
f9
05
02
ff
06
fa
0c
03
fb
fa
fc
fc
fa
14
10
07
fc
01
fa
11
fb
01
00
08
fb
fa
fd
fb
14
0e
f6
05
ff
fd
0e
0a
0e
0a
10
0b
f9
f5
07
ed
0b
00
07
fd
0c
0d
02
fd
0b
f8
f8
0d
f4
fc
f6
01
ec
f6
0e
fa
fd
01
eb
11
f9
ff
f1
08
fb
0a
00
fb
fa
0f
0a
f1
06
fa
0a
02
0b
0c
05
fc
03
fc
0a
06
00
f6
fa
02
fc
fc
fb
f8
f9
13
03
01
07
03
fc
fb
09
01
02
eb
02
04
f8
f3
04
0f
fc
fe
fc
07
0a
fe
01
0c
fd
fd
0c
01
07
fb
09
01
01
05
fb
f9
fa
0a
03
f8
06
0d
fc
00
fd
ef
ff
09
01
ff
01
f4
f6
f5
f6
f3
07
09
fb
11
03
05
0d
0c
10
fd
f8
f8
f9
f7
f4
fa
05
0a
ff
0d
07
10
0e
0a
0c
f3
02
02
f9
03
01
06
01
f3
f9
f9
fc
07
03
04
02
fe
06
01
04
fe
f7
fc
08
f7
f4
02
f9
03
09
09
00
0a
03
fb
fe
fd
08
01
ef
ef
0a
02
f8
f9
fc
05
f5
01
03
04
00
f7
0a
fd
f7
00
00
fd
fa
00
f8
f5
fd
02
fa
0b
02
fe
fd
05
01
11
00
f8
f8
05
05
0c
02
ef
08
f7
f9
f5
fb
04
fe
ef
fc
07
fd
fe
ff
03
fb
fe
07
fc
fc
fc
09
e4
fb
fd
f9
f4
10
f7
f7
05
ef
00
ff
02
09
f4
0a
08
00
09
0c
02
04
fe
f9
f7
08
0e
0c
fa
eb
fb
f1
05
05
01
f4
00
08
fe
fe
ef
03
01
fe
ed
12
02
fd
00
03
f3
02
fe
02
12
05
04
03
00
06
04
fa
02
fb
fb
00
08
fa
02
00
04
fb
03
09
09
07
11
03
f5
ff
fa
ee
04
f5
04
04
17
fa
0a
fb
1a
03
06
ee
0a
0e
0e
fc
01
09
00
06
f0
fc
ff
fa
0c
f9
03
ff
fc
fa
05
08
fd
01
00
00
03
fa
03
09
fe
fe
08
fd
0a
01
0a
05
06
07
fe
ff
13
00
fc
0c
04
eb
fc
01
09
06
09
fa
fb
f7
f5
fa
fd
ff
07
08
fb
06
fc
fb
0d
07
fa
01
08
fc
fb
00
06
fb
f2
ff
03
f7
fd
f6
ff
ff
05
fe
05
fe
ec
f9
06
07
f8
f9
00
f3
00
f6
00
0b
f6
05
f6
ef
04
01
f6
0b
07
0a
01
f8
08
ff
fe
fc
f1
00
09
09
f2
f6
02
03
f8
02
01
02
02
0c
f0
f6
0a
04
08
01
f9
f8
e9
02
ff
fd
fe
07
f2
07
f3
ef
fd
10
f3
ff
00
10
fe
06
f4
00
0b
08
08
0d
09
f7
00
fb
fd
00
fe
ef
f3
0a
05
f9
04
03
12
08
ff
00
07
04
fa
02
f5
01
fa
06
05
08
ff
ec
07
fe
09
04
08
02
0d
f9
04
f7
07
f7
01
fa
fd
ff
0e
09
f6
05
08
fa
ff
f2
f9
03
01
13
09
f9
0d
fa
fe
03
f5
fd
08
0f
0b
fd
0f
f5
02
03
f9
fc
03
0e
0f
04
f6
f7
fb
10
0a
fd
fa
f9
01
03
09
0a
05
f0
fe
09
01
ff
f4
1d
04
e8
12
f6
0c
f3
ff
f7
0c
03
16
03
ef
09
fa
f9
f3
f3
fe
f7
03
fc
0b
fd
fc
00
03
fa
fa
ff
00
05
06
f8
04
02
f6
05
04
ed
04
f6
00
06
07
01
fc
02
fc
ff
06
07
0a
fb
09
f4
fe
fb
04
02
01
08
f8
02
fb
ed
0d
fa
f7
fa
07
f4
fd
0d
fb
f8
fe
fa
f9
fb
f9
01
f6
fa
f6
07
fc
fc
01
fb
03
00
fd
f5
04
fd
05
fe
02
fb
0b
ef
0d
fb
f8
0d
ff
01
fa
07
f9
f9
05
fe
07
0c
fb
ff
0c
02
fe
fd
fd
06
05
06
fc
ff
ff
fc
07
fe
fc
03
04
02
fe
fd
06
06
fb
06
f9
f6
0d
0f
fb
01
f8
0b
03
fc
09
f1
f5
00
05
03
f1
00
fb
05
f6
ff
04
11
02
0a
f8
02
ef
0a
f9
ff
04
f3
fd
fc
f8
f8
04
07
f7
09
11
f1
fc
0b
11
09
0b
02
fe
06
01
f9
f7
ff
06
09
fe
04
fe
fb
05
ff
0e
06
fd
00
fb
fb
fe
f9
f9
02
fd
01
04
00
00
08
ed
fb
04
02
00
00
0b
00
09
f4
00
05
13
01
e7
03
fb
fc
00
02
ff
07
ff
fc
f8
fa
06
03
04
fc
f1
f7
ff
0d
06
f9
0c
03
fd
11
02
00
02
01
fc
0d
fd
06
ff
06
04
fd
f0
f3
f7
01
fc
01
03
fc
f8
02
f9
f7
f4
08
03
f9
f7
04
04
ff
01
07
fe
ff
0c
f8
fd
05
01
00
01
fa
03
0b
06
ff
02
09
ff
fa
03
06
16
fd
f8
1b
fe
06
f0
fe
fb
f9
f6
f4
f1
0d
03
08
fc
ec
07
03
fa
04
07
f5
04
ff
fa
1c
f9
ff
02
07
02
02
fc
04
06
f9
f3
07
03
f1
04
0f
fd
f0
01
07
04
0d
f0
fd
f3
07
04
00
10
f4
06
ff
0e
05
13
04
03
f7
fd
02
ff
00
e6
0d
0c
02
00
03
fb
00
03
f5
02
05
03
07
00
0b
f4
fd
02
01
07
fd
ff
04
04
fc
f8
05
05
1d
05
11
05
0b
fe
f5
02
01
09
f8
04
06
f8
f2
ee
0c
fd
01
ff
0f
f1
0b
08
06
04
04
fe
f5
03
fc
f1
14
fc
0b
fa
fb
02
fd
fd
fd
fc
ee
00
00
08
0b
ff
ff
01
fe
f6
11
ff
07
fa
f8
f8
08
05
0a
00
ff
0b
fb
fc
03
04
02
fd
f6
fa
f2
04
03
05
fa
f3
01
00
ff
ff
06
fc
01
13
ff
f7
fa
05
09
f8
f9
00
03
fe
fd
0e
00
fa
04
fe
02
f5
05
ff
ff
08
ff
03
f8
fe
f1
04
fe
f0
06
02
ff
f9
0c
06
00
07
f5
f4
f8
fe
0a
fd
02
03
eb
f3
fa
ff
f3
0c
f7
06
05
0f
fb
0b
ff
ff
0c
fd
fe
f9
08
01
f8
fe
07
08
fa
04
f7
f0
07
04
f0
ff
07
fe
06
f7
02
15
05
0a
01
fe
0a
f3
fe
ff
03
fd
07
fd
06
0d
0d
05
02
fc
fd
fa
11
01
09
05
07
f9
fd
fe
f6
0c
fd
0b
01
01
f6
08
00
fe
fc
04
fc
02
01
f9
04
f2
ec
00
01
ff
f0
0c
fb
ff
ec
0f
f8
f7
fb
ee
fe
0a
f9
f7
fd
05
04
f7
f7
f5
f4
fc
07
fd
f9
fc
08
fb
03
03
08
f4
03
01
f9
fd
05
0c
0c
16
06
ee
ff
03
07
09
03
0f
fb
04
f0
fd
02
04
ff
ff
07
fa
fa
01
03
fd
09
04
fe
0c
ff
ff
01
09
09
09
02
fc
f8
fd
fd
f0
fc
f9
fe
02
03
0c
07
01
07
fd
f1
0a
fd
04
02
fd
f9
04
fa
fb
01
ff
1a
10
02
ff
0e
f9
fe
05
05
f3
f6
f0
07
ff
fc
f9
07
08
05
00
0a
f5
ff
fb
05
02
02
08
17
00
0d
0b
ff
04
fa
00
fd
05
02
f2
f8
fc
f5
01
f7
ff
04
0a
03
00
f9
fb
fc
06
ef
f5
0a
0d
09
f5
f7
f9
02
fe
fb
08
fa
0c
f3
10
fa
f0
07
0e
01
0c
f8
06
fa
0a
09
05
09
ff
05
ff
02
0b
0c
00
fe
03
f3
f1
01
f4
f5
04
09
05
0a
08
f5
fc
f8
ff
09
04
fe
0c
f5
00
09
f1
08
f7
f5
04
0a
f8
fe
f5
0f
01
f8
fe
ff
fe
03
f8
05
02
fe
fe
07
fb
01
fb
fb
fe
07
0b
f9
08
04
ff
ff
f6
04
02
fa
03
05
f5
02
07
fa
0f
f2
ff
0a
0b
05
0c
06
07
04
09
ed
03
f7
fd
00
f1
ed
00
05
fe
09
03
01
07
03
05
0f
f8
00
08
05
f7
f7
f1
fd
ff
f2
ff
f7
fa
0e
01
fa
fe
09
02
ff
06
f3
05
fb
00
08
fe
04
08
06
f4
03
01
01
09
08
01
01
04
09
f9
06
fa
07
ff
fa
09
fc
fe
03
f6
f6
01
0b
0a
f5
f2
ef
fe
00
fa
01
01
f8
0f
02
07
fe
eb
06
0a
fc
ff
02
0a
09
04
01
fa
04
05
f9
08
fd
0c
fc
fa
fc
fb
06
f2
00
0d
fc
ff
04
00
fc
07
fe
08
f7
fc
f9
fe
ff
09
fe
0a
08
09
01
00
00
fa
f2
fc
f9
f9
03
f2
fd
02
02
fa
09
02
f7
03
fe
ff
07
04
09
03
0a
f8
05
0d
fa
fe
f9
fc
03
fd
02
01
ff
19
fb
01
f7
0d
09
05
fb
00
0a
fb
09
f8
04
fe
fd
07
04
02
05
01
05
fd
09
00
fe
fd
fd
03
03
02
01
f5
04
0b
ff
07
04
09
04
fa
0a
f6
f9
03
fb
00
f9
01
fe
02
fd
03
00
07
03
00
01
00
02
08
fc
04
0a
fd
06
03
fd
fe
04
f3
f9
fa
fb
fb
fe
02
fb
06
03
fc
04
06
fd
f9
fd
fd
01
06
fc
03
01
ff
fd
fc
fe
fe
fe
ff
07
f8
00
fa
03
f9
f4
fb
00
05
05
04
f9
02
fb
02
fe
03
02
ed
fe
f8
f2
ff
f4
fd
fa
ff
0c
f4
0e
08
06
fe
07
fa
f6
f2
ff
f1
01
ff
fe
fb
f1
fd
05
00
08
f9
00
fa
f9
05
fb
f9
0c
f8
eb
fe
08
01
00
fb
0a
02
03
fb
05
07
f8
05
05
f6
fb
01
f8
fb
00
f8
fc
fa
ef
f5
04
05
02
f7
f9
06
00
fe
f8
03
fe
05
04
f7
ef
f7
f9
01
fe
f4
08
06
f9
07
02
fb
02
e9
f2
0c
06
f9
02
ff
06
03
fd
f9
08
00
03
f9
07
0f
03
0a
f5
f0
f5
f8
f4
06
05
04
fe
e9
f5
01
f4
02
06
0c
10
01
08
ef
00
f3
07
05
f8
f6
09
ff
ff
03
0a
06
08
fa
07
ff
08
0a
07
0c
0f
fc
fd
f8
00
f8
00
fc
ee
f7
f5
0a
fe
f7
02
fd
fa
10
08
f3
f6
f9
02
03
00
0a
0a
fb
f6
fa
0c
0f
fe
f4
f6
09
fc
ff
fe
f6
03
ef
07
f1
00
fb
01
f9
01
fd
06
03
03
fc
fb
fb
ed
ff
07
00
fd
fc
0c
06
01
07
ff
00
01
04
fe
00
f8
07
03
fe
01
fa
05
fa
f8
01
f7
05
10
ff
fb
0b
06
f8
00
06
01
04
ff
06
f6
fc
f6
f8
fe
06
f8
05
ff
fd
06
04
ff
02
fb
f7
03
fb
fd
f6
06
f5
04
08
f2
07
f9
03
fc
0a
f9
01
fc
f9
fb
03
f7
06
02
12
02
0f
f7
ee
f1
f8
05
fb
06
00
fb
0f
0b
0a
f7
0b
fe
ff
f3
fa
fe
00
00
12
f5
02
03
f5
08
0f
09
ff
f9
fb
16
02
fc
04
f8
07
fd
f1
08
fd
03
02
f4
06
f9
01
03
10
04
fb
10
07
01
0e
f7
f8
f8
07
f5
fe
0f
08
10
0f
ff
fb
0a
ff
0b
02
03
0b
f2
02
05
f8
03
0d
f6
fe
fb
0d
f3
ff
0b
fe
fc
02
0d
04
fe
02
0c
03
04
0a
04
00
fe
f9
09
f8
03
ec
08
f3
08
fe
0b
f3
f3
fe
f5
07
04
f9
fe
03
0a
05
07
09
ef
f9
04
05
09
0c
0c
04
fd
ee
f9
fc
f7
07
0b
03
ff
f6
fd
ff
0a
00
00
01
ef
f0
05
0c
0e
f3
f8
f4
fc
01
f6
06
fc
ff
05
fb
0a
05
f6
f3
f5
03
07
08
0b
05
fd
0e
fd
fb
0c
f9
f8
fa
fd
03
f3
ff
06
fc
ef
f8
f3
06
00
0e
10
06
03
01
f7
03
02
04
fb
fd
00
0b
03
03
04
03
ff
f9
f9
01
ff
fe
ff
fd
02
fb
f8
f7
fe
10
07
ff
fe
fb
fa
fd
07
05
05
fd
f9
02
ef
f7
05
fa
fd
f8
03
01
01
fc
fc
f8
00
f9
fd
fd
09
fa
fa
0e
ed
ff
05
09
fb
fc
f6
02
08
04
04
fd
fb
0b
00
fe
03
fa
0d
0c
f9
f2
0c
fd
02
02
07
f3
eb
f6
06
f6
0a
05
02
0f
f9
11
00
0b
06
ff
00
02
0b
07
fc
fb
fc
ff
f2
08
0c
16
0e
03
fa
00
0c
0a
ff
f9
f6
07
0b
01
ff
fd
f5
f5
09
04
06
03
fd
f6
f1
07
00
f5
f5
00
f4
01
f9
fe
f6
fb
fd
02
fc
0e
fa
08
f9
eb
f2
fa
fc
03
03
f6
0d
fc
f0
ed
02
ff
f6
0a
fb
0b
fa
ff
07
08
08
f7
f7
00
ef
09
05
07
f9
fd
06
10
f7
ee
fe
06
ff
14
fd
fb
fb
05
0c
04
03
fa
fd
f9
f5
fa
0c
fc
f8
f7
ff
f8
e7
fb
01
fd
ff
f4
f9
fe
fd
0e
fc
fa
fb
fe
09
fd
f9
ee
ff
00
0b
09
ed
f8
f7
0b
f3
0e
05
fb
fc
0b
00
ed
f8
05
fd
fb
10
05
06
0a
07
ed
02
05
0c
05
fc
06
0e
07
fb
f1
f1
f8
ee
0b
f8
09
06
06
12
fc
f7
f8
0c
ff
f8
03
fe
fe
fe
0a
0f
04
f6
01
fd
fc
fc
02
f3
0b
01
f9
00
f5
f4
0a
01
00
04
07
f6
fc
03
f5
0f
0a
02
ff
0a
02
11
04
0c
02
09
fc
fc
ff
fe
fa
ff
0d
fc
fc
04
fb
01
f8
fc
f8
fe
f6
f6
f8
04
fc
06
f8
0b
01
00
04
fe
0b
01
ef
02
03
f2
0c
ff
00
fd
0f
11
f3
03
f8
01
f5
04
fd
fd
fd
fe
02
04
fc
fe
ff
f6
f4
fc
fe
f5
02
09
f6
05
0a
01
f8
00
04
fb
fe
01
06
f6
03
02
fa
fb
01
05
03
fc
03
06
fb
09
04
f7
f9
fe
03
fb
fd
04
03
02
fb
06
f7
01
03
01
fe
f1
f1
07
05
fe
00
fc
09
fc
f6
fa
f0
f3
f6
ff
ff
01
02
f5
fe
ef
fd
ff
08
ef
f3
fd
05
ff
fe
00
01
09
f6
fa
0f
0c
ff
02
04
08
e5
fe
0c
fd
01
f7
0e
0a
f5
09
08
04
fb
f4
00
ff
fe
fe
04
fe
07
ff
02
f9
08
f6
f8
fa
03
fc
f2
01
08
f8
fd
00
f2
f6
09
0b
f9
f7
06
fc
0d
01
f9
fb
ff
01
00
09
00
fe
04
07
f8
f2
04
04
0e
fd
01
05
fc
f5
00
fd
05
fb
01
fe
f8
0b
05
00
fa
04
ec
06
01
00
04
0b
01
02
06
f9
09
09
0b
f8
0b
01
00
10
ff
fd
02
f6
02
0f
10
07
fb
04
fa
07
0c
03
ff
04
f3
f5
0e
14
ed
fa
fe
09
04
11
03
fc
15
10
e3
09
f5
f5
0d
fc
06
26
03
fe
fe
0f
00
02
0d
0c
01
01
fd
0c
f1
ec
1c
0a
ff
fa
0d
f9
f8
ee
06
f5
fb
10
e3
f5
f7
05
0f
fc
01
0f
04
03
10
04
e2
eb
13
03
fd
02
00
f1
f7
01
0c
0c
0a
0d
f3
fc
02
ed
00
12
fd
f7
09
11
fd
fd
02
ff
04
e4
eb
08
fc
02
11
0b
0c
1b
fb
f8
01
fe
fa
0c
f5
ff
f7
ec
02
1c
f7
04
06
0e
f6
05
f9
f7
fd
fb
fb
07
fd
f3
00
08
f0
fe
fd
11
fc
fa
06
ec
00
08
09
04
f5
ff
0b
0a
06
00
fb
f6
f7
00
00
f2
f9
03
0a
fb
07
fc
04
05
00
12
ff
04
f8
09
05
03
f8
fc
0b
04
ff
f4
10
07
00
f9
02
fb
14
f8
08
08
01
f6
fc
02
01
fe
0d
00
05
13
f6
02
ef
fa
02
f5
f6
00
f5
03
03
06
09
00
03
f9
02
f7
ef
ff
fd
0a
fe
f9
07
0d
f2
09
fd
fe
06
f6
fc
01
03
f8
fa
0a
fa
f7
fc
f5
f2
ff
00
04
04
0a
0b
0d
f9
07
00
fe
05
ed
0f
03
f9
ed
01
f9
ff
01
fe
08
f3
fb
09
01
0c
03
05
00
0e
fe
fd
04
06
02
0e
06
ff
fa
00
09
04
f6
fe
f6
00
f8
fa
02
ff
10
fb
09
f8
fb
fc
00
f8
fe
f3
02
09
f6
08
ef
01
f4
06
03
06
f8
04
fc
0a
f6
f7
00
00
06
02
05
fa
fd
fc
07
07
f3
07
f8
08
09
ff
ee
01
04
fe
f7
0a
00
f6
0b
f5
02
00
fa
f7
07
0b
00
fe
ff
fe
fc
04
f7
f6
01
0a
fb
03
0a
02
07
0b
07
16
0c
00
01
f8
01
fa
f7
08
f9
f6
01
f8
03
0d
ed
fd
ff
fb
fa
0d
04
fb
0f
19
05
07
fe
06
03
fa
0a
fb
01
f9
09
09
f7
05
00
05
04
04
04
ff
06
11
08
f5
0c
05
f9
fd
02
fb
0b
06
fb
ef
05
04
0c
0c
f4
00
ff
03
f7
fe
fe
05
07
fb
04
fc
ee
0e
f7
ea
fe
fa
00
07
0b
fa
06
12
0c
0b
fb
03
fe
03
07
fd
11
f9
06
fc
0b
09
f3
f3
03
00
1e
18
fe
01
01
fd
fb
0d
11
fc
f8
05
fc
f9
f9
01
0d
ff
0a
f5
ff
17
0a
00
f9
05
08
02
fb
fd
f4
03
f9
03
13
f7
07
f4
fd
ec
f7
0c
fe
0c
0c
0b
01
f8
fb
fd
f9
fa
ff
ff
02
fa
ec
08
03
01
f6
0e
fe
fe
f4
0d
0a
0a
f5
fd
15
04
05
fa
ff
f9
01
f0
0c
fe
10
05
f9
04
09
04
0d
fb
f5
ff
fc
0c
f8
ee
0c
f6
ff
ff
f4
03
05
06
f9
fd
09
f8
04
fd
ef
06
01
02
05
fb
f9
ff
02
f5
05
06
0e
02
0b
0d
03
fd
f9
fa
f3
09
07
01
00
05
ee
f6
0a
f8
ed
0e
01
09
fc
0c
03
0c
08
0a
fb
fe
f9
f2
fa
f3
09
fe
00
0e
09
0b
06
fa
f4
04
f9
0b
05
fd
12
03
f5
06
fe
f8
05
fd
fc
09
02
fb
e9
09
06
fe
0c
f7
f2
f8
02
0d
08
fa
f7
fd
13
fc
fb
0a
f1
f8
f7
00
f1
00
0e
09
ff
ff
f4
ff
00
04
fc
fa
06
0a
ee
05
f2
0a
00
03
f3
04
fc
fa
16
09
f5
f1
ee
ef
f7
0a
f8
01
00
04
08
0b
f8
05
06
fc
ff
f9
04
fc
fa
fe
04
f0
00
fd
0f
00
06
0a
f7
03
f8
06
09
fb
fc
f6
15
00
17
f8
01
00
07
03
f4
04
fa
00
03
f7
09
fa
05
fb
f5
05
f9
0c
ff
fc
fd
0e
f6
ff
fb
fd
01
05
ff
f6
02
05
04
f7
02
03
f8
ff
fe
0e
f8
fb
f0
fd
f6
03
03
fe
fe
10
eb
fe
08
fa
f9
f8
fa
fe
fe
f6
ee
01
13
f3
02
fd
f5
01
00
02
fb
12
07
fa
ff
04
01
15
fa
f3
ef
05
f8
0b
f7
fc
f2
0f
1b
f3
fd
02
03
f9
e9
f5
0d
f6
fd
fa
03
06
fa
10
00
fe
ff
fd
f3
01
01
01
02
05
f2
fe
06
ff
f9
0c
fd
fa
09
f4
fd
fa
0e
05
03
03
fc
0b
00
05
f4
00
05
f2
0e
01
ff
f2
f9
02
0a
fb
fb
fe
05
08
0f
02
fd
01
0f
0b
fa
09
03
0a
f2
fa
fb
fd
07
fb
fb
f3
f7
fd
fb
f9
ff
02
04
05
fe
f9
05
fd
f2
f7
0a
00
00
fa
0d
fa
03
ee
fe
05
0c
0e
f5
08
03
ff
01
f4
fe
07
ff
00
f1
05
04
01
05
f6
04
04
00
05
f9
03
05
fe
07
fa
ed
f9
fe
fe
06
f9
fa
0c
f1
fb
0d
05
05
f6
fd
f9
02
08
fc
0a
04
05
03
f3
06
ff
04
06
10
f1
f8
05
02
fd
ff
0c
f9
fe
f7
fa
05
ff
f9
fd
05
0c
00
0c
04
fb
08
f6
f9
07
f2
fe
09
02
f1
09
02
f7
12
f4
fe
07
07
05
07
00
07
09
ff
05
02
f8
f6
fa
f8
0a
f2
f3
fa
fe
12
f5
f6
04
03
fc
f9
f8
fc
f6
07
0a
f9
0f
07
05
04
f9
fd
fa
fa
fe
fc
f7
fa
0c
04
fd
f4
ff
f8
0d
01
07
fd
02
fd
0e
ee
fa
f8
0c
01
f6
14
fa
02
01
13
02
0e
04
fb
f9
03
01
f7
ff
01
09
07
11
fe
f1
02
07
0a
00
ff
f0
07
fc
fe
fc
f8
0e
06
fe
f9
fd
07
08
f3
f3
01
08
09
06
02
08
08
0a
fc
04
01
07
f4
fb
f7
ef
06
02
fa
fb
06
f8
00
05
fa
01
f7
14
01
f4
01
fd
f6
fd
09
09
ff
08
01
00
05
07
fe
00
ff
f7
09
f2
0b
f9
f7
02
09
f7
f6
f5
f8
fb
06
0d
fa
01
ff
f4
01
01
f5
11
08
f7
fa
06
01
08
00
fe
fa
01
fa
f3
fa
0f
eb
00
ff
f6
06
06
fe
f9
fd
00
f5
f1
f9
fd
08
f8
fa
08
f9
fd
fd
f8
02
fd
f0
0a
06
01
06
00
03
07
fd
fa
05
f8
05
ff
02
01
01
0d
f7
f4
08
07
fe
04
fe
fd
fa
00
02
fa
ff
06
f9
10
04
f5
0a
f1
ef
ff
f6
ff
eb
03
00
ec
0f
ff
fc
02
00
0c
fc
05
0d
fd
0c
02
ff
f4
f7
05
fc
05
05
05
f6
fc
00
00
00
03
04
0c
07
f6
f7
06
03
04
f2
fd
08
05
f3
fb
fd
01
fe
02
ff
f7
08
05
06
10
08
02
05
fe
06
ff
00
fe
f5
fe
f8
07
0a
08
fc
0a
03
fa
f3
0a
ff
ff
ed
0b
08
fd
03
03
0b
06
fc
fb
06
ff
03
f8
fe
fb
fc
0a
ff
04
01
0f
0b
0d
f7
09
0d
ff
fd
fe
fc
02
06
04
ff
f4
0f
07
fe
04
04
f6
fe
f3
04
ff
02
f7
fe
fb
04
f8
08
ff
0c
05
fb
f6
f6
04
fd
11
03
fe
fd
05
00
07
fb
01
f5
04
08
f8
f8
09
0b
0a
f7
0a
01
fe
fd
0e
fa
00
0e
0a
07
f3
05
02
07
01
0d
09
f2
04
02
ee
0a
fc
0b
0e
09
f4
ff
fd
ee
fb
07
fd
ff
fc
15
06
05
09
13
0a
05
0e
08
f7
04
01
03
01
f8
07
0a
03
08
04
00
02
01
03
f5
04
08
0c
03
fb
0d
fb
07
0e
01
07
06
06
0a
f2
00
fd
f6
05
fe
04
ff
0d
fd
0b
09
f9
00
04
f9
f7
0b
fb
0d
ff
fe
f6
02
ff
fc
06
f9
00
ff
08
01
ed
0b
0c
0d
f7
fe
02
fe
0b
04
f4
08
f8
0a
f5
fd
fb
0d
0b
fc
0a
06
fc
fc
f6
fa
04
fd
09
06
f9
ec
02
08
fa
05
01
08
f5
04
fc
f0
06
08
f5
f0
f6
03
0a
0a
0c
02
02
09
fb
fd
05
f2
fc
0a
00
fe
03
06
03
fe
fe
f8
05
13
fe
fd
02
11
02
05
01
03
f7
f2
fa
15
06
ff
fe
f9
f1
05
f2
02
03
fd
f8
f2
fb
0a
ff
07
fa
01
07
f6
01
f2
fc
07
f8
f6
09
fa
fa
f9
fc
f0
fe
0c
0c
05
f9
f8
ff
ff
f4
f9
f6
f4
f9
09
f7
f7
f9
0b
0e
fe
08
00
f4
fa
fc
ea
03
0a
03
fa
03
01
fe
04
0a
00
05
f9
ff
06
07
02
12
fa
f2
01
10
04
fc
fb
0a
09
04
09
04
fa
f1
fd
f9
19
04
fe
fb
01
f9
09
ff
0c
03
f2
06
03
fc
04
f9
05
01
f8
06
07
f3
fa
ed
f1
fb
02
05
ff
0c
ee
f3
f6
f7
fd
f9
03
05
fc
04
f5
02
fd
12
05
f8
08
f9
fc
0c
f4
fc
00
00
f9
fc
e8
01
fa
fb
0b
fd
f3
08
0c
06
1f
04
f5
fb
00
03
06
f8
fe
fb
09
06
f8
00
fc
0a
09
fe
fe
05
f3
fd
fe
f7
fe
ff
f6
fb
fc
07
04
01
ff
0d
ff
07
f6
03
f1
0b
f0
fc
04
f4
f0
09
10
ff
fe
00
02
f5
01
00
fe
ff
02
06
ff
fd
fb
00
06
0a
02
09
20
f4
fb
fe
f1
fd
0b
0e
06
f3
f3
fe
00
ff
04
00
05
f6
06
ff
06
fa
07
f8
08
09
f3
f1
03
08
0b
01
02
fd
f8
01
fb
fa
f5
0d
1b
f8
05
06
f9
f4
fd
fe
0d
08
f6
00
fc
03
08
f5
04
ec
14
0d
f8
02
01
05
01
07
01
04
0a
fc
03
05
fb
01
fe
0b
05
eb
fd
f4
f7
f9
fd
03
fd
fc
f0
ec
07
f2
01
06
01
0d
08
f3
fc
f1
fe
fa
00
08
06
fe
03
00
f8
f0
04
0f
fa
08
fc
f5
f9
04
01
0b
f7
07
00
02
08
fb
08
03
f7
f6
03
01
f2
10
03
ff
08
03
01
f6
04
fa
17
05
0e
f2
fa
fa
02
fd
fd
0c
07
fe
ea
f8
fc
06
05
04
00
fb
f8
03
0e
f6
f4
05
fb
04
0a
f7
f3
05
f7
ff
fd
00
fb
00
f9
f9
fe
08
ff
02
04
0b
13
00
fc
04
fd
fb
07
ee
00
f9
f3
02
03
f9
03
0e
04
e8
07
fd
04
f3
00
01
f7
00
fa
01
06
0a
fd
0a
02
f5
04
fe
02
00
0e
11
01
01
09
13
07
05
fd
02
0a
06
f9
03
f6
ef
fc
07
fd
fa
f6
fd
f6
fe
fe
fe
f4
fd
fb
f8
f0
00
ea
01
04
03
f9
04
01
11
0f
f7
00
f8
0c
ff
02
07
01
02
ff
f3
0f
fc
08
03
07
f7
08
f8
0b
02
fd
07
f6
fe
04
fa
f1
fe
04
04
f7
fd
fd
02
06
07
03
03
04
10
01
f4
fb
0f
05
0e
fa
08
f8
fe
03
fe
f8
08
ff
fe
02
04
ff
05
f8
03
fd
f9
ff
fd
1a
06
f3
06
fb
f5
06
f7
f9
00
05
07
ff
fc
00
02
00
03
ec
04
f1
f8
08
ef
f9
02
03
0b
fe
03
07
00
02
01
f6
07
f9
06
f9
ef
f5
fc
02
f2
fa
08
ff
05
f8
f3
01
09
03
fc
01
0f
07
f8
06
05
f9
00
fe
fe
f3
f9
fa
f5
fa
05
fe
08
f9
09
fe
f9
fb
f0
09
08
00
fb
f8
fd
ff
fc
f8
08
01
f8
f9
00
ee
0a
05
fe
ff
00
fc
0b
00
fe
0e
01
0a
09
fc
f9
f0
08
fb
fa
f9
08
00
fb
f7
03
05
eb
05
04
06
06
f6
f9
07
0c
fc
00
f9
10
fc
0d
08
fc
09
fa
fe
f9
0e
ff
08
f8
03
0c
ff
06
02
04
13
f1
fa
fe
fe
fe
04
ee
f7
05
ec
06
0b
02
06
f6
0c
fe
fe
08
0b
01
ff
09
01
14
0f
f9
fe
08
fa
00
01
11
fb
0c
03
f9
0b
fc
fb
09
fb
fd
0e
f5
f3
0a
fd
05
ef
fc
09
07
fe
f6
fd
0d
05
ed
06
06
08
f9
f7
eb
f9
f4
f0
0f
01
1b
02
fc
01
ec
f9
fa
fb
f1
fb
fc
fd
08
13
0e
0a
0a
09
f9
04
f2
f8
fb
06
f4
f7
04
0a
f7
0e
0b
03
f2
f5
ed
fd
f7
f9
08
01
00
fd
fe
08
09
fc
01
00
07
0f
fa
ee
ff
f8
03
f2
f5
0d
04
f3
f6
fa
13
f6
06
fa
08
05
09
ff
02
fb
ea
00
f8
07
07
0d
02
fb
08
05
10
01
f8
fc
13
10
13
07
eb
fd
fd
08
ec
09
04
fc
fa
04
0c
fa
0d
fa
04
fd
11
08
f3
0c
fc
f5
ef
ed
f9
f7
08
07
f5
fe
fd
06
f0
03
05
ed
f9
f6
02
02
f6
f7
03
03
f0
fc
07
0a
01
07
fe
04
f8
13
fe
fb
fe
01
ed
fd
fd
f1
06
fc
ff
0f
04
06
fa
f3
ff
f8
fb
03
0e
0a
11
ef
0b
fc
1c
ed
ff
f8
eb
f8
11
f2
f4
02
06
15
00
09
06
05
04
fb
03
fb
f6
fd
0f
0d
0a
fb
e7
06
0f
fa
f1
f5
01
fb
08
0f
f7
f9
07
fb
15
0a
fa
04
02
f5
fa
09
05
0d
fd
02
f9
0a
f0
eb
01
00
fe
01
05
06
f2
04
04
09
0a
12
f9
f7
db
11
ff
0a
fc
fa
0b
f9
09
09
05
0a
01
00
fa
05
03
fc
0d
f0
fb
fd
06
01
f8
05
08
e6
04
fd
02
f8
0e
fe
04
0e
fc
00
1d
05
00
07
08
f9
00
0c
01
fd
fd
04
ef
f3
fb
05
00
02
08
0b
ff
00
f8
02
f9
0b
0c
05
07
07
fa
13
0d
f6
00
fb
f4
0b
fe
11
0f
f1
07
fd
00
00
eb
f4
01
08
03
04
fb
0c
10
02
ff
f9
fc
00
f3
fd
00
f5
0e
f3
06
04
f8
fa
fe
f3
f9
08
0a
ff
03
03
ff
f4
fe
ff
ff
04
f8
fe
04
03
fd
fe
04
fc
0d
06
f5
ef
09
ee
01
01
f7
fc
08
f5
f9
ff
ff
ed
05
06
f8
ff
08
f6
f7
f8
f7
05
02
f0
0e
0a
f9
07
00
fb
02
f2
07
01
0b
05
fd
07
f9
04
fb
0e
01
fc
f6
ff
00
0e
02
03
05
f9
f5
f7
07
ff
05
06
00
fb
f7
03
0a
fc
02
ff
ff
08
02
06
ff
05
05
f8
07
01
f9
f9
0d
fb
f0
fb
f9
04
02
ff
f8
f4
09
f5
fa
04
06
05
ef
00
0c
ef
f9
f7
04
00
fc
06
fa
04
0c
ff
0e
03
04
09
ef
fe
12
06
06
f5
01
f8
f7
06
f7
06
01
00
07
fe
09
11
fd
fb
fc
05
02
0e
f7
fb
00
ff
fa
0f
03
0a
fa
fb
fa
05
04
00
02
e7
07
ff
11
fb
fd
09
fb
14
f7
f6
02
02
f9
00
0b
00
fb
f5
f5
0a
fc
fc
03
00
09
0b
0c
05
fa
0e
fc
08
f8
07
02
fe
fd
07
fc
fc
ff
02
08
00
05
07
04
0a
03
fb
ec
03
01
ed
09
01
08
02
fd
fe
00
04
08
0d
f8
0a
02
fd
ff
f7
fc
01
04
fc
fe
f7
f6
fe
0e
fd
06
f3
fc
0b
fd
08
03
fc
05
f5
fb
07
fc
fd
f8
ff
fa
fb
08
f9
07
f7
f5
06
0b
04
ff
01
ff
05
01
0d
fe
ef
06
13
fc
09
fc
fd
0c
04
01
06
08
fc
f0
05
07
fe
1b
fc
fc
fb
f7
ee
02
03
08
08
f0
03
13
14
06
01
e3
05
0a
0a
03
fa
ff
fc
06
fc
ff
0b
ff
00
0f
01
e6
05
fb
f7
04
fb
fb
f6
ff
07
e6
f5
f0
fa
f4
04
07
f2
fa
05
fd
0b
0a
f9
f6
09
f0
fd
f5
05
06
02
0a
e8
f0
00
fa
fb
12
f5
f4
03
14
04
ee
08
f3
07
0c
0e
02
02
fb
17
0a
01
04
10
01
f7
00
f2
08
00
fb
f5
fd
0b
09
e9
01
01
e3
06
02
05
f3
0d
fc
05
0c
f4
05
fa
f7
06
eb
fc
03
fa
fb
fc
03
02
e9
04
fc
ef
fa
fb
fb
fb
04
03
f9
f8
ff
04
fb
f7
f0
03
fd
0d
09
fb
08
05
f8
f6
03
f4
00
06
fc
ef
f9
f8
f8
ff
ff
02
0b
0e
ff
01
f1
14
fc
11
f7
05
fa
fc
08
f4
02
17
07
06
0e
fe
05
fe
02
fb
08
fb
02
0f
0a
01
fe
f8
03
f8
01
fd
f1
18
f8
05
0c
0a
fe
f6
fa
03
04
fd
09
09
09
fc
02
02
f1
ff
f7
01
fc
0a
fe
ff
fb
fc
08
fb
07
00
04
05
ff
f6
f8
00
02
f7
fe
05
f8
f0
09
04
09
04
09
f3
fc
ff
f6
06
06
07
09
ff
08
fa
0a
03
10
fd
f3
f9
f4
01
f3
fe
fe
09
05
f6
fc
fa
0d
04
fc
e7
04
05
0c
fe
eb
08
04
f7
08
fd
fc
01
f7
fa
03
02
ff
f7
fb
f5
06
04
03
fa
fa
0b
03
00
f9
03
00
f2
09
f7
02
02
06
f6
0a
05
03
0a
0f
0a
0d
fa
03
fe
00
00
09
03
f7
fc
01
fe
01
fb
04
ff
04
00
12
ff
04
f6
07
04
f6
03
f7
03
07
0c
03
0c
fc
ff
03
02
0a
03
fb
04
fa
01
f9
05
f7
01
fa
fe
04
e9
05
f0
04
fd
06
05
fd
fb
00
ff
fd
07
f8
0a
ff
fc
03
fc
fc
00
00
09
f0
fe
f8
ed
08
f1
fc
03
03
ed
fd
10
f5
00
fd
f5
09
01
05
fa
ff
02
fc
06
0a
fb
05
fd
f5
fd
05
01
fd
13
00
f9
fd
fe
f6
fd
0a
03
12
0a
05
00
07
f8
f8
f8
00
05
09
f1
0b
00
04
ff
fe
09
03
02
fa
04
00
03
0e
01
f6
07
fb
fa
04
06
fd
11
f2
09
fd
03
03
e9
0e
0c
f8
03
ff
f7
f9
f5
09
ff
f5
f9
f3
0b
ff
0d
09
f8
fe
f7
fc
f8
07
0d
03
07
f7
f8
f5
ed
fe
03
fc
05
02
f9
03
f7
fa
02
15
0c
f8
00
00
07
0b
00
06
0a
f8
17
00
07
fa
fd
0d
11
f8
08
f8
fb
fb
09
0e
f8
f4
09
09
00
f5
fb
06
04
01
04
fa
11
ff
0d
07
06
0b
00
fe
f7
f9
f6
ff
fb
ff
01
fa
f9
0b
00
0d
0b
fa
04
00
fd
fd
05
06
fd
03
f7
09
f5
0e
02
fc
05
07
07
f6
00
0c
01
fc
05
03
14
f6
05
ef
f2
05
00
fc
0f
f4
07
0a
03
f5
fc
05
09
fb
f9
fe
04
f3
ec
01
0a
ff
02
ea
04
f0
fb
f5
05
fa
f3
01
07
04
0d
05
04
00
f7
ff
00
08
01
02
0b
f8
12
00
07
fa
13
fe
08
02
0a
07
03
0b
f9
f8
fd
03
00
f8
0b
ff
07
fb
ff
ff
fa
0e
ff
01
0f
04
fd
00
fc
05
ff
04
10
08
17
e4
04
f1
fd
fe
f6
f3
03
06
fb
f4
f7
00
f9
fb
f6
fc
02
f3
08
f9
12
05
0a
fd
18
fe
fc
f6
0b
0b
fa
ec
0c
00
03
fc
f6
fc
fb
0b
03
05
11
13
f8
f2
fa
0e
0d
0c
ef
f5
03
fe
01
08
ff
ff
01
07
f7
fc
04
fa
f3
f6
0b
00
f6
0c
00
fe
f2
0f
05
03
0c
05
03
06
fd
ff
09
0c
12
07
04
05
ec
03
e5
fe
06
0e
fe
fb
00
f5
f4
f6
06
f4
00
05
04
f8
02
06
03
03
f8
02
f5
fc
06
03
f4
03
0b
f3
f9
f2
0c
03
0c
fb
06
f3
f8
f6
08
f8
05
fa
f9
fc
f7
fb
f3
fb
10
06
ff
f9
0c
09
f3
02
f4
f9
04
05
fd
fc
03
f5
06
08
fa
f4
07
f2
07
f6
04
03
01
05
f3
01
05
fc
f3
06
05
fc
f8
0f
fd
02
ef
1b
f3
0b
fe
f4
f9
fa
09
05
0b
ff
09
f3
0f
fc
fa
fc
03
f7
02
07
01
01
09
10
01
14
10
f9
f0
ff
ff
10
03
f6
f4
f4
ff
f2
00
f5
f2
0c
04
f4
03
06
fb
f9
06
00
00
0e
03
01
f5
0a
09
fc
01
f2
fb
f7
08
fd
08
02
00
0c
fc
06
f7
09
01
0d
f7
0d
f0
0b
00
01
fe
fa
07
f3
ff
00
06
11
fd
0c
f9
08
fb
fd
04
01
06
f3
05
12
f2
03
0e
12
fe
1e
11
08
0d
10
fc
06
f9
04
08
f6
fe
06
01
f8
fe
0a
06
11
03
0c
fa
ee
f0
0b
09
ef
03
07
f8
07
e6
fd
03
05
19
0f
f2
fa
fe
e4
fd
02
09
f8
0b
01
11
00
f8
f3
09
ff
01
01
fb
18
0c
09
f9
00
fe
02
0d
fa
08
07
f3
06
ff
fe
fe
02
05
fc
0e
05
fd
04
04
01
07
fa
fa
f2
00
fd
fa
07
fd
01
06
01
0e
06
0c
ff
f9
0b
f8
f7
f3
0a
fc
01
ff
fb
0c
00
14
f9
07
fc
f6
03
06
fe
fd
f9
01
f6
fd
00
ff
01
fb
03
06
f9
04
02
fe
ff
fe
fc
ff
09
01
fa
f9
00
04
14
01
f7
fc
f4
05
06
03
03
01
ff
13
f8
08
fc
03
08
02
04
03
08
00
09
04
fb
01
fb
f9
f3
02
02
06
08
fe
f6
ff
08
fa
f6
fd
08
fd
f8
f6
fd
00
15
0e
fd
03
fa
04
01
fe
f5
07
fc
f6
05
08
00
f5
f7
04
fb
f2
f5
0c
05
04
fa
f3
fe
ff
fd
f7
00
f8
04
fd
ff
ff
09
f5
f5
fa
01
eb
06
09
fc
02
12
01
03
fd
09
fe
10
11
01
f2
09
0c
0b
0f
02
fc
0b
ff
01
fb
fb
f4
fc
07
01
05
05
08
05
fa
00
00
0f
01
03
ff
03
ff
0c
03
fa
fb
fa
10
03
ff
f9
fb
04
fa
f4
10
f1
01
f9
f9
fa
0b
ef
f4
07
05
f9
f8
0f
02
f4
f1
03
ff
f4
0b
f0
04
0e
09
fc
ff
f1
09
02
f8
f5
fa
03
f2
00
fd
f1
00
f9
fa
11
15
0f
10
f3
09
06
0b
02
0a
01
f6
fb
02
f3
00
0e
04
00
03
09
0b
f7
ec
f5
f4
03
fb
fe
05
fb
ff
f8
0d
09
00
06
09
f0
15
f4
03
fc
fe
00
f8
f4
f3
07
f4
f7
05
01
ff
f5
01
f9
fe
06
fc
05
04
03
f5
fc
05
11
fe
f8
01
0a
f2
0c
15
00
05
f8
09
fc
16
f7
07
f5
f6
f5
f5
f8
0f
09
00
fa
fc
fd
0d
fa
f7
05
fe
f6
05
02
f4
fb
00
ff
fd
f6
f2
fe
f6
06
02
08
00
fa
12
f5
12
04
ff
0d
f0
0a
00
f1
0e
0b
05
0b
f3
0c
f3
07
fe
f5
00
ff
f6
ef
05
f5
f6
10
15
09
fe
01
fc
00
0e
07
f9
00
03
00
f5
16
01
fa
fe
f7
01
ff
f2
fd
ff
14
0a
f8
03
03
ef
08
0e
10
03
00
ff
fd
fb
00
05
fa
00
fd
07
f9
fe
fd
fb
0c
03
fd
fd
07
fd
fd
fc
04
f8
04
06
f0
fa
fc
00
f9
04
08
f5
07
06
f8
07
0f
fb
11
fc
ff
fb
fb
08
0f
07
f4
01
fb
fb
ff
f9
03
ff
fa
09
fc
f6
02
fd
03
0a
f7
f6
07
ef
0b
ff
ec
01
f6
09
02
05
08
01
03
f5
05
09
ff
ff
f7
02
0f
0d
04
ff
07
0d
05
fb
01
f7
0b
06
03
05
ec
f8
04
0f
0c
04
13
01
f7
08
0c
fb
fe
fb
01
0d
02
00
f6
00
01
01
f6
00
fe
00
f9
fb
02
fc
02
06
02
00
00
02
05
fd
08
f5
0c
f6
07
05
03
fb
02
04
03
03
09
0c
01
f4
f9
fb
fc
f7
00
fe
ff
08
fb
fa
03
fe
ff
06
03
01
07
fb
f8
f6
e9
f2
06
01
10
09
fa
eb
e8
03
00
03
f8
11
04
ff
01
f7
f1
fd
02
ee
f6
e9
08
f4
0a
02
04
12
01
05
08
f7
fb
fc
f2
01
f5
02
fa
fa
0c
fc
12
09
0d
0c
fd
fd
08
0c
1e
08
f9
fb
f5
f5
0a
07
ec
05
0c
03
12
ec
fd
00
fe
ff
05
10
10
f7
06
fd
09
02
0c
f9
f9
07
04
f6
f5
fd
02
01
f8
0e
04
0c
02
10
00
e8
fa
fa
0a
ff
f7
fd
f8
00
03
05
10
02
fe
ff
02
06
0e
0d
f7
03
f4
01
f5
06
f1
0b
01
0b
fb
06
08
04
ee
01
f5
f1
04
08
fe
f6
06
fd
06
f7
fc
fc
fe
fd
02
0a
f4
0a
fc
03
fb
f4
00
fa
f9
07
02
16
ff
fc
fd
02
09
05
f0
fd
00
04
fb
fe
03
f7
f9
eb
02
01
02
03
f4
03
0c
fd
fc
f3
f9
10
f9
fb
02
fc
0e
f8
fb
ea
f9
00
13
fb
f3
ff
fa
0b
fe
01
f8
03
05
fb
f9
06
f5
fa
06
f8
03
fb
fe
f5
08
07
f6
16
03
fb
fa
01
fd
fe
f7
fd
ff
06
f7
fa
07
fc
01
0b
03
0f
00
f1
fe
0b
03
fe
fa
0c
0b
05
fd
fc
f7
08
10
fe
08
fe
fe
fd
fb
fd
0a
05
f4
f3
fc
09
05
02
04
0c
fa
02
02
fe
0a
00
f9
0b
1e
10
02
07
fb
04
e8
ee
02
f2
f4
fb
f4
0b
02
ed
fc
04
fa
0d
ff
f8
f8
fe
01
04
07
0d
0c
fe
00
f5
fa
0f
07
0b
fa
f8
f6
f8
f1
f6
03
07
f5
fc
03
ff
fa
00
05
fa
fe
04
06
f7
0a
12
f8
08
07
fe
fc
ff
05
fd
ed
04
02
0a
08
fe
05
07
18
07
02
fa
f9
02
02
f1
14
fe
e9
fb
01
05
01
09
ee
ff
04
06
05
02
f7
fc
03
ff
fd
03
08
00
0d
12
fa
01
f7
00
fc
ff
00
03
f8
f9
01
08
04
f7
05
fc
09
08
fc
00
08
fe
f8
f7
fc
eb
03
01
f6
0d
fb
f9
f3
01
02
f7
04
0b
ff
f8
fe
02
fc
f4
fc
ff
0a
fd
0d
fe
03
fd
ff
f7
08
f8
03
02
04
fa
0a
05
0c
f4
f1
fd
ff
fe
02
ff
f8
04
04
fd
09
09
fc
f4
04
fe
fe
fc
fa
fb
12
fc
0b
fa
0b
07
15
f1
02
02
11
ff
0d
03
ff
10
f7
08
06
f8
e8
fb
00
fa
09
fb
06
0c
03
fe
0f
00
07
0c
0c
ff
09
fb
f5
ff
f5
06
0a
0a
ee
0f
01
ff
04
07
01
f6
eb
14
08
fa
fe
05
15
eb
ed
0a
15
ff
f6
08
06
fd
10
03
ef
0f
03
0e
f4
f2
04
fb
f8
f5
02
00
fa
fb
ff
03
fd
04
f8
02
f7
11
ff
00
f8
e9
fa
fa
02
0a
fe
f8
0c
0e
ff
05
06
fa
fd
fa
08
fb
fe
0e
01
f0
07
fd
0b
0f
fb
f0
f4
fc
fe
04
05
fc
01
09
05
fd
03
f8
02
06
f3
ea
01
f9
09
05
00
02
05
fc
ff
f8
fd
ff
ef
fd
f7
05
fb
ff
0a
01
04
04
11
05
06
ee
09
fe
02
fe
03
07
ff
06
fd
07
fd
03
0b
fc
f9
f9
ff
03
03
0a
fd
07
02
f9
03
fc
00
0d
04
0a
03
ec
f0
fe
01
fd
11
07
00
fd
02
01
fc
0a
f5
02
07
00
f3
fb
05
0a
fd
fa
0e
14
02
f8
f6
fa
fd
08
08
f7
01
fa
00
10
f4
01
f9
05
fd
ff
0a
fc
ec
05
f9
09
09
05
ff
ff
03
05
08
ef
04
f8
0b
f3
ea
f7
03
02
08
07
fd
fd
06
f8
f1
ff
01
f4
f3
fc
fa
fc
0b
f7
fc
fe
04
05
f2
ff
0d
fe
fe
f9
fb
03
04
f7
fd
03
11
03
03
ee
10
fd
0c
fc
0f
fb
06
f3
06
0b
fd
06
f6
07
f6
03
02
0e
09
f3
02
04
05
05
f9
fd
fd
00
05
ff
ee
fe
f9
fe
fc
fb
fd
14
00
03
f3
f6
10
12
0c
f8
f9
f0
f9
f0
fa
01
f9
f4
f4
0d
07
00
0b
13
04
f0
0e
fe
f6
f4
05
06
fa
f7
0a
f9
08
02
08
f8
f6
03
fd
03
f4
ee
fe
f5
00
07
0b
f8
07
f4
03
fd
04
04
f8
f9
f6
f0
f5
0b
ff
09
fd
03
02
05
06
f2
02
09
04
05
0a
06
f3
03
08
f6
03
07
06
0f
01
0e
fd
00
f3
00
0a
06
0e
05
fc
fe
f2
fb
0a
01
00
0e
15
fe
0f
05
06
fa
0a
0f
ef
fc
00
01
fc
06
fe
04
00
fa
f4
fb
fe
f9
f3
00
fe
fc
f7
0b
00
00
0a
04
f9
03
12
00
f9
fb
f0
04
ff
fe
01
eb
01
03
fa
fd
04
fa
09
f8
02
fe
0c
10
00
04
02
00
fb
fe
05
00
02
02
fe
f7
07
00
04
f9
0d
ff
f3
04
03
0c
03
04
04
09
f8
05
f7
0a
19
ef
f0
0c
03
f8
fc
fc
f6
f4
0e
00
08
01
04
f8
fa
0e
07
03
02
0a
f9
fe
02
06
15
02
04
ec
00
0b
0e
02
02
fa
03
07
11
08
07
06
fa
00
00
fb
f6
fa
f7
f8
fb
fc
01
fc
10
0c
fc
fa
19
fd
04
0c
f6
0e
04
08
10
eb
f6
f7
09
f6
07
07
f1
09
0d
0a
ff
f9
f7
10
00
f1
13
03
fe
fa
08
08
03
ef
01
0c
f9
fc
ff
f9
0e
f4
0f
0e
03
08
07
f9
f4
fa
01
09
f6
1c
05
08
f7
06
f6
ea
fe
03
f9
f5
1c
f8
0b
05
ff
f7
08
fd
0a
10
03
03
ee
eb
fa
17
01
11
02
05
00
f6
07
ff
13
05
02
f9
fd
e7
06
00
0a
05
f2
fa
fa
04
f5
0d
ff
f9
ff
03
13
f4
00
fe
11
fd
0b
fe
fd
04
0d
f7
02
f6
00
0d
f7
05
0a
00
fc
03
f5
fd
06
fa
fe
06
fb
02
02
0b
f1
fa
fe
fd
ff
f4
f6
f6
0c
07
fe
09
00
f6
11
05
05
0c
1e
fb
03
01
05
fa
fb
fb
f4
0c
fd
ff
03
fe
11
f9
08
fa
ee
14
00
f2
fd
08
01
0a
ff
01
01
fb
09
03
00
01
fe
08
fe
01
f2
f0
f2
fb
ff
ff
fb
11
05
07
fe
07
0a
0b
03
04
02
07
ee
00
02
04
fc
07
fc
fb
fb
07
08
08
f9
fd
11
ff
06
fe
03
f6
fb
01
0d
fb
f1
08
08
ff
f9
05
fd
ff
04
01
05
0e
fc
fd
fd
03
fd
f7
00
07
fd
ff
04
03
f8
03
06
01
fc
0d
03
fb
0f
fd
02
ff
fd
fd
fb
00
f1
0c
08
0c
f5
fe
12
05
f4
0d
10
f2
fd
17
06
fa
10
07
fc
03
03
f1
fa
f7
f5
fd
06
0d
fb
03
01
00
fb
03
f9
00
01
01
fd
f8
08
18
01
f8
07
0f
fc
04
fb
f6
f7
07
0e
03
05
fd
f9
ff
f8
f8
fe
f6
f9
0d
fc
f6
fe
12
07
fe
02
fd
00
f0
fc
fc
0d
02
fd
06
02
ef
00
f9
f6
fc
f3
01
fe
fd
00
00
00
f3
0b
03
01
fc
0c
0f
01
01
fe
0c
00
00
0e
05
f6
01
02
11
fb
fb
0c
08
f9
03
fd
00
04
00
01
fb
03
0a
e9
0a
0f
fe
06
fb
ff
07
07
06
08
fc
f9
f9
06
07
ff
fd
04
f9
fd
fa
00
01
06
07
06
f0
09
07
02
f8
fa
06
f8
0d
09
fe
f5
04
07
fe
03
03
f6
05
0b
01
03
fb
04
f7
fc
05
ed
00
ff
0b
08
0c
f1
ff
02
fe
09
fb
07
04
09
09
f3
07
03
fe
fa
fe
f8
07
0f
ff
00
f6
0d
f7
01
fa
05
07
f3
00
04
03
03
05
00
fd
03
08
00
04
fd
03
fa
ff
00
00
01
ff
f1
03
f9
fe
ff
0a
0e
09
fe
f1
fc
07
03
09
07
06
04
13
03
04
f3
fb
02
ed
f8
ff
06
ff
fb
06
fd
0c
fc
ff
ec
03
09
07
f5
f1
fc
fb
02
04
f6
0a
fe
f4
f7
f3
04
f7
f3
01
03
ff
fc
01
ff
03
04
fe
0a
fe
fe
04
01
f8
02
02
fb
0e
09
02
04
f1
02
0b
fe
ff
02
03
08
ff
03
03
04
f9
05
00
0c
fd
09
01
04
fe
f7
fa
f9
ef
02
03
03
fe
04
04
04
f4
02
f2
f8
08
05
f2
07
04
fb
ee
05
0c
fa
fe
02
01
0b
fe
fb
06
04
fe
f4
03
fc
0a
fc
02
03
13
09
0b
ff
01
05
03
fa
0b
06
fe
ff
02
0b
f7
03
03
08
05
03
02
04
03
f9
fc
fe
fe
05
ff
fc
01
ee
00
04
01
fc
00
fd
01
00
fb
fc
f5
09
09
fd
09
07
00
fc
07
f9
01
fb
0b
f9
03
f0
06
04
fe
06
fc
fe
04
f4
fe
00
fe
05
05
01
fe
00
fc
01
04
01
04
f9
03
05
02
04
03
08
09
0f
00
03
ff
fc
03
ef
fe
f7
fe
fb
f5
0e
fb
09
07
08
05
fd
f6
fa
07
fa
f4
f8
fc
01
01
04
0a
f8
01
fe
0b
09
09
ff
0f
03
04
06
00
fa
02
0d
fe
08
f5
f2
fb
10
0d
fd
00
04
ff
08
f4
fc
06
00
01
ff
f1
09
fc
0d
1e
fc
07
fb
02
fe
07
17
0d
f7
03
fb
fc
ff
07
f0
fe
fb
0a
01
f3
07
0a
01
03
01
fc
fe
04
04
01
ff
00
04
f1
06
09
fb
01
0b
0a
03
07
f9
08
01
0a
fc
07
01
f8
00
05
f9
fb
fb
02
fe
fa
fe
f9
f3
07
f7
00
09
08
07
f5
03
f8
fa
fe
fa
00
06
02
01
01
05
09
01
fb
0f
f4
04
08
fd
07
ff
05
06
02
f9
01
0c
fd
f8
f8
f2
00
01
01
07
06
fe
fe
f6
03
00
02
04
03
05
fc
0b
fe
fa
02
fd
fe
f0
f7
f5
fd
07
ef
fe
10
05
07
09
fe
ff
02
03
00
fd
06
fb
fc
f3
f4
f6
05
fe
01
08
09
fa
f8
fa
fd
09
07
06
17
ff
07
0c
fb
ef
f5
0a
fe
fa
f6
f9
03
04
07
00
f9
fc
fc
08
02
0a
fe
ef
e1
ef
00
fd
07
02
f1
fc
02
05
e8
04
f6
eb
f1
00
eb
0a
04
01
fa
ff
0d
fe
02
09
f8
fd
f5
f6
f4
09
fd
01
fa
ff
03
fa
f9
fd
05
fd
e4
05
f1
f0
ff
fb
05
f5
09
11
01
ff
ff
03
fb
03
07
00
03
06
00
06
fc
05
0b
f3
03
f7
07
07
f2
fa
f6
09
fe
05
07
fa
fc
11
fc
04
fc
0c
fe
f8
01
02
01
f5
f8
09
01
fd
07
fc
08
fe
fb
03
03
f5
fc
f9
02
03
05
01
fa
01
f4
f2
07
08
00
09
f5
02
f9
f6
01
07
0c
02
02
00
ff
fb
0a
fe
0d
02
0c
01
ff
03
06
04
f9
fd
06
ff
02
01
0e
09
10
02
f8
03
ff
ff
0a
f8
0a
08
03
0c
f7
10
00
06
05
07
f4
0a
fa
fd
f9
f8
fa
f8
f6
f9
01
04
fc
06
fe
00
fb
05
07
fb
fe
ea
fc
00
ff
10
05
fd
00
0a
fe
f5
f0
01
0f
00
04
fd
fb
ff
ef
f8
fe
0f
fb
fa
f2
07
00
04
07
02
fc
02
04
fd
06
02
fd
fd
06
02
fa
fc
fa
04
00
09
f4
fb
0d
fd
04
f7
01
02
01
fe
0e
03
f4
f7
f3
06
f9
06
01
fb
fb
06
f9
fc
f0
01
f7
fb
ff
ff
fa
fb
01
11
0c
ed
f7
f5
fb
01
0f
ee
fc
09
0e
fb
f8
fb
01
fe
0e
0a
ff
08
06
04
f2
f8
fa
0c
fe
06
f9
02
f3
fd
0c
fe
04
09
f5
05
16
00
fa
0c
00
03
ff
03
f5
fa
f9
f2
07
0d
fe
fd
0b
04
0a
11
f9
f1
03
02
f7
00
f9
f6
f7
06
05
01
fd
06
04
f0
05
fe
f5
0a
02
01
0c
04
04
fb
0b
03
ff
02
fb
f7
00
0a
09
05
f4
fb
09
0f
10
0c
08
ff
00
f8
f6
0e
ff
05
fd
0e
fe
00
04
f8
ff
09
07
f5
f8
02
00
f7
11
06
f8
f0
fc
09
fa
f7
f7
ff
fc
02
00
0a
11
fe
0e
01
02
0d
fb
04
fb
e4
00
0b
fa
00
fa
fc
f5
0a
fb
0d
fc
f2
f5
15
0b
fd
fa
06
04
f2
fe
f6
f9
f6
0a
f2
06
04
09
06
04
fb
01
fd
06
05
fe
ff
00
ed
ff
ef
00
0b
11
eb
fc
ff
f7
ff
fe
fb
ff
f7
04
fa
01
fb
08
fd
07
f6
f3
f3
ff
00
03
0b
f9
f5
09
07
06
e9
01
00
02
fd
f8
f6
0c
f8
ff
09
fc
ed
f6
fe
fc
f8
09
f4
01
fb
fa
01
f6
05
05
04
08
07
f7
03
fe
fc
f6
10
f8
fa
00
fc
f9
01
f3
ff
ff
ef
08
fc
fa
00
ff
ff
03
ff
fa
fc
f5
ff
06
fa
f8
03
02
06
0f
fc
04
0c
02
14
fb
03
01
02
05
ff
fd
02
0c
12
00
f8
09
fa
04
06
04
08
f8
02
fc
07
0c
f9
03
f5
04
ff
f6
03
fc
fd
03
ff
fe
01
fa
ff
0f
f7
fc
fa
05
10
04
03
fc
fc
08
fb
00
06
f6
06
f7
fc
fe
0a
f9
fa
fd
fa
01
fb
01
12
fa
07
fb
fa
ff
0a
02
10
fc
07
fe
0a
07
fe
0b
0e
fc
fc
ff
0b
fd
f9
fa
f5
00
0f
ff
f7
05
0b
f6
06
01
0f
f7
f3
fd
fa
01
00
fb
ff
01
f7
ff
fe
ff
ff
f5
05
0b
ee
0c
fe
fe
04
10
08
f4
00
fa
f9
fe
ff
fc
01
0d
f3
01
01
fb
05
07
ff
ea
fe
ff
0b
fe
fb
0e
06
05
02
fa
06
02
f3
00
01
01
08
f5
fe
f2
f5
13
0a
fb
00
fb
ff
fa
09
07
06
f7
03
03
0a
fe
f7
0a
02
f6
f6
f8
f7
01
0a
01
00
fc
f6
f0
f2
02
f8
ea
f7
06
fe
fc
0a
01
00
04
f6
01
fe
f7
f4
00
ff
fe
f3
09
03
03
ee
f8
f9
f7
08
f9
f3
f8
fa
fc
fc
fd
06
07
0b
fb
05
f1
fc
02
ff
11
06
fa
07
fb
02
fb
f5
03
f6
fe
fe
fe
01
00
03
03
fa
ff
04
07
04
12
f1
fb
ff
0a
f7
09
fd
04
0f
00
06
03
f7
fa
13
00
0d
fe
0b
fc
f3
fe
08
01
f9
05
02
0f
fd
02
fb
f1
fb
02
0b
03
fb
fa
0e
f9
00
fe
fa
05
fe
06
f9
02
fe
fa
f8
04
ff
fe
01
0a
f9
08
02
05
02
f8
f9
fe
f7
00
11
ed
00
f7
ff
10
07
fe
02
f0
fd
0f
0a
fa
01
04
00
0b
fd
f9
03
fd
01
ff
fa
07
fd
05
05
ff
fe
00
0e
00
f8
fd
f7
f6
fc
04
0f
fa
ff
f7
0b
01
05
f3
04
06
09
fb
f9
10
fd
ff
00
00
01
f7
fd
01
fe
07
0c
05
15
06
fd
fa
fb
01
fb
00
ff
fe
00
fc
f7
fc
01
01
08
f8
09
08
05
02
fe
11
01
04
09
fc
01
f9
f4
f7
fb
03
fa
fa
01
08
fe
fb
ff
fe
fc
04
02
fb
fb
0e
04
08
f7
08
f7
12
f9
07
12
04
f8
0a
fc
fe
09
f9
0a
01
05
ff
00
05
03
04
f4
fd
03
09
01
0c
f6
02
08
f9
0d
fb
fc
06
01
0a
01
fb
07
f4
00
f9
ff
0b
f7
08
f4
00
03
f5
ff
08
fd
ff
fb
0a
10
05
fe
06
f8
05
03
02
fd
04
09
03
06
fd
fd
fd
07
03
0a
f5
f9
06
01
03
0b
f9
05
05
00
fc
05
fa
03
f8
0f
00
f8
03
f9
fd
07
fc
02
01
06
0b
f8
01
04
06
04
fa
f7
fc
f8
0b
0c
04
fc
f5
fe
f7
ff
fe
fb
04
0c
fd
fe
fc
fb
e8
0b
f3
02
fa
00
09
ff
04
08
00
f6
01
00
fd
fe
0c
0f
08
fc
f3
fe
00
06
09
fb
02
02
00
05
e1
f9
03
1b
e8
f9
eb
f8
f3
fc
08
01
fa
fd
07
f3
03
03
04
06
0a
f2
0e
04
f8
fd
01
fc
ff
fd
03
ff
fb
0a
f1
fc
14
01
fa
fe
fb
ff
0a
f7
00
fe
fe
fd
01
01
18
f8
1a
fe
f6
0c
07
04
fe
06
06
fd
f1
fb
f8
f3
ec
fc
05
0d
08
18
0b
00
0f
04
fe
ff
f8
ff
f4
0c
f6
f8
f9
f1
ff
f8
06
03
08
ff
03
03
f9
01
0d
02
06
03
fc
02
f7
01
08
f7
fd
f6
f8
01
06
04
fe
00
f7
f7
07
f0
0b
fe
0e
01
04
f7
ee
fe
fb
03
0c
0b
08
f7
10
ff
f8
ff
09
fd
08
00
fd
13
03
fc
0c
00
06
00
f2
fe
fb
fd
02
10
08
f4
f9
0c
04
ff
0f
fc
ef
17
02
02
f1
04
fe
f6
11
f7
00
fe
e5
00
f6
00
04
f6
f0
17
02
05
f2
f8
f9
f7
e9
05
02
fe
fc
09
00
0a
fd
08
02
fa
f7
08
f3
05
01
ff
f9
fc
04
ed
0e
04
f8
01
1e
15
06
fe
05
f4
f9
fa
fd
03
fb
07
10
0d
07
ff
06
04
14
02
04
ff
0b
03
fd
11
0d
08
fe
05
fa
03
ff
0a
03
fe
01
fa
05
05
10
04
02
00
f7
06
07
01
ed
0f
f4
fb
06
07
f7
08
0c
04
f9
10
f9
10
07
00
0e
fe
09
0d
0f
06
f9
06
09
f6
04
00
f8
f3
fa
03
12
06
fd
f4
06
07
f9
fd
06
05
00
fe
f4
0a
f8
15
06
01
fc
02
ff
f8
01
0f
01
00
11
f6
ff
00
08
08
02
05
fb
f8
f8
09
02
f0
01
04
ff
04
f9
02
07
f4
ff
f2
fd
ff
f9
01
00
04
f6
03
f7
01
00
00
f5
fd
07
06
03
00
ff
00
ff
02
04
00
07
fc
f6
06
ff
03
15
02
07
09
06
fc
04
02
f8
f6
06
fc
f1
fb
01
fa
07
08
0c
ff
09
02
f8
fd
fc
ff
0a
f6
01
01
05
01
ff
fd
f9
05
03
00
ff
fe
00
fd
08
fd
08
fb
0c
f0
f9
f7
fe
05
fe
f7
01
f1
fb
0a
01
f5
fc
0c
0c
f5
fb
02
ff
f8
fc
0a
0b
f6
05
00
f8
06
09
0d
ff
04
0a
f4
07
fd
fe
02
07
f6
f0
05
fb
0f
ef
f6
fa
03
02
07
f9
00
09
ee
08
04
fc
05
0e
f8
ff
04
04
08
0a
02
fb
fe
f5
06
02
09
00
09
06
f8
11
0a
fa
ef
fa
ff
0f
00
f7
f2
fa
05
f7
01
05
fc
fe
fb
ee
fc
0e
f8
fd
f0
f2
fa
f8
f4
0b
fb
01
10
12
06
03
ea
03
f6
06
0b
08
fd
fc
07
06
0b
f2
07
03
09
0b
00
f5
07
05
f9
fc
fd
ff
0a
f4
00
fc
04
f6
eb
07
ff
fa
ff
fa
08
00
f3
f9
f7
fb
01
f7
08
ff
06
fd
ff
06
f7
07
07
04
ff
fb
f4
0a
04
fe
0a
f3
f9
07
05
fc
fc
03
03
fe
0d
0c
fb
fa
fa
11
0e
03
fe
05
02
fb
0c
12
f8
09
f8
0a
00
09
fd
02
12
fa
0a
fe
08
0a
fb
fb
05
06
f5
00
04
05
07
f6
0e
f9
0a
fb
0c
00
05
04
0c
f2
0f
fb
f8
fa
07
04
0d
fe
00
09
f9
06
ff
09
fe
f9
00
ed
fe
fc
fd
01
03
f9
05
f9
04
fa
f7
f8
04
fe
02
01
01
f6
00
05
02
04
06
03
17
03
f2
06
f8
0d
06
fc
ff
fc
fa
fe
02
f8
f1
fc
fc
00
f0
fb
13
fc
ff
fb
fb
00
0e
f8
ff
04
02
09
03
05
05
1b
00
02
07
0a
fe
fb
ff
02
04
03
fd
0b
fc
04
f3
03
0f
01
10
fd
fe
06
fc
14
e6
06
f2
0b
fc
02
0b
0c
01
0b
f5
fc
fd
fd
f7
03
06
1e
fe
f4
0f
07
0c
04
09
23
0d
fc
fa
0b
ee
fa
17
01
fe
06
05
f8
ff
04
05
fc
05
0c
f9
06
e7
e9
15
09
00
15
00
ea
06
0d
fd
f5
01
09
ff
fd
f4
f2
02
f9
ff
16
06
05
08
04
fd
fd
f2
0f
09
f2
06
fd
0a
09
0b
fc
0b
10
fe
ef
03
ff
09
f8
11
05
fd
03
00
fd
f7
fb
01
06
09
0d
05
fb
0b
02
f7
f9
00
04
05
02
05
ff
f7
00
02
f9
09
05
0a
03
0e
f8
fb
08
fd
fd
fe
ff
f7
0c
02
06
fd
0c
f6
03
02
fb
0b
01
05
05
ec
01
07
f6
f9
0b
01
00
0b
f5
01
ff
f8
10
f5
fd
0a
fc
f2
f2
f4
00
05
fc
fd
0b
fc
02
03
03
03
f4
f7
ff
f9
fd
fb
00
00
01
10
fd
02
01
02
08
00
09
07
f9
04
fe
04
08
f7
04
0b
fb
0c
0a
fb
f9
fb
fc
08
f8
fd
f7
05
fd
06
06
fe
01
01
07
0d
02
f4
02
01
fa
fd
fb
f9
f0
01
f9
0b
f7
ff
fa
09
02
01
fb
f9
fb
12
fd
fd
00
fe
01
03
f9
f8
fe
04
eb
f7
06
ff
0b
ff
ff
f4
ff
fe
01
0e
fe
05
f5
01
04
04
0a
02
05
0e
09
f0
f9
fa
0a
14
fb
f2
f7
0b
ec
1c
fe
ec
18
f5
f4
f9
f1
07
fb
05
fe
f1
fc
08
ff
ff
f4
05
fa
05
f7
fd
f6
0b
eb
06
03
0a
08
05
f4
fd
f1
06
04
03
fe
fd
fa
0f
09
f5
f8
07
05
04
11
0e
fe
0f
f6
09
f1
f4
ef
fd
01
0b
08
07
04
fb
01
00
02
fb
08
0e
f9
03
f9
fc
ef
ff
00
05
03
08
f9
fb
01
04
06
05
17
05
03
f9
02
fc
06
01
fb
00
08
fd
01
fa
fa
0d
02
02
fe
11
f9
02
fc
f7
01
fa
01
0e
fa
04
07
0f
05
f9
02
02
ed
04
fc
07
fd
f1
03
06
fb
04
fb
10
01
01
06
00
f9
03
01
00
0a
f9
fe
0b
06
ef
09
fc
ff
ff
05
03
fc
fd
ff
ff
07
fd
0a
02
fd
f7
02
0a
11
fa
fd
09
ff
f1
f7
03
fe
00
f8
fe
fd
09
07
0d
14
fd
ea
02
f9
0e
fd
f4
01
f0
ef
03
0f
04
03
fe
00
09
04
fb
ff
0a
07
ee
ef
04
fa
fe
06
02
05
f1
f3
fd
12
f1
fb
fb
ff
08
06
05
f7
fe
05
12
06
0a
00
10
01
00
f7
03
ff
10
03
01
fc
05
f5
f6
fb
11
fa
f8
f3
06
fd
fc
ff
09
00
f2
0a
fd
eb
fb
01
0e
fb
10
02
0b
0b
00
00
fa
ff
f8
ff
0d
f6
f5
01
00
09
ff
0b
0f
01
fb
ff
0d
05
02
02
ff
02
03
03
0a
f9
01
00
fe
04
07
05
01
fb
fd
fc
fe
f6
f4
ff
03
fa
06
ff
f9
03
fc
f9
f3
02
fe
11
fc
ff
ff
01
07
02
02
f9
07
fe
ff
05
fe
fa
fb
f3
f1
fd
07
07
01
0b
fd
f9
07
f8
fe
ff
00
04
fe
f6
f0
01
0d
0a
ff
fd
04
fc
fa
ff
fb
0a
f4
13
fa
f8
0b
05
09
05
00
00
f8
03
f1
f8
fa
02
0c
fc
03
0a
04
f6
00
00
0f
03
00
fc
fa
fe
fd
02
fc
fb
f4
f9
01
0b
04
01
07
0a
01
07
0e
02
07
0b
0a
f0
fd
f7
06
05
fe
02
fd
fc
01
fa
fd
06
06
04
04
0c
ff
06
fa
fe
f2
01
fb
06
fc
05
01
04
f9
fe
03
fc
fc
fe
f4
fc
03
0e
f8
02
f4
f0
fd
f7
0b
f8
06
f1
ff
07
02
08
0f
fb
04
f9
0f
eb
f9
fc
fe
06
fd
01
0c
05
06
fd
f9
f8
f7
05
fa
0c
00
0b
0c
f3
02
f5
08
01
ff
fd
fa
fb
ff
fc
fa
03
fc
ff
05
0e
0c
fc
0e
f4
03
03
0e
07
0b
f0
00
f5
f7
06
0f
12
04
01
fc
15
ff
ff
07
f3
10
fc
04
10
fc
00
f9
07
fd
02
0a
fc
11
f3
f9
04
09
f7
f9
0a
f9
ff
ff
fb
02
fe
ef
01
04
01
f7
f6
0b
00
09
08
fb
01
06
0b
0a
04
09
08
f2
f6
0a
f8
04
00
06
06
07
01
09
f5
f9
f4
09
f7
ff
00
02
01
fc
fe
21
f8
fb
fb
f4
00
f4
01
ff
13
ed
0d
f9
02
07
f9
03
f6
05
fb
04
f8
ff
fb
f6
04
01
fd
ee
fe
fb
f6
04
02
02
02
01
ff
fc
fd
01
04
f5
11
fc
07
f9
fb
f9
fa
10
f3
06
fe
ff
fc
fe
01
03
ea
01
07
05
06
08
06
f6
07
ff
f9
e9
fb
0c
fa
02
ec
f8
01
f0
0f
04
fd
04
fd
0d
0f
0b
fb
00
01
f4
02
f7
06
fd
f9
fc
f6
fa
06
fb
fe
fd
0b
0a
02
f9
10
0c
0c
fd
ff
f7
02
fd
f1
08
ee
f3
f8
06
fa
fb
00
fc
ee
06
ff
f9
f6
03
fb
f4
eb
f8
02
04
fa
fa
10
ff
fa
ed
04
01
fc
07
fc
02
fa
0c
f6
06
01
fb
fc
fa
ed
03
fe
f9
f6
11
00
fc
0d
03
0b
ee
01
fb
09
01
fc
f6
0b
fa
f9
04
01
f8
00
02
f3
08
03
02
06
02
09
02
02
06
07
0a
06
0b
06
03
fc
01
0c
f4
05
05
02
05
01
fb
fd
07
f8
05
05
fe
f8
f8
01
00
0c
f9
0a
00
fd
0b
03
0a
00
e9
02
03
fc
fc
fd
f9
fe
07
17
fd
06
fb
fe
fb
f9
04
04
f9
0a
00
05
09
fe
fe
fb
07
16
02
02
00
fc
05
f7
07
f8
09
07
f2
f9
fe
0a
ff
08
08
fe
fd
01
ff
12
f5
fd
02
fe
01
fd
fc
01
fb
0a
04
03
06
09
f8
fc
fc
fd
02
03
07
01
ff
02
f5
fd
f7
05
08
fb
f9
fe
02
fd
0e
03
fa
07
00
01
fc
f6
ff
09
05
0d
07
f7
ff
f7
fd
f5
fd
0c
02
fd
fd
f6
f5
01
f9
fa
fd
03
08
05
04
fa
fc
fb
03
fa
07
fb
05
07
f5
02
01
fa
f0
00
0a
02
fb
f6
fb
09
ff
0b
fb
f9
f6
02
fd
fd
01
05
ff
f0
f2
00
f8
fc
f2
03
f1
ff
06
fe
04
f9
05
fb
0a
ec
ec
00
fc
06
f9
f5
01
00
0e
fe
f6
fb
04
12
0a
03
02
fe
13
03
f9
01
ed
fc
0c
03
f7
fd
04
06
01
08
19
03
00
f8
00
06
fc
00
fd
03
fc
ee
0d
fc
09
05
f1
fc
fb
02
f4
fe
fc
f7
09
05
07
02
05
f3
fc
fd
03
f8
0b
0f
fe
f2
fd
f6
00
fd
0c
01
10
fc
02
fe
06
09
06
f5
00
08
fa
03
f9
05
02
06
fb
00
fd
fc
ff
01
09
f9
06
0d
0a
f6
fd
00
03
01
fd
f7
f7
00
f9
01
02
03
13
fe
f7
ee
02
ff
08
01
fa
03
f5
fa
05
f4
08
ff
fe
fd
03
f1
fe
f6
f9
fb
fb
00
ff
eb
02
04
fd
f2
09
05
f6
fd
f7
06
03
08
00
fc
04
0b
f9
04
00
f9
e8
f2
fb
08
04
03
f7
fa
ff
03
ef
01
04
fd
08
ff
02
fd
0b
01
f7
0f
fe
f5
02
f4
ff
fb
fc
fe
f2
07
07
fa
f3
08
fb
fd
14
01
07
fc
03
08
fb
f5
ec
12
0d
02
02
f4
fd
01
09
fe
f2
07
0e
ea
f4
0c
f8
02
07
06
10
03
fe
fa
ff
05
02
fa
0f
07
f4
09
0d
08
fa
fd
fd
04
fc
0a
0d
01
f9
f8
f8
fc
ff
00
04
08
f3
04
fe
04
fd
f3
0c
04
f5
13
ff
01
01
fe
05
f8
fe
fc
fe
f2
fa
fe
0c
02
03
09
0f
05
f9
fb
02
fd
f6
03
07
fd
00
f6
06
f5
ff
02
01
05
08
ef
00
fe
0a
00
13
f9
f7
02
fd
08
f9
00
ed
01
0e
f5
00
ff
f9
fe
04
09
ff
06
07
04
f6
fc
fc
f5
06
01
13
03
fb
02
07
03
09
fa
f2
f1
f1
03
00
ff
fc
f5
09
fd
fc
0e
11
01
02
04
13
04
f5
f8
ff
03
f1
0d
f1
e6
04
f5
ff
06
eb
07
fc
01
0a
00
03
03
fc
08
02
fc
0b
f8
f9
0f
fd
01
f5
fd
11
09
01
03
fc
00
06
f3
fe
09
f6
fd
05
f4
f7
f5
00
ed
fb
fa
fb
f2
fb
fd
f0
fb
04
fd
04
f9
f6
ec
0c
f6
fd
04
fc
00
02
f7
05
00
fe
05
06
01
f7
08
02
00
0a
ff
12
fc
fa
f9
01
ee
f6
05
01
06
fa
07
fd
01
fe
e9
f6
fd
0a
08
05
08
fb
f5
0d
f9
05
f7
03
f5
02
fe
0e
01
fe
08
ed
f0
05
fe
fb
06
11
00
fa
f8
ff
fa
fe
fa
fd
05
02
f3
06
06
08
0a
f6
03
08
00
06
09
02
0a
02
fc
f7
06
00
fb
0e
fe
06
07
ff
fe
fc
fc
f9
f4
00
fb
fc
f0
f9
f8
fa
05
06
0d
16
fd
01
00
05
fd
fd
01
05
07
01
ff
05
09
04
00
ff
08
0b
05
f8
12
03
0e
fc
01
fb
08
0d
02
06
02
fe
00
03
10
f7
fa
09
08
fe
fb
0c
04
fb
01
eb
ff
f8
03
03
02
0f
fe
11
08
05
00
0c
f4
eb
f3
08
07
fa
00
fa
f0
13
fb
fd
00
00
01
05
01
f9
10
f4
f1
fe
f7
0a
07
0d
ef
f9
0b
02
f6
ff
06
ff
f9
f5
01
fb
f7
02
f9
0a
08
0f
02
fd
fe
f6
fc
ff
01
f2
00
fe
f6
01
ff
f9
03
f3
0b
01
fc
04
fc
f1
02
fd
f7
01
f7
ec
e7
0b
00
06
07
09
00
f5
0c
0f
e6
0b
fe
f5
07
0d
0f
07
0a
fd
fb
19
f7
f9
03
fc
ff
fc
08
01
fc
04
fc
06
03
10
f2
0d
f5
01
07
11
00
05
fd
03
f9
0a
0b
19
fc
11
09
ed
08
f9
04
f1
fe
fe
08
f3
03
01
0a
01
fa
0c
f6
09
01
04
10
f9
fb
01
00
00
ea
fc
09
00
03
fe
06
06
fd
fe
06
07
f6
fe
ff
05
fa
0d
01
ff
fc
0a
0d
03
ed
f1
fd
ff
f3
fa
0d
0c
f7
09
00
fb
f2
0a
fa
08
ff
fd
09
ff
ff
f8
fd
f9
09
02
02
f9
ff
f9
f6
fb
04
fd
03
ff
f6
03
f5
10
02
02
05
04
06
04
f9
08
15
02
ff
0d
0e
f5
0b
0d
04
fc
00
01
e4
ff
f4
12
fd
02
00
fe
ff
fc
02
f4
fe
0a
ff
fe
13
0c
01
0a
fc
01
01
01
05
01
f5
01
02
02
fd
ef
02
06
07
f4
fb
f9
f8
ff
ea
fc
01
09
fb
07
01
ea
fd
05
fd
01
fd
0e
08
0e
fc
07
fc
ec
04
fc
02
ff
0a
11
1b
f9
08
fe
fb
f8
fa
00
01
fc
0f
f9
fe
fb
fd
fe
00
04
fb
0c
06
f2
0c
f8
0c
05
0b
f5
02
08
00
03
fc
02
f5
00
f5
03
ef
00
fe
09
04
f9
f7
03
03
07
fb
f5
fd
01
f9
f1
ee
fa
f8
13
08
ff
02
09
fb
f7
fa
00
fb
ff
07
01
0b
07
f6
f7
f3
fd
fb
08
f4
06
fd
01
09
ef
05
07
f5
fd
f8
00
08
0d
fc
09
fa
f7
f0
0b
f7
04
ff
04
08
03
0c
fe
f5
05
0a
13
0b
ef
f7
0a
fd
fa
02
ff
01
0d
08
0b
fa
11
fd
fc
0e
00
fb
e7
fc
f7
05
f8
06
f9
f5
fd
05
fc
00
08
fc
0a
0e
02
02
f8
08
f6
0e
ff
ee
ff
0a
fc
fc
04
06
00
ef
0b
f3
f7
08
fb
f9
1c
02
05
f6
06
0a
01
ff
e1
fc
fe
10
fb
03
ef
ed
00
04
04
03
05
06
fc
fb
fd
08
07
fb
fc
13
f7
f1
04
fa
f8
ed
ee
fa
0f
00
07
f8
0f
f7
13
f7
00
05
f7
0e
fb
03
f9
03
12
fc
14
1f
00
f9
0f
0f
07
09
f7
0b
e8
fe
11
f0
fb
f8
f5
07
eb
f1
08
fc
06
04
f8
fb
fb
f3
fb
03
f0
f8
04
0e
fc
04
01
0e
0b
03
fc
f5
00
07
02
fb
ec
f5
09
fc
02
03
ee
ee
0b
02
00
07
14
02
ff
00
ed
f8
0c
17
fe
f6
05
fd
fe
ed
06
f3
0b
fe
fa
07
08
11
f6
fb
f8
fe
f7
fc
fa
f9
fa
00
fe
00
12
01
04
06
f4
f1
06
05
fa
fc
ff
06
f6
f0
11
04
fa
00
18
ff
00
02
0a
06
f9
f8
03
08
06
fe
fc
ee
0a
03
f8
0e
f6
fb
04
f8
07
fa
ff
fd
ff
1a
fd
f8
f9
02
fa
08
f9
08
f7
f0
01
05
ff
08
f8
ff
f8
fa
08
f4
f7
00
10
fb
f8
f5
f6
f8
f9
06
fb
07
05
05
0d
fd
01
05
04
f4
f3
fc
02
fa
16
04
ec
03
fc
18
06
f7
0b
ee
09
fe
08
f5
fa
05
fc
f5
05
f9
01
fa
04
0e
01
15
fc
f8
f9
03
05
00
f7
0a
fa
f8
01
00
fc
02
08
ec
fe
01
0c
e8
fe
fa
ec
00
05
ff
f2
f6
ff
05
ff
f8
f0
18
fb
06
1e
04
0b
02
0c
0a
07
0e
0e
f3
f5
fc
ff
f8
fb
00
06
fc
fd
09
fe
13
02
0b
e7
f1
05
f9
fb
ff
f1
06
03
f8
00
01
08
0c
fb
fb
0f
09
01
06
fa
fb
f0
03
ff
02
0a
f5
01
f8
05
03
05
f8
f5
f4
01
01
fb
ff
00
fa
05
ff
fa
fc
05
18
06
09
f1
15
05
f6
ff
f2
f7
f9
03
0d
00
0c
0e
fd
f5
06
0c
f4
fa
0b
02
ed
fa
f2
0a
fe
03
fd
fd
fa
08
0e
04
05
f7
fb
fb
01
ff
06
02
07
08
06
f4
e8
0c
03
03
ed
f1
12
0c
07
00
08
02
00
03
01
fe
04
f6
f5
fb
f7
04
fd
0e
fe
ff
04
fa
13
fc
01
03
f7
01
0b
fa
fe
00
08
f4
02
04
06
ff
14
fa
04
fa
0a
f6
0a
fd
ff
ef
03
0b
fa
fd
fe
0d
05
f2
03
f6
fa
0c
02
fb
fb
04
06
f5
07
08
fe
fe
fc
fe
04
0a
ff
00
08
f5
09
09
03
fc
fb
00
02
03
fb
06
07
ff
09
01
06
fa
02
01
01
04
00
fd
fe
01
05
09
fa
0c
f7
f1
03
f8
01
f6
07
05
f8
02
0e
02
f8
fd
f7
03
f7
f9
fb
05
ff
08
f8
fa
fa
19
fa
02
02
03
fb
fd
06
00
fa
0a
06
f5
fa
09
04
05
ff
ff
fe
04
03
0d
f8
06
f9
fc
f8
fe
ff
f8
f2
0a
00
f9
fa
0f
fe
03
06
03
f7
f6
08
04
03
07
f9
fa
f8
f7
fc
fd
fe
fc
0a
f9
04
fc
f5
02
08
f4
11
f8
06
ee
fc
0c
12
fd
08
18
09
0a
09
0d
ff
ee
f9
06
fd
0a
f6
ff
f3
0f
fb
f3
0e
01
f3
fc
06
ff
0d
0c
ff
f9
06
f3
08
13
11
fa
ea
0e
fe
ff
ea
f5
f5
ee
f6
00
fe
f9
fe
fc
06
07
01
05
00
01
15
08
09
f6
f5
14
fb
0f
f4
f4
01
f9
ee
0f
01
fa
e5
03
03
0e
fd
0e
fd
f4
03
f7
f9
fb
fc
12
f6
03
fd
00
fe
09
0f
02
04
f6
08
03
0e
f9
fa
09
fa
0d
12
fb
fd
f7
08
0a
ff
f6
fe
0f
f7
fe
02
00
ff
ff
01
02
ff
07
0a
07
09
fd
f5
0b
00
f6
0d
0b
03
f8
f3
f8
f9
fd
fe
fe
0d
09
f4
fb
02
04
07
fe
f1
f9
fe
0b
04
f6
03
0e
fc
0b
02
00
f2
ff
01
00
04
03
fe
03
09
fc
03
01
00
fa
07
07
fd
02
fe
01
14
07
0d
f5
00
f2
f1
02
07
ef
06
01
0f
f3
fe
0f
