180 40 1 1
ff
e8
2c
eb
f9
f4
1c
ed
09
06
fe
fe
ec
03
ea
02
11
04
fa
fa
e8
10
13
11
16
ed
00
ef
0e
0f
fd
ea
07
fd
18
08
03
05
ed
14
f8
f4
eb
f3
f9
29
fb
16
f5
11
07
02
07
03
0c
00
04
d7
e2
18
05
0b
ff
0d
ee
ea
06
fb
13
0c
f2
e6
17
06
03
25
f8
f0
06
fc
f9
0f
fc
fb
12
fd
12
0b
f6
e5
1d
06
10
fd
fd
ff
dc
f4
1c
ea
0b
f1
15
ec
02
ee
ec
f1
f6
f1
f9
19
12
05
05
15
e5
ff
0a
ff
1c
ee
fc
f3
ff
fc
e3
e5
ef
f6
0e
fe
f1
00
f1
dd
0a
fe
f5
00
15
1b
16
f4
34
fa
e6
e6
ee
08
ed
14
13
e4
ef
07
fe
05
ec
ea
e7
f5
f9
2a
24
fb
f8
fa
00
01
09
f5
14
ea
04
ff
f7
f0
fe
05
f2
e9
ea
14
00
fc
dd
32
e6
f4
f5
00
08
05
fd
01
e9
19
15
ff
08
fb
06
f8
04
03
f2
0b
f6
0b
fb
ff
fb
fc
fb
fd
fa
fc
fa
06
e7
e4
18
01
e1
f6
07
f7
fb
e5
fe
fb
06
00
f9
f9
ef
f5
05
04
eb
ef
0e
11
0f
07
eb
ed
01
05
06
f7
ed
ed
dc
01
24
e6
24
08
e1
01
2a
07
f3
20
e8
fa
ff
de
f1
16
17
01
f1
ee
ef
02
e6
08
f0
0d
07
12
0a
2d
04
df
04
dc
dd
10
f5
04
17
ec
ff
10
04
16
0b
f0
0d
ec
e7
04
19
28
fd
25
f8
03
0c
e0
10
fe
18
f3
fd
12
fd
fe
1b
12
04
fc
06
f0
08
02
ed
1e
fc
fe
07
de
02
0d
0b
e7
fc
19
d5
fb
fe
e6
f3
ff
f2
ef
0a
01
f6
08
1a
ff
0c
f5
07
f9
f4
0a
1a
f9
e7
fb
1d
e6
04
f8
0c
0a
ef
f3
f6
01
03
06
fb
dd
f5
11
e9
ed
e2
e3
fb
f6
0c
f6
e2
1d
f3
ee
f4
10
09
18
09
0a
02
fa
ed
fe
09
1e
fa
0a
ff
f1
03
0f
02
f1
f9
18
0c
16
09
13
1b
17
06
12
0f
05
0a
fa
04
e8
03
0a
ff
f2
df
0b
f5
0b
0b
09
fd
ff
0f
da
00
cb
05
00
fa
17
e6
09
08
07
05
03
12
0d
2b
f7
01
1f
ff
e2
e5
f4
06
e1
f9
0e
09
f5
f4
e5
ee
15
f9
fc
0e
03
00
03
f1
e9
f0
02
0b
e5
e2
07
fb
01
04
16
f3
01
15
fb
11
f1
f5
14
f9
fe
e3
eb
13
f5
fe
07
10
f8
04
ea
0c
04
0f
ee
01
fa
e9
02
fe
11
1b
f3
0b
15
03
f3
10
06
f3
f8
09
06
ef
ff
f3
ed
ea
fa
fe
f4
01
fb
0a
07
15
1a
01
07
0c
01
fb
09
e3
01
23
16
26
e7
f8
e0
0d
02
f2
ed
f5
ec
0e
f7
d8
f4
f0
14
e3
fd
19
fe
e3
08
0c
fa
05
f9
04
19
03
03
eb
06
0f
01
09
f8
05
eb
01
11
f2
eb
06
0c
fe
dc
f3
f6
e9
e0
23
1a
fd
e9
ec
06
04
0a
07
f0
04
fc
05
0f
0c
1d
08
ec
ff
f8
04
f3
00
08
01
fe
ee
02
fa
14
0f
ff
14
00
0c
f9
02
01
f3
f2
fb
10
01
0e
13
02
f7
e1
19
e0
03
04
06
04
e6
0d
d5
09
ff
fe
08
f3
f6
f3
e8
ed
13
07
02
03
05
f0
f4
27
1a
f0
06
f3
04
00
10
1e
f3
00
e7
0c
fb
f8
ea
02
06
f2
ec
fc
13
fa
0f
22
ec
08
1b
1c
0b
22
f5
1f
f8
0a
0e
e8
f1
18
06
f0
06
04
da
f6
00
f3
fe
11
fb
f1
03
19
19
0f
11
34
ff
18
ff
f3
ff
02
f1
f0
d6
01
e3
05
e5
ff
12
22
fb
16
23
00
27
02
07
ec
18
0c
11
13
18
f9
f4
13
f4
e8
0c
e0
e9
fe
e2
f5
eb
ed
26
17
ea
09
06
07
f3
14
06
fb
f7
fb
ff
f8
e4
f9
ea
05
15
f0
0a
e5
fe
0e
fc
e5
fc
fa
ff
ff
07
f7
0c
09
11
01
e7
0a
fc
ef
04
18
0d
eb
01
00
0a
f9
05
f7
0d
1f
0a
0e
17
ef
ec
f3
e7
05
09
f6
f0
f5
ff
08
ef
10
fb
13
09
ed
dd
0d
11
ec
ee
0f
ec
06
f8
e9
fc
0a
f6
00
fd
e9
fa
08
f5
e7
fb
0c
1a
00
04
ee
0e
1e
ec
1f
f5
0c
18
04
17
0b
23
15
09
ea
f9
00
ef
02
02
fa
f2
f3
0e
05
04
18
f9
0a
f2
09
f2
05
09
00
ed
04
f2
ff
02
0b
fa
e5
f5
fb
f6
1b
fa
0c
f4
f1
f0
0b
ff
0c
11
f7
e9
0f
f5
00
f9
13
e5
12
fb
05
03
03
0b
e2
10
f2
ef
fa
08
24
ff
05
f7
d7
f9
ec
fd
ef
04
ef
06
00
09
f8
f5
07
11
0d
ee
f1
f4
03
01
07
01
27
f3
1d
1d
f3
fe
10
2b
09
03
fa
f4
f4
f5
12
20
08
0b
e4
13
f7
0d
ee
fb
16
0b
e7
0a
12
12
0a
f4
fc
05
12
fc
09
f5
f7
f7
fe
e3
17
17
2d
02
23
cc
df
e6
0a
f2
01
1a
f9
09
20
fa
c8
0b
09
19
f8
f3
0e
19
12
ff
f7
f3
03
ff
eb
05
f5
d2
0b
f1
02
0a
e1
3b
e5
e9
fb
f5
0e
f4
1f
ed
11
fd
1b
fd
e8
f1
07
f8
2e
fb
f4
f6
f1
07
fc
05
1a
0e
ed
0d
f7
f8
fd
e7
03
f1
fe
f3
ef
f2
17
ed
10
f1
0f
0c
11
06
f8
fd
21
e8
ff
1f
f3
ff
05
07
f7
ef
19
e7
f5
ef
0d
09
08
f3
0c
ef
e8
0b
14
0d
15
08
f2
0f
f5
fc
fc
f2
ee
fe
f3
f7
eb
ed
f2
ee
0a
09
12
0d
0f
fc
ff
f5
f6
0f
ff
f3
f1
e9
f9
fc
1a
04
0b
08
f9
08
2c
00
e6
fb
02
11
06
19
17
f7
0e
ed
1d
03
f7
0d
fc
0d
0a
fc
f4
15
02
f2
ef
00
fc
1b
f8
f6
e6
12
0d
0f
13
16
03
fd
fe
0c
e3
f7
01
e6
e8
e7
ef
17
eb
16
e4
fd
e5
1d
02
00
13
e0
05
e7
0b
04
1b
17
fa
24
1b
f6
fd
03
1c
f2
eb
13
14
17
06
14
26
e8
fa
1e
09
f9
1a
05
1c
fd
fc
ca
2a
ec
00
ff
07
08
f7
13
04
f8
e8
f1
06
fa
1c
1a
ea
f8
f2
ec
00
ff
e9
f1
0b
d5
fc
ea
06
03
27
eb
16
f7
09
f3
e1
03
10
20
1c
f8
fc
fb
eb
13
d8
f1
fd
03
0b
f4
0e
15
fc
08
05
1f
f9
11
24
fd
dc
f4
04
15
0a
ec
0f
fb
e2
f9
02
0a
f5
0a
0f
0d
0c
f3
02
04
03
f6
01
f8
02
f3
fa
e5
f0
f8
f1
f0
f9
0a
12
04
fe
ec
00
f1
e9
27
18
ee
12
0d
fe
10
06
fc
f9
12
f1
10
06
d3
04
06
0a
e8
06
e7
0f
02
10
f7
17
17
09
0f
02
00
03
e7
f5
0a
df
f9
fc
e9
1f
fb
ec
08
04
05
07
ef
15
11
0c
10
01
ff
27
1e
f8
e1
ea
0a
e4
08
ef
04
e3
00
07
ff
11
e8
11
ea
27
eb
02
03
ff
16
fd
1a
ff
12
09
f6
05
01
08
07
24
06
f5
eb
04
04
07
0e
20
16
e5
fe
0c
e1
0a
f9
07
ee
02
0c
14
fb
0e
17
10
01
fe
07
f4
ea
13
ed
01
09
06
f9
0f
06
fb
25
f1
0b
fe
e7
04
f9
08
0a
f0
0e
06
db
21
ee
fd
1d
08
01
fd
0d
fa
00
01
f0
0d
11
0d
01
19
02
f8
fd
f8
ff
ec
0d
11
ef
ec
e3
f3
0f
1b
09
12
f3
05
12
08
d4
04
1e
fa
e9
ef
fb
20
13
f4
0a
f9
f6
1e
00
0b
ea
0c
11
11
06
10
ef
e5
d7
f7
e9
07
fe
0e
39
12
fb
f0
f4
f6
d6
0b
11
ee
11
fb
18
fc
eb
e9
fa
ef
0a
f2
f6
0a
ef
06
e8
fc
0f
fd
15
ee
ff
f1
04
d3
03
f1
fd
f8
fa
0b
ff
f0
07
25
ff
ec
16
f7
fb
04
df
08
ec
01
fb
19
01
18
05
f3
09
05
1e
18
f5
f9
0f
12
0b
0b
fb
15
f5
f6
22
01
e8
05
04
fd
06
fd
04
05
1b
00
10
f9
fd
e6
e9
f8
0e
f1
fb
13
05
05
0e
0d
f1
f9
1a
f9
12
e6
f9
08
ee
cd
09
01
10
0f
18
f6
00
0a
fc
01
f0
00
e1
02
16
f2
e7
02
0b
da
fc
02
02
f7
fe
09
10
e8
e7
ed
f2
f8
16
05
f3
05
f2
f9
ec
fd
0e
f1
21
fa
fe
0b
ef
03
05
f1
fa
f8
0e
17
ee
07
f0
29
17
05
14
0b
e9
1b
0c
ff
db
06
0a
fd
04
1b
f4
ee
1a
e8
0c
00
2d
11
dc
e3
12
05
1b
0e
f2
06
11
01
0b
f4
09
fe
0c
e9
0b
14
0a
f0
00
1a
02
f1
f3
0e
05
1b
f8
09
0c
f4
0c
f3
0c
0f
f5
01
00
f4
ea
fc
f3
01
fb
fb
0b
e9
06
12
f7
0f
fd
f2
07
02
05
fd
15
f1
0d
fc
f9
f5
0c
f7
05
10
16
15
19
0b
0b
00
01
f3
09
f6
e6
13
03
06
f1
21
00
dd
0d
00
0a
fb
f0
02
ec
1b
ee
04
e4
db
ee
e2
02
ea
07
ea
fe
05
0c
2a
07
09
06
f5
e4
f0
ed
1d
12
f9
f2
ee
07
18
07
1b
fe
f0
fc
ff
fb
13
13
15
0b
df
06
ec
f4
de
00
09
fc
02
f3
25
1a
26
f3
e0
f9
fe
ff
ec
fd
07
e2
13
0a
f1
0c
fc
e9
02
ec
10
f1
fd
05
09
f0
06
f3
fe
fa
00
09
ef
01
13
e5
fc
01
f4
e8
f5
10
f8
02
1b
0e
0a
12
06
f3
12
fc
09
02
fd
ee
0e
16
ea
04
ec
0b
f6
06
03
fc
03
f8
0a
04
f9
e6
09
ed
fd
fd
0f
e7
0b
eb
10
11
0d
f4
ed
25
ed
f5
11
05
0b
03
0b
fa
fe
d7
ee
d2
13
32
14
ee
15
fd
26
1a
00
05
fe
f9
05
f4
f6
08
fd
0c
18
f1
fb
0b
e6
f8
f1
f8
dc
21
1a
f9
15
d7
12
23
f3
52
0a
1e
f4
12
fd
f9
05
eb
20
e0
07
f6
f4
e0
f2
12
02
e1
0b
01
e9
08
ef
17
05
0b
f6
d1
f5
01
ff
fa
ed
e7
18
e3
fa
05
fe
11
fa
e0
e7
00
f6
27
20
e4
fb
1b
22
16
0b
0b
f5
09
fd
ef
0a
0f
06
0a
05
f0
e9
f4
04
fa
f4
0d
09
fb
1a
25
f8
f2
1b
11
e6
09
00
ef
09
13
f8
01
fc
ea
f0
07
e7
ff
eb
fd
1a
e5
f8
14
0b
f7
21
01
0f
f4
f8
f6
0c
fa
09
05
08
03
0a
fe
f8
fb
18
27
f6
0d
ef
09
fa
f5
fc
14
10
f4
0a
fc
0c
19
fe
f6
e6
f1
0f
1c
04
ee
ec
fc
0e
f6
11
f9
fa
07
21
fc
01
0c
f8
14
db
0d
01
17
16
08
f3
fe
1c
d8
fc
0b
0b
0a
07
22
1f
06
1a
06
1d
01
15
17
f0
02
1c
03
02
02
fe
07
f5
fb
f4
08
09
09
05
00
08
00
e8
f1
09
f2
f8
ed
0f
16
00
fb
10
05
fe
0c
f8
fd
14
fe
0f
ee
00
f1
fe
04
14
10
05
12
ff
02
fd
f7
0c
fa
03
0f
15
0f
fc
fc
0e
25
fa
04
ff
fd
1b
ee
08
0d
f2
0d
fb
04
d6
f4
f5
2a
03
f1
07
00
11
00
0a
f6
e6
0a
13
08
fc
f6
12
08
e4
08
0d
0b
f3
ee
06
05
f6
e3
0d
03
07
06
f8
fe
0b
fc
14
ea
e6
f9
0a
f7
06
05
0d
f5
e8
13
07
ef
fe
f9
fc
fe
eb
0c
fa
ec
09
07
f6
02
f0
fc
ff
eb
fa
0c
01
f5
0e
19
0d
03
ed
fa
06
ef
fd
04
07
e9
f6
f3
0c
ef
07
f3
17
05
15
05
02
f1
03
f7
f7
06
09
f6
f8
fb
f5
fb
09
01
f8
f7
f9
0c
fb
17
0b
0b
02
04
ed
03
e8
11
08
04
f9
08
d7
00
06
fc
fa
fe
1e
fb
10
08
0f
f1
f4
0d
f3
25
1a
d8
17
fb
1e
fd
04
ed
fb
ef
f1
ef
03
18
08
0c
03
f6
f8
fd
05
eb
0c
0f
0c
06
f6
09
0f
fd
16
06
03
08
eb
0e
fd
f0
15
df
02
fe
0f
fc
ed
f1
29
ff
fc
f5
24
fd
ea
07
1b
fe
e9
f3
0d
ef
12
f5
fd
fd
14
05
df
ff
1e
09
03
da
14
12
e9
f6
19
1b
f7
e3
fd
cf
f5
e6
fc
e2
e5
25
08
ea
fb
e5
1e
f3
e4
13
01
e9
da
e3
ed
01
f6
08
f9
ff
0d
fb
09
16
19
11
14
0c
21
fb
0d
15
11
09
fc
15
11
13
0d
08
01
f9
fe
e6
00
03
f6
fc
f9
07
fe
14
06
03
f4
09
fc
0a
06
fc
0e
e6
17
fc
ef
06
10
f7
0a
0e
04
22
fe
1d
f8
0c
ed
01
fd
e5
f5
fa
1b
f5
07
00
e3
ec
f6
fa
00
f3
12
25
13
04
ee
fc
17
ee
05
0b
f4
06
f7
03
db
02
0d
08
fa
db
04
e9
10
e4
05
f3
11
05
e5
f2
d8
ea
ff
f3
f1
f4
01
1a
07
05
16
fc
dd
0c
f8
0d
24
19
ef
e6
0c
01
ee
fc
ec
f0
24
01
ed
0a
08
02
01
08
da
04
0c
10
0c
f0
13
f8
2b
25
f8
07
ff
f6
0d
11
02
00
d2
07
01
07
f3
d5
12
f8
0a
ef
01
05
fc
09
14
fe
f7
20
fe
f6
e8
ee
06
e5
df
0b
f1
f0
dd
fd
05
ea
f0
1a
11
0d
f7
f7
ee
fb
00
fc
04
0c
09
12
05
ea
08
f5
f8
f6
fc
12
e2
1a
ea
1b
0b
14
02
f7
17
f3
fc
ff
02
fe
13
09
08
15
fb
01
11
09
f0
0b
f6
0b
03
f7
19
f3
fe
f3
03
05
00
05
e3
11
f8
14
0c
00
16
0f
16
02
f6
fe
f6
db
f8
00
fa
08
f2
0b
14
06
de
f3
0c
fe
1a
ef
f3
16
0f
eb
16
1d
e4
10
0a
18
15
fe
fd
fb
f9
fd
f1
fa
1b
04
25
d6
ed
12
df
fe
00
ff
06
18
f8
0d
e9
02
09
f6
fc
ee
00
06
01
fc
01
03
e5
d2
f4
e4
01
e9
fc
00
13
1e
fa
17
05
0e
04
f7
01
f2
0a
22
fa
0f
1e
17
13
01
f8
13
ea
18
f8
ff
08
1c
ec
f9
ff
ff
fa
fc
09
fe
e3
08
03
f6
06
fe
01
fc
03
d8
0a
fa
08
ef
07
e3
11
02
f9
13
13
00
11
f2
14
fd
fa
18
fa
04
09
ff
ec
0a
11
f5
ee
f2
fc
07
fd
06
08
16
10
01
06
fc
07
e4
f1
f1
ff
e7
e9
10
08
11
f3
06
fd
17
fd
15
27
02
03
0e
03
13
08
12
25
eb
04
f5
05
07
12
dd
01
05
01
07
e0
ff
ff
06
10
ef
20
ed
20
02
fc
08
07
03
fb
f8
ec
03
f5
11
17
04
03
06
f2
fd
f0
04
fb
0e
f6
09
f7
f0
08
00
f0
09
05
11
fc
e8
fc
f7
e9
09
ec
07
1f
f5
10
ff
06
fd
e0
ff
01
0a
0b
ec
13
1b
11
10
f2
0c
1b
09
02
f6
13
0a
03
18
0b
09
0d
1c
fb
fc
f8
14
0d
0b
08
05
09
fc
df
02
0e
0e
f3
fd
0c
eb
f9
15
ee
0e
1f
f4
f5
fe
e2
1f
ef
ee
fd
15
0a
17
ef
04
ea
16
01
00
2e
e2
fd
da
00
ec
18
f9
0d
1c
e9
01
f7
fc
f5
03
f7
02
21
0b
02
15
04
11
0b
ff
05
0e
1d
ea
0a
0d
f2
fb
14
0d
07
e1
09
09
f1
04
0c
f7
0c
10
08
29
e9
fc
29
23
f3
2c
05
0c
ff
0c
12
13
07
fc
04
00
21
07
1b
e7
1b
0c
05
d6
01
18
f2
06
17
ed
09
fa
e6
f9
f8
e8
06
1a
0c
ea
fb
02
02
19
0d
f3
10
e2
05
13
df
ff
05
f4
1b
f6
0f
fd
d1
06
eb
fb
ea
f3
07
11
fe
1b
ff
02
21
ea
de
0f
f4
fd
d2
12
07
01
ef
fd
ec
10
f9
08
e8
04
e2
e1
02
fa
14
e9
e1
fe
fc
f8
0a
0e
f1
06
07
08
00
ea
f4
2c
1c
fe
eb
00
02
01
ef
e4
1a
fb
0c
f3
0f
27
fe
09
ea
04
05
fd
02
17
ed
f7
f7
0c
22
10
e7
08
f5
f8
e3
09
07
0d
00
03
f4
e2
fd
db
14
f5
f9
06
ed
2a
0e
04
ec
21
02
e7
04
fa
f1
09
00
06
f6
0c
fe
0c
fc
02
0d
06
fa
f2
f4
07
e8
05
f6
1f
ed
0c
f3
05
fd
f1
12
ef
f0
17
25
fc
0e
15
f4
dd
e2
f4
07
16
eb
2c
fb
f7
12
07
fc
f8
07
04
22
ff
0c
05
f6
f3
10
29
3a
35
0d
e8
e1
08
fd
1a
f5
ed
da
01
fb
e2
04
fd
06
e6
fe
f0
0a
e1
e7
fa
15
ee
16
0f
fd
f7
10
07
22
ed
06
db
f4
f8
07
fa
0b
e9
12
01
06
fc
0c
f2
fb
e4
ef
02
e2
f8
08
fc
06
04
06
f8
e1
f1
06
1e
15
f7
f8
f3
0f
19
f2
fc
ff
ef
e4
1a
1e
fa
ec
15
e8
0e
13
0c
ff
fb
ee
00
0e
e3
ed
03
0a
e9
1b
f6
f9
fb
1d
f0
02
05
f0
fa
0c
f3
13
f0
ed
e9
14
10
e9
e0
ef
f5
10
eb
00
0e
14
07
0a
18
0f
06
17
f8
03
04
01
fa
22
ec
f6
0e
ef
fb
03
fb
09
14
0e
08
0e
f2
19
fb
f7
03
ff
01
fd
f4
17
1a
03
f2
da
23
11
ef
ef
25
f2
ec
de
09
07
1c
0d
fe
16
04
08
f0
07
0c
d4
ff
04
07
f3
1d
fb
e8
10
19
e2
db
02
f3
fc
fc
07
13
18
3d
fb
13
22
12
d8
14
f1
fb
0e
ef
fa
f3
e8
f9
00
16
0c
ec
2a
10
f0
fe
1c
03
19
15
f1
0d
f4
05
20
04
e6
f6
fe
03
f7
0a
f3
f2
ee
0d
08
09
04
02
f0
ed
18
13
fd
ed
e4
f2
03
ed
ef
e7
09
f6
ff
17
ef
f5
05
14
12
fa
00
15
fd
07
ff
0c
fb
eb
f6
f1
07
05
15
0d
fd
12
da
16
e4
00
df
fc
00
ee
fb
0c
19
fa
fc
0e
17
00
09
01
ed
fc
fd
07
e9
f2
1d
e8
01
fc
0e
ed
18
13
1f
fc
0f
1f
e1
fa
ef
0f
f4
ff
09
e5
d9
03
04
03
f5
18
19
0a
03
28
fd
05
f8
ea
16
fe
04
06
12
ea
24
f8
ed
e1
15
0f
0d
0b
f7
04
18
fe
e3
09
fa
06
e8
0b
11
fd
ed
f9
f6
ed
fd
1d
f9
00
0a
d9
00
16
2c
15
f8
f6
21
21
ff
0b
0c
13
f8
07
08
e8
17
eb
0d
dd
f7
df
0f
0f
0d
0a
fc
07
09
f4
e6
01
e7
e5
f1
05
fa
ff
fa
f8
fa
03
ef
11
12
06
07
fc
06
0b
ff
fc
eb
08
18
f6
27
20
fc
de
0a
ed
0a
0e
e9
0e
f5
0f
02
e1
f3
15
08
e7
f7
00
fe
f1
04
e8
06
fc
f9
12
12
e4
02
2a
ff
e0
f5
05
fe
0d
20
13
20
fe
05
07
12
eb
fe
02
14
05
fd
09
f2
f2
fa
fc
ff
09
00
17
cd
fa
07
fb
f6
f5
fa
ff
02
02
fc
e4
e7
12
17
01
0b
00
15
0d
06
03
fd
05
13
fb
f0
01
03
18
03
ff
f7
f5
fe
02
15
fb
14
fc
e7
0c
13
f9
1e
05
f9
fb
2d
09
07
ec
f0
01
de
0d
f4
f7
f8
ff
fa
fc
09
03
f1
0e
f4
23
f9
fa
14
19
ec
d3
02
f1
f4
ef
f7
1b
f4
16
02
f0
fb
10
ec
06
e6
f8
19
f6
fe
17
f4
f3
01
01
16
f1
ec
1e
0b
fd
14
f8
fa
d9
09
10
1c
08
f5
01
fe
1e
11
03
f6
04
1d
0b
26
0f
f5
27
18
16
d5
fe
13
ef
0f
08
1a
08
fc
ed
f4
f0
f5
03
e9
17
15
00
19
f3
e6
1e
ec
17
26
01
f1
05
f0
e9
13
e6
fd
e8
f5
f8
1e
e8
ff
03
e8
06
25
26
fe
fd
eb
05
0e
f2
ea
fd
0e
0d
fb
0f
fa
e9
00
04
f9
f8
03
fb
00
f5
0c
04
25
f3
02
03
ff
f2
fd
04
03
fb
ef
fe
fa
1e
f9
fc
02
0c
08
fc
f8
ed
03
16
df
ed
f5
e6
f8
eb
08
f9
fd
07
23
f5
f5
f9
e9
de
05
ef
fe
13
f0
f3
fd
08
10
fb
18
02
0f
fc
13
f3
f4
0b
f7
f0
03
01
fb
11
e9
00
fb
e6
f5
f9
fa
04
11
0a
e9
eb
06
10
02
f6
14
01
ff
ff
f8
f1
e9
fe
03
f4
f6
1e
0d
fa
08
fd
f0
fe
f7
fe
25
f3
15
05
13
f8
fc
0d
ea
07
03
08
f9
f5
f4
f9
fd
0e
0e
16
f5
ed
e6
01
ff
23
13
ed
04
ff
1c
eb
f0
e9
ff
00
f5
06
f0
0b
03
02
17
15
01
12
25
fd
f4
fa
05
22
00
0e
0b
06
f7
1c
d3
0e
0c
09
f1
ea
04
00
d8
1a
08
f8
fa
ee
04
01
05
07
f0
0b
f4
03
e4
10
0a
e8
12
f9
ff
fb
f8
f3
fa
ff
12
f8
04
07
07
05
00
01
f7
fe
d8
07
16
0e
f7
05
05
17
f7
1d
e1
12
10
08
f2
fa
0c
13
fa
fb
12
e6
f2
09
06
f1
07
05
07
e3
07
07
06
f9
f3
0b
ec
fa
0f
e0
0f
f0
08
04
ee
ef
ed
05
ee
f3
fb
04
e1
08
f6
00
f5
e9
04
0b
10
fb
f7
ea
00
fb
0e
02
02
e8
06
1f
e4
f5
03
0e
fe
09
10
17
0d
0d
07
04
ee
05
07
fb
ed
ed
fd
0c
0e
0b
f4
ef
e5
08
f1
f9
0c
03
1b
0c
13
f3
00
03
f2
03
f6
e8
20
09
f1
f6
05
ef
f5
ed
f2
e7
f6
19
fa
03
ff
f4
fc
0c
f2
f9
f4
0f
09
f9
fa
1c
0a
07
ee
ea
fe
ea
e0
ff
06
0d
01
f0
fe
da
10
06
07
0c
f3
e0
0e
db
0b
f0
fe
06
1c
ed
f3
e3
f7
21
16
f7
00
eb
07
f7
e9
f1
15
11
f7
f6
f7
ed
00
08
ff
0a
d2
01
14
e6
e6
16
04
fd
ef
fb
f5
fd
fd
17
f9
0e
ea
fe
09
fc
f2
f4
ff
0f
f9
18
ec
f8
fa
ec
dc
08
f6
eb
0c
ff
24
fc
ed
f2
fe
04
f0
fd
f2
e7
14
09
03
f3
02
07
eb
fe
0f
02
ef
f2
fc
0d
f7
f4
18
e4
fe
fe
02
f5
eb
f1
f3
0e
f6
07
12
0f
12
fd
08
02
e0
0a
1d
07
17
f7
de
1d
ed
2c
08
f4
01
0a
0a
f1
01
f3
07
fe
06
04
12
f0
06
0a
0d
04
f3
0a
11
f6
03
0b
ef
02
f5
14
fd
fd
15
03
03
ea
fa
e4
f9
f2
f4
f8
0e
27
00
17
0e
de
f3
fa
e8
fa
fc
f8
0b
ee
05
03
fe
e3
ea
fd
fc
f7
e7
ed
04
08
f4
dd
fa
21
f1
12
02
01
1e
0b
eb
23
f0
f9
01
17
e0
03
f4
f8
e6
1d
ee
01
16
11
ee
fc
fb
f3
01
0f
e3
f7
fc
fc
01
e6
e0
f1
fd
11
01
22
05
f4
02
02
f1
07
11
00
fa
f8
f8
fc
e4
03
f6
03
0c
f8
e5
01
0d
18
fd
12
e9
19
ff
eb
fc
1e
fc
05
15
06
f5
03
fd
fc
fc
0a
07
f0
e5
f1
15
fe
f0
e9
f4
0f
07
fc
ef
ee
12
21
ef
05
f6
e0
fb
0f
08
fb
f0
02
00
08
05
05
06
03
f7
14
f7
f2
f2
08
15
00
09
0a
0a
0a
f1
fc
fd
1f
ed
e5
1c
18
0d
f3
1f
03
f2
ec
17
ed
f8
f9
1b
2a
e8
00
ec
16
03
ef
05
ea
20
f9
f4
f2
29
17
20
23
f5
11
f7
fa
05
16
0b
f6
ce
1a
14
f5
ec
00
f6
01
24
bf
fb
22
03
fa
fb
00
d9
f7
e6
07
ff
04
ff
1a
06
da
ef
f6
10
f6
ec
13
11
05
03
1c
f5
02
ed
fe
ed
fd
10
fa
02
02
0d
ff
e9
e0
18
15
03
fe
09
f7
14
0c
fd
ef
25
0f
18
f9
e6
fe
09
fc
f5
e4
14
ee
e6
f3
ef
f0
0b
0d
eb
0e
ed
f2
ed
d9
0f
f5
0f
f7
f6
ef
14
1c
07
18
f3
06
f0
fc
06
0a
f9
14
f9
fb
e9
03
f5
ef
12
f5
17
00
f9
dc
0e
f5
09
fb
04
f7
15
f7
fd
ec
f6
ed
01
da
01
fe
01
0a
10
fd
f5
ff
17
fb
0f
ff
1c
fc
13
0f
e6
0f
f7
05
f6
02
17
07
0d
f7
e9
00
f9
15
1d
f2
ed
f7
27
ea
da
1e
f2
fc
da
fd
f0
fb
11
12
f5
07
04
e6
0b
13
10
07
f8
0e
01
08
fb
15
19
0f
08
eb
ec
e5
0a
06
fb
04
f1
30
04
0e
e7
0c
1b
20
fd
04
06
fb
f8
1a
4b
f7
e6
f6
0c
f5
f0
fc
e3
17
0e
e1
ff
15
eb
f6
1a
09
02
03
f2
09
e9
0e
06
f5
1c
06
f2
ed
09
f6
00
e0
fd
1a
15
f2
e2
0e
12
20
19
f5
fa
13
0f
f9
0e
f4
e5
fc
1a
31
d3
eb
ec
f5
fe
02
0f
f4
fd
15
fb
15
0c
07
05
fe
01
03
08
1e
10
08
ff
fc
0b
04
ec
fd
0a
fc
fa
f4
0d
f5
04
11
f8
ff
09
f8
f7
05
fb
ee
09
0a
29
e3
1c
10
0c
fd
08
ff
02
08
0b
01
0f
12
19
09
e4
20
f6
06
05
14
00
13
fc
f8
fa
fd
02
f3
05
08
06
f3
08
f2
1e
fe
00
08
fd
0a
01
e7
02
04
12
0c
fd
1b
01
01
f0
f6
03
fc
d6
08
fa
15
08
fc
13
28
00
13
18
18
f6
f1
01
f0
1d
f6
25
eb
fd
ec
15
ed
02
09
01
e2
26
12
f6
09
08
00
f9
ec
f8
ee
09
0f
26
fa
f7
02
09
f6
11
ea
12
00
0c
fe
0c
2c
11
f1
fa
fc
f6
ed
ee
02
10
f6
17
fa
f7
ef
f1
07
0e
10
11
0a
14
11
14
e4
0d
fc
05
10
fe
0f
0a
0c
0b
0b
ea
00
10
ed
08
f5
fc
ef
03
f8
f4
02
fa
fa
08
e1
07
04
07
11
fa
fa
f8
04
0b
02
02
fd
0a
0b
09
fc
ff
dd
ee
06
f9
16
13
0a
12
02
07
03
07
26
fb
e1
dc
eb
f7
01
10
05
09
f4
13
f4
e1
f2
f3
04
00
eb
e9
fb
05
fa
11
fe
e6
fd
04
1b
0f
ff
03
14
fc
f1
2e
04
f1
fb
29
02
0b
ee
1a
e8
16
0e
dc
14
13
f3
eb
0c
14
02
f4
06
f1
fc
10
ec
e8
15
0c
06
fe
11
e4
f1
fe
f1
26
0d
00
dc
db
12
fc
f6
ff
07
18
ed
fa
e9
0a
e7
08
fd
f2
f5
31
13
ea
f7
d5
e2
f6
0e
0a
1e
0f
04
d8
e1
00
e9
e1
ee
ff
16
11
25
cf
08
e1
0a
09
02
ff
0c
0d
d2
1b
14
0e
05
06
15
f3
07
f4
00
00
12
e7
fb
02
fe
13
09
ec
0b
e8
01
e6
1e
f5
1b
eb
f2
f5
06
fa
f2
e5
f8
0f
fd
03
f5
ed
fe
03
e8
e3
12
ff
fe
28
e0
ef
f3
fe
27
11
e9
00
fc
f3
05
0f
f7
06
19
f4
00
06
ef
ed
03
01
19
0d
ff
f2
ee
06
14
1b
13
0d
0d
e5
f4
f1
f6
05
fd
ef
03
0e
11
e9
f2
fa
f1
ff
00
fa
ef
00
07
fc
ee
01
ff
f1
f7
0b
11
04
0a
fb
04
f1
00
e3
10
e8
02
08
f9
ee
04
ef
08
09
07
e7
06
fc
e1
10
fc
10
ef
0a
e9
f9
e0
06
f9
0b
2f
0f
f4
d9
ed
f3
f5
f5
0e
0f
12
13
00
03
fe
f1
03
f0
fb
fe
02
10
ce
fc
1f
05
0d
fa
e4
05
f9
e9
18
0a
06
13
03
0d
15
f8
ed
00
f8
08
d3
f4
f3
f4
02
f3
fb
f7
fd
08
07
ea
07
0d
0c
1a
0a
fa
17
f7
ff
0b
12
f8
06
02
02
0a
0d
09
01
00
01
fd
eb
00
0a
19
18
06
d1
ee
fa
f8
f5
fa
0b
e9
02
f6
03
11
e4
07
20
06
fa
ed
fc
05
06
ea
f9
01
fd
12
fa
08
fe
0d
00
f7
03
f9
f1
f8
f7
0c
fd
1e
08
f1
07
09
ee
0a
0b
fe
02
f8
1e
14
e9
12
05
04
fe
04
fe
04
f9
0a
08
06
f7
f4
fd
15
11
fc
ed
fd
f9
fd
fa
17
04
fa
eb
09
07
1d
ff
22
fd
17
0f
00
05
ef
1b
f8
f3
0b
f3
ed
01
06
0d
fc
ff
f4
12
0f
0d
fa
14
f7
07
fa
08
0b
0e
fe
f2
0e
05
23
03
d8
ff
ea
fc
05
00
ee
16
fd
f0
ea
e5
ed
fc
01
20
fb
fc
f6
f5
f4
fd
fd
dd
02
0a
3e
06
13
fe
e9
06
09
03
fa
08
f0
f0
f6
ff
08
ff
10
2a
08
06
f2
11
0b
01
0c
16
27
ef
15
f8
29
0d
ff
f2
e7
0b
12
fb
fc
0b
f6
01
e2
fa
07
0d
f0
06
ea
fd
e9
f5
e3
09
07
01
06
1b
09
fb
f0
05
f4
0d
ec
17
07
00
14
06
e5
fa
03
0c
1a
ea
17
0a
17
e8
11
fc
f4
e5
10
fb
fd
f4
e9
f6
12
13
f2
02
f6
21
06
05
f7
08
de
ea
13
01
05
00
12
e8
fc
11
fc
0a
1f
06
0a
08
01
04
f4
f8
f3
0e
fe
fc
e3
e4
15
06
01
f7
08
e4
12
2b
01
fa
fb
02
0e
ee
e7
1f
08
dd
fa
10
15
fb
0a
09
fd
09
0a
f4
e3
eb
01
f6
15
f3
13
17
fd
dc
28
fe
02
eb
03
0f
02
0b
12
f7
f2
15
10
d4
04
e8
e4
fe
2c
0a
e7
00
ec
fd
ee
0d
bf
fa
0d
f9
0b
f1
0c
32
11
0c
16
fd
f7
17
f0
ec
f8
0d
1a
23
dc
e6
ea
ff
fd
04
f2
fe
09
0e
17
cf
e8
e6
10
e5
00
10
0d
27
0c
05
fa
05
ee
0e
ec
07
0e
d1
0b
19
f6
0b
fd
13
fe
e5
36
f7
e3
04
f0
00
fe
f6
e4
d9
ed
08
1d
ff
ff
02
10
fd
f8
f5
08
ed
2d
0b
f8
e7
f4
ed
06
0f
fc
05
00
1d
fc
f3
02
fd
00
12
e9
ee
e8
0d
0a
17
fa
fb
03
ee
06
ff
13
09
0c
00
10
0f
fa
fe
0b
0e
e5
ef
c1
0f
03
ff
13
00
0e
01
08
e3
e6
07
05
f1
fd
fd
1e
eb
1a
15
3a
cf
1a
e8
dc
02
e5
e0
f8
0c
01
01
f3
27
fc
0b
12
1a
ee
d9
f8
f9
f0
f4
0f
03
e8
de
01
f9
fb
07
fc
15
d4
14
f2
f3
0c
23
24
11
f2
04
e3
e7
e7
fe
db
e2
05
0f
f7
06
06
1a
05
e0
03
06
ea
0b
11
0e
fb
fa
f7
de
e0
f3
f6
01
eb
f3
21
e8
0e
18
07
15
e7
f5
06
05
f8
f7
f8
11
fa
ff
fd
23
0f
f8
f2
f1
f0
20
05
01
11
d9
f6
03
01
00
07
fd
0d
06
0c
f1
11
f6
05
1b
eb
ed
15
06
14
0d
06
08
e8
13
08
1e
04
0b
10
e3
0d
10
fd
ec
e9
e9
17
e5
12
fa
f0
03
00
f9
e4
02
18
f7
d8
df
0e
fd
f0
1b
12
f0
0d
e6
06
ed
f8
e1
cc
e7
f8
08
07
f8
01
d3
07
ff
e9
0d
07
fa
00
13
e8
0d
ff
fb
12
0e
fa
f2
e6
0e
f1
e2
ed
0f
14
fc
ff
f9
f4
f6
09
0d
15
01
03
0e
df
16
0d
0e
07
f1
1c
14
02
e4
00
fa
10
13
17
f0
06
0f
01
e3
fc
10
23
f6
00
0b
0c
0b
f1
0f
f2
05
ef
0e
01
29
de
09
07
09
ef
ff
0c
13
10
01
1d
fb
f8
03
db
1a
21
17
03
03
12
fb
ef
ff
f0
f8
1d
e3
d9
0b
10
fc
03
fa
e1
f3
1c
ef
dc
fc
f1
09
fc
12
fe
0a
f1
f6
04
eb
2b
15
03
fb
07
e4
f8
f0
ff
f3
19
0f
1d
13
f9
fc
ee
f7
04
ef
f4
f8
dd
0f
05
00
0c
e6
1e
05
01
e7
e0
f1
fa
fa
f3
fa
1a
05
f1
06
08
16
f2
fe
21
01
18
e4
01
17
ec
f4
09
13
0a
e8
1e
10
02
0f
fb
f4
09
e8
03
03
10
0f
09
0d
ee
f0
de
e7
0c
0c
0d
11
0e
09
0e
fc
fe
23
f5
ff
05
13
0a
28
00
07
fb
01
17
10
db
03
f6
0e
14
f9
15
06
05
15
f8
f7
f1
07
ff
fb
e3
f6
f2
e7
0c
fb
ed
f5
0d
ee
ef
20
dd
0a
17
06
0c
0b
07
15
fe
fe
fe
fb
12
21
f5
ea
02
e9
e6
f4
fc
0e
fe
f5
ce
e5
ff
e9
1a
fc
fe
ee
1a
f6
ea
ed
01
0f
f5
0b
15
01
e0
0d
e5
16
d8
f4
cb
ff
f3
0b
fe
dc
f5
f5
13
f4
ef
f0
fd
22
f6
fe
fe
06
01
06
dd
0f
e9
1a
ec
eb
fc
06
16
f2
07
ff
f6
1f
f4
0a
de
e2
02
fe
f6
fd
11
f2
f4
15
dd
29
da
e9
fb
fd
05
f0
0c
04
07
fa
0e
f6
02
06
ec
00
15
df
f1
ea
f6
11
24
15
1c
10
fa
0f
13
12
0b
fd
07
ed
f8
fc
14
1d
1c
0c
14
ee
15
08
0b
05
dd
f5
12
09
f2
f5
0c
05
fc
ec
f9
07
f5
25
1a
ff
14
f6
05
14
fa
fd
f9
c7
0b
01
fa
e9
ee
0b
f7
fc
e9
10
01
d8
fa
ed
ca
fb
fc
f7
1c
ff
e2
1b
f1
05
fc
fb
f2
18
0a
fd
0a
05
17
0a
04
20
f9
df
13
08
ed
08
f1
14
0d
f8
1c
e9
fe
f0
06
da
0a
17
0f
f7
fc
0b
f5
00
fd
01
07
f1
e6
f6
0f
06
02
ec
12
13
09
09
02
0d
1f
16
e8
f9
10
03
f9
f5
f3
f5
f5
04
ef
09
1d
02
07
16
16
00
f3
f5
f1
f3
10
0d
0b
05
e4
04
f0
0e
f8
02
29
f7
11
25
e7
06
05
0b
e4
f9
f4
e0
04
07
fe
0b
0e
f1
0b
fe
0b
eb
cc
f6
f9
24
12
0d
ec
0a
f2
e6
fe
fc
0d
10
fb
04
f0
05
21
e8
fd
19
eb
e9
1a
fa
01
fa
f6
fa
07
f3
03
13
09
10
09
2d
f4
29
e6
11
12
ed
1e
00
2e
01
fe
ff
11
13
02
fa
f0
e7
ea
0c
0f
f8
11
00
01
05
07
dc
ef
11
e6
08
fd
f1
f4
e8
0c
11
d8
eb
09
ff
ec
ff
fd
21
17
e9
0a
f2
12
fc
ff
f4
fc
1c
fe
e2
e3
0b
d4
1d
f2
03
f2
1d
ee
fb
ff
3b
29
05
12
08
01
1e
fc
15
1b
e6
ee
1a
ec
26
02
fe
1d
2c
f2
f2
1f
07
f4
cf
f7
f4
e4
01
f4
15
29
e7
14
de
15
fe
02
10
e5
0f
f6
15
ef
fb
e1
fd
ec
03
25
fd
05
fe
1b
1e
20
ff
fe
01
f9
1d
06
0d
e7
0c
ec
03
f0
12
ef
ec
14
02
08
04
03
da
e0
01
f5
f2
f4
09
08
01
fc
ff
03
0b
05
fd
ee
0c
0d
ee
fd
11
06
1b
f4
fe
14
00
eb
0e
ff
08
e8
00
f6
e0
f2
1b
19
24
06
03
f9
17
19
1c
18
00
ed
1d
11
f3
00
e8
f3
22
f8
fa
06
fc
13
07
02
ea
0c
e8
f6
0b
f8
df
f5
fa
1f
02
0c
0d
06
07
fb
0c
e5
1b
0f
02
f6
0f
0c
fb
0f
01
fe
ea
f0
ef
f6
05
01
16
0a
f7
24
04
0d
0b
fb
08
00
ee
fe
18
ee
df
e5
e4
05
0b
08
fe
00
f4
0b
10
06
0c
02
13
f7
ee
f1
f9
01
e9
ee
ea
10
14
eb
02
0b
17
04
06
f9
01
e8
01
ec
fe
f0
02
19
ec
13
e6
f4
ed
e9
23
ff
e4
fe
03
00
f4
f1
e6
ec
02
03
0e
f7
00
05
1e
f7
1d
fe
01
01
f3
04
e7
fe
17
0b
f9
fc
fd
e3
04
fc
08
fb
fa
02
09
07
10
f6
f7
01
f3
fa
f7
0c
09
e6
01
f3
ea
09
04
ff
e3
ef
fe
17
06
21
f4
04
0b
06
10
03
f8
09
15
ed
f8
12
07
04
09
f1
15
ec
fe
cf
13
ed
ef
f6
d3
0c
19
f7
02
00
2b
06
00
ed
f6
f2
e8
0c
eb
0e
0c
e9
fd
e0
04
f8
f8
f8
0c
e2
06
03
02
f6
01
14
1c
e2
e1
ed
03
01
f5
f3
f8
fc
fe
08
00
16
05
12
02
e8
01
0c
e4
0d
07
ef
f0
0f
2f
f1
0f
02
df
f9
03
11
27
28
01
f2
13
f0
f8
f5
de
13
0e
08
05
0f
0e
ef
0e
e1
f3
0c
f8
f2
fa
f4
f9
f2
1b
eb
df
f8
0b
f7
1f
fc
11
2b
36
05
ed
ed
e8
1c
19
03
0d
ec
fa
d3
f8
fa
ef
d7
f4
13
ff
fa
f5
ef
ff
fa
eb
05
03
ec
13
0f
01
0c
05
25
f5
04
f1
fe
03
f4
02
0c
08
e2
15
04
02
01
01
f5
fa
f7
f3
03
0b
04
f0
04
10
fa
0b
fb
fd
f3
0e
fd
e8
fb
e9
03
ef
13
0e
f0
16
f3
eb
e1
fd
04
ea
04
07
18
09
0f
fe
04
f4
f9
13
04
fa
02
16
d9
ed
ec
f1
0f
f7
01
f1
f8
08
f4
02
0f
03
f5
f5
02
d4
0f
fe
fa
ed
ff
ff
de
07
f9
ed
f1
03
da
14
14
15
14
02
f4
f6
f7
0c
07
04
09
fe
ef
f2
f2
11
0a
0e
09
1a
f4
ef
12
0c
0d
00
14
fc
fc
d0
0b
08
14
10
fc
16
fc
0a
02
ff
fd
f2
f2
0d
fb
db
25
01
0e
e8
0a
e7
0c
ef
f6
1a
f8
e5
13
11
07
01
f6
08
f3
13
fe
ce
1b
e9
1a
0d
0d
0e
0a
f0
0d
01
0e
f5
f0
0e
16
ee
0b
e9
04
ff
ea
00
03
2b
fb
f5
1f
07
01
16
11
0e
fc
05
fd
07
ed
01
12
00
ff
05
f5
f2
09
e7
12
0a
04
f8
09
fa
19
16
00
fe
f5
f6
f3
f8
02
10
13
1b
e4
ee
0c
f1
ee
fa
fb
d5
08
e9
ff
f0
fa
0f
23
fd
f5
07
08
fd
f1
f6
d8
e2
1c
ff
05
0b
00
f1
ec
fe
05
09
08
02
f5
0c
e7
dd
07
0e
f6
f1
ef
13
f1
fa
ff
18
ea
07
f6
d4
f7
f2
f6
e1
04
fc
1f
fa
22
05
ff
19
03
11
f4
12
ef
1b
f9
ea
ea
0a
f9
04
ed
fe
eb
09
f7
12
17
01
ec
1e
fa
07
f4
f6
f9
f7
ed
e4
f1
f4
03
08
1a
06
0d
f0
f3
0d
0c
08
e9
03
e9
f2
f8
fd
15
0e
dc
00
f7
1d
fb
fb
f1
02
06
f2
e9
02
eb
fa
09
f9
ef
08
2b
10
ef
12
e5
fd
f7
f4
f7
d8
04
f7
e3
02
14
f3
ff
22
f5
06
31
00
00
11
fa
01
08
07
f8
f7
00
18
f1
02
04
09
d8
ff
0b
0c
02
1e
f4
f6
e5
15
18
04
e5
02
25
fd
0e
03
fd
03
f3
f0
01
fd
fe
e3
fc
14
fb
fe
04
f1
01
06
14
0c
02
1d
ee
03
ee
fe
f8
fe
ff
fc
08
f8
0f
0c
0e
e5
f3
0f
0a
0e
16
0c
16
00
19
f1
fe
08
fe
f7
fd
0f
ea
ff
f5
08
09
eb
19
fa
07
dc
ee
eb
02
0a
15
24
e9
06
18
ea
e3
0b
fb
19
fd
f5
e3
0a
1b
0a
03
0e
05
06
f1
fe
06
fc
db
ff
e7
0f
f0
ed
f9
f5
09
f1
07
f5
ea
16
f2
10
f5
13
ec
03
07
04
f0
14
fb
ea
ef
1d
fc
07
f7
09
11
e0
f1
19
f7
e9
07
17
f4
06
dd
ee
e3
fd
f6
f5
13
03
07
f1
e9
fd
f7
0c
09
18
18
e7
f1
03
04
1a
07
e3
e8
ef
17
09
17
07
08
10
f3
f8
08
07
07
00
1a
f8
e4
f1
e6
f1
fd
04
ef
ef
0d
05
f0
1c
01
fe
fe
f6
10
f2
f7
10
0b
eb
06
eb
ef
eb
ee
fa
ea
f6
f2
e4
03
15
f5
05
fa
08
10
e4
eb
fc
e5
ec
0c
16
05
eb
09
00
02
fa
fa
f7
17
01
04
00
fc
f5
e8
eb
05
05
e3
05
ef
fe
f6
f9
d9
e7
1b
fa
fd
0a
15
0e
f8
ec
03
1a
ee
0c
04
13
10
ff
e2
f7
fa
14
00
ee
07
f8
03
0a
f4
d8
fd
0b
f5
18
f1
07
0a
17
f5
08
14
12
05
e3
fb
f5
f0
f7
f6
06
f8
fe
01
0e
f3
ff
06
03
01
26
03
f5
10
f5
02
07
00
fa
05
ea
01
0d
f3
02
05
09
fa
09
1a
1e
f9
f4
09
e4
ff
ff
21
01
04
03
00
ff
ff
0b
05
fd
05
f6
0a
00
1b
19
fa
0c
f5
0c
f7
02
f5
e6
01
18
f2
06
f1
f6
20
fe
02
17
f6
e8
f9
0a
f6
f3
16
ff
03
07
fc
12
19
f3
ee
06
f3
fd
ee
0f
e8
ea
f7
16
01
14
f1
08
24
03
1b
ed
e6
ee
ed
09
0b
06
0e
07
f9
f7
08
09
fa
07
fc
ff
11
00
00
00
0f
09
21
0a
0e
fc
03
04
e5
f6
fa
d4
0b
f9
f8
01
ff
3c
2c
fc
d5
1a
04
04
f4
ee
f4
10
f9
f1
fa
0a
08
04
00
01
05
05
05
0d
06
f5
18
09
f9
f7
06
10
fd
ef
fe
1b
00
fd
05
fe
18
f7
06
fd
fc
06
08
09
f9
07
13
04
00
10
08
e7
01
ef
fb
11
fe
1c
e7
e8
12
19
02
f6
fd
fa
13
01
03
07
f8
06
0a
0a
ef
1d
15
12
03
1b
fd
0f
0d
21
18
00
fa
05
00
02
0a
00
14
f5
0b
fd
e2
22
f4
f0
f3
21
e6
00
ef
0e
0b
fa
1a
09
ff
0f
24
ee
f7
14
f3
0e
f1
f4
f5
15
2c
2b
0a
03
18
fb
ef
12
fb
10
e9
19
04
07
04
1a
0f
f8
e3
04
17
02
eb
fd
02
2a
f9
1d
f6
e5
03
01
eb
fd
01
fe
12
08
fc
ee
ef
03
fb
fe
01
00
11
f9
e3
ff
f7
f0
fb
06
e6
06
0b
00
21
fe
1f
01
03
03
0e
01
05
cf
05
03
f2
14
fe
f1
fd
00
f0
09
df
fc
09
05
d8
e9
0e
e6
06
ff
e1
10
f6
00
04
04
08
fc
da
06
05
12
01
f4
1c
e5
f3
12
f5
df
14
12
1d
fb
f2
09
f5
f8
0b
ff
fb
f8
05
f4
f9
07
fd
0a
05
f3
0e
01
04
fc
10
fc
10
00
ed
0a
0e
f1
05
20
fe
01
18
fb
0c
03
08
03
19
10
fc
ff
06
f2
0a
11
22
e8
e5
ed
08
fe
f7
ed
e7
f2
ff
03
07
0b
e8
fc
e3
07
f3
e8
f4
fd
06
0f
f5
f2
ef
05
10
08
f2
09
f4
00
fd
ff
1e
ee
fd
eb
19
d1
f5
0e
ea
f8
0c
ff
12
12
d9
14
12
09
00
f2
0f
0d
15
16
03
1d
06
15
12
ff
07
06
05
18
01
14
e4
f7
fb
00
f7
18
ef
f7
0e
0b
f9
f9
14
f8
e0
e5
f5
dd
f8
00
ea
05
ff
f9
22
22
18
f3
1d
00
11
fb
fc
09
03
0e
ee
13
1a
fa
f4
e9
1b
11
f8
03
fb
ef
0b
08
0b
f2
16
e5
f1
0a
f8
1a
f3
23
f4
03
0d
17
13
03
d6
de
f6
f0
f0
ec
0c
10
03
15
0f
fd
29
07
01
fd
e8
eb
e6
09
fc
02
0b
1d
06
f6
09
12
01
08
f1
0b
fb
fb
fe
f7
0b
ef
04
f2
e9
f5
f1
06
fe
f0
16
07
f7
0a
fa
06
ff
ff
01
1e
f2
06
fc
19
06
13
12
f8
05
08
e1
0c
fb
f7
05
0e
fa
fa
f7
12
03
1d
fd
0e
e8
05
10
fe
10
18
0d
ff
f7
06
f9
f0
f2
e3
f8
f8
ec
08
ed
06
15
14
03
fc
f4
e7
10
ff
fc
0b
00
0a
0d
0b
f1
f1
14
0e
04
05
17
f5
e7
f0
f9
17
0a
08
e6
fc
f6
12
ec
0f
14
fb
f1
f4
09
03
e3
e6
fc
fa
fc
f6
01
ff
e9
ed
10
f6
20
0c
f9
0a
15
18
fa
1f
13
f8
f9
13
0e
06
13
23
0d
0f
f7
1c
09
13
f0
ed
ed
21
f4
0d
04
01
ef
fd
15
00
ff
04
f7
f0
eb
ed
fb
f8
f5
02
0b
0b
e8
f1
03
1e
e6
0a
04
06
0a
d7
fd
f0
f6
0c
e4
d5
fe
f2
ef
ed
11
f9
e8
d0
09
fc
e8
f8
eb
01
0a
02
02
0b
d5
01
17
e8
2f
07
e6
11
f6
d4
fb
0b
ff
04
e6
f1
25
0d
fe
f0
2f
13
0b
fe
05
02
06
18
02
f6
07
0d
f0
17
ec
e5
0a
0f
0c
07
ee
0e
10
fb
eb
f8
fd
07
f8
09
06
e7
06
fe
0e
08
f8
0d
e4
fa
0a
09
f8
fc
03
fa
18
19
fb
05
f3
ec
0d
e9
0a
05
07
0e
fe
f5
07
f7
04
06
07
02
0e
f2
00
0f
da
fd
d6
0b
ec
fc
03
f3
f2
f9
fe
07
08
11
10
00
02
fd
f6
f4
0f
fa
ed
fd
0b
17
f1
03
f4
f6
ff
04
0e
e7
f7
02
fc
f5
f3
fc
07
ff
0a
fd
f5
18
f0
0f
fc
0e
24
0d
ee
fd
f8
fb
e0
ed
f7
f4
09
03
f3
0e
e1
15
fe
f6
07
1b
12
fe
0b
00
01
f5
ff
ff
f9
18
0b
fb
ed
03
15
e2
fc
fa
0b
21
0f
10
fd
fe
fa
02
ec
01
1b
f7
1e
fd
11
fe
03
1b
16
e5
f9
05
e6
07
02
15
04
fe
fe
0e
08
15
f9
e4
0d
14
fa
f0
02
f4
19
fc
f3
12
f9
0e
10
f9
00
f3
19
fa
08
06
f3
fd
01
15
f6
0a
05
f8
fb
f3
e6
f1
0f
e7
25
fa
13
1a
e1
1a
13
f6
f2
05
08
f2
d3
fe
0b
15
09
1b
01
ef
0d
07
ea
06
fa
0c
11
fb
1e
e5
ea
08
ee
f2
f8
09
fe
e8
05
fd
04
04
02
f5
06
00
f2
ef
04
04
0c
fa
e8
fc
01
f3
11
21
fe
0c
06
0e
08
02
f7
04
1a
05
1c
0e
11
10
1e
0d
f7
06
f9
09
0e
0a
f3
fb
fb
ff
fa
0c
fb
fb
1b
10
18
13
eb
05
05
fa
f6
f4
1c
00
e6
0e
eb
06
f5
10
05
03
e9
10
1e
30
15
f0
f9
dd
ef
f4
09
f3
eb
fd
18
12
d7
f0
10
f9
04
04
02
e9
20
c5
e2
14
ed
23
07
fc
f0
0e
fb
ed
04
01
00
f9
13
03
f7
fe
ce
17
19
0a
fa
1e
fe
fa
13
f3
ee
03
01
f6
e6
06
ea
0a
17
ef
e4
fb
0c
f4
e3
0b
fd
24
e0
fc
f6
f6
f7
19
03
06
03
d8
07
04
ee
01
03
01
e7
f4
13
19
f1
f8
04
e3
15
f1
05
1e
f4
25
ff
12
01
0c
09
17
00
13
05
fd
08
fe
10
0c
05
fd
10
ed
08
f3
e4
f6
0c
14
00
10
00
0c
f7
ef
01
2a
00
14
e7
0d
16
18
0f
12
fb
0b
fc
f2
eb
da
f9
03
11
d8
17
09
f5
12
f3
e8
1f
fc
10
f8
e6
1d
d8
ef
0b
0c
21
09
03
08
33
f5
f1
09
fc
e4
22
2c
f6
fc
16
e1
02
0c
fa
07
ed
15
fe
06
ff
0f
00
28
03
16
f0
03
f7
ee
f3
2a
12
1c
ff
ea
fb
08
06
fc
f0
ef
03
ee
f6
10
06
07
12
f8
f1
f9
09
12
f5
20
0a
09
e0
f9
13
e3
0f
0a
07
d5
03
ec
0d
ee
d4
16
f9
1e
13
09
03
0a
07
e1
f4
e9
f7
07
0a
f6
eb
ff
f5
03
0b
16
f8
01
fa
05
f8
1a
0f
0e
f1
fb
10
f2
f6
fa
04
f7
06
0c
e3
ef
21
08
13
db
fb
08
12
e6
0b
00
fb
16
00
e3
fc
0d
ec
0e
f2
0b
eb
02
f3
0c
f7
00
ef
08
df
04
fa
07
ef
ff
0d
f3
15
f8
f9
ef
05
20
0b
f9
e0
08
17
07
0b
07
1a
ea
06
dd
15
1f
ed
fc
01
14
05
01
07
0f
fa
2d
ef
00
27
23
19
f9
03
fb
07
01
e8
f5
f3
f8
0b
fa
11
0b
de
ee
f9
22
f8
0c
0c
0d
de
1a
eb
0d
e3
04
f4
fc
e9
0e
19
0d
f0
f7
05
e7
fd
f8
e1
0e
0f
f7
0d
fb
ec
0d
e4
f0
f9
db
e6
e3
01
07
ff
05
20
09
f9
16
f7
06
e2
10
06
19
19
06
0b
f6
f7
ef
ec
fb
fd
ee
01
17
00
00
ff
1a
f4
f0
ec
0d
1f
f0
e8
0f
de
f0
df
fc
02
fb
f3
02
0c
18
3a
ff
01
f8
03
12
f1
ed
fe
ee
f1
17
0c
03
04
05
fb
02
03
df
f5
ff
10
f0
f4
ef
e8
ec
06
04
10
f4
e5
0c
00
f5
f1
0a
0e
fa
f7
01
0e
19
e4
ee
10
0d
01
19
fe
ea
f5
f8
0f
eb
fb
03
05
05
ec
08
26
25
11
e9
f6
fe
f4
fc
fa
dc
1a
10
05
f1
f5
03
fc
f2
05
ef
ff
f5
e8
12
f7
eb
0e
ea
07
f6
05
14
1b
eb
17
f2
f5
f6
e7
f5
de
eb
ea
07
26
f1
13
01
0c
11
0d
df
ee
0a
e4
f3
15
25
04
d9
fe
0c
06
14
ef
fd
f7
20
13
f4
0d
0e
00
05
fe
04
0c
01
1f
1c
fe
dd
f4
fb
ff
11
f9
f8
1d
f0
03
20
e4
00
ff
05
ec
0c
fa
00
f2
fa
c5
fb
e6
db
0e
2e
11
07
22
0b
0f
f4
ee
df
de
e1
f7
f2
0b
22
03
11
09
04
ea
e4
fd
17
1a
dc
fa
14
f1
13
23
fb
fc
ff
fb
06
f8
04
f3
ea
f8
f7
11
0b
0d
09
f6
fc
16
13
eb
0a
f6
20
10
10
ff
15
1b
08
ee
f8
fb
f7
27
f2
18
ed
19
f9
fe
1e
fb
12
06
cc
18
04
2f
f2
f3
0b
ff
18
eb
0f
fd
f0
05
0d
0a
0d
1d
0e
e0
e5
fe
eb
f7
da
ea
06
e0
1b
0f
01
f2
0e
03
24
df
01
f6
0e
0a
f4
fc
fd
fa
fc
18
05
0f
07
05
00
ed
08
18
fb
f1
09
f4
17
15
1d
06
ef
07
fd
0c
0d
10
e6
e6
12
ec
16
f2
f9
03
f7
fb
f3
15
13
10
16
f9
d3
05
0f
e4
03
14
f9
02
06
15
f1
f5
fb
1b
fb
15
f9
0b
fe
01
00
0f
04
16
1d
0f
e0
0d
fe
07
0e
05
13
ef
ef
0f
f8
de
f2
eb
09
fe
f0
dc
0f
02
02
1c
0b
08
ff
12
2a
ef
10
01
ff
0b
d8
0c
ff
e6
0e
03
03
0e
1b
08
04
02
09
12
eb
eb
f3
fb
02
01
00
23
0d
fe
ef
f6
03
02
08
fc
dd
e0
0b
fa
20
fb
f9
ee
e7
21
06
f6
ef
0c
ef
0c
fe
f8
08
ed
04
15
d2
f8
fd
fa
0c
f8
0a
09
0b
0f
00
fb
f8
f4
fb
02
0d
f4
00
14
fe
1c
07
f1
01
0d
00
f9
0d
f3
2c
f5
e3
d2
07
ed
fa
1b
25
0a
f1
04
f7
e1
02
0e
f1
01
01
0a
1a
08
e7
09
ee
09
f3
f1
0c
12
23
ec
fc
03
f7
d7
e9
06
fb
f8
fd
ef
01
f3
01
13
f0
07
fb
fe
13
ff
f8
04
05
fe
ec
fc
ff
f6
17
f2
15
fa
20
1c
e0
06
fa
17
ef
f9
e4
fa
09
fd
0d
13
01
02
fc
eb
fb
f9
37
f4
e0
0c
07
0e
11
09
0b
fd
f1
0a
f3
fb
f9
18
f0
f8
01
f9
09
14
fb
e2
00
ea
0f
f0
fd
02
1d
e6
f7
18
12
0b
03
1a
0c
17
08
e5
0a
08
1a
1c
ed
f4
fa
0b
fa
f4
ed
fd
eb
fd
f9
0b
ff
16
f7
03
0d
01
f3
fc
ee
fc
ef
06
14
07
ee
08
04
e6
e9
dd
0c
f1
04
1e
f6
ff
ea
ea
f8
ec
f0
17
04
fd
f9
0c
ff
eb
e7
14
0a
fc
12
eb
08
15
fa
ec
02
22
02
00
fe
fa
0a
1b
0a
da
f0
1a
19
f6
e4
06
00
09
e3
e4
fb
0d
02
03
0d
10
f1
fd
06
ee
11
1f
f3
f2
f8
ff
1a
f5
02
f8
1d
f3
03
f1
0d
08
17
15
f7
0c
08
f2
18
0d
0e
0b
f7
1a
1a
08
f9
f7
ef
e7
f9
f0
fb
05
04
03
0e
f7
07
f9
16
e8
01
00
eb
ff
02
2b
09
ea
10
fb
09
f1
0d
11
15
05
1f
09
02
11
07
00
0a
e7
24
f6
e9
0e
01
ff
fc
03
0e
09
31
e3
08
ee
fe
ff
10
04
0f
0c
04
ff
1a
22
fd
ee
f6
fc
1f
19
0e
1a
02
f8
ec
f8
0f
08
11
fb
1f
fd
16
eb
05
f9
0e
05
fe
f7
ee
e8
fe
0a
06
02
f2
f4
f4
fc
f5
ef
05
09
fb
01
04
06
0f
f4
f7
f7
f2
2f
07
01
e7
05
10
f2
e9
12
06
07
22
ec
0b
d3
fa
00
e7
f1
02
0e
eb
ed
ff
f8
08
25
06
fa
07
05
0f
fd
e4
f1
fd
11
ea
e5
f8
fa
0c
03
f2
f1
08
f2
21
f3
0a
f2
07
09
d8
e2
c4
08
d6
c0
03
fc
06
e0
20
13
06
f2
ef
f3
12
fc
0b
01
e5
01
00
e9
00
2e
0c
fd
07
f8
0c
f9
f6
ef
0f
f7
18
f2
12
fb
f5
2c
e3
fe
e0
08
03
22
fb
06
f4
12
11
0c
da
20
e4
07
1a
fd
01
fd
f3
0b
f7
0f
e9
00
04
0b
02
06
01
f2
f6
f8
00
00
14
06
17
f9
f5
1b
16
f9
e9
1e
14
11
07
de
f8
02
fe
f0
f5
02
08
03
fa
e9
f9
09
03
02
f8
09
e6
fc
f3
eb
05
09
ee
06
02
00
09
f3
f3
fb
f6
00
e7
18
ed
f0
ed
03
15
09
0b
0e
ef
f3
07
1b
f8
f9
ee
22
02
eb
e7
fa
e2
fd
e3
ed
f6
df
0b
f8
04
f8
10
0e
fe
01
0c
1c
30
00
f5
ef
fb
f4
ea
0d
16
ee
f3
01
0f
00
17
04
35
0f
d7
20
f4
03
f5
dd
e5
ed
f3
1c
00
f5
20
0e
df
ff
07
17
17
c6
e0
f4
26
13
fb
0b
fe
1c
ff
22
fd
f6
1b
1a
06
11
e3
01
f8
15
f4
03
e7
e5
f8
f9
ec
0f
fe
e7
12
e1
02
1c
1e
0d
fd
f0
f1
e8
08
16
0d
f3
11
00
fc
00
cb
20
dd
e2
ef
fe
12
d7
08
06
0d
01
e5
fa
e6
05
07
f3
fd
f5
18
15
e2
07
09
13
15
12
f4
02
f0
ef
f6
11
e6
e6
1a
04
0f
ef
f2
13
00
0f
0c
fa
eb
11
ff
fe
09
10
29
05
f9
e8
f8
fa
23
11
06
05
ff
fd
f3
0b
fb
f6
0e
05
06
0b
e3
f5
1b
f6
11
01
05
03
eb
0a
28
00
14
fe
fb
39
17
0c
fa
1a
fa
e7
03
10
0b
12
0a
fe
db
dc
f1
04
f8
11
01
11
e4
0d
1c
0d
07
15
26
10
0f
d8
e6
08
16
f2
16
f8
ec
2b
09
ed
01
f9
fa
15
ff
08
fe
09
13
fb
fa
fa
09
f8
dc
e0
06
19
fe
ff
f4
02
09
0c
18
f7
f2
08
15
0b
01
f4
fa
fe
f3
01
06
ef
13
e9
1d
0a
fb
0e
fd
ed
07
fc
ef
0e
07
04
ee
0d
fb
f7
26
0b
07
0a
ff
14
14
e4
0e
f0
ec
12
f8
ed
ff
f4
e5
0f
f9
11
fa
f9
0d
f1
f7
0b
eb
03
09
e7
fa
f8
dc
ef
f6
f5
04
03
f1
05
f8
0b
17
15
f8
11
04
33
15
fe
0d
07
f9
0c
de
ec
00
0a
ff
f3
fe
11
09
e9
03
02
f5
ed
fa
0a
05
f8
04
0e
d7
06
0d
ec
06
07
f8
fd
f8
fb
0b
fe
1c
02
fe
07
ee
ed
05
08
0b
f6
02
00
0b
0d
fa
f7
04
06
fb
0d
fb
ef
02
0e
05
fd
eb
12
14
f6
ea
0c
19
f4
f9
0f
08
f1
1f
05
05
e5
01
13
08
04
04
02
0c
fc
f5
1d
0a
f9
f2
fa
01
12
ed
da
12
f6
20
06
e6
f6
eb
04
f7
08
0c
f7
06
09
f6
04
e2
1a
0a
f9
06
d9
eb
fa
f5
f3
fb
03
1d
13
d9
fb
0a
fd
e7
0b
0e
f9
15
0c
15
f2
21
0e
d5
e9
fc
fb
ec
15
17
14
db
e7
fd
03
08
f8
ec
05
f3
00
0a
f2
ec
01
fc
0e
1d
00
0f
fb
0c
0a
fc
e2
fc
fe
f1
21
f5
14
11
f6
09
12
fd
d3
0e
f1
07
ff
ed
1d
05
07
14
10
1b
f5
14
fe
f4
f2
fd
0d
f7
03
e9
06
e5
f2
0c
04
12
eb
15
fd
04
f0
01
f0
0f
f9
ee
0a
0d
03
18
05
f3
0f
fd
1e
fd
1a
f9
f9
f6
fb
04
fc
f9
10
f7
06
03
01
1a
09
09
e5
03
f9
fa
07
e8
e8
13
f1
17
f5
13
07
e0
08
1c
ed
f8
10
ea
28
f9
ff
16
02
fd
0b
02
f9
01
01
ff
f9
ef
f7
10
f9
17
02
f2
f9
fb
f5
ff
0b
e9
0b
ec
03
26
f3
05
ff
01
02
0b
05
07
ed
e5
01
15
04
f6
f8
f7
e9
ff
12
17
ee
09
00
fd
13
ff
ec
0b
02
dc
fe
19
1c
0a
de
f4
f3
07
ec
f4
07
e7
1e
0a
04
1a
0b
0e
0d
0b
17
13
02
e3
08
02
e9
0e
04
2a
03
13
fa
11
21
07
07
fb
08
00
f5
04
15
e0
fb
de
f8
07
1e
08
08
e4
ee
03
ea
00
11
db
fd
04
fe
0c
f7
1c
26
1d
e3
e2
11
12
15
e7
18
09
07
02
04
fc
0e
ed
f4
ed
fb
10
e9
fe
00
0f
10
f5
0b
00
01
17
f6
02
04
04
fd
ff
fa
fb
f2
0e
f2
dd
0a
ef
f4
03
eb
0e
ef
d5
05
f9
0a
fb
d6
11
f1
ef
03
05
ee
e1
02
03
11
01
13
0b
f6
fd
02
f4
f7
0c
f8
24
fd
17
04
f9
fc
0d
05
fd
06
04
f2
f7
03
0c
0f
06
fe
00
10
20
f1
fd
ed
f7
04
f6
04
00
03
f4
01
07
15
ed
eb
02
0b
f9
10
0a
e4
1d
0a
e3
16
fe
eb
f4
f8
04
f8
09
2f
07
ee
0e
e9
f4
06
ef
ee
12
08
f0
19
ff
07
0c
fe
0b
0a
e4
f1
15
fe
0d
1d
04
10
e8
0e
01
ff
ed
02
03
08
f8
09
fc
f9
0c
ed
00
12
23
f4
f6
08
fc
ea
1e
04
00
1e
d3
0e
0c
ee
06
1e
05
f6
21
07
1a
02
ec
1e
0f
17
18
13
02
09
eb
ed
ff
e7
1b
02
f2
ff
00
f4
f7
14
ed
f8
fc
10
f3
f3
01
06
1a
17
08
dd
13
f7
f3
ed
00
03
f8
f2
fa
01
ea
fc
ee
06
f4
f2
07
f4
08
f5
0b
f7
dc
f0
fc
02
eb
0e
08
e9
07
0a
ff
01
05
06
16
08
f9
0c
ff
fb
05
f7
04
17
01
0d
03
f4
f3
0e
0f
17
e0
08
03
f9
f4
fa
0e
f5
f7
05
fa
fd
f4
04
02
15
00
fe
f1
f9
fc
12
fb
21
eb
00
dd
07
04
01
ff
08
f5
ef
02
05
e7
f5
f4
f7
fe
21
0b
fb
08
ee
fe
f5
fb
06
ff
e5
f7
ea
09
15
18
12
19
f3
00
e8
ff
1a
0c
05
fc
14
19
f9
fb
09
09
11
f9
e6
12
ea
fe
fc
1a
ef
0e
f4
f5
ff
f4
f8
ef
15
ee
10
08
05
09
ef
f6
f6
f2
0c
2d
fe
f2
f3
fc
06
26
09
24
14
0c
06
e3
f6
ec
f2
08
1e
e8
00
00
0f
f9
1f
04
e9
10
30
16
0b
f8
0f
ff
e7
12
ea
fe
fa
07
f8
08
ec
fa
0b
09
fa
f5
f4
ee
1d
f5
02
00
f3
04
06
06
00
ff
f8
05
05
02
f7
05
fd
10
fd
03
f7
0c
de
06
f0
1c
11
f3
12
0a
f0
0c
04
ee
e9
f5
f2
15
04
f8
fe
f7
f1
f9
fd
fe
00
fd
fe
0b
05
12
11
0f
f1
fd
f1
e8
f8
f7
f7
0a
f9
04
15
0b
0f
ee
ee
f2
fb
06
ff
f5
f8
01
04
fe
e3
f9
fc
de
f3
22
f3
ed
19
05
10
10
12
02
10
03
0c
f5
e4
f5
04
f0
11
09
02
f1
f1
04
05
f3
f3
1b
ed
eb
fe
ed
10
13
e9
04
de
16
03
ec
f1
02
e9
15
00
fd
fe
0b
f5
00
ff
f4
0a
0d
fe
fa
1d
09
0f
ff
ee
ee
0d
0a
dc
fe
11
f4
ff
eb
0f
11
10
01
00
08
f0
00
f9
fa
f8
f2
1a
03
13
f9
ef
ed
ea
13
fe
05
f9
1d
f1
ed
f7
07
14
ea
fc
ef
07
fc
fc
00
0a
10
f9
f4
e3
e9
02
f0
ee
eb
f7
e7
e5
14
f7
03
10
fe
0b
f4
e4
08
e6
f9
08
18
04
e1
04
e7
fd
f3
ff
2a
13
04
ff
0a
f1
01
fe
fb
14
f5
24
1a
0e
13
06
00
07
f7
f2
f6
0f
20
15
01
08
e5
10
f4
ff
0a
06
f5
18
f5
e1
f5
ef
ef
eb
00
fa
f2
08
02
ee
ed
ff
fc
f4
f9
ee
05
fc
05
e9
0a
f7
12
ee
e7
07
0d
e0
fb
1e
0d
0d
0b
02
f7
03
11
fd
03
14
0b
00
df
fe
ee
fb
00
f9
ff
f6
f1
07
0a
f0
fe
03
fc
04
f2
06
17
ed
e7
12
01
15
15
05
f8
15
16
f9
ee
e4
08
13
08
e5
09
fe
fc
10
01
0a
00
d6
ef
ed
09
00
27
ec
18
02
f7
22
07
09
f8
03
f3
14
0f
ec
01
ef
ed
fc
03
14
de
0e
21
07
0a
da
29
f7
01
f4
f1
16
ec
f4
1e
ce
03
f9
10
14
f7
0f
f1
f7
1a
fa
f8
fb
0b
eb
0a
01
fa
f0
fe
ee
fc
fe
10
03
0a
0c
e6
fb
fb
0f
f9
e1
de
f8
ee
f2
fb
10
ec
ed
0c
07
fa
ff
32
fe
26
31
06
13
d6
d6
c9
10
f9
db
e9
12
fc
fa
f3
ec
ee
ea
df
f5
01
f1
fa
f9
f7
ef
f5
1e
f5
fa
f1
1a
d7
e8
f5
da
35
19
ea
0a
f9
ff
1a
f3
20
fd
11
18
10
15
12
00
12
e6
ff
f7
06
01
09
f8
02
01
00
fd
f5
0f
fd
e9
fb
fb
05
14
0c
ff
f0
0b
15
0e
1d
f2
0a
06
e7
f7
1c
f8
06
fc
ef
10
03
13
f2
de
03
f0
0c
0c
f2
f9
f6
09
f5
07
05
0c
13
e6
fd
fc
f5
0c
07
0f
f8
f7
02
fb
02
eb
f0
f4
eb
e8
00
f8
10
fe
fe
fe
e4
07
11
12
e8
00
f3
fb
17
10
fb
fa
e3
fb
ea
f3
14
11
f2
09
08
ea
e0
ea
21
f2
ea
02
0b
16
ff
fe
f8
f1
05
01
17
e6
1a
f0
f7
e5
e9
18
01
05
01
09
1c
14
00
18
09
0c
11
03
ec
01
0b
08
14
01
fd
02
09
f2
1e
11
eb
e5
03
17
e8
db
f8
ec
17
fb
0b
cd
1a
fa
07
01
03
fb
0e
f5
fe
fe
fe
f0
12
0f
07
06
00
f7
18
12
02
02
ec
07
e9
0f
10
15
ea
0a
17
fe
1e
fd
ec
0b
f9
ec
03
fd
fc
05
02
09
09
f4
05
04
fb
f0
10
fe
04
06
09
0d
fe
11
07
0f
0d
07
fd
ef
fe
00
f4
f8
f2
11
fb
fa
02
03
f0
fb
f3
f3
0d
f4
f8
e9
f5
0b
fa
f5
02
f8
12
0d
f4
fa
11
fd
21
11
03
fc
04
09
07
04
1a
f8
13
04
e8
f4
20
fa
ff
fa
e7
f4
ff
02
24
f9
15
f0
fa
f5
1c
0b
10
1e
15
f8
fe
11
18
fe
0a
fa
19
fd
fe
24
fc
f8
e5
fe
ff
1c
f9
01
13
21
e3
15
11
f8
01
d4
e9
de
02
ef
f7
02
ef
05
ef
01
12
d9
fb
eb
f0
07
00
01
0b
0a
05
fd
04
e5
02
05
fa
f7
14
26
ed
0a
0d
07
11
f6
24
fd
fc
18
0d
0e
03
00
fe
04
0b
08
01
10
11
08
f2
00
0d
16
fa
0c
eb
0a
16
de
01
ed
0a
06
fa
fa
f6
ed
07
03
01
e2
ec
fc
fd
00
28
10
fb
e7
02
e2
f3
0a
d7
0f
02
df
fd
cb
fc
04
f6
df
07
fb
f6
04
fc
06
02
f7
f2
05
f7
f1
00
ff
11
e6
fe
05
0d
09
16
ec
fe
00
03
10
09
f7
e5
d2
d9
02
02
f2
0a
ed
df
12
27
2b
f9
f4
f6
f7
13
fc
04
15
ee
fe
14
17
08
f2
14
27
f7
f1
fd
03
0b
ed
f5
0b
09
00
0d
fd
0c
05
1e
0c
ea
16
18
00
07
ff
e2
07
03
ee
fb
03
fb
fd
18
fb
e7
02
0c
0c
0d
06
0c
02
09
21
ed
f8
e7
fb
ec
11
fa
25
e3
f6
0e
14
f8
18
fb
fd
0c
cd
00
e6
09
f9
03
09
01
ec
ff
03
f0
11
04
24
13
fa
12
12
f2
0f
0e
0a
f9
f6
03
0b
07
fa
16
f4
ff
03
db
00
f2
01
f2
09
ff
07
f3
07
f8
f7
ec
08
0a
f4
14
f2
09
ee
16
06
0f
32
e9
e2
04
f5
f1
0f
fc
08
f9
1b
02
0a
fb
f1
01
15
02
d0
fc
13
01
04
ee
17
04
10
ed
1a
d8
e6
ff
da
0b
f0
ff
0f
db
ed
cf
18
1d
21
fd
00
00
10
0a
fd
f7
fa
09
f5
e5
f3
ee
ec
23
ea
e7
05
26
e7
0e
ff
02
1a
0b
0e
09
11
2b
11
25
eb
e9
05
ef
0d
04
e5
01
ee
07
0f
0d
ec
0f
f0
fc
09
01
f9
fc
0c
06
19
ff
04
e6
01
08
06
f0
0e
e8
19
08
fa
22
15
f4
17
0f
13
19
0d
e8
16
fa
f4
f5
03
05
0a
02
fd
14
ed
f0
f4
f0
09
e4
ec
00
fc
01
f5
05
05
0c
1f
04
dc
1c
f9
05
05
05
ff
f7
f0
09
0d
e6
ed
fb
19
f5
e1
e1
09
07
0b
e5
0f
08
16
ea
ff
ee
16
fb
ed
f6
07
e9
f5
f7
ea
e7
14
fd
f7
24
f0
f7
e9
ed
06
0d
19
1c
18
0c
eb
ee
0b
08
f9
15
01
14
0f
ee
1e
07
08
ed
0a
fd
09
f8
06
0e
ff
0c
19
f9
f2
f8
06
1c
eb
0f
d3
00
ea
0a
0d
f2
db
0c
00
b8
16
f5
f9
16
f0
e8
0f
07
fb
f5
16
fb
f5
28
0a
f3
f1
ee
fe
fe
01
30
fe
f5
1c
0c
e4
0f
06
f6
ee
fe
fc
1b
14
eb
f8
ff
18
f3
21
eb
13
e9
1d
00
0a
09
0e
13
eb
13
fb
16
0c
01
f3
00
11
f9
ee
1d
d3
01
1a
19
04
f6
f0
09
f2
01
ee
fb
ec
ff
eb
09
fd
00
d6
04
e0
07
00
00
ed
04
0b
fd
04
1e
05
08
07
ee
e4
0b
f9
03
f6
fc
f7
02
ff
fc
da
00
10
fe
f4
eb
0a
f0
05
fb
f7
03
1e
1c
fb
02
16
fe
ef
00
fc
fa
0d
18
0b
fe
f0
08
f0
0d
e7
08
0f
f7
04
08
fd
e1
07
fd
f4
00
02
ed
11
0f
2f
19
e5
09
f4
f3
0b
f4
ef
ef
1e
11
ea
fc
f3
0d
f5
09
f5
f7
18
03
14
07
02
00
e0
08
0d
1e
ef
fc
ff
f6
0f
ed
02
00
0e
06
fb
18
dd
18
07
00
ea
f0
25
eb
04
19
f1
fa
03
05
e9
19
ff
ec
eb
14
e9
1a
19
0b
ff
f8
04
0c
0b
ff
f9
14
14
03
ff
fb
eb
f9
ff
fa
e9
00
05
e3
fd
01
09
07
08
f7
01
f0
10
02
f6
f6
24
ed
e7
eb
09
d7
04
0c
eb
0b
19
fe
01
fd
09
02
1b
17
f5
fe
ea
01
00
fd
0c
14
f3
f6
10
14
14
e3
0c
07
14
f5
03
fe
01
fd
02
09
04
ec
14
0f
10
14
07
12
02
f1
09
fc
f2
fa
0a
0c
f9
0e
fb
d7
09
0a
e0
09
e5
09
0b
f7
06
0a
f0
f7
09
e5
05
ff
f7
09
f3
0d
f6
f7
fa
02
15
1b
f7
fb
0b
e5
03
02
f2
06
15
10
f9
e5
fd
10
08
0b
f2
00
ef
07
fa
17
0c
00
1c
ed
1b
0a
04
00
f7
0f
fe
e4
ef
17
f4
fd
24
04
15
1d
e1
0e
d5
07
14
0f
f7
21
00
fc
f6
f0
f7
0a
10
10
17
2c
0c
18
f3
e9
fb
f1
01
10
1a
f1
f8
00
0a
03
ff
00
fd
f9
e0
0c
02
0b
ed
00
1b
0a
04
0b
f8
04
fe
08
03
e9
21
0d
eb
fb
f6
ec
f2
fa
09
02
ef
10
f3
05
f3
1e
12
01
f6
15
ef
10
e9
00
f6
f8
f2
02
03
0b
05
26
fb
fe
ed
00
f6
04
fe
fa
05
08
04
02
f5
1a
fb
00
fd
01
f1
09
04
12
e4
ed
03
f0
08
19
09
ff
fd
f4
fe
0e
0e
f2
ee
00
f9
11
e9
09
05
f3
f6
fe
09
e6
f5
f8
f1
ff
18
fb
fd
f6
12
08
18
07
02
00
06
fe
dd
05
13
0a
fb
0f
f4
0f
fd
14
00
fc
f5
17
fc
07
ff
cf
fe
f8
ef
f7
04
16
0f
f0
ed
f6
f3
00
06
10
f5
ec
f4
06
02
03
ed
0e
01
22
eb
16
1c
1d
0f
02
0a
fe
0e
fb
f3
0e
14
04
06
fc
f4
dd
f5
ef
19
f0
0c
1d
f2
fa
f1
f0
05
2c
ed
ee
0b
05
f3
eb
0f
0f
0c
ff
da
ed
1a
eb
e4
fc
fd
03
f7
ef
00
07
03
05
fa
f0
0a
10
fe
02
0f
16
02
f6
f5
07
09
fd
19
fe
f8
19
1c
fc
13
0e
f5
ff
1f
fa
fc
0d
17
fc
dc
00
04
05
14
0e
00
09
ee
07
07
ff
03
13
fc
13
f1
ff
00
f6
fa
0a
fa
07
f5
14
fd
ff
f6
f1
06
ff
ff
0a
fe
f7
22
04
01
0d
00
ef
f8
10
04
f5
fc
0b
06
0e
e9
ef
07
fe
db
f8
f6
0a
f0
07
13
eb
f7
0d
f6
0d
03
fb
1e
09
fd
f4
00
06
02
ff
e0
12
ff
fc
01
f1
ce
11
ea
0c
f1
16
11
13
eb
ea
e7
07
f3
0e
da
f9
0e
fc
fe
e3
08
da
04
ff
0d
f5
16
13
fb
06
06
07
e8
07
f8
2b
1a
e9
f7
02
f6
03
00
1a
00
00
05
ff
f7
ff
0a
0f
ef
f8
0f
07
0a
0a
fb
fd
11
ff
e8
0e
12
fd
09
06
18
0d
12
00
0b
e3
f4
0c
01
fa
0e
17
03
f6
09
24
1d
02
1f
02
21
f9
12
11
08
0c
ef
fa
f6
19
e3
e9
e3
00
0a
e4
00
16
f3
28
f2
fb
fe
e4
0a
f3
f1
f7
f6
e0
05
db
ec
d9
04
12
f4
f1
05
f1
0f
fc
ed
01
03
fa
00
11
02
01
f9
01
25
dd
0c
10
f4
27
ed
10
ff
01
1a
1a
ec
f8
1c
fc
0e
fd
17
0a
01
f7
f2
fa
11
0d
f4
fd
1c
09
0b
fd
28
f1
12
d5
fd
f8
f9
d1
05
11
22
e8
fd
fd
db
1f
f7
1e
13
f4
0c
f5
0d
dc
e9
10
12
09
e5
ee
00
f7
e9
fc
ec
ef
e6
fc
fc
ec
06
f7
f1
0a
ef
05
d9
f2
0d
f8
f0
07
f5
00
24
1b
f3
16
12
14
13
0e
fe
fe
ef
ee
e8
04
f3
f3
0f
ec
fc
ed
f2
13
03
04
0b
01
14
f0
02
f4
0d
00
04
0c
0e
05
f7
f4
ff
ff
04
d9
03
f0
fc
f6
f3
eb
12
02
10
11
ff
07
fd
03
03
e3
f3
00
fa
e1
f3
fc
f9
f6
0b
f7
f7
f7
01
00
e4
05
08
02
f1
0f
09
09
04
ec
05
fb
02
01
00
1a
ef
00
0a
f6
fc
07
eb
0a
f3
fc
00
30
1a
17
14
07
15
0d
f6
14
f3
09
f3
ed
02
0b
f9
ff
0a
0e
24
03
19
0b
03
06
fb
e9
e3
f9
04
0b
23
1e
ed
13
f6
22
f9
ec
ff
13
1a
2a
fc
1a
fd
0d
18
fb
08
12
04
0c
10
0c
fa
00
0d
e6
fe
0c
24
ed
e7
fe
1f
ed
f3
16
e9
0a
1e
fd
ef
f9
0e
f5
14
1f
04
f8
dd
07
15
1e
03
20
d3
05
03
0f
fa
0d
fb
0e
01
0e
f0
1c
f4
ec
f5
12
f5
fc
00
e0
23
0e
e7
fd
1f
f0
19
10
ed
ff
fa
03
03
11
1d
ed
f0
16
1c
1d
fb
f9
0e
13
0a
12
2e
f3
1a
14
f4
08
0b
19
f7
09
2b
f5
07
ea
1a
07
05
14
f8
12
f1
00
e0
10
07
0d
d7
f4
f4
05
fc
0a
14
08
00
2f
16
fc
e6
f3
1a
1b
0e
e7
ff
f4
f4
cd
f7
1c
f1
fb
03
05
fe
01
01
fe
0f
00
fd
0e
0f
0e
09
f9
df
06
23
06
07
f4
fb
f6
09
0b
f0
f7
f5
0f
f7
fd
f2
f2
f8
15
fd
f5
13
ff
01
01
13
07
f9
fc
fe
fd
fa
fe
f1
07
fc
09
05
08
1d
fd
ff
27
fb
10
02
fe
f1
11
f7
fb
0c
06
19
f1
ff
17
f1
0d
0d
1f
1c
0c
fe
13
04
f9
08
10
df
07
fd
f1
0c
12
05
1d
10
07
0c
1e
00
f1
02
fb
fd
df
f0
fd
f4
0a
06
f7
f0
0c
1f
fb
1e
06
05
12
f8
06
12
0f
09
f8
03
0c
f8
f0
03
14
0c
f9
f5
0e
34
08
f6
00
e9
f4
fa
20
eb
e5
05
02
e6
07
f4
fc
11
f7
e3
1c
e6
06
00
df
fd
03
e5
00
0b
ef
1b
f6
00
11
12
2a
f4
03
0e
14
1a
06
f6
07
0c
e5
fb
08
13
06
ef
0d
04
19
fc
f3
eb
fd
f4
0a
07
eb
0c
00
03
f6
f8
f8
fd
e5
ec
12
f6
e3
18
04
fe
06
02
25
09
1d
0c
f8
05
fe
e7
e7
fd
05
ff
08
fc
07
19
f8
ff
13
d7
f9
02
fb
f4
0b
f1
09
f8
e8
26
08
0e
01
06
f7
08
09
ee
05
eb
f8
e9
ea
22
f4
fe
ee
0e
07
06
ee
f1
f1
f8
0c
07
fd
ee
f5
f7
fa
03
f0
12
fb
06
f2
19
0b
13
eb
d9
f3
f1
ef
0a
f3
ef
03
f9
0c
fa
f6
ff
09
03
fd
1c
f1
03
02
0e
f0
e3
06
09
f6
14
ff
0a
f3
05
f7
fd
19
05
fe
ea
09
e7
ff
e9
18
f6
db
ef
02
16
ef
fc
0e
f4
fa
0b
15
e2
fa
02
12
f6
da
14
e0
e6
ea
11
ed
03
1e
1f
1e
f2
fc
0e
f0
e6
f8
f4
f8
15
01
19
17
ee
0b
25
f8
0c
ed
ff
e9
02
fd
f0
f3
1e
f9
0d
f2
06
eb
ec
ed
fb
04
fe
f9
13
03
0a
15
08
0b
07
e2
10
08
f1
12
ea
f0
da
22
fb
f1
17
23
f9
0b
e8
04
11
01
14
0a
f5
02
f6
f8
02
03
de
fc
e7
e2
05
f2
fb
f7
f8
e4
cd
06
06
fd
12
fe
09
05
f7
0b
ff
01
09
f1
0e
fb
09
f4
0e
07
23
ff
1c
ee
07
fe
f1
fc
fe
09
f5
f5
f5
03
09
0b
08
07
0a
1e
02
12
08
f8
e7
11
04
d7
fd
18
18
01
1e
fa
06
fe
00
e3
0c
e7
f7
20
0f
f7
0f
06
13
ed
fc
f8
06
ea
17
12
f9
f3
0a
e8
f5
fb
03
f4
0d
ef
f5
03
0c
f3
f7
20
01
ed
fc
e5
fc
05
11
0a
0d
fd
fd
19
19
10
fd
07
0f
f8
0d
0e
09
0e
06
f5
fe
f1
02
f0
fc
01
fe
ee
1b
e9
08
fd
06
ee
f4
14
fd
de
16
f5
ff
07
01
10
14
eb
14
d7
fb
f8
02
ec
ea
26
f9
02
d9
09
f6
f6
13
08
0b
09
06
30
10
e5
da
04
1d
f1
0e
ff
d6
25
08
08
12
13
fa
13
e0
f9
fa
f9
03
ff
14
1a
f4
19
fe
17
ec
f9
03
ef
fc
17
f6
e9
fa
13
0a
04
0b
f1
f8
01
f3
f6
0a
12
04
e1
f2
08
00
09
f2
01
ee
03
08
e3
fb
f4
00
0a
f1
14
f3
0b
fd
19
10
17
16
ff
fe
fb
fb
fe
00
06
0d
04
18
f4
f8
f8
02
fa
e6
08
f3
26
fe
f2
06
10
17
0f
07
f6
27
11
02
fe
f1
02
03
13
05
f4
ff
08
10
ed
0f
f4
0d
f0
05
ec
f6
05
12
fc
07
02
fc
e9
03
f2
ea
f1
0e
f6
02
19
1b
0d
fb
ef
f7
05
fe
e0
f8
07
17
01
01
ef
e9
f8
fa
e7
11
00
02
ed
0d
f5
02
29
1f
18
1f
02
0b
05
e8
1f
07
0c
ff
d7
0e
08
e6
f1
fa
1c
02
fd
04
03
f1
06
fb
0f
f3
07
f4
14
ef
d5
fb
e7
1b
01
03
f4
22
13
09
fb
f9
06
04
18
11
f7
1e
0f
00
01
f5
15
04
08
e7
09
e1
f3
e1
ee
07
e2
e9
fc
31
f4
d8
e8
0e
16
ea
fa
15
f2
f6
00
f1
ff
f9
15
03
02
f4
05
ec
0a
f1
1f
eb
fa
18
f2
de
f2
ff
04
0e
f5
f2
e2
00
1a
14
17
28
05
0a
17
11
de
ef
0d
e1
ef
08
f5
08
13
ea
01
08
d7
11
ed
fb
08
0a
06
f7
04
fb
f0
ea
0b
19
25
0e
00
f4
18
12
15
f4
07
0b
23
e9
f9
07
08
1c
fa
14
14
10
00
f3
e8
24
dc
29
00
05
0a
0c
00
f3
ff
0c
e7
ea
0b
fb
07
10
ef
e0
ed
2a
d9
d9
fc
06
ec
0b
f6
db
22
14
ff
15
f1
18
e7
ec
19
00
0e
02
18
02
ef
fc
fd
f9
fe
11
fd
0c
ff
fa
03
f5
fd
08
fb
0b
ff
14
f6
f8
ed
0f
14
f4
ed
17
ee
fc
0c
01
f1
15
f2
ef
00
f9
e3
0a
ff
02
fb
12
f1
f0
09
00
ef
e8
fb
01
08
03
f9
fb
00
18
18
07
08
d2
eb
02
ea
0b
f9
14
17
f4
02
05
1d
14
f3
f4
e1
23
fc
05
f4
f8
01
eb
10
07
0f
f6
09
f7
fd
e5
f8
08
fc
fe
f6
0b
0e
0a
fa
ff
ed
0a
ff
0e
e3
fe
27
df
e4
f9
fe
0a
e8
03
f3
e1
f6
fe
f4
f5
01
e7
14
19
15
e9
12
12
ff
10
2a
19
ff
ff
07
d8
f6
0c
10
e7
22
fc
0f
02
0e
e3
d9
ed
f2
14
ef
0a
16
04
f7
fe
09
e8
e3
20
0e
fd
d8
07
fe
ec
b5
01
e1
00
0a
0b
00
d6
14
08
cf
f9
ea
15
1b
1c
e9
f4
e7
f2
e5
03
eb
fd
1c
f4
f9
f3
33
01
f5
fb
10
05
02
16
04
e4
ef
00
fd
05
04
06
06
18
14
f6
0d
20
ed
ed
fd
fd
f4
f4
01
0e
0d
f7
03
fa
27
e3
e2
03
04
f1
06
0f
f2
05
fc
1b
f6
08
07
fd
fa
f7
1b
02
fd
10
f0
06
08
f4
eb
fb
03
05
fe
01
10
fe
09
f1
eb
fc
15
04
01
07
fa
0f
01
f3
f9
09
00
13
11
fd
fe
ff
f5
07
05
12
10
fc
f7
d7
ef
ef
e6
03
e0
1d
14
fc
f9
07
21
e4
e9
fb
f5
10
16
01
12
06
25
fa
06
ff
08
03
eb
f6
f7
16
03
10
0a
eb
22
f5
04
ff
e2
00
22
fe
e8
fe
0c
34
09
07
03
fc
15
fe
0e
fe
10
de
fa
e7
f6
f2
f2
05
05
fd
fd
f9
f5
03
15
df
d4
07
fa
05
11
d6
f5
03
06
14
fd
0d
06
e1
fd
fa
fb
dd
1b
f7
fa
f7
f9
05
07
00
05
0b
fd
fe
0d
08
05
fd
f8
e5
07
f9
0b
fb
e4
16
19
ff
07
d4
fa
ff
f7
1b
11
15
0b
05
0a
18
f9
f7
0a
03
ef
04
1d
1a
06
f1
fb
0c
f3
05
f8
fe
f6
e9
fd
08
e6
0c
03
0e
22
fb
ed
f1
f8
08
12
0e
f2
f5
e5
fc
f7
06
e2
e3
09
06
f3
ed
ef
e5
e3
08
d7
e7
23
ef
e3
f7
fa
d5
ef
0c
e5
19
0f
11
1b
fa
e7
0c
fe
05
17
23
18
ea
15
ed
fd
fe
12
06
f5
fa
f6
19
fe
df
fc
17
11
13
0e
04
fa
02
e7
f8
08
06
ff
31
1d
05
e9
f7
fc
11
f8
eb
00
09
e3
01
09
04
f7
05
e5
fb
de
e6
e6
1b
ff
00
06
0e
09
07
f4
12
07
04
f7
1e
0c
04
ee
0a
12
05
f7
f8
e6
0d
f6
02
fc
f4
14
09
e2
04
e9
01
1e
ed
f7
09
1b
1a
17
ef
09
ea
0a
fe
04
d4
e7
1a
0b
fd
01
f7
fd
2c
f7
e9
f6
f4
01
0d
07
11
07
0d
f2
ef
1b
00
e1
00
0a
f7
f7
f1
ea
03
07
ec
0c
14
eb
e5
33
06
11
f7
ed
05
04
e9
f9
22
08
ed
03
f3
20
f4
03
04
f6
f2
04
f1
05
15
14
02
e7
20
00
04
10
03
0c
08
f2
f9
23
03
25
e9
ec
12
f7
10
f4
e5
01
e4
0c
18
0d
16
0c
02
0e
ea
07
e3
1c
0d
ec
1b
08
e4
14
f6
f5
f2
f2
2e
10
fd
08
f2
e4
0d
fd
e9
f4
ed
f9
06
0c
05
03
f8
06
08
f7
f3
f8
18
09
0d
14
03
06
f3
f3
f6
f3
ec
21
0d
f8
e9
06
2d
24
f4
0f
0c
17
03
fb
0b
ef
09
09
ff
f7
01
fb
0a
e8
fc
14
ff
f5
07
e7
00
0c
e9
f7
04
04
e8
fd
ef
08
1a
f3
06
01
ef
00
06
f4
f6
0c
f1
0c
dd
f9
18
1a
0c
0a
e1
f7
02
ec
e9
e5
04
01
0d
2c
0d
f2
ed
ec
fd
0f
fc
f1
09
14
0c
14
ec
08
ff
14
e4
00
f8
06
ea
02
29
dd
16
fd
f1
03
e4
08
08
0f
15
11
f3
29
f8
04
02
04
f3
0b
fb
14
f7
05
dc
0e
f5
f4
e0
08
fa
09
db
03
fd
02
05
05
08
f0
25
02
ec
d8
0b
f2
01
09
2d
ef
ee
f2
08
07
29
1d
12
14
07
fa
11
ff
10
00
fe
fd
eb
fd
1a
fa
ef
f6
11
1b
00
e6
1a
0e
10
ef
0d
f4
fe
f7
fe
07
fa
1f
f2
fb
10
f6
ef
0e
0f
1d
01
14
e9
0e
f1
fd
0b
e4
08
05
f0
f5
05
16
0d
fb
e9
07
0b
f2
08
fb
1f
05
f3
fb
13
f5
07
2a
fd
1b
0b
d6
f6
fd
f0
01
f3
ee
0b
19
f8
f2
03
0c
0d
02
0d
01
f7
e7
16
03
26
d3
07
f0
18
f4
ef
f8
fb
d4
1a
09
f6
fd
2a
02
e1
04
eb
18
f5
fb
f5
f9
06
ff
e9
fb
eb
16
19
06
f0
11
10
12
0d
00
ff
15
08
f5
0c
c6
d3
10
06
10
da
10
05
02
02
e1
f2
11
d2
1b
1f
18
ee
fe
14
f0
0a
fc
f8
09
11
01
07
ff
00
09
e7
fd
01
0e
f0
ee
12
0e
f3
f9
fa
0a
15
09
02
01
11
06
12
18
0c
e0
0f
fe
06
01
e7
f9
fc
f0
f9
15
ed
ff
0f
0a
f8
02
12
09
ef
04
02
f2
e3
04
ff
0f
15
11
ff
e1
09
ec
ec
ee
fe
01
03
ff
0d
f3
df
01
09
ed
10
08
fb
f4
f9
f3
ee
00
17
00
f7
24
e8
04
19
1e
00
fb
08
17
ed
02
fc
f5
13
f2
01
e8
f8
15
01
f7
0e
fc
fe
04
08
fd
01
08
fb
f5
03
07
02
f7
17
06
05
f6
0d
01
f2
e8
0f
fe
fa
0c
24
00
12
0b
16
fd
fa
fe
f1
fd
de
f6
f4
ef
08
e3
ff
fe
11
07
fb
20
04
fe
f0
f1
00
07
02
11
f3
fd
f9
f8
ea
fd
fb
f8
03
01
ff
05
fd
0f
f2
ff
fe
02
06
00
03
ea
03
07
05
09
e0
0f
ff
e6
d3
0d
0d
0a
f7
16
1d
e8
ff
fb
03
ee
0e
fd
25
f6
13
0a
eb
f6
fd
05
0a
05
e8
ec
f5
ef
01
25
05
07
f8
10
f8
17
11
fc
e2
f6
fe
23
05
09
2d
01
ef
04
00
08
0e
0f
e6
fe
eb
eb
f7
ee
0d
e5
f8
00
f3
fc
fb
ef
f7
ef
d4
03
ee
ec
06
00
ff
05
ff
16
08
e8
08
20
ff
f0
0e
fb
15
ed
f3
e6
fa
08
06
0f
fe
17
f5
e9
ff
f3
e1
ee
fc
14
13
ed
f4
0a
e1
f3
26
ec
f1
f4
f9
08
ff
ea
20
1b
03
19
e4
06
17
dd
00
27
d8
1b
f6
d6
fd
05
e6
e7
eb
03
ec
fe
fa
ee
f0
fb
ef
e6
ff
08
07
05
e2
e8
f9
12
1e
1c
14
fc
f0
fb
dc
fd
17
05
ee
fb
ec
1b
2c
06
ea
00
17
30
01
eb
fe
d0
f7
23
0f
f9
0a
f3
19
05
e9
e0
0e
f8
25
ff
00
08
00
08
ff
06
0b
0d
06
21
0c
06
e9
ea
1a
24
f2
00
fc
0f
0c
fd
0a
0f
e4
0a
00
f2
ec
06
07
de
e6
de
0f
1a
0c
ff
f2
0a
01
15
07
05
e0
05
18
eb
01
de
e8
0c
02
04
18
fc
ef
07
1b
f4
f0
f8
f4
fd
06
e8
1c
04
f5
fd
de
07
f6
0f
07
15
1e
03
03
eb
fe
06
07
1d
02
fe
fe
1e
12
2d
04
11
05
ff
0f
fd
04
02
f5
1b
10
04
18
10
dc
0d
ef
0e
10
14
0d
ef
ed
09
07
06
e1
ed
fd
0e
e6
1c
0f
0a
12
f1
0f
ee
f9
f4
e9
f2
fd
f1
05
fc
09
f9
02
f2
14
e6
ec
10
03
00
f2
f7
ea
03
06
07
f3
14
11
06
ee
f3
f6
03
fc
14
f1
16
08
03
06
f5
ff
ef
e3
e4
01
0c
0e
07
12
f6
03
05
09
13
e1
fc
02
e9
f4
f7
01
f9
f2
ff
0a
f1
09
de
03
e4
ec
f6
d6
e9
f1
e5
05
07
03
f7
13
16
00
f7
04
18
f1
f5
f8
d4
02
28
14
e3
26
fd
e7
00
02
f6
20
f7
fe
08
01
f2
fe
18
f4
f2
05
07
f3
f7
12
0d
05
04
02
00
06
f6
09
fa
03
0d
f1
09
14
fd
01
06
1a
ed
0e
0b
0b
f6
0a
fa
16
fe
07
f7
fa
f9
f8
ff
fb
f5
09
09
ed
02
01
fc
f3
09
ff
07
0b
03
01
fd
f1
0f
ff
fb
00
11
f6
de
00
0b
05
fd
f6
f6
02
fc
0c
f5
12
f5
f1
f8
12
24
ed
fd
e8
10
fa
0d
f2
fa
12
0a
e7
f4
0a
f8
08
1d
fd
0b
19
07
fb
06
e2
1a
0e
15
04
0b
00
ff
fd
01
08
fb
f2
e3
13
fc
0c
14
05
ef
fa
fd
fd
0f
1c
f5
04
08
fe
fc
07
01
ee
ff
06
0c
0a
02
08
02
f5
f7
ee
f7
d9
f7
fa
03
07
04
00
06
1e
02
f9
0e
00
f7
ff
0a
09
fb
f4
f8
0e
e4
16
00
fc
fa
f7
13
0f
f6
f3
e9
f2
14
0a
f4
f5
fc
24
e6
fa
ed
f6
f0
12
1c
ec
29
0e
f8
f6
f7
25
f7
10
14
09
f7
19
05
f5
07
ee
02
13
f5
27
0e
18
08
12
fb
07
1a
ff
e8
fd
ff
f1
0f
0b
07
09
15
0a
f9
ee
04
f8
ff
fd
fe
fb
07
eb
17
22
fc
07
03
14
f5
0d
0f
03
fb
f6
f5
f4
ef
18
fc
03
01
04
0d
fa
1a
fd
0e
0f
f8
ff
ee
0a
0c
07
ea
f5
f3
ee
01
f6
0c
fe
f2
db
0f
d9
0b
0f
03
f3
09
06
e0
1e
23
0d
f5
24
0b
1c
f0
0e
18
01
dc
23
ff
e7
e0
ed
0d
15
d8
f9
06
19
fe
1e
f7
f9
ef
14
02
fe
19
c7
01
19
d5
0c
18
f0
dd
f3
08
09
fc
0a
fa
0d
1a
01
0a
e9
1d
1b
12
07
05
01
05
fe
fc
29
fc
26
fa
07
ff
0b
0a
04
fa
00
1f
05
06
06
00
f0
03
e8
07
09
0f
fc
00
f3
01
f0
ce
0b
fd
21
fe
05
f3
ea
18
f7
01
f9
0a
04
fa
fd
fd
f8
f7
e0
1f
0d
17
1e
e9
f7
0a
fb
f0
f8
0c
f4
21
eb
08
fc
0a
f1
fe
f9
fe
ec
14
ec
02
1e
03
02
f6
0c
f5
f7
0c
ff
ed
ef
e5
09
05
f4
00
f3
f6
0e
f5
0e
13
f1
0e
f6
18
0e
04
fa
dd
08
df
f6
18
1c
1c
f4
fe
fa
14
0a
f3
04
f7
ef
17
f8
e6
0a
26
0f
0e
f3
03
ff
f1
02
da
fa
ec
12
08
07
f6
fc
f4
ee
17
fb
0f
0f
e0
ed
00
08
1d
e9
0d
17
e1
ec
14
eb
05
1e
08
e2
eb
0f
06
f4
24
00
0c
f1
f7
05
ec
16
05
f4
0c
f2
fe
10
fb
fb
f3
e6
0c
f7
eb
0e
e7
0c
fb
f7
ec
01
1b
ed
16
f0
e7
ff
03
f5
f4
ea
f8
f3
0b
f0
0c
f9
f6
eb
fc
1d
13
0d
ed
fe
f6
f8
ed
13
08
e5
fa
01
1a
f9
17
05
00
e8
fb
f3
fd
0c
ef
2e
10
1d
0c
12
09
13
13
02
21
00
00
13
f7
0b
ed
f9
fa
dd
f6
0d
02
f1
e8
fb
fd
00
fe
0e
14
01
ea
f7
0c
f2
f5
ff
e3
19
f1
e9
e9
0d
01
0d
e1
ec
e6
08
f2
f5
f7
02
0d
0e
23
e3
17
df
00
c8
fd
12
0c
1c
df
04
0a
e9
fc
f8
00
f2
10
18
fe
ef
0c
02
f5
0e
fc
fd
08
fd
15
f0
03
f5
fd
25
f5
08
01
fd
ff
fe
1c
05
f5
e8
f6
ec
0e
eb
09
f6
06
10
04
ed
f6
f4
0b
1c
fb
21
f6
1a
fe
fa
03
ef
07
fc
f6
f8
1f
15
f3
f5
fe
ef
09
17
00
11
fa
f1
f4
fd
f3
f6
02
e9
0a
fb
1c
10
06
1d
08
0c
1c
fc
15
f6
fd
1c
1c
04
10
13
da
2c
15
fd
05
f7
0e
f7
d0
fb
fd
e8
fe
07
07
fc
10
1b
ef
ee
f6
f5
f4
12
fa
03
f8
11
f2
04
0d
ed
0c
11
03
ee
e4
22
fa
08
05
ea
f1
f1
22
f9
07
0e
01
ed
02
fb
04
fb
03
f2
19
f5
04
19
eb
ea
ff
10
00
df
fa
e2
14
0c
29
00
16
22
e8
16
0f
f3
fc
f2
18
ea
19
fb
f2
00
fa
18
fe
fd
fa
14
e8
f7
f0
fa
10
28
12
18
17
0b
fd
04
1f
e6
f2
08
ef
14
12
f4
f7
0d
e8
e9
fe
09
f4
ef
15
0b
1f
0e
ff
e3
10
f9
02
ea
fc
02
07
01
02
e3
0a
df
03
e5
0f
10
fd
f5
06
1a
16
20
e2
ef
f1
e7
11
09
e6
0e
fa
f1
00
14
02
f0
07
0f
ee
08
f7
ed
0f
f7
f8
f1
02
06
17
d9
02
08
16
14
f4
07
fd
06
0f
e9
f7
06
e9
f4
f8
11
0f
e3
00
06
0c
03
00
f9
15
fa
00
fa
04
f0
21
03
ff
19
e6
02
fb
f0
11
e8
fa
1f
09
e8
1b
0c
05
00
07
ea
0e
fb
f9
0a
0a
0d
ca
e5
eb
f1
e7
ee
fd
08
f4
0a
e6
10
0e
f8
21
fa
14
f9
18
17
0a
ef
e8
f3
fb
f2
f1
10
0b
fd
e5
03
02
0b
f7
ed
f3
02
0d
04
03
0c
07
fd
fe
05
00
06
fa
f7
0e
e7
f6
02
04
fa
f9
0b
f0
09
12
ff
f0
f2
0a
08
08
d9
05
0c
f0
12
0c
f0
11
e9
19
08
f6
e9
1c
0f
0c
03
18
08
d4
e5
10
0d
f9
f6
eb
d5
f7
20
e9
f3
e3
01
1b
0c
fd
ff
ed
ec
1a
fb
30
c9
00
07
02
fc
21
0a
fc
05
06
08
22
f1
e4
f2
f0
f6
ea
f5
fb
15
10
e9
ee
e0
e0
0d
01
09
e5
f9
f5
e7
00
f6
0a
0d
e3
f6
ed
ed
07
1a
17
f7
09
0e
14
06
21
0f
f1
10
f1
eb
08
10
09
f4
0e
f0
e7
e9
f0
19
f2
0d
0f
f8
28
ed
e9
1f
f6
dd
fe
06
04
fb
06
25
fc
fe
f5
f9
f9
fc
02
16
14
fa
07
0a
0d
02
f9
e9
0d
fc
03
02
de
00
f3
17
0c
1a
0c
1c
ee
f3
04
f6
0b
15
04
fe
fc
05
12
07
07
0e
23
e9
d6
0b
22
ec
fc
fe
00
fd
13
10
14
0c
14
14
f3
fc
ff
ff
e9
12
f9
0c
13
f6
11
fe
06
07
df
ee
f4
f3
f8
04
ef
e6
f0
00
02
e4
05
f7
f9
e7
0d
f6
01
fd
ed
17
e4
f3
f6
ec
0a
ea
d2
fb
1f
e8
e7
1e
ec
fe
e2
0b
05
f8
ed
09
1f
e4
f3
e3
1f
f3
ec
fa
ed
f4
f6
ef
1a
f0
f5
10
fc
0c
fc
f9
0a
f7
f0
01
f7
10
10
e9
f2
e2
f3
0a
f4
f8
e5
fb
ff
11
f6
ed
f4
0e
05
11
f9
09
04
f3
f5
ff
0b
f8
09
19
ff
e4
fd
f4
f9
fe
e5
f7
e8
13
f5
ee
19
fa
f6
07
08
f7
fd
00
f8
fb
fa
0a
00
11
02
fc
0d
f2
04
0f
f5
06
fd
0b
f9
22
23
f1
ff
fd
f2
e9
df
08
0d
f5
f3
13
f6
fd
fd
f6
f0
f6
0e
eb
00
0a
09
fe
17
0b
08
f7
fb
e1
f7
f1
06
0f
21
fb
ee
f6
fd
0a
00
00
1b
e5
f4
ed
13
fe
00
ed
07
d5
05
03
ff
fb
fd
ec
16
f4
ff
f6
fc
24
01
f8
06
e1
0a
0f
f8
19
00
d0
02
00
ed
e5
05
0c
f8
0b
e0
da
e9
fa
fd
f7
1b
fc
fa
08
0a
f3
2f
ec
ff
fa
f7
d5
e5
f5
e7
f0
f7
00
16
12
eb
f6
f7
18
0a
02
f3
d7
01
21
ee
ed
f7
fd
1d
f9
ff
f4
13
f7
06
1f
e2
fc
ed
da
f9
0f
05
00
fa
08
03
05
06
01
fd
fd
0d
e4
0e
11
10
ea
f4
f7
06
fa
e8
36
05
f9
ff
ed
08
29
0f
02
07
0c
0f
f7
f9
e8
cd
d4
ee
fa
26
ef
0a
f4
03
f4
0b
f0
ef
0d
e4
e9
f9
0d
f3
0c
0d
fb
16
f9
0b
e3
0d
10
cd
fd
14
15
02
eb
39
1c
2f
0c
17
f7
f6
1d
09
07
d4
f6
25
ff
0e
f2
00
fa
09
fc
18
f0
fb
07
fe
02
03
11
05
f8
23
ed
08
1a
f2
f3
e6
fd
05
1d
01
13
0c
04
05
10
1a
fb
16
f7
ff
09
fc
f0
f8
ec
0a
12
0a
fe
fe
02
0a
ea
f6
e9
f8
14
1c
16
02
ff
05
fc
e2
02
04
f7
04
16
f6
0f
09
26
fa
f9
fc
00
f1
0e
f2
fc
0b
04
02
f2
ff
0a
ef
ff
19
10
fa
12
f2
03
03
fc
f0
08
1a
ff
e7
f7
fe
00
0e
0c
05
f5
f4
f4
f1
12
fb
fd
1a
00
08
04
df
f7
0f
f9
00
02
12
fd
0a
0e
fe
07
0b
e5
ff
07
f6
f9
f8
09
f9
ee
ea
1e
04
f0
f5
f2
fb
e7
03
2a
eb
f5
ec
13
06
fd
02
ef
fd
07
14
f7
11
e0
df
fb
ea
f3
df
fb
fa
e8
04
f7
0e
ed
f4
09
fc
08
ef
04
ef
04
fa
05
17
02
01
03
ff
ff
ed
f0
ed
f2
f4
06
f5
ff
fb
05
01
0e
e2
08
0a
17
0e
15
04
07
f4
0e
01
09
fb
f4
f3
0c
02
e1
0c
02
f9
00
06
fc
f7
16
13
02
09
1d
04
f4
03
fa
fe
f4
f9
fb
e9
0a
16
ec
03
f6
fb
fe
20
f9
fd
f7
e8
fc
ea
09
27
0d
06
ee
0b
05
e5
e9
fb
09
f5
14
00
f8
0e
02
fc
00
fa
20
1e
00
0b
ed
02
22
10
ef
19
07
10
02
1c
f2
db
18
09
f9
10
19
06
eb
09
12
fe
f3
09
06
ea
f4
14
ed
0a
fc
f3
02
dd
24
15
dd
f1
f1
0c
0f
10
09
0c
03
f1
07
ff
fe
d4
fa
0c
05
03
ea
07
f5
0e
11
f2
06
f2
01
11
00
04
e0
fe
0b
fe
f0
01
e0
ea
00
0a
0f
f0
e3
04
e5
0b
09
08
ed
e2
de
03
0b
1d
fa
e9
13
e3
15
f3
0e
ff
09
19
09
f3
13
f9
11
07
0c
02
f4
f3
fb
05
18
dd
e3
10
0b
fe
fd
f0
07
f5
f2
f7
0c
fa
00
00
f3
db
f8
ed
f5
f2
f8
f6
01
08
15
1d
eb
25
ef
0e
1a
ed
e9
01
18
19
f3
fc
fe
f5
0c
01
e3
05
0a
16
11
ed
fa
16
fa
e6
19
01
06
fb
14
0f
de
16
05
0d
dd
eb
f2
06
f0
06
08
06
f7
1a
f1
ee
e4
da
22
07
df
fe
04
f9
f9
08
d0
07
db
1a
ea
f2
ed
1e
02
ee
17
fa
fb
ff
fb
1a
3d
ed
14
05
ee
0a
ed
f3
02
2e
0d
f8
02
0c
15
e9
0a
12
e2
21
fd
15
14
17
ed
0e
1a
ec
18
12
17
f6
20
0c
fb
ec
ea
f9
ee
0c
fe
18
ef
fc
f0
fb
1d
fc
f8
ed
e5
fb
fa
f0
01
0d
08
12
e3
00
13
19
ff
ff
f4
09
ed
f9
f2
02
ff
28
f4
f5
00
13
0e
02
03
11
f3
ff
fe
f5
f4
0c
05
f3
fe
01
f4
2a
0f
16
06
02
fd
01
0c
06
d8
06
06
fd
14
09
25
fb
eb
01
01
12
04
12
00
ed
ee
0f
05
01
fd
d5
fd
13
f8
fe
e8
06
18
f0
0e
08
08
ff
0d
09
02
06
f6
da
f9
ed
fe
00
f6
03
18
03
f3
05
0e
fc
f9
f6
ff
05
08
0b
f4
07
03
00
fd
ea
ec
f8
0d
f6
2b
fa
01
da
07
05
01
ff
f8
ff
0c
fc
01
ef
01
01
e8
0c
05
eb
f6
fd
f9
00
10
ec
09
f3
f4
f8
05
f0
f9
0d
fa
11
f6
fd
f8
0e
ff
02
13
06
ed
ef
11
fe
fe
fb
ff
f6
07
fd
01
15
fd
0c
e2
e4
fe
1b
f5
0a
ff
1b
06
fc
0a
ee
06
fe
09
e5
10
07
14
1f
e9
08
ea
e7
0a
fa
fe
f9
18
09
1e
e4
dc
ec
29
06
12
02
05
03
03
03
f0
10
0c
1f
01
f8
01
f6
f4
05
f9
09
d9
09
1d
fa
10
ec
ff
e7
f8
fc
f7
13
f6
f8
04
18
f2
11
00
fb
fa
e5
0a
f7
f0
e2
04
03
e8
01
1b
01
f0
d7
05
09
e9
fa
fa
e7
25
fd
00
06
ff
06
0d
03
f6
e1
03
fa
f9
f4
e8
0f
0c
01
03
ec
f2
f5
ee
10
ff
fd
07
19
f9
f3
06
ea
eb
fe
ef
f1
02
0b
ff
0f
f8
fe
14
ff
07
e9
0b
07
fc
0e
02
01
e6
06
fe
dc
ff
fa
ff
01
08
fb
0e
fc
09
f9
18
02
0d
05
db
0c
04
03
f7
0f
0d
fd
01
0d
0b
fe
fa
f1
09
f1
10
f8
f5
f7
15
02
00
f7
1e
0e
14
f8
ef
e4
0a
0c
e6
f2
ea
e2
06
01
f9
12
c9
04
fa
09
ec
e9
0a
fb
0a
3e
e4
f3
05
05
f0
e3
0c
03
0c
0d
02
fd
02
01
e9
08
2e
f1
df
f9
e2
00
f5
ed
0a
09
11
e4
df
04
fb
fc
0a
01
f3
09
22
04
03
08
fd
1a
06
0c
fc
e9
fd
da
20
1d
07
f5
ef
e9
e6
09
f2
05
de
00
00
f9
19
f5
e9
fa
ff
0f
fa
0d
f0
16
f4
f4
f0
f1
0c
e1
00
07
f0
08
eb
f0
ea
04
0c
04
eb
f4
15
f4
f2
10
06
eb
10
01
00
ee
e8
23
06
08
12
ed
ed
e4
fa
09
f9
da
fe
19
02
ee
ee
04
e4
00
04
eb
03
00
03
e4
0e
02
10
fe
eb
25
ff
d5
04
19
fe
fd
e7
0f
09
fd
e1
ef
08
0f
09
03
02
0a
17
18
0c
f4
0f
17
0d
08
14
17
11
fd
e7
0f
e6
32
09
f6
ec
04
00
f5
fb
fe
0b
fa
ea
fa
09
05
fc
25
25
22
d1
fd
0b
03
0b
0c
06
da
19
04
f1
19
e4
f6
de
3e
00
f3
f0
0d
ef
ec
fc
f8
05
0f
30
09
f7
f5
06
f2
02
10
17
16
f0
0b
f0
ed
29
fc
02
f6
f8
0e
17
f0
12
dd
fa
03
29
eb
f8
06
de
11
24
06
f7
0e
02
11
14
19
fc
00
0a
02
d5
ff
08
02
f3
19
f5
23
00
e7
ea
14
09
02
0d
0c
f2
f7
fc
f8
f1
eb
f1
1b
0a
0c
1b
19
f3
eb
f4
e4
15
d9
14
12
ea
01
f5
ea
0d
05
1a
11
05
fa
0b
f6
13
11
cd
ef
05
0f
fb
1c
fd
0a
21
1c
f0
0d
f3
02
03
e6
07
01
ee
fa
ee
15
fb
09
f0
f1
ed
11
05
09
f1
27
04
e3
f1
01
17
f1
fa
f2
19
f9
0d
f9
e8
fb
03
02
1e
05
e4
f2
01
0a
f8
f5
11
14
0b
fe
ee
fe
1e
e6
f3
13
ff
db
fd
10
10
0c
e0
f9
f8
14
fd
07
fc
f5
03
e9
f9
14
f2
14
f6
f8
ff
e5
27
f7
07
13
20
db
10
ec
14
2d
ee
08
fb
cd
f1
f4
f1
df
f2
fc
1f
f8
03
f4
f1
ff
1d
23
0c
0a
02
1f
fc
fb
ea
e3
08
11
04
f2
05
05
17
05
fc
02
0f
15
0b
18
fc
ef
19
fb
09
05
10
fe
08
dd
f3
13
01
1d
02
fd
03
04
0f
ea
04
f7
01
0a
1f
fc
fc
e1
db
e9
06
f1
15
ed
fa
09
fe
f7
ee
fc
01
e2
00
16
09
f8
f8
f8
f1
fb
f5
f0
06
fd
f3
05
08
f3
ee
fb
04
db
04
33
05
0d
0f
0b
fd
01
0c
fb
f4
f9
0e
00
08
07
1c
04
fc
e8
1c
fe
14
10
f1
08
18
07
f1
05
f5
ee
f7
14
0e
00
fa
2e
08
d9
d6
00
18
0b
df
ea
16
25
e8
f3
f9
09
1a
ed
00
ed
fa
f9
0b
ee
04
f8
07
01
f9
04
0a
fe
08
18
f9
07
0b
09
ed
f4
17
e5
ff
0b
1b
f5
ef
f2
08
22
0c
0b
0f
02
fa
f3
18
f4
08
0b
02
0f
f1
f6
2a
ff
f5
05
ec
0e
16
f7
f1
11
14
0a
13
16
01
12
f1
0c
02
0f
01
ea
f6
f2
fe
d8
1c
f0
fd
0d
13
0d
02
ed
fc
11
f5
de
32
ff
08
fa
01
26
06
0a
f7
01
fe
f0
e3
00
02
f9
fc
0f
f4
f4
e1
f5
04
1a
e0
09
fb
00
f2
f4
f6
fd
01
f9
0e
d9
07
ff
f2
f0
1c
ff
12
ec
f3
ee
f4
f3
eb
15
ff
0b
0b
f0
f9
1c
01
09
e2
f9
f0
e2
12
03
13
10
15
09
f4
fa
02
0d
f0
de
14
09
15
dd
e0
f5
ed
18
03
14
0d
00
f4
05
15
05
21
f1
07
e4
05
fb
fb
fb
00
f4
12
03
00
0a
ff
23
01
0a
eb
f1
fb
0b
f2
fc
fa
0f
13
e5
0b
fc
08
12
0b
e1
f1
e6
06
e6
0b
1c
08
01
fd
f5
0a
1f
18
12
0c
15
10
ed
fd
04
22
03
07
f3
db
f1
08
fe
00
ff
22
ff
fe
29
02
41
dd
11
06
ff
02
09
0f
ee
ec
13
ed
f7
f4
0e
22
d7
f9
08
1e
09
17
e9
f3
02
19
00
05
0e
0a
12
08
f1
da
f2
ef
10
db
f9
ee
03
e6
d6
ee
0b
de
ed
ef
f6
01
13
fb
e3
10
e9
16
fc
f0
09
07
ec
17
ec
05
e2
15
22
f4
f5
fd
00
17
ed
00
0a
f2
0d
08
0a
f1
f5
18
1d
f2
01
f6
f3
11
f3
04
fa
05
f4
04
04
06
fd
fa
19
fa
06
f5
fa
1e
fc
fb
05
31
07
fb
e9
16
fd
2a
ef
fc
ec
06
f2
0f
10
fe
11
0a
f6
08
12
e7
04
fd
eb
ed
02
0e
04
fb
1b
00
09
fc
19
eb
e8
1c
0f
ff
08
06
f7
09
02
19
ff
20
18
07
fa
f4
04
e3
1b
11
f8
f5
d6
01
06
09
f2
ff
fa
ed
1d
14
08
16
06
09
f8
ea
09
00
ee
fe
03
09
fc
fb
f4
f2
1b
10
0a
eb
f7
fa
10
f6
f8
0f
05
00
f1
f0
09
1a
06
11
f9
f3
0a
f8
fe
f1
e9
f9
12
05
e7
2d
03
ec
1f
0d
17
04
ee
fe
f6
03
f8
00
ff
f2
ed
f8
14
fe
07
f1
fd
f8
0e
10
00
05
f0
ff
17
0b
fb
fd
fd
05
f7
0a
f3
15
01
18
0b
04
01
f5
e6
04
df
07
fb
fe
0d
19
f3
fc
19
f9
fd
23
11
0c
0c
f3
03
0c
0c
08
1f
15
f6
f9
f1
fa
10
ee
fa
f7
0a
08
03
fe
02
e8
ec
fe
fa
11
ef
f3
02
f6
fd
21
f1
00
04
f2
06
e7
f5
e8
fd
f5
fd
ff
fe
e4
03
09
10
02
0f
f6
08
ec
f9
ff
f2
f5
f5
06
f6
1a
fc
f1
fe
fb
02
f3
e7
12
f2
da
f9
e2
f1
fc
fd
fc
ea
1f
01
17
0e
07
f5
0d
01
16
0e
f2
07
f4
ff
fa
e9
f3
d6
02
e2
f7
f8
e5
07
fd
fd
f2
14
1d
0b
0a
f0
0d
ff
09
04
f7
f8
e4
f8
e9
07
04
e8
fb
05
e8
07
01
10
f6
f2
0d
15
15
09
ee
00
e2
f9
0a
15
07
ea
ee
e7
f5
0f
0d
eb
ef
f9
fe
ef
ff
fe
17
29
f2
14
fd
1e
f9
22
fe
0e
11
d1
ff
ec
10
f8
fb
e8
ff
0d
08
f6
fd
1e
03
ea
e3
01
04
11
00
08
0c
01
ec
ed
04
ec
de
fa
f6
f3
15
dc
0b
e7
f9
09
0c
05
0d
3e
f8
ed
03
0d
07
11
12
10
12
0f
14
01
d9
23
1d
08
f4
df
f9
07
ea
1c
03
0c
0a
02
0d
f0
ff
0e
f8
ef
f3
f9
05
07
ea
e1
f3
0e
e3
ec
13
f9
04
e0
e1
f4
ef
e2
0f
02
f3
32
fa
08
04
f0
ee
17
03
f3
13
19
fc
ec
ff
0c
15
1b
e5
fe
24
ff
01
fc
f2
0b
15
f7
e0
00
04
e9
f5
07
1d
fe
f3
ed
05
ec
fa
eb
f4
fd
01
04
0f
0f
0b
00
eb
ff
f6
e1
fd
fb
fc
0a
0c
06
fe
f7
05
05
d3
f9
fd
05
20
0b
e2
f9
01
07
fe
f7
08
f4
eb
f9
12
dc
ed
11
0e
03
00
f4
f6
fc
09
f9
fb
f8
20
21
0b
27
f1
07
fa
26
f8
f4
f1
f7
fe
f5
e7
ff
06
11
f7
15
e7
06
f3
0e
0b
e6
06
f4
fa
f1
f2
e8
f8
0f
f5
e7
09
0d
24
04
f0
06
f3
06
0c
f8
17
05
14
06
02
fe
1b
1d
0e
e0
de
0d
09
06
0a
ff
fc
fc
04
01
e4
e6
eb
ee
04
05
ee
12
0c
f7
fe
0e
f5
06
0f
f6
e5
ff
fd
0e
f0
fc
00
10
02
fd
f6
f8
0a
ee
09
f9
ef
fd
e2
ff
f1
f8
0c
f9
07
fc
1a
f1
f5
f7
07
f6
f5
0a
06
08
f7
08
08
ff
02
08
f1
ff
07
eb
e9
fe
f3
03
10
0f
0f
01
02
15
10
02
05
08
06
d1
02
ca
0a
08
ec
ee
0f
0a
e9
2b
d2
0e
29
fa
f4
00
f8
23
f0
ff
0b
d6
24
13
da
06
04
f7
00
0b
f5
0c
02
1a
07
29
22
08
0e
f1
05
24
f9
f6
07
0c
fd
d8
08
0d
ec
06
1b
e8
f4
05
20
f3
18
fc
e7
02
03
06
06
07
00
18
f6
e9
f9
0a
f3
01
1b
ef
13
1e
fa
f0
f6
07
22
10
eb
f1
cb
fa
03
08
08
ee
fd
1b
24
0f
f8
1e
2c
f4
0b
ee
07
eb
0e
14
e4
02
f9
e0
02
ff
04
fc
ff
11
ff
0a
ef
fd
e5
19
ff
e9
1b
10
f1
16
f1
fc
01
22
1b
fc
d8
fa
e5
db
e7
ef
0a
f1
d3
18
f2
ec
fc
fe
04
f2
0b
f0
1c
f1
10
fe
ee
10
fe
f9
00
13
f9
19
e7
15
f2
12
1f
f1
03
0f
05
1c
dc
f6
e9
0b
d8
fc
ea
03
de
01
07
e0
0a
2e
e6
0b
f4
fb
fa
fc
fa
11
fb
03
0b
d3
fe
01
fb
05
10
f3
09
00
fd
ec
09
fe
17
0e
03
fa
f6
e5
0d
0d
02
e6
f4
19
09
e8
01
fb
f7
ec
e9
f5
07
fa
f2
09
0e
fd
f5
fd
ec
f2
e9
07
f0
25
00
e7
fd
12
10
fe
e3
fa
f8
05
06
13
f6
f4
02
2b
03
f4
0c
01
e9
04
15
03
02
ea
f7
1e
00
0a
f4
eb
09
28
24
ee
c6
0d
13
ff
e9
09
fa
f9
f0
23
eb
06
ff
07
05
06
0c
fe
1a
22
e7
fd
fb
f4
fe
fa
0b
19
fb
16
f0
23
fd
fd
ea
f0
01
09
ea
01
f4
15
17
17
02
0a
f0
0f
e9
f2
02
18
0d
f7
0a
e6
f5
11
02
1d
f7
dc
f6
0c
01
f6
ff
f6
fe
ee
12
0f
0c
fa
ff
0c
fd
10
0f
12
fb
18
e6
0a
0d
04
fd
dd
00
f5
04
0c
ef
ea
f3
e6
13
0c
ea
f7
f0
f0
08
2c
0b
f4
09
ec
eb
0a
05
f1
15
e7
06
01
fe
da
db
f8
ef
0c
03
0f
f7
fd
02
0b
0e
f7
0c
23
04
eb
eb
f5
f3
fb
01
0a
03
0f
11
02
f2
f2
e6
09
f9
22
f8
10
ff
0b
0c
21
ea
ea
fc
fa
ee
09
04
0b
fc
03
f5
27
0d
f5
0e
19
0c
d7
07
f7
cd
1a
0b
02
0f
fb
08
17
15
f9
0c
ee
1f
ed
20
01
fb
f7
fd
00
ec
18
ed
09
20
f5
ec
04
0a
0d
d9
f4
e9
00
05
ec
fb
12
f6
07
1f
e5
00
20
0a
cb
01
fe
fd
11
ec
fb
f7
f8
e6
f8
ed
f0
0f
22
12
fb
f5
0e
e6
e3
f1
f7
ec
f6
e0
12
13
0d
08
11
01
fe
fd
e7
f5
0e
fc
e3
ed
00
03
eb
0c
2d
08
09
0a
e0
f2
ff
f5
0c
08
24
23
00
fa
ea
f3
05
f0
fe
03
e1
07
12
12
ff
01
04
04
eb
05
10
0b
f1
f9
15
12
f2
03
0a
fe
1c
f5
08
fe
e4
fb
f3
00
f7
db
fb
0e
e0
e9
f5
f1
05
f8
15
06
12
16
07
0a
06
17
f1
13
25
11
f5
ea
f7
e6
10
16
0c
e2
0e
c5
f1
fd
00
ef
fd
24
f2
02
f6
00
f5
01
fa
15
0a
fc
0b
e2
fe
f9
04
0b
eb
ef
fc
fb
f2
03
07
04
e8
07
0e
f9
0f
19
0a
f9
f3
09
17
0b
f4
e9
f7
11
ff
07
ef
02
06
fd
fb
0a
0a
f7
0e
ef
ed
ff
0c
00
fa
ee
14
08
fb
ef
0e
10
f9
e6
02
09
20
06
0b
0e
08
0c
01
fc
e5
ef
eb
1a
ee
fa
fc
08
ec
10
02
09
e6
21
04
0c
ff
09
fe
03
f6
f9
fc
13
e6
f2
11
12
fd
07
0c
02
08
f6
08
05
fc
f9
fb
06
f9
fa
0c
f9
f5
00
0b
04
00
03
e9
08
f7
05
fe
01
f3
ec
e9
18
dd
e6
07
0e
0a
fd
18
d9
ed
0c
07
19
1e
06
40
35
f4
f8
21
15
11
0c
ed
e7
f5
ee
f5
1d
fb
28
e9
e0
f8
f6
f8
12
17
0a
08
fb
11
ff
f3
ed
e9
fb
0b
29
08
d3
11
ee
ef
f5
08
11
c9
23
e0
0e
ca
22
04
05
ee
15
25
ff
02
11
13
d4
fc
0a
ed
1c
17
fe
19
0e
f3
f4
df
11
22
1e
f0
e9
fa
f0
16
02
e9
18
f6
fc
01
ee
00
02
fc
f4
f2
f0
e8
f5
16
e7
20
0a
14
e3
08
02
30
f6
11
e7
01
f6
f0
0f
f9
02
ef
03
fc
fb
f3
f8
f8
0b
e7
f5
0a
0c
04
08
fa
05
07
ee
f3
f7
09
f2
f8
01
e1
10
0c
02
12
ff
e6
15
f9
e9
04
19
f8
fb
f5
1c
02
0a
0d
ec
f3
f4
f4
fd
21
02
fa
f4
04
07
dc
f2
fc
09
f5
1b
f1
fe
ec
18
1d
f1
1a
04
fa
f4
de
fa
09
f4
06
ee
c0
e3
fb
16
fe
fa
0b
de
0c
e7
1c
e7
0a
0d
1e
fd
f5
f1
f3
fb
f8
f6
02
0d
f1
f3
e3
f3
23
12
04
0f
f2
10
e4
05
2b
10
09
ee
e2
fd
0f
fd
0d
ff
17
ef
07
e7
0a
18
1c
fb
18
f0
15
c5
eb
fa
19
f8
0d
1c
f0
01
f9
de
08
e8
1c
04
f7
15
da
f2
09
f0
ff
08
eb
f9
ef
ff
13
0f
eb
03
03
eb
24
f6
fe
09
f6
15
07
fa
2a
ed
f5
15
02
f3
e0
12
07
0a
33
e7
09
20
03
04
13
0d
2f
17
fa
19
06
0d
ee
fb
05
0d
f2
e2
02
f4
fd
01
11
ee
fa
f6
fa
e5
fb
eb
e7
d5
18
fe
00
fd
08
09
f1
f3
fe
0e
02
f9
0f
14
07
19
eb
ff
16
0a
0d
16
1d
fc
0f
07
0d
f4
01
f0
fe
01
01
f1
09
dd
fe
04
02
e8
dc
f9
f5
f3
1b
03
fa
f4
06
0e
06
00
fb
14
13
06
0c
ff
15
07
03
f4
e5
03
0c
11
09
05
f0
f6
d9
f9
06
13
f7
e9
14
0d
12
e9
09
f9
e8
fd
11
f9
ff
fb
fe
f1
fa
01
07
17
fb
f1
f2
04
0c
06
09
f2
14
f8
f0
00
11
0f
16
f7
ed
fa
07
01
fc
03
0b
f8
07
e8
f6
fe
f3
ff
01
eb
f1
01
17
e8
f5
0d
0c
f9
ee
0a
fb
ec
02
11
f3
0a
fa
0a
fb
10
ee
fd
0b
03
ea
f0
15
0f
12
0c
02
04
df
dc
05
24
17
f5
0c
09
13
0a
0b
fc
12
e4
fb
07
03
15
f3
db
0d
05
14
fc
ef
06
f2
11
fb
08
21
0e
e4
fe
0e
fb
fd
18
f9
fe
e9
18
d4
dc
08
17
32
d4
1e
06
e3
1f
21
ea
f3
f7
02
38
e3
16
fa
08
19
f1
f6
fe
03
fe
16
05
11
f6
fa
f2
e9
02
06
04
17
f7
08
ff
1d
fa
e8
fa
f7
ef
f9
16
fc
03
f4
f3
e6
15
e3
e6
ff
f8
f7
d2
19
07
05
13
05
05
14
e6
1f
13
fa
d7
f2
fb
f0
0b
e5
08
f1
11
f6
01
e6
18
df
04
fb
d9
04
08
16
f7
fb
06
12
0a
1a
01
ed
04
07
19
05
15
16
f5
fb
0b
ee
04
06
0b
e8
fa
0c
f2
fa
17
1b
0a
e1
f4
05
ed
07
15
00
fc
fb
e1
16
ef
00
02
f5
f9
ea
e2
1b
d5
e5
e4
1a
d8
f4
15
fc
26
04
0e
ea
e9
ff
0a
0b
ef
f7
05
0d
f8
17
fa
07
f7
17
f9
f6
fe
f6
fa
0f
06
09
04
e0
02
04
fc
01
ff
0b
04
f9
08
00
fb
14
fb
1c
e1
f3
eb
e9
04
0c
17
f5
fd
f3
10
f2
f7
ef
f7
14
f9
f8
12
01
17
0c
ff
06
02
e7
d6
1b
08
06
f3
f8
f6
0a
f6
0d
03
fb
f2
e9
f4
fd
14
16
06
f8
1e
01
01
10
09
0f
10
0f
0a
f9
f2
0a
ef
fd
37
09
f2
0a
20
f0
0c
1e
fc
ee
0f
05
f6
fb
0e
fe
f0
0d
f1
fe
00
ef
f4
01
18
fd
0a
09
f9
fd
fc
fb
f6
04
f0
01
fe
18
e5
f4
f0
04
fa
09
00
fb
fa
f7
e9
e8
f1
f7
0e
ec
ed
01
11
fc
0b
fc
01
fa
29
01
06
20
f0
f7
0e
0c
f8
ef
ec
02
15
08
00
f4
ef
f9
00
f2
fe
fc
20
ff
fb
01
08
11
f0
e1
03
05
0b
f1
00
f6
f5
f5
ee
15
f8
1e
fb
fb
09
05
e2
07
e1
23
eb
f6
ea
f6
fb
f6
fa
e5
09
0a
09
27
eb
ee
e0
09
d7
1d
23
08
eb
f0
ea
09
0f
fa
0b
f1
2e
df
0a
fd
04
17
00
fb
0b
ea
e9
ee
ef
0d
01
0e
03
16
12
07
0d
17
f3
fa
fc
0a
08
e9
05
05
ed
fd
17
10
f5
f8
fe
f0
0b
fb
02
01
d4
01
15
fc
24
e1
de
f5
18
f0
f4
09
ea
0c
0a
26
00
08
02
12
ec
d6
2d
17
13
2b
f5
f3
0f
05
12
02
ff
fb
fc
f2
f5
fd
f1
fc
e5
19
0f
14
00
00
fa
e4
f4
ef
f0
f7
01
00
de
e2
ef
df
fd
01
fd
ec
04
14
0b
f6
f7
ea
00
05
f4
16
11
fb
ef
f2
f5
e5
1c
07
ed
f0
f7
04
e0
0f
04
18
00
19
dd
07
ea
f7
f0
09
e7
06
ef
f3
fc
e9
01
13
e6
e2
02
00
f5
0b
e2
0b
f1
f0
00
f7
e6
02
10
d6
ee
16
0e
d7
f0
2a
21
13
20
fa
1f
23
0e
f2
1f
f4
13
f1
15
04
0c
0d
fc
07
00
19
00
f7
0a
11
ef
f8
05
13
04
04
ea
f0
f2
ee
08
d7
fb
f3
05
f2
fb
ea
14
f5
fb
01
e6
1a
e9
f1
0c
0c
fd
12
ee
f4
11
07
06
f3
03
f0
11
09
fe
20
fb
f5
fb
13
f3
0f
01
f6
10
f4
fe
ea
05
11
f7
04
f0
f7
07
0a
11
e9
0f
f8
1b
08
d3
fb
e4
08
04
0e
00
ef
26
0d
1b
09
f9
ed
07
01
f8
18
ed
08
e8
03
16
0d
fa
28
1c
fe
ed
07
ea
05
fc
ef
ed
07
00
01
eb
0b
01
e9
f2
0b
10
12
ff
d6
17
fb
10
df
10
d7
15
e6
04
e5
ee
f0
eb
0c
15
0a
f5
f8
e1
f7
f4
f5
fc
e5
fa
ee
ec
00
02
fd
ee
12
08
0b
ef
02
fa
0c
11
11
f3
e8
0d
ff
e1
ed
e4
09
08
f9
0f
db
d5
0a
08
01
f1
09
e0
ed
07
05
18
07
e7
13
08
e6
1f
03
0e
21
e1
07
20
0f
f6
f0
f1
fd
1d
00
dd
1d
f2
10
ee
1b
db
09
ec
f7
f5
f6
ed
ef
0b
0f
d1
ef
17
3b
24
00
fd
00
08
06
ef
f9
fb
f0
e8
df
f6
f8
fb
f3
ea
0a
04
0d
16
fa
08
0c
ef
07
f1
dd
15
ff
fa
fc
0f
f2
f6
06
1d
fc
11
f0
f7
1e
08
eb
f0
07
f8
f5
1a
16
ef
23
ea
0a
fa
04
f0
fd
16
17
f7
ef
ff
f1
ee
1f
e9
0b
15
f2
08
20
16
12
fc
db
f5
07
fd
ea
fa
10
ee
0f
01
01
e4
e0
12
17
09
23
fe
18
10
01
14
10
f5
f6
f9
e3
f9
fb
ef
14
e8
07
f3
09
fa
fb
f8
ed
0b
00
0e
fc
06
e7
e6
02
ee
ea
ff
20
18
fb
18
e1
0e
df
0c
ff
e0
ee
19
0c
06
37
f0
f1
2c
fd
fb
04
ef
17
31
14
03
ec
fa
19
ff
12
e7
e8
11
22
0f
13
fb
fc
f3
19
e0
d4
07
f3
26
00
20
2a
32
ff
0e
03
e9
f7
d3
15
0a
0c
03
1d
ef
21
11
13
24
ec
07
14
df
f7
f3
ed
16
10
0a
f8
f9
fc
17
11
ef
0c
01
f3
e8
f4
d4
ec
ec
17
1b
f8
0c
f5
f2
ff
0e
04
de
e7
e4
00
09
f9
f1
f5
04
2b
04
1c
ed
0b
de
05
e9
10
ec
f1
0c
0f
04
f0
fe
10
17
0a
f9
2a
c8
ee
0c
fd
f3
20
ef
02
01
11
0d
f5
fd
fc
fe
0d
ff
ef
ff
fa
f3
07
e7
02
e7
0a
0f
ea
fe
03
ec
df
04
06
10
09
fa
04
1e
ff
f2
13
fc
08
16
0b
f7
f7
eb
09
f0
13
ee
04
13
13
f3
01
07
15
13
01
0e
e9
04
11
f1
f4
0d
09
02
02
e7
f0
f5
fd
03
05
ec
ea
df
0c
e1
13
13
05
0c
ff
f4
f7
00
00
17
06
05
02
1c
09
23
10
fb
02
0f
17
f4
02
f3
05
1b
ff
ff
f4
ec
f9
10
ff
07
19
e8
f7
1b
15
f3
09
13
f0
ef
21
19
0a
fe
f1
eb
ff
ed
16
21
e5
ff
0f
fb
09
fc
06
11
09
01
e2
fd
e8
f6
f4
f5
04
00
02
fc
ff
08
f2
f2
fb
0d
fa
0a
f1
da
0c
05
0d
fb
05
f2
00
f6
02
f8
20
12
ff
e4
ed
00
f8
0a
0d
00
03
eb
e2
f8
09
11
03
ed
e7
ff
14
2c
1a
09
0b
f7
e6
1f
e6
10
07
11
13
0f
0d
fc
1f
02
06
ec
2d
00
fe
03
fd
15
f0
16
fb
f2
14
05
d6
fc
fc
f4
13
fd
e3
0e
fb
0d
e1
fb
f3
f0
1c
01
20
db
e8
f1
f7
f5
08
05
05
00
0f
0d
2b
fa
fa
e4
10
cf
1d
f7
0b
0c
01
eb
09
f6
f7
09
03
14
f8
fa
fa
1f
ff
0c
1a
00
f9
10
ff
f2
06
06
fc
fc
10
07
12
0f
10
c6
f8
e9
00
27
f4
19
fa
13
f3
04
fc
fb
02
dd
1a
0c
f8
fa
02
00
f8
19
1a
1a
13
fc
00
0c
04
ec
08
f9
03
fe
ef
1d
f4
05
17
fb
00
e0
0d
f0
22
06
fc
e7
f9
04
ee
0d
11
e0
0a
13
14
ee
11
f8
0c
0a
fb
10
0e
0c
19
ed
18
08
09
fc
16
e6
fa
06
f4
00
fb
01
ea
08
05
ec
ff
f3
ff
03
11
f1
f7
0b
13
04
01
13
0b
01
01
f8
0a
1c
ed
04
07
0b
05
05
14
fb
01
03
00
09
0c
16
ed
f2
e9
fa
0f
10
07
fe
eb
f6
0e
04
ec
00
07
ee
f5
02
f9
f9
fa
fb
0a
14
f9
f6
0a
09
12
f7
f9
f8
fa
03
20
03
e7
1d
01
ef
f4
f3
13
ff
13
fe
df
05
13
ed
16
f0
17
ff
19
19
de
18
1c
1d
f3
fd
f1
fa
0d
0c
fb
0d
0a
02
fa
ec
0c
01
fd
11
07
f5
01
0c
fe
fd
ec
f6
02
fd
10
fe
1e
e2
fd
10
fe
f8
f1
15
ee
21
f3
ec
16
10
17
1d
01
ee
fb
e5
fb
0c
dc
f0
ee
eb
f6
06
16
00
f9
f0
f1
ee
ff
ef
f2
1d
f5
05
04
27
03
09
16
1e
fa
f2
e7
fb
fe
03
ed
f9
05
f2
02
28
ed
0d
0e
0e
06
0c
f7
07
38
ee
07
ff
ef
17
df
fc
eb
eb
ed
0b
0e
f5
f0
f8
0c
ed
fc
ec
ef
f9
fc
f9
18
f0
0a
0f
18
ee
eb
e8
20
08
16
17
03
e3
12
0e
eb
02
1a
0c
fd
eb
12
f5
fe
f1
d7
fd
01
0b
e0
0a
f5
e0
03
10
e2
15
06
df
02
16
07
e8
f2
13
fc
ed
f5
f9
1a
16
f2
f4
0c
05
05
f7
f6
03
1f
fe
f2
03
f2
f3
06
09
18
fa
22
f0
03
ff
0f
0c
08
0c
03
f3
03
f5
df
09
f7
ea
f1
06
18
13
fb
e4
15
08
fe
eb
01
ee
f9
16
fa
f3
0c
18
eb
f8
f7
00
f4
09
fd
f1
0f
01
04
f4
0b
f2
f6
07
02
07
ee
0d
16
fe
06
0b
11
0f
16
f2
fe
fe
f5
ef
fe
f6
13
f2
f1
fb
03
03
fe
eb
f4
fb
12
f7
f8
e8
f1
0f
ea
03
09
08
f3
05
fb
f9
fb
05
f9
18
f6
05
fe
0c
fd
f6
f3
09
f8
e9
f7
1e
12
0b
10
fc
08
0e
e9
ed
08
05
05
05
07
05
0b
e8
ed
f6
ef
f8
11
f9
e8
15
ed
d6
dc
f0
32
e5
0b
0d
1b
e5
08
fe
13
f4
14
f3
ea
1c
16
04
1f
03
0f
f4
08
f5
0a
07
08
f8
09
fa
0d
06
f4
01
fb
fe
fc
d6
e7
1a
18
02
fc
01
fc
13
1b
02
09
15
e7
00
12
fe
00
12
14
fa
06
fe
0f
f7
12
ea
10
15
fb
f6
16
0a
08
26
ea
0a
28
ff
04
fc
07
f0
fe
df
f9
f9
fa
11
16
ed
f9
13
08
e6
f6
05
ff
fd
22
18
1d
f9
f0
17
00
1a
09
d2
eb
0d
16
e4
f9
fd
13
01
1a
05
21
15
07
dd
0f
01
e2
f1
f9
1a
15
2b
18
02
fb
02
0e
0c
fd
fe
2a
03
f6
11
fd
ef
e4
e5
28
fd
06
2e
ff
f0
04
f7
f7
0d
00
02
fa
17
fe
2e
fb
f6
df
02
23
11
11
e2
ee
07
0d
e8
07
11
fa
ec
fd
eb
fb
fa
02
03
ee
0f
0e
13
f9
29
fe
0f
f6
05
1b
f0
0a
15
fa
fa
f7
00
02
f8
0b
0b
07
0a
09
03
0e
f8
06
ff
07
19
00
ea
17
01
0c
02
f5
f5
fe
02
04
ff
1c
00
1f
00
0a
eb
ff
ee
f6
11
0e
07
ee
fd
ee
f3
f4
ff
eb
fe
f6
05
e1
f6
0d
d8
d9
07
02
0b
f5
f8
fe
ff
02
f4
0b
29
14
09
d5
13
fc
29
f5
e2
fb
fd
ef
08
f0
0d
e6
05
07
ef
dd
19
d9
fb
07
e5
ef
0d
ec
e6
fb
2a
06
24
ec
08
