60 1 3 3
fa
04
e1
fb
d4
f6
d6
e5
ed
0b
e3
da
2a
11
11
1a
09
18
fc
39
3a
f0
ee
04
13
12
fa
2d
12
1c
18
23
0d
e4
eb
f4
0c
18
e6
1c
2f
e7
08
04
f2
e3
13
ac
0a
54
01
db
38
e7
df
ef
2a
d2
f4
eb
f9
e0
0b
ab
26
05
24
9a
61
1c
3b
b4
1e
cb
0c
e1
ef
f4
dd
31
c9
22
f6
18
d6
05
ab
f0
fd
16
d3
f8
f6
c9
ea
da
21
0b
08
de
ee
0b
e8
bf
af
fc
18
25
01
e7
e6
0e
2c
1b
11
3f
f1
f7
fb
ee
ee
12
e0
e1
d2
2d
db
81
dd
1a
1a
e8
47
4d
30
ff
0c
fe
f2
29
e2
7f
bb
f2
fd
14
25
39
28
d9
f1
d7
df
ec
03
91
0d
fd
3f
f5
0b
20
29
fe
bd
4d
11
b9
e3
0b
05
ff
07
0c
c2
39
05
c9
0b
2f
d4
2a
ff
db
23
07
d6
27
02
f2
04
ef
0a
10
27
14
3f
03
f9
ec
14
00
e2
f3
ce
fa
f9
0a
fd
f7
f5
0c
05
29
3b
01
ee
f9
29
fe
31
13
21
0f
d4
dc
1d
f4
d7
e4
3c
d2
47
e9
0b
f1
ea
ed
c6
dc
1e
e2
e8
03
15
fb
c6
fb
cb
e8
29
ff
fc
14
28
e4
ec
1a
ff
d9
c9
05
26
ac
07
c8
ed
ea
00
6f
34
22
0b
04
ff
23
e3
ee
fa
df
4e
cf
e1
4f
e7
e6
07
fd
aa
36
0a
32
0d
f8
10
1b
e3
21
fb
cd
ef
e8
c9
f4
eb
20
c8
cd
21
ee
a2
28
01
17
e0
f3
cc
3b
87
e9
17
e8
12
00
fe
fd
dd
e8
fb
fa
d0
0f
01
0c
1c
0f
0a
1f
0f
f8
09
14
f0
82
0a
17
32
00
f6
46
fc
f3
cc
03
00
f2
12
bb
15
f6
3c
06
f5
08
25
fe
43
fa
ed
11
0c
10
1e
11
fc
11
0c
0a
0e
16
03
0d
21
0a
1c
18
ff
d0
28
05
d1
3b
19
ce
1e
fd
cb
d5
0e
14
1e
11
d2
d5
ed
1f
0d
1f
1b
1a
f8
14
b5
de
ee
d4
0e
eb
e4
07
eb
06
f0
fa
e5
e3
d6
ea
11
08
ff
fd
33
df
ef
26
e2
fd
46
c1
08
c1
f6
2e
14
c8
fe
22
f6
c8
ef
49
c8
00
05
01
27
bd
36
f4
cf
aa
11
09
12
24
00
de
0b
fe
13
32
16
21
e1
dd
e0
46
e2
df
0d
2b
cd
e9
31
ed
28
ec
c6
07
41
cc
1f
1c
e3
fd
ea
e1
f6
e9
ee
0d
d8
fa
09
e2
c2
0a
17
c4
20
1e
01
32
1c
2a
fe
32
f8
f6
10
00
11
01
ef
33
0f
ce
31
0a
e6
10
06
01
d4
06
5a
c4
f2
48
1d
18
07
c9
ba
e2
19
22
09
07
0a
00
1e
1f
0a
0c
0a
15
ea
07
2e
dc
10
35
e2
14
05
03
e6
f9
f5
14
b2
22
fd
d8
fd
f6
d2
33
04
fb
c5
1d
4d
ff
11
04
cc
b9
e8
08
ec
fb
b5
ee
2f
e8
1b
15
e7
cb
f7
f9
fc
f0
ce
ff
e9
1d
e5
e6
c7
01
2f
02
26
19
25
1d
e6
14
08
08
c9
c1
01
d8
fa
0e
3e
d3
2c
b8
a1
18
1d
0b
2f
1e
0d
17
16
2a
14
d7
d2
e4
f4
21
1e
1c
28
24
f3
f7
d1
e0
ff
0f
d6
e8
e2
f8
08
0e
f2
33
49
04
35
05
18
e6
c3
28
ff
fb
27
22
e5
04
17
f8
cf
d3
e9
54
57
04
e3
e8
f3
2a
10
bd
35
d8
e9
fb
fb
04
f1
f3
e8
00
ce
f3
f7
f7
ec
07
b9
0e
d8
0d
ed
ec
01
f1
05
20
1d
f6
32
12
f3
b4
a9
fc
f8
df
27
28
05
2a
2d
e1
fa
1d
03
e0
e7
de
fe
22
10
ed
fa
0a
d5
d5
28
d9
05
f5
05
3a
c4
1b
1a
fd
f1
03
40
0d
f8
bd
db
0e
f3
e7
f2
44
19
cf
11
14
c9
17
11
cd
22
26
00
ee
dd
e3
f6
e7
f4
ea
0b
e9
02
0a
24
25
09
48
03
b7
0b
0a
0d
ed
22
cd
fe
2f
0e
14
cf
2b
ea
d1
23
d6
d2
0a
b5
e3
40
e1
04
fd
7c
ee
f0
f9
e7
e1
d1
fa
0d
03
05
de
c4
0a
0f
f1
d4
2e
19
16
02
14
0b
03
1c
12
06
02
1b
23
f3
f8
20
c2
22
34
c7
02
