40 c0 1 1
13
e5
19
01
02
1b
06
05
fe
fc
f7
18
fd
16
2a
fe
06
ec
14
fa
1a
fc
e1
0a
00
f7
10
14
0f
e8
c8
d7
e3
1a
04
f5
f1
fb
1a
d9
e8
ed
fc
0f
28
f8
28
df
e8
db
ff
f7
20
22
fa
f5
0c
f3
00
0d
df
e2
fd
f2
14
1a
0c
09
eb
05
fa
15
0a
f5
09
fa
ec
f3
06
2d
e4
f0
19
fd
f2
28
1c
f9
10
e4
02
0d
04
12
00
1c
0a
f2
db
e8
ef
e5
33
ff
fb
09
14
05
fc
25
0b
02
df
12
1d
2d
0a
00
fe
1c
dd
1c
e0
29
f7
d7
e2
1b
02
db
04
09
e0
ec
04
03
e5
13
fb
1e
04
10
19
0f
c7
12
17
de
cc
17
23
c7
0f
03
f4
ff
c8
0d
0f
3c
f5
f0
fe
3b
01
f9
e2
20
fa
30
05
fe
24
04
fb
e4
29
fc
f3
00
f3
f6
ed
28
11
f4
ef
0d
d2
ef
05
f3
17
1b
e4
14
29
1b
f9
16
13
05
0d
d0
d2
fc
24
20
ed
2a
e7
18
f7
fc
0f
13
05
fe
f6
e5
3f
22
0a
52
02
d9
00
3a
21
01
fc
fb
24
e1
11
f0
0c
07
09
ec
f0
44
de
07
02
e2
c9
e6
0c
19
11
03
ef
f8
03
f5
f3
09
27
ed
fd
c8
0a
00
1e
38
0f
3e
ba
e9
02
26
0b
ee
eb
fe
fb
e3
eb
2c
2a
d8
16
1c
46
d6
de
04
28
07
1d
13
ea
01
26
ec
c4
ee
0e
17
fc
d9
2a
0a
03
fb
09
fb
03
c7
0c
1a
3f
e9
eb
fb
25
d5
fa
e6
37
30
c0
fb
0a
0e
1c
d1
3d
2f
0b
eb
e6
0d
13
f0
0b
3f
f2
e2
e8
e6
17
dd
38
18
f0
e4
38
05
79
f8
06
e6
0a
db
13
0d
37
1d
2f
ff
d3
e8
d3
d3
ec
15
d7
2c
03
ef
2a
0e
1e
17
12
f5
f6
2a
05
0c
e0
f4
23
b5
ef
fd
f0
fa
e1
fc
04
01
fd
06
07
14
f9
d4
38
f7
fc
05
f8
f6
df
da
f1
02
03
26
06
dd
1a
0c
ec
f6
14
20
e5
06
15
e5
e0
dc
dd
e0
f3
05
ee
f1
c5
11
ce
fd
07
fc
18
f9
2c
e8
13
14
21
d8
1d
16
22
29
0c
fe
fe
06
28
07
fb
f2
f5
09
1a
12
d2
12
f3
17
01
e2
1f
f0
25
09
06
04
26
12
ed
08
0d
f0
09
f2
08
f1
13
04
f1
f7
dc
03
e4
f5
05
28
fb
b8
3d
05
f6
17
e8
d5
de
f4
fb
19
fe
0f
13
ff
0a
39
f8
00
1d
0f
10
fb
e9
db
fe
e1
02
c7
06
20
19
2c
06
ff
e4
12
2a
28
e8
f6
e2
db
10
ff
13
13
ce
fb
ea
0f
e2
12
01
f7
12
f8
22
15
f9
1e
fa
04
1e
1f
e4
2e
23
fb
05
15
0a
f9
f0
15
11
df
d8
ec
25
06
11
22
fe
0a
f0
f7
05
ff
35
1a
e8
fd
fb
c5
08
de
19
f7
d7
10
f4
0f
0a
fd
19
fe
da
03
d9
12
0b
fe
0f
02
d8
05
fa
f6
20
e4
02
03
0f
f8
d9
02
18
15
d3
47
ed
ff
0a
da
04
0c
0b
ec
09
f2
19
df
eb
e2
06
eb
f1
05
1c
f9
f7
0f
14
ed
04
f4
31
11
ef
e5
f7
0a
06
2b
f8
11
29
e4
f0
24
da
f7
01
f9
e2
e3
04
20
de
d7
f3
02
13
04
06
ff
30
f8
e8
e8
13
10
f6
f6
dd
f7
15
df
16
21
fd
1c
20
06
e9
ec
de
fd
e7
d4
e6
09
0b
0c
29
04
07
1d
0a
15
fb
f8
fb
db
f7
2f
1e
ec
0a
0a
0b
f2
f7
f9
d5
14
ea
01
46
22
e9
ff
f0
21
1d
27
16
11
f9
00
d9
09
16
f6
fe
e9
27
e8
e8
07
f0
02
f3
08
e3
f0
22
e5
d1
15
1b
f3
e7
03
1a
fb
b3
1f
f5
15
0d
e3
f3
fc
23
14
09
e1
e4
01
fa
f8
05
1c
09
f4
ed
06
2e
11
43
ee
01
15
11
14
dc
f8
1a
cc
17
25
2e
f1
e9
05
08
d8
00
e6
06
d1
11
d8
ee
20
21
eb
d9
12
ea
fc
05
0f
12
f2
c7
03
db
e9
02
05
f7
eb
fd
12
06
12
0a
1c
22
08
24
ea
0e
1d
bb
1d
ec
e9
29
f6
e5
db
f7
da
ef
25
19
d5
ff
ea
f0
10
0d
ee
de
ba
1c
e9
fd
bf
cb
49
e2
12
fa
df
2f
eb
f4
22
f3
fa
0d
e9
1b
04
fa
d4
c5
22
fb
10
e8
1c
04
fa
2b
14
ed
0d
2c
31
16
1a
ee
f9
05
36
18
04
d4
23
22
0c
14
c7
05
b8
11
0b
d9
09
fb
03
f5
ea
06
0c
16
0c
35
f7
0e
13
d5
3a
dc
20
d5
1f
18
36
15
e3
27
1c
f3
e0
0d
0d
06
ee
03
00
ea
e2
fa
2b
03
1b
12
ef
04
06
11
04
0d
ea
06
fb
fc
04
f8
14
f3
f3
0b
fb
2e
00
11
e1
ec
0f
09
f4
f4
e9
22
d1
13
fd
0d
f1
fa
0e
04
f2
03
1a
23
f6
1d
22
f2
dc
00
06
00
07
16
02
e9
fb
e8
04
17
eb
eb
03
f8
1b
06
0a
0f
0d
fc
e0
0c
06
fe
e7
0b
0f
d0
04
ec
0b
ea
11
19
15
0f
f9
df
e8
05
30
0f
12
15
10
fb
f2
00
17
3f
f8
d9
15
e8
ff
14
19
fa
22
f2
02
16
06
0f
0e
1b
0e
15
f5
e6
ff
eb
20
16
01
d3
06
e2
25
f3
e9
eb
f5
e7
21
0d
e1
0c
17
07
09
fa
f7
e8
05
0d
11
dd
16
1c
e3
0d
fe
08
04
1e
f7
fe
e9
19
fd
31
ec
f7
f6
f8
fb
19
fb
0d
09
f9
fc
15
2c
fd
2d
ed
03
17
f6
d6
02
16
0f
f6
01
f1
e3
08
10
d8
e0
05
11
31
1e
10
ec
13
17
24
f2
f9
0f
0f
ec
02
f3
17
00
07
03
23
0e
36
13
e4
28
0f
0b
d9
f3
d4
f5
08
f3
0f
14
06
22
0c
ea
f6
f2
f0
ea
2f
fe
eb
f7
09
f1
0a
11
ef
f1
0d
e0
26
1c
ed
fc
d8
07
02
0f
f8
e8
08
e9
0c
e9
f5
f5
fc
fd
10
f5
ee
2d
d4
ed
25
d6
f2
d2
f8
ec
14
e8
e5
ea
14
fe
0c
c7
ce
e6
fa
e0
d6
ef
06
f1
13
dc
d6
e1
e1
fc
fd
f2
bb
33
1e
fe
0c
06
ff
1f
08
ec
fc
ec
10
ed
f0
fc
ef
e2
16
16
cd
00
fc
04
eb
f5
24
f7
db
e9
10
f9
fc
16
27
f9
f5
e2
07
14
00
f2
e6
21
fa
19
fc
d6
41
f4
0f
e3
de
e8
e0
e8
dc
f5
01
16
10
e7
e9
16
e5
04
f7
17
f9
cc
f7
09
06
f0
0f
ff
ee
29
06
fc
3f
f1
e6
f7
11
f7
24
00
f6
f4
0d
0a
f6
21
f9
db
12
00
0b
f9
f8
e8
ed
d1
f5
e6
08
11
f3
dd
08
e0
14
b2
e8
e0
fa
16
fc
2c
0d
b9
fe
27
df
ec
24
2a
15
2d
30
01
20
f2
c4
b4
f7
00
e1
d2
f7
3e
1e
f3
dd
ee
14
1e
c5
e7
fe
d0
19
ec
fb
07
f6
e5
e8
e8
ec
1c
0b
10
2e
16
5e
00
e9
f1
1d
de
f2
1a
1d
f1
f2
02
05
f7
05
30
dd
f8
01
d7
fb
04
df
2a
ff
1b
fd
07
ec
ff
dc
08
e0
f9
f3
0d
de
24
f2
14
dd
2f
c4
14
fe
f6
f6
0d
ed
0f
0f
09
25
2a
08
0e
bb
03
ef
2e
2c
e3
da
36
0b
f0
20
fa
14
11
d5
d7
f8
cf
07
1a
08
0e
02
0d
ed
d5
2e
d6
de
06
0a
fd
fb
13
ea
4a
02
eb
e8
03
2f
0a
11
11
ed
13
0d
07
e5
f2
22
b4
15
1e
03
fc
eb
29
d9
d1
32
05
16
da
2a
e7
27
fe
df
fb
09
05
3d
eb
ef
f2
c8
1c
2b
21
0e
fa
08
f3
e2
09
1a
f9
04
18
ff
0f
e7
1f
02
03
14
1a
e8
0c
ce
e5
1a
af
f3
22
20
00
ed
0f
fa
2b
12
ec
0b
30
f3
f0
f8
e8
2f
0d
31
e6
ef
ec
04
1a
f4
f4
1c
09
20
ef
2b
f8
06
f3
f9
d7
c0
ee
ea
26
40
e7
15
05
00
f5
0a
10
fa
01
f0
09
22
41
fb
e5
35
ce
c7
28
fc
20
ef
14
29
2c
d1
e4
e2
ed
ff
db
01
c1
0a
01
ef
0e
19
e4
f1
23
0b
f9
d1
f5
0a
e1
14
e5
df
0c
15
ea
af
01
dc
de
ea
ee
e4
d3
e1
d8
09
15
fe
04
fb
f8
11
ea
11
26
1f
16
e4
de
17
0c
fd
ec
f4
04
22
11
39
e3
d1
e7
18
0c
28
d0
ec
0b
0c
f7
10
df
0e
f1
12
f3
13
16
01
fb
08
ec
fd
1a
f6
f6
fd
f5
f4
e7
0f
1f
0f
ff
05
11
09
0a
07
22
0b
09
f3
ff
09
eb
13
fc
18
ef
f9
eb
f9
01
f9
f8
13
0f
08
25
fa
0d
02
eb
fc
04
26
e9
07
ee
19
e6
fd
02
06
14
15
0c
de
ef
fa
01
ee
fc
05
0e
03
f7
df
e1
ff
ee
e2
f6
26
f5
14
16
05
03
fb
13
fe
fb
15
09
f3
f7
18
04
ed
d9
f0
f8
10
0d
25
e5
ef
e6
ed
e8
0e
0f
1d
fc
fe
f3
d7
12
fa
d9
e1
24
f7
fb
1c
ef
ff
02
18
cf
de
1a
ee
00
03
f5
0e
07
dc
04
e0
e6
f5
16
f8
07
d5
22
0d
de
1a
0e
0e
10
d3
04
e6
23
e2
11
08
f0
dd
f3
1f
03
ca
16
ff
fe
f8
ed
fa
f9
dc
0d
da
fc
20
e9
ea
04
27
f5
f3
18
f7
f2
f8
fa
f0
e6
fc
ce
e7
e8
ee
11
ec
fb
e7
da
34
47
0e
0e
13
e2
f7
0e
19
ec
03
eb
fc
f2
06
03
f1
f0
10
0d
1d
de
c2
0e
ff
1d
c9
0f
d2
34
02
03
0d
14
e7
0c
da
da
0d
e1
00
f4
0b
e6
11
21
f7
fe
05
01
f5
22
15
e4
1b
fa
13
4c
11
d6
01
f8
1a
24
0c
20
0c
0e
eb
08
0d
08
25
1e
ec
fa
05
23
14
28
de
f4
f0
f1
ed
23
1e
0b
1b
21
c4
f6
04
3b
df
df
09
2e
04
0a
02
f4
00
20
bd
05
cf
d9
f0
ed
32
27
11
ed
e7
1e
24
31
27
fd
14
ff
ec
fe
20
f5
d7
05
f1
0b
ff
de
ce
1b
e0
f1
25
f6
df
fe
ea
1f
d5
11
d1
12
f2
fb
fe
06
16
eb
09
f4
21
ed
db
f0
0b
f1
e3
1b
1c
1a
f8
fb
1d
fc
f5
1f
48
15
19
16
f3
15
f5
f6
15
13
1f
05
ed
d4
d9
d1
0f
fc
07
f9
0d
e4
fc
32
24
0e
04
e2
06
fd
1b
10
e7
33
29
2c
08
12
34
d9
1e
f4
ee
e6
12
e1
e8
12
14
31
d3
0c
15
06
ea
fb
03
fc
00
22
14
fa
fc
11
15
08
f7
17
12
11
0d
06
25
06
fa
f2
cb
db
fa
11
e9
f2
0d
09
db
11
0a
13
03
03
e9
fa
01
ec
e5
c7
16
f0
11
f1
18
04
f2
14
f8
10
0a
f9
fb
10
0e
f6
db
13
02
fd
f2
01
f8
0f
2f
fc
26
0d
14
12
0a
f1
07
e4
de
fb
e8
14
16
f4
2e
fb
19
f8
1d
08
0a
ca
22
15
f2
e7
12
ed
0d
07
10
e7
cb
fc
fb
f3
eb
e2
35
0d
04
c0
16
f5
db
2c
f9
f5
bf
ec
1b
d7
15
1a
16
e3
f0
38
22
f9
f2
29
01
00
f0
ff
ee
21
15
eb
f4
12
01
fc
db
1b
16
19
e6
fe
ea
f0
ef
27
1e
04
13
c3
f3
20
01
fd
e0
fe
09
05
10
04
eb
10
e8
fa
e5
d4
f2
f2
f0
07
fb
fc
0c
fb
00
dc
ff
06
09
02
ea
08
fd
09
e1
df
ed
14
0f
00
f1
fb
ec
0b
f8
2e
11
fb
09
01
e6
de
e5
f7
0b
00
f2
01
f2
ea
11
1b
e4
0e
bc
02
fa
e9
12
fa
df
ff
ef
09
ed
f6
f3
e3
fd
d7
11
f2
f6
ec
e4
06
00
f7
f4
ed
15
06
05
32
f3
11
e5
f8
0b
0e
ee
22
fc
06
ec
1b
13
08
18
ff
fc
fa
16
eb
fb
0e
ef
ea
27
0b
fb
1b
e6
f3
06
10
db
d0
f0
ed
14
06
19
f0
2d
fc
10
e8
11
0c
0b
e5
28
f9
01
03
ef
1c
07
1c
2f
d9
fa
fb
28
1c
24
fa
de
e9
e4
f7
03
06
03
f7
f1
f9
f4
19
0b
15
f0
f9
e8
ee
e4
f1
ea
f8
17
0d
03
1c
0c
e3
d6
fd
25
ef
01
29
fa
d2
08
f9
0e
fd
fa
ed
fe
f0
de
0b
e9
d2
fa
e1
fe
fd
c6
ff
fb
fa
0f
e1
c5
fe
f0
f6
fd
31
04
18
f5
27
eb
3a
02
1d
0b
03
c1
f2
e0
05
07
dd
da
de
e8
19
f9
07
f9
08
12
11
09
04
0c
29
fa
e1
f7
30
f4
2d
fb
19
1f
35
d0
10
19
0a
0d
ce
db
fa
3b
eb
d7
1d
1e
ea
e6
15
f9
d8
19
d6
05
2b
e7
00
06
c0
e7
1c
f1
24
3b
e5
f0
2a
f5
f8
13
31
0a
1b
21
e8
25
fc
fe
ec
10
ea
0a
12
fb
07
17
f2
d6
28
eb
f8
fc
06
0f
13
ff
08
f2
fd
dd
ed
06
0f
e0
f4
fd
11
cc
db
ee
f8
26
f9
e7
ff
ed
14
e7
fd
db
08
f0
fe
df
fc
da
11
ed
15
d6
f1
01
f0
ea
f1
16
08
f9
02
ec
2b
ed
04
08
2d
ea
0a
26
fc
ff
fd
0f
ef
f4
10
e6
1f
ec
0d
ed
fb
08
10
23
e4
00
19
f8
00
fb
03
ec
0e
0e
ec
e9
16
20
f8
04
1d
e8
f8
ee
ff
01
23
f8
0b
08
da
02
df
0b
ef
f9
1c
31
f1
ee
ef
dd
09
0a
dc
17
0a
07
0c
00
0c
1a
28
07
07
ed
e2
06
06
1a
eb
1a
11
ee
f9
ee
f5
05
0c
18
03
07
f9
29
0b
27
e5
07
0f
f9
cd
ef
d4
24
0c
f9
10
1d
fd
12
f2
11
f8
f0
e3
0e
eb
09
1d
ea
10
0a
10
29
16
cd
fd
eb
2c
17
05
fb
0a
e7
f8
f8
20
e3
27
fa
12
f2
0e
14
f4
fe
d6
0a
06
1b
03
ff
25
0f
0f
15
15
ec
f1
01
11
f9
15
1e
ce
0a
02
0e
f9
1a
f8
04
0c
00
e9
08
f9
2b
e5
02
14
fe
04
09
f0
03
b6
14
1e
21
e9
0e
fc
1f
f9
08
ff
48
0d
27
08
14
2f
f5
22
f6
2b
1d
05
f1
07
27
23
02
ee
07
fb
0c
09
0a
0c
02
14
08
0c
0f
ea
05
eb
f7
e3
0a
02
fa
21
fc
f8
f3
e0
0a
fd
07
05
f3
1c
1b
06
05
fc
27
f2
da
17
fd
db
1a
ee
17
dc
04
1e
08
ee
f7
13
f9
22
fd
f0
07
0e
e4
f7
0b
00
16
1d
3a
ff
f6
ea
07
08
08
0d
1b
f2
0c
ea
eb
f7
0e
f2
e9
11
0c
19
17
f3
ff
ea
0c
f8
02
f2
12
08
1d
10
0e
ea
ec
05
00
3b
31
e6
0a
fa
03
24
f4
f3
f9
f2
16
da
07
ea
f7
13
11
11
24
0c
ed
08
f3
0d
1a
11
db
f8
e7
18
f5
09
e8
06
04
1c
dd
fa
18
ec
1f
03
0f
0f
c6
09
fc
fa
f1
f9
e1
10
06
27
fc
f1
ef
10
12
fa
2c
e4
13
e5
1d
30
e1
e0
f6
e7
27
f3
e3
01
d4
07
13
00
00
fc
01
ea
11
19
e7
0b
02
1d
e7
06
0d
30
14
37
02
12
f7
13
05
c9
f9
fd
03
e3
e4
15
f6
d3
ee
f9
d4
07
fe
10
08
fe
ee
f9
fa
29
ed
14
ec
19
15
05
05
d0
de
e0
01
ff
ff
04
0b
c5
33
22
dd
ee
0e
1b
11
d1
05
ee
e8
00
11
f7
fa
df
04
14
06
09
14
1c
07
12
07
f9
04
e7
25
13
04
0c
00
e9
de
10
18
06
10
e5
fb
e0
e7
fc
eb
e5
05
1e
0e
0c
07
00
f3
df
d2
00
fd
0b
f5
09
f5
09
12
f7
f8
fd
ff
0b
f8
f0
2e
e7
14
06
f2
ed
ef
ef
09
eb
ff
13
20
dd
f6
0c
fc
fa
e6
e4
fd
ff
e8
e5
fe
f0
e3
12
1e
02
f5
20
e2
fb
ee
f3
10
f3
ef
03
1c
f7
1d
00
e7
ea
0b
1f
20
ef
32
02
ed
fc
02
f4
ea
f1
07
18
37
f6
0f
14
eb
f7
ea
06
0f
eb
e3
0a
31
ff
fb
f7
18
ff
fb
f3
33
f6
fa
09
fd
d3
02
21
15
17
20
fd
ec
eb
ef
f5
08
d1
0c
d4
05
fd
0c
fc
04
ec
13
26
ed
26
1e
e4
f8
28
f9
d8
ca
1b
39
08
00
f3
15
18
06
35
0b
3a
19
cf
ec
f8
1c
0f
17
08
08
c3
f6
cd
14
0b
fd
15
35
ed
e3
e5
f5
04
dd
f0
0f
ca
f2
f0
d7
cf
40
f6
0a
fc
f6
f5
08
18
03
ff
0a
a1
f1
1c
14
02
29
e8
f7
f4
1f
f6
00
13
f2
00
1f
00
d8
02
fc
d6
f0
0b
eb
3a
06
f5
d0
fe
09
05
f1
02
12
03
13
f5
23
28
00
ea
04
f0
0a
dd
29
00
f8
de
ed
1c
f0
d7
2e
1e
0a
f0
ec
0b
d6
4c
e5
21
e2
07
ee
f6
06
ee
d1
e4
0f
eb
fa
ee
28
de
fe
ff
0f
fa
fe
2a
e3
2f
fc
fe
ee
12
fe
f5
0a
ff
e0
1e
fe
f5
ec
1d
f0
e7
00
e2
38
f4
d9
d5
06
f1
05
0b
ff
e5
29
e0
ee
07
e5
10
e5
17
06
11
e6
e0
f5
ff
04
c2
f3
fc
f5
05
ce
fb
f7
1e
3e
eb
ff
16
0e
e9
fa
0a
de
27
c1
0d
fb
de
21
09
0e
05
11
de
1d
fa
f4
0c
03
14
1a
ff
e5
00
e2
41
1e
ee
e8
ef
e0
f9
10
df
06
f3
32
f2
e2
d8
18
fd
ff
2a
08
e6
13
06
fe
00
1e
10
12
0b
0d
f9
fa
e5
10
06
1a
f1
f7
e9
e1
00
dd
1f
00
ff
f7
ff
21
df
01
ec
e6
12
28
13
0b
e0
f9
e3
0c
1e
10
da
f8
16
ef
e8
f2
05
e9
09
f6
da
1b
fe
02
01
ec
de
fa
0b
d9
fa
42
05
f5
10
15
03
11
00
dc
dc
16
01
f8
18
e5
ed
2c
09
02
ec
e7
0b
0f
2c
f7
fa
10
0c
f6
11
10
0b
ec
f7
f3
04
1e
0a
13
19
06
f6
25
e0
04
11
08
eb
14
07
33
f8
03
e3
06
0e
ee
fa
0a
23
f3
fd
f5
36
fd
ec
f3
08
0b
0d
f8
e6
f2
00
12
13
f0
15
fd
21
0a
11
0d
d8
16
1a
01
d5
0a
e6
e5
20
06
f4
1a
25
37
f1
03
ee
22
0b
0f
08
fc
19
ed
2d
18
12
06
09
0d
18
0f
fa
02
0d
13
ed
fc
04
0e
1b
e9
08
ff
ec
d0
00
f7
f7
14
04
ea
f0
f3
fa
13
26
e5
03
0a
0a
ec
f1
10
dd
f5
1e
f0
0e
10
fa
06
f4
1b
2c
02
08
ef
e3
ea
f7
33
d4
12
ed
05
03
04
07
0f
09
29
15
00
09
fc
fe
10
1b
0e
10
14
f2
1d
29
f0
f0
29
15
02
08
f2
15
f9
0d
ed
11
06
2b
1c
01
14
ef
f8
f8
01
fa
16
05
0d
01
01
14
0c
f3
ff
ec
03
05
f8
ce
f9
2b
08
fa
f9
04
0d
c6
ef
e7
0b
ec
02
05
fa
d4
0c
0f
00
ff
e0
fa
f7
e2
11
0a
11
fc
f5
0e
13
20
f5
f8
14
1b
02
26
f8
06
09
0d
02
e4
f9
07
fc
fc
0d
f6
1f
fc
3a
f0
07
ff
fb
fe
1e
ec
db
1a
01
eb
ec
1a
0b
da
29
22
e7
eb
0c
01
18
f0
fb
00
fd
f1
07
0b
e3
00
f7
fd
12
03
0a
f5
1d
26
f5
15
ee
03
00
20
fa
05
08
0f
25
0d
f4
f7
0d
0d
00
0e
1d
29
01
f9
c1
e0
d6
fc
f0
fb
f2
13
00
e2
1e
ef
09
05
e2
1c
df
12
18
e1
f8
01
03
00
1e
dc
0b
1b
ec
eb
11
fa
e6
0f
1b
08
11
04
01
00
09
f9
fe
de
02
03
f8
ed
24
fb
01
19
12
00
fb
02
f3
34
23
ef
d9
ec
fe
15
d9
06
fc
d3
f7
ed
fb
07
06
fc
f8
eb
1b
f4
24
18
35
09
fa
f8
fe
f6
da
08
e8
f3
dd
0e
02
03
05
f1
16
1a
07
10
e2
f9
fa
f3
1e
ff
2e
00
04
0e
11
10
0e
23
03
1e
0d
ff
ee
e2
02
17
2e
1f
08
16
08
0f
14
06
e3
da
26
dd
08
db
0e
f4
20
05
1a
0a
0d
fd
1b
08
1a
25
16
e8
12
1a
d2
ea
20
0c
1f
ea
1c
00
26
fd
11
54
ec
eb
02
f3
0a
dc
0c
e5
ee
08
18
16
e0
f0
eb
2a
0a
02
02
f6
fc
c4
f3
f0
18
22
0e
ea
03
0a
14
08
ec
06
f2
f5
f6
db
0f
03
d7
fa
17
14
24
f9
0c
ff
e6
0d
e3
ef
0b
e6
f3
ce
05
fb
13
06
fc
fe
03
fa
e7
f4
f0
fc
fb
1a
39
dc
0f
ec
fc
17
dd
e8
31
08
ec
0f
33
e4
08
f2
f9
17
07
f4
28
fa
1a
05
06
17
f6
ee
47
c3
ed
ee
1b
dd
36
1a
0b
f7
f3
02
1f
ed
cb
0d
2c
0e
ff
0d
fb
12
0c
02
09
21
01
0d
0d
0b
05
c5
fe
e0
2b
f1
00
ef
f5
18
e3
2c
ee
f7
11
e9
f0
d2
ec
0a
e6
1d
0b
f2
e5
db
1b
f8
f4
08
07
14
f4
00
14
01
e2
ed
13
0e
11
32
f2
f0
fc
2c
ed
4c
02
e6
e4
f1
0d
f0
db
fc
f3
e6
04
d6
11
c7
f9
06
0b
0a
e3
0f
15
03
fd
05
01
ec
09
05
15
14
ed
30
0a
f0
f6
f9
09
de
dc
b5
02
13
08
11
db
13
0a
1b
ea
1e
2c
14
05
08
e2
05
f4
fb
13
f0
27
dd
f2
02
b0
eb
28
f0
f4
e8
0e
f4
08
0e
ee
21
db
ff
0c
ff
20
12
f3
bc
10
15
e0
e5
e5
de
18
16
05
00
eb
3b
dd
0a
15
58
ee
31
e2
e8
16
00
04
f6
26
3f
ed
dd
18
08
0c
ed
04
25
f8
26
1a
2f
f8
18
e7
02
11
f6
04
da
f3
fd
04
2e
05
35
f1
fd
07
f3
0a
f5
03
db
de
07
26
fc
f2
f2
f9
02
f7
db
fb
0f
f6
05
ff
0d
08
08
fd
e6
1a
11
fc
f0
fc
06
01
1d
ff
ed
1b
16
ef
1c
13
03
20
de
f9
f8
ff
04
18
f8
03
f4
03
fe
fa
09
06
f8
00
09
ff
f8
22
16
1a
15
ef
f8
ff
21
ff
e8
e8
16
06
06
eb
21
fe
f4
fa
fb
0b
f4
1f
07
00
10
e7
fa
fd
08
08
02
0c
0e
0d
f2
12
2b
0a
0e
f9
13
fe
ec
22
04
1b
fd
f6
38
20
2e
fa
f6
06
15
fe
05
ff
fd
13
e8
0b
11
f9
0c
e9
e5
d2
f2
0e
fd
f2
fd
f1
03
f9
05
e8
f6
df
03
0d
e7
05
f1
24
07
fd
f1
fa
be
05
f2
25
f4
fd
16
fd
fb
1b
00
19
ff
02
d5
db
09
0c
e2
16
de
06
24
03
f5
fc
fa
eb
18
f5
07
03
10
0b
df
06
f0
d2
02
1f
0d
fe
07
04
ee
db
f6
05
00
d6
0e
05
fe
07
f5
e4
f9
e7
d0
f9
0f
13
da
08
05
ef
ff
03
e3
ee
cc
f1
f8
11
00
ed
e3
0e
15
f0
cb
fa
11
09
14
f6
fd
13
1f
f6
11
0e
f2
f3
f1
10
fa
e8
1a
19
ee
07
00
d8
32
db
d3
0f
0a
09
02
f0
e2
2d
fb
fc
31
09
fb
12
da
20
ce
1c
31
ed
f9
13
f9
12
1b
e2
10
0e
16
1e
02
f9
f3
09
bf
d7
ee
17
3a
02
f9
f6
0d
0a
1a
d9
28
29
e4
fe
17
03
04
fb
e3
be
03
13
e7
19
eb
28
26
1f
e8
f9
0b
1a
23
0b
fc
16
ed
16
09
e9
09
12
2e
cf
31
ef
f8
06
f1
eb
f0
09
f4
00
ec
e7
15
e4
1c
f2
de
e8
df
0d
cb
df
17
f7
f0
e6
2a
e6
01
f8
c7
02
04
20
18
0d
f8
15
e6
dd
f1
03
0e
06
0a
d7
ee
f7
12
03
0c
f6
fb
44
c4
fd
03
df
10
1e
f5
01
d2
23
e4
10
fc
1a
d0
11
11
39
fa
07
0e
dc
eb
f3
0b
20
27
ee
05
0e
ec
0d
ec
0c
f5
c7
00
1c
0d
d5
29
0a
ff
e7
0e
eb
f0
e7
f0
fc
da
27
0f
28
28
0c
fc
14
0e
f2
1a
e1
1d
08
0b
12
16
06
01
f6
0d
fd
e7
f7
16
00
04
eb
f1
22
fa
0e
26
d2
f8
f7
0e
1b
fc
cc
1f
13
dc
00
dc
ea
ee
f2
0b
ea
27
e8
13
fc
fd
30
26
f2
e7
20
02
03
06
26
fc
3d
18
fe
f5
1a
1c
1c
e3
17
fb
f6
0e
32
f7
03
fe
f2
06
01
0a
ee
fd
3a
09
0a
01
f7
17
d1
ea
0a
02
cf
10
d9
ef
00
dc
b0
04
d8
db
ca
00
fc
f6
11
0a
ff
08
f4
f0
fc
fc
e0
e9
e5
11
eb
07
0b
fb
18
0f
1d
0a
1c
05
05
08
00
05
f0
15
0a
0d
11
02
06
e4
e2
01
ec
14
06
f7
0f
12
f3
17
e3
04
f1
18
fa
fc
e9
07
2e
01
05
f8
eb
04
f8
00
0d
22
0d
12
e8
e6
fb
10
f6
08
ff
f3
01
fc
f6
1a
f0
dd
09
05
0e
f8
03
f4
00
e8
e7
e0
ff
20
10
06
f3
14
f8
24
dc
1b
1d
03
f8
1d
0a
dd
24
fa
f6
ee
dd
f2
11
ec
1b
1a
fc
f9
d4
14
19
da
f0
19
13
ec
f9
13
d6
00
10
fc
e9
f9
16
ea
18
15
19
f4
0a
d2
04
07
ef
fc
05
04
0a
0a
05
0b
1c
06
0e
0c
00
fb
f6
19
11
e3
f3
07
f2
e1
f5
14
08
08
14
07
df
07
0d
1c
17
19
eb
d8
e9
ff
1a
dc
11
11
00
08
03
dd
ea
f3
ff
fb
fd
01
0b
0a
14
00
0f
1d
fe
ee
2b
22
47
1e
15
19
e6
f1
f0
25
18
06
ed
2b
10
13
e8
1f
e8
0c
db
ee
e8
11
0b
e1
f6
e3
0f
1f
e9
fa
2b
eb
02
03
0d
eb
12
e9
07
ec
d6
0b
f6
e0
c8
13
0e
ee
0c
f1
fd
f5
f6
00
16
1d
28
07
f5
f5
e7
18
f5
e0
02
12
d2
18
01
03
fb
07
27
22
fb
fc
00
f1
fc
12
fd
f9
f2
f0
03
f7
dc
1e
21
03
f2
e4
29
07
09
0b
0f
0f
f8
09
f6
de
0c
13
20
02
de
0b
fb
e8
09
f6
e3
fa
f0
03
01
15
fc
d5
06
1d
03
fb
ec
e4
f8
20
0c
07
0b
09
17
f5
f8
03
11
2e
f9
1b
04
f1
07
f1
fd
f3
d8
fd
08
0f
e4
06
1b
f1
15
fc
11
0e
ea
fc
0f
f6
f9
19
df
fb
07
e3
1c
07
f4
f0
32
fc
fd
fa
ca
d2
fd
eb
e4
33
ef
fd
0e
ea
0a
14
03
e3
1d
0f
e8
0c
cc
26
d8
20
07
f7
fb
09
1a
02
23
04
fe
df
ff
0d
0d
0a
00
e2
0d
f4
ff
ef
41
fc
01
fa
10
2a
0f
f1
03
09
06
f9
1f
fa
e5
e0
f3
1f
1e
fb
fe
d8
0e
f0
eb
1b
17
c6
f3
f8
f0
fd
cc
ea
19
07
ff
21
29
03
09
f0
fa
1a
11
22
03
05
17
f3
19
de
f6
23
fc
06
e7
d5
09
04
28
1a
e4
e9
e0
13
fa
eb
e5
f3
ed
fd
11
df
b3
f4
0b
fa
07
f9
05
f2
fa
fc
df
09
f6
fb
f6
fb
19
ff
eb
bf
0d
fd
19
00
e5
03
ff
f6
1a
02
d2
08
1d
fa
1e
07
17
06
f0
0f
ed
16
e5
11
18
04
09
07
0d
ed
e6
f9
23
f9
18
0b
dd
fc
f4
2b
f8
da
07
ce
ff
14
07
19
eb
f0
1f
0f
1d
02
05
f0
1e
02
ee
18
e2
0c
07
ff
1d
e5
19
ec
d6
db
1f
18
30
c9
07
eb
e9
05
2a
26
16
06
05
f2
21
3b
fb
2b
01
12
e7
30
dc
17
fd
14
01
f3
1a
e2
10
02
25
f2
15
db
04
05
00
d5
f7
0a
1f
f6
f5
f5
0f
d0
18
13
ec
e3
0c
e9
08
3c
fc
30
0f
f2
29
fc
e1
fe
01
0a
ff
e1
11
da
15
00
0b
f4
07
dd
ec
df
2d
22
f2
ff
1b
08
ef
2e
fa
cd
2d
cb
e6
ee
02
fe
00
05
fc
e6
fc
0e
0c
0c
08
06
19
13
ed
16
01
f8
dc
09
f9
f1
02
c6
ff
eb
c6
0a
fb
ea
08
09
f3
03
00
01
e1
0e
fc
04
07
fc
01
f7
f3
e3
1c
22
19
2b
0e
09
03
da
e2
1a
e6
13
03
f6
03
05
dc
1e
e2
18
c1
0e
e7
fc
fa
0f
22
e8
f5
29
0d
20
e6
0e
f4
30
ef
f5
23
ed
00
e0
12
ed
05
30
08
ed
1d
22
ef
03
08
09
13
e9
b8
07
fd
f0
e5
12
f0
1a
f5
f1
ec
f2
f3
00
07
f3
ef
f0
fc
09
05
3d
d8
e1
db
f9
f5
10
11
d6
13
fc
f7
01
14
ec
2f
d2
ec
1f
fd
f7
01
14
e7
f9
0d
0d
04
0c
0e
de
f3
dd
0b
0d
fb
f7
e7
1d
0d
22
1b
e4
f8
27
02
f5
00
e7
de
0e
e7
0f
00
e1
1d
ea
f1
eb
f2
2d
f4
04
f0
14
f2
33
26
e2
f5
be
15
16
1a
f8
15
2f
f0
f2
fb
11
04
fe
dd
22
ea
f6
08
17
17
fe
19
0d
00
f3
09
ea
ff
12
0e
11
1d
04
18
08
09
09
11
f7
03
ee
00
17
02
2d
08
ff
fd
3a
1c
18
0a
04
0f
da
0a
07
f5
0c
13
f8
ed
ee
0e
1c
06
29
13
19
01
28
05
f2
db
df
0c
52
f2
ff
0f
0b
0f
0d
06
ee
05
39
09
ec
ff
17
1b
ef
10
d7
22
f1
ef
06
f6
fd
22
e8
24
06
26
db
e3
ef
15
1a
41
1c
f3
0e
16
e7
e4
15
6b
de
ed
09
21
0f
f6
e4
40
51
f6
d5
22
09
04
0f
fc
f2
ec
25
f6
11
35
fc
09
e6
20
40
0a
c0
13
10
fa
f9
02
11
10
13
df
d8
df
ff
fe
2a
fe
e1
0c
0b
f8
1d
ee
f9
fa
db
fb
d5
16
fe
c8
fb
37
01
bd
f8
e4
02
0d
f7
22
e8
28
07
e9
f0
17
d8
f1
08
0b
e9
03
52
ee
1a
c4
2b
21
04
3a
e0
1a
cc
16
2d
ff
0b
ff
15
f3
f2
e5
e3
23
0f
28
fe
16
32
dc
e3
16
ec
06
eb
1b
03
f0
a4
f1
06
f0
d9
06
f5
06
00
37
f3
d5
fe
c7
e5
f0
1d
da
c6
26
19
28
45
13
e2
fe
20
02
e1
f8
1c
05
e5
e4
14
22
d4
d0
d6
0c
fd
1b
14
db
15
38
1a
06
d7
fc
ef
d0
dc
f0
ce
d9
1a
e5
1b
e4
f4
f5
f9
e9
12
27
f6
e3
fd
e1
ec
f8
04
0b
f6
1c
01
0c
f1
e9
0d
0e
ea
12
e7
24
e1
05
1b
e1
f3
fc
e5
ee
01
e0
f0
45
e8
d4
fb
01
e6
0d
f3
0d
e7
0f
36
18
eb
1e
3a
fa
0f
03
0b
ef
13
fc
15
00
40
e2
ed
04
fb
00
22
09
0d
d8
ee
09
ed
e9
e3
03
fe
16
0b
fb
0b
39
e5
fa
42
f9
24
ff
10
ed
05
f2
fe
fa
09
fb
16
f1
05
d7
f2
05
07
17
06
0a
12
07
f9
12
1b
df
e4
f1
e4
07
f9
e6
e7
06
25
f5
d1
f1
02
10
e1
f7
fc
ff
f5
d7
2b
0e
2d
1f
df
fe
1f
09
42
fc
f7
f9
f9
15
21
0b
f3
2e
f0
1a
f7
0e
e8
da
e4
da
f0
f8
f6
ef
d7
00
08
f6
c6
ff
19
d2
f3
06
04
14
01
45
0b
e5
03
0b
fc
07
fc
ff
df
f4
12
fe
de
21
f8
ed
fe
ed
ee
e3
fc
10
08
e6
e2
00
13
18
15
07
fb
11
ea
e6
14
05
01
f3
e4
fb
27
01
12
e3
05
f3
e7
1c
06
05
d7
2d
d9
db
b8
df
12
0a
16
f9
ff
e6
eb
0b
0e
e4
07
0f
fb
04
0e
d7
f7
e1
19
f8
f7
18
fa
fe
f4
f9
ef
e2
0d
e1
f1
f6
0c
0a
21
0f
e5
2e
e5
ea
17
05
fa
e4
e4
05
06
fc
d5
02
19
cd
fb
0a
38
df
38
1e
00
1c
17
f6
10
cd
1d
24
24
0b
08
08
fa
10
d4
fd
1a
ed
0f
10
05
18
14
07
0d
03
fc
0a
e8
09
16
e8
02
22
f7
fb
28
17
e8
f4
3a
20
11
ed
cf
02
f2
ec
23
e9
0c
2a
0e
02
e0
f2
f2
21
fd
20
18
f8
23
26
e7
ef
f6
cf
e1
09
e9
1e
eb
1f
20
0c
f2
eb
f7
d3
10
10
ff
03
fa
05
ef
0b
18
e0
0a
1d
ed
15
20
fb
10
ed
18
d3
e7
f1
d7
e0
f8
ee
fb
f0
e6
ee
0a
1e
e1
e5
0e
0d
0e
1a
36
08
e1
10
f0
fb
ec
dd
e4
0d
24
f9
ef
0e
1f
f5
13
fc
fc
e4
ff
e0
e3
0f
00
ec
fc
fa
f9
c8
f9
f9
b4
fc
db
f5
05
10
0f
19
09
34
d2
04
fc
07
07
01
dd
e0
01
df
fc
f3
f0
03
10
08
0a
36
e1
e2
ef
04
ee
fe
15
48
14
1f
ff
0d
10
f3
f1
06
22
0a
ee
17
1f
13
d4
01
de
29
0b
ca
e2
df
f9
f8
f8
03
e2
bc
fa
e5
eb
f8
ea
07
1c
f6
e5
0b
29
fe
f8
f0
f4
09
fa
17
17
01
f6
20
03
d7
fc
04
e1
15
f3
16
cf
13
ef
04
05
04
ea
10
0d
00
13
0a
03
f7
0e
06
19
04
3d
fc
f7
1a
fb
fd
35
ef
f4
0c
f9
03
ef
f8
08
0b
fe
ef
f8
f9
d7
22
1f
1f
1f
ff
0c
ff
17
e9
f2
f8
30
0a
3b
0a
fd
fc
ff
f6
ff
03
ee
ff
f3
02
1e
30
08
0c
df
fa
1b
35
f6
34
2a
06
f2
fe
20
f6
03
ea
1f
fa
c9
f6
e7
fe
e2
f4
fb
ed
c3
04
00
ea
08
b7
f6
f8
0f
03
27
27
22
eb
05
1e
00
34
fa
f9
04
39
1a
00
ea
f0
30
03
fd
13
16
11
f5
ec
f0
e7
2c
c3
e5
c6
1d
fa
ec
30
19
ee
09
09
00
d5
11
d4
e4
05
e4
04
fc
ea
f6
f6
e7
f0
0d
fa
d2
25
06
f1
f9
28
0a
1f
ee
0d
f4
f2
dd
0e
ec
e5
1a
00
f6
0a
dc
06
e7
f3
f8
f4
db
e5
df
18
0c
0e
df
21
ce
15
e3
27
09
ed
ef
07
03
01
e0
26
ff
e4
03
f6
0e
0a
00
f2
03
02
09
ec
ed
eb
05
20
e1
e4
dc
db
fd
f7
08
0e
eb
de
15
ef
0d
fa
0b
28
e9
f7
0f
24
0c
04
26
19
01
03
e8
16
e5
0c
0d
ea
e9
fa
1b
08
0a
14
19
d8
fa
0f
ef
00
16
f0
f4
f0
02
25
26
ed
e7
d9
f5
0e
22
17
15
12
17
d2
f7
e6
14
19
03
de
fa
08
19
e1
1b
09
ee
15
0d
0f
01
df
1a
24
11
04
02
10
19
ed
f5
1a
fe
11
00
08
05
f0
0c
f5
f9
f8
f6
dc
f4
f6
0d
e6
0b
19
f9
eb
ec
f4
03
0a
f3
27
eb
25
ff
f5
10
19
21
0b
fe
fb
05
d6
3d
e6
c0
df
1b
0c
fb
fd
20
f9
1b
e2
17
fa
1e
1d
cb
f5
1e
05
1c
12
ff
fd
f3
f9
fd
17
16
ff
e8
ff
14
f8
07
28
09
1c
0d
fb
04
ee
02
f4
06
ef
fe
01
3a
fd
f5
00
ea
16
ed
fc
0d
fb
e7
e8
23
21
f6
2e
03
dd
ea
0e
fe
f3
f7
0a
03
0e
12
c9
20
ed
01
00
03
0a
0c
f9
16
f5
10
10
eb
ec
f2
09
1c
e5
f0
f5
0d
f1
1a
f6
fb
fd
e8
0c
f8
c5
19
0d
ca
ee
0f
e7
eb
09
ee
fc
e5
fe
e9
19
1b
f7
fa
15
18
4c
f3
e7
0c
e7
f9
00
f6
01
06
cf
eb
fe
0a
07
f3
04
04
e2
0e
08
02
29
f4
0e
14
fc
0a
01
ff
da
1b
0c
fa
ff
dd
01
fd
db
ee
f1
11
1b
e0
24
02
fd
12
14
05
13
cb
ed
02
08
ef
f9
07
14
e7
ed
fc
e0
d1
d8
cb
1f
0e
1c
11
f7
e5
f6
bd
f9
ff
ee
f4
fa
ef
2a
f2
f4
09
06
09
d3
01
f7
16
df
10
07
11
f4
0e
e0
c6
f9
f4
f8
ca
fe
1b
01
04
0b
fd
29
e7
f7
1e
0e
19
11
0c
06
18
04
04
10
15
10
ff
d0
fb
06
cb
f6
f0
ff
11
ed
0c
f1
08
0a
fa
06
cd
27
26
fe
e6
d9
f8
0d
f5
15
05
fe
df
f5
e0
e6
e7
3b
08
23
f0
15
ec
eb
e1
01
29
df
f8
0f
f8
2f
d8
ed
14
f4
fb
11
01
11
fe
f2
f5
ca
e0
d9
11
f5
13
fa
01
06
e5
f2
07
f7
f2
ff
1c
fa
03
bc
06
ed
f2
ea
25
1e
0c
14
2a
11
fa
16
f8
4a
15
0d
e4
eb
eb
06
3e
f5
04
17
ff
d4
01
2e
f4
0f
13
f8
14
12
f6
dd
c9
e6
f9
16
13
fd
fb
09
f4
17
01
e2
19
cb
d5
f0
f4
cb
e1
0f
04
f8
02
16
03
0e
02
f2
08
10
1e
2c
0b
22
1b
11
f8
ff
11
0b
17
2a
05
08
25
1b
03
09
1b
06
f9
e7
f0
f3
cc
d4
fd
e2
d2
04
f1
fa
fe
dc
e1
2a
14
f6
cf
e2
0d
e4
fc
14
f8
1f
24
e7
f5
22
fa
eb
ff
f4
fa
d7
fb
01
0f
11
f5
0d
20
06
2e
fe
fe
e5
e2
02
0a
e9
26
ec
dc
e3
ff
f4
ff
f1
da
13
0f
04
0b
19
26
05
09
e3
05
fa
d7
28
de
40
ea
29
09
e5
ed
ec
13
eb
f6
1d
1d
0b
e2
f4
05
e2
ef
0e
00
0d
2a
06
ed
0a
e3
f6
f0
0a
ed
f2
2f
e3
de
f4
17
ea
12
04
00
10
15
df
e6
fc
cb
04
23
f2
e2
d0
f4
20
f7
2f
f1
16
e2
11
d6
e5
e8
01
05
df
04
fd
e3
ef
18
07
f2
fc
01
ed
00
08
04
0c
17
10
17
eb
0e
fd
0f
e3
f1
0b
fc
13
d9
0a
fc
fe
13
0c
d1
27
f9
02
e5
df
17
f6
f3
cf
f7
f9
0c
04
0d
22
04
27
26
0a
0f
fe
fd
fa
09
02
fc
fe
d7
06
00
15
eb
fa
ed
06
e1
09
17
f0
0b
e4
13
0c
2f
ff
f2
18
f8
0f
f3
02
f1
fc
0e
09
12
f5
0e
23
ed
e0
fd
fb
f7
e7
01
05
f1
fa
f4
12
04
19
00
04
f2
fc
20
1f
f4
07
12
ee
f4
e7
0f
0f
2a
0d
07
0f
f7
ee
ef
0f
e7
f9
14
14
e9
14
29
17
dc
17
fb
d3
07
f1
08
12
06
13
ea
1d
e7
03
04
10
ef
28
0f
1b
e0
ea
f0
f3
15
e4
26
fc
09
20
f5
1b
0b
f4
09
0f
e3
ef
f9
0e
ef
00
12
fa
f2
1a
ef
04
de
03
23
07
00
c8
ca
0a
d9
17
0c
f8
0b
1d
16
14
e3
fe
d9
2a
0a
00
0d
e9
0e
02
07
00
e4
f0
f2
fc
0e
12
d5
e4
fa
e1
f5
2b
13
11
ef
1b
ff
de
e6
09
f0
14
26
ff
f4
02
ff
05
1e
05
d8
fc
e5
0c
10
ee
f0
07
e9
1c
03
ef
05
fe
f7
1c
1e
e7
f0
0e
1c
0c
0b
0b
10
05
03
eb
29
0c
f6
1e
eb
01
de
01
12
e7
fd
02
0b
0f
11
17
f5
d1
0e
26
f5
f0
08
e7
e8
06
09
01
fc
e4
f8
00
08
e5
18
2e
1f
0e
07
18
f7
f4
25
27
03
d4
fe
e7
fb
f8
f4
f5
10
02
ec
f1
0b
0e
f1
ff
07
21
03
eb
0f
11
df
20
0a
f6
f5
fa
11
fb
2c
2c
15
05
11
f9
10
ea
1c
e7
3d
e7
16
03
07
1d
06
0f
03
01
dc
0f
07
13
ed
f8
14
ed
fc
ef
05
f6
e3
db
fc
17
16
c6
17
fd
00
f9
19
f9
f0
eb
e0
17
14
ff
26
f7
f3
d6
06
f9
0f
1b
15
dd
d4
01
e8
23
05
24
f8
fb
17
f3
e9
1c
09
00
f2
f3
f7
ef
ef
fc
fe
d8
e9
f7
fc
ed
0d
ef
35
10
10
2b
fc
0c
e1
bd
f9
e8
08
ef
fb
f3
01
fe
0e
fb
da
f5
0f
0b
07
25
fd
0d
0d
05
20
2d
0f
e5
06
2c
21
05
01
f2
15
f1
0d
f3
fc
f3
fa
ef
e9
38
f8
35
13
ee
fc
fe
06
f0
f9
de
07
ce
02
f6
fd
e9
00
17
09
f7
f3
ff
f6
17
fb
06
ff
fa
fc
c2
d7
e6
ec
ef
f9
d6
11
f1
0c
12
1b
19
09
04
0f
f2
05
01
26
f9
0f
11
09
f4
f3
de
fa
f8
1b
fd
02
18
db
06
0a
0e
f8
fd
0d
fa
fd
f8
03
0b
f0
0d
fc
0a
00
fb
e3
05
0a
c4
16
11
ef
e3
ec
f4
fd
f4
14
f9
fa
03
07
e7
26
fa
0b
01
0f
e9
f9
23
f2
fc
ff
f4
ee
f8
15
f6
0c
17
07
f5
13
21
05
ec
f0
0f
f2
eb
d9
1f
da
f1
f6
04
e8
1f
0e
0b
fc
04
f5
fc
0f
e3
ed
03
08
1f
16
da
f5
cc
f3
19
dd
14
fb
fb
00
d9
0d
14
08
fa
f8
3b
f6
00
f9
f3
08
fc
fd
d0
03
02
15
29
05
f5
fc
1d
ea
f3
e5
0f
14
19
17
ff
d7
f2
3b
11
ed
df
14
e4
06
31
46
08
e4
0a
08
00
0d
02
e6
f3
0a
ff
03
51
d6
df
fb
12
f8
f8
09
2c
d4
1d
e7
05
e6
dc
00
fc
01
09
e0
13
e9
f2
ea
d9
f7
f9
1a
1e
01
0f
e4
ef
f8
ee
1a
de
05
0a
03
2e
ed
eb
fa
22
26
f4
04
01
1c
f2
fc
05
ec
dd
e8
10
e6
0c
d5
08
c0
18
3b
12
28
15
d9
d2
fc
f5
d7
e1
e6
f3
02
0b
0c
ff
d2
06
d8
22
f2
0c
f7
e4
eb
12
f1
e8
17
fa
02
e9
0b
06
33
04
0e
13
e2
fa
0b
f4
06
d2
ef
f1
00
0b
02
e8
0a
08
e8
f1
f9
ee
1f
1a
06
e6
00
f1
d0
d8
0d
f8
ea
07
fa
df
11
e3
33
ed
fa
0d
1c
08
24
0d
f8
0c
1d
e2
f3
18
0b
19
20
1e
0b
e3
d3
e5
da
fa
01
f3
23
06
14
07
f5
fe
df
f4
1c
04
02
01
13
f5
e5
11
e6
2f
30
05
01
07
0b
f5
12
e2
0e
18
08
10
29
0a
e1
bf
ff
0d
ed
f6
1f
41
d4
12
fc
c4
15
d0
14
0e
f5
f7
ce
cf
07
dd
d7
fd
f3
e4
f6
ff
08
f1
fa
fa
d1
08
fa
d6
0c
0f
2d
d6
0f
f6
e2
0c
f7
c5
0e
d6
ff
fc
e3
f4
09
dd
21
09
08
f2
f8
1a
ee
28
08
38
e3
0c
de
04
13
0d
e5
e1
e7
00
c7
0a
fc
23
ea
e7
3c
fe
e9
1f
f1
09
34
e1
16
1d
d0
dd
1d
16
33
2f
da
b4
0d
d9
eb
ff
2b
e0
e0
fa
da
13
ec
f3
f1
fd
ec
24
0a
2a
ed
da
fb
06
e6
06
ce
16
08
f9
0d
f1
30
00
05
12
f1
19
be
07
15
1a
27
f8
df
e5
f0
11
ef
20
ec
0c
fb
f4
13
14
fe
e6
fe
e2
ea
0c
09
21
0a
09
30
dc
e7
fc
19
fd
11
13
0a
e7
0c
07
f1
ed
13
08
04
f8
cd
0c
f2
e9
01
f1
06
01
ed
03
08
c9
03
0e
f1
f4
e2
e5
0e
df
04
02
0b
1c
18
0f
da
f6
26
0a
23
00
f2
d9
2a
16
f1
ec
2f
13
0b
ea
ff
f8
12
d6
12
10
f8
e7
1b
29
49
f6
f4
03
e8
e9
fc
2a
e5
f4
08
e8
e1
eb
df
dd
11
17
f2
05
de
02
17
0b
32
25
03
1b
03
01
e1
26
e1
0f
1b
02
0b
08
27
19
08
ef
0f
f9
12
1b
04
bb
fa
e1
dc
f0
ef
df
cc
26
0a
e9
dd
13
24
ee
fe
15
f1
ef
f4
f2
02
06
f2
04
df
e4
eb
25
10
f7
1d
f5
2b
f1
fc
ef
06
0f
04
f4
fd
e5
08
f7
10
02
e2
30
fa
24
d2
f9
02
e7
16
0d
e5
f7
10
00
11
e4
21
10
07
ec
e6
fb
0b
ff
df
0c
f9
f8
01
0e
08
07
fa
31
02
0f
07
01
0f
c5
0a
13
00
01
fe
12
07
ff
f1
1f
10
00
13
1b
f1
e8
fb
1c
f6
fe
25
f1
14
e7
ff
0e
1a
f5
0a
fc
12
05
eb
eb
fa
1f
fe
e8
09
e1
e3
06
0d
f6
e7
03
eb
ff
ee
ec
fe
02
ee
e3
fa
eb
ff
0a
ed
0f
0f
e4
f8
28
15
0d
d4
fe
0d
05
25
49
14
06
09
13
e9
fe
0d
f6
fe
fc
02
04
e9
1f
fd
fc
f5
ee
26
00
0f
10
f7
f9
fb
03
38
0a
1a
f4
e9
ef
f9
08
e5
00
07
05
fd
de
e5
f5
1f
fa
ed
d5
15
f5
d6
09
0f
fd
fc
da
ea
1d
01
2a
d2
1e
e8
20
ec
e2
fd
fb
df
fb
fa
09
e1
eb
fc
f2
19
eb
0c
06
21
07
f2
12
11
de
1f
f4
24
21
0e
de
ff
0e
f9
fa
0f
ef
04
2b
01
ee
d8
f9
1c
f2
f6
dd
1b
19
14
16
ed
fa
f4
ff
1a
f3
15
f4
0d
06
14
f0
10
e9
23
14
e6
ee
11
ff
f5
f4
e3
dc
fa
2c
16
dc
fc
ed
19
f6
f2
11
26
df
f2
09
e8
1e
f3
14
10
e7
fe
19
ea
f8
1e
0f
f9
f6
04
03
0c
09
05
e1
f6
d6
28
36
2e
00
e1
f1
20
09
18
23
22
19
ed
f2
f5
f9
d7
0a
f1
0c
01
f5
f0
f6
f2
13
f2
26
1f
17
d2
f7
e2
1d
f1
f5
4c
fb
df
fb
b6
08
fb
0d
ff
e1
2a
15
1c
ed
e5
0f
10
f0
e6
00
1e
f6
d4
cf
c7
19
e3
04
e3
fc
fe
fb
f5
f1
04
19
cd
1e
fb
2c
f7
12
ea
cd
fe
f2
e0
1a
f1
ca
16
ff
f3
10
f9
ca
1d
11
f9
f2
2b
eb
21
14
e1
e8
bd
d3
0b
21
0f
e9
25
f1
12
13
fe
f1
f3
d8
0d
ed
34
ef
e7
fa
18
e1
20
0c
e3
30
fa
e2
e0
fe
ea
dd
f2
0c
24
f8
2d
e2
f1
ef
06
e4
14
08
18
f4
e0
ed
04
f5
25
ec
13
f8
d4
f5
f7
05
02
00
05
e0
03
21
1e
ec
1b
ed
22
f1
01
14
1c
ed
da
f6
15
ec
fb
1d
d3
1e
5d
ce
14
00
fe
1d
17
14
f6
2b
10
0b
3a
17
1a
fa
f0
f1
ed
f4
e2
2b
f9
ec
f6
0b
21
e9
ef
27
34
23
07
04
f6
fd
0b
dc
e2
28
f8
fd
eb
f5
1d
ed
07
d1
13
0f
ed
17
fd
e2
04
db
ec
0a
ed
09
14
fe
ef
09
f5
d8
cf
0c
f7
07
cc
19
fb
07
ef
0f
08
ea
ff
f2
25
f5
1b
03
f3
fb
ff
fe
f7
f8
06
e5
06
28
23
17
10
03
26
00
eb
eb
0e
fa
03
d5
f7
eb
1d
12
0e
f7
2b
ef
ef
04
07
24
02
13
0e
f6
1c
00
1e
ee
cc
07
dc
18
19
ff
18
db
ea
d6
c8
1f
e2
09
0e
01
0e
0e
3f
c4
11
cf
f2
26
1f
0d
36
dd
de
0a
f8
05
c3
10
e1
f3
2c
18
2a
2a
19
05
f4
e1
0d
f5
f0
03
f8
09
d2
12
0f
de
fb
45
ed
e9
d5
de
c6
fa
31
d6
1a
0d
e3
12
de
f6
12
f5
17
e5
d8
f3
20
d3
fc
d8
10
31
f1
fe
fa
de
08
2c
18
d3
15
03
06
12
de
f9
19
e4
00
05
3b
17
12
f2
01
f7
f4
25
df
18
2f
48
02
22
f5
f3
f6
ee
db
02
09
f7
09
1f
eb
1a
26
29
16
0a
fb
f2
0c
c7
e0
0a
08
cf
fc
e6
0a
0b
08
f2
f7
fa
00
e1
04
f3
f5
2a
1b
f5
33
e5
ef
e7
1a
12
e2
11
f0
0a
1e
22
29
00
ea
05
e7
d1
fc
22
05
15
ee
ff
39
de
ee
18
2c
f3
d6
f7
09
1c
c8
d5
01
11
ee
fb
fa
01
1f
1c
ef
fe
ef
0e
f0
1a
0b
bc
11
f6
fd
fc
0b
fc
02
02
eb
18
18
15
c5
08
14
fe
1c
22
f2
29
1b
d5
cc
e4
36
24
d8
f2
e9
00
06
27
04
25
08
c9
f2
dc
10
21
f4
f9
fd
07
0c
ea
e9
d8
15
db
09
e0
00
14
02
ec
20
e5
0e
1b
ca
09
04
ef
2f
ec
f7
e5
fe
0a
07
2c
2e
0c
e9
08
14
1b
e7
0d
de
1c
fa
2e
17
e9
1a
05
25
1d
28
1d
d1
19
f2
d6
22
00
fd
07
23
ff
e9
ff
10
09
d4
f2
f7
b2
f3
23
f9
14
d8
1a
ed
10
28
f0
f9
24
05
1f
0b
05
d5
d5
11
05
b3
0f
ce
e4
02
f3
2a
00
d4
09
d9
00
1e
05
e1
f5
e0
e0
22
0d
0c
e0
fa
1d
08
db
07
09
f5
d8
04
1d
1b
22
34
03
06
e6
ea
26
f9
d7
fd
04
c1
0f
f0
df
d4
fc
ff
d4
fb
30
fe
dc
0f
22
f4
ed
ea
0f
04
f3
fe
f6
06
0c
0a
e6
16
09
f1
12
f4
0b
12
0b
d4
01
1e
f2
f3
04
01
0b
fe
dc
16
f7
e9
f4
06
1d
f1
d4
e7
1a
e6
fd
01
10
1b
ea
f7
07
09
05
10
2a
ec
f9
fd
f1
fb
fc
04
ff
00
14
09
06
e7
ea
f8
08
00
05
08
e5
03
12
f6
0a
0a
0c
22
fa
1a
0f
04
f5
0b
19
0c
fb
0c
ef
0c
dd
e0
16
fe
03
e8
00
f9
ef
04
ca
08
f1
d3
f1
fc
ea
08
f5
f5
f2
d9
fb
eb
e9
0c
ea
f5
10
18
09
03
03
f2
0c
08
00
0e
ca
0e
fb
fd
18
ec
f1
0e
02
16
08
09
d1
fa
03
06
fb
17
ea
02
23
06
05
19
19
18
0a
18
e8
f1
ee
e4
07
f8
ff
01
18
05
27
e8
0d
fc
ee
19
18
17
df
ec
e1
08
ef
01
f0
fa
02
10
04
f0
e6
fe
08
2c
01
06
0d
fa
f8
ee
f5
fa
0f
f6
e0
0f
ee
14
24
0f
20
df
db
f0
f8
fd
f1
29
00
08
10
20
dc
e1
fc
0e
13
01
f7
ff
10
07
dc
1b
f0
1e
ef
20
fc
f7
f8
fc
ff
e1
f8
1f
fc
00
0a
f4
d0
04
01
16
01
e7
fd
12
10
fd
0f
16
e4
0c
f8
e7
09
0d
02
ef
0a
f8
09
0d
16
1a
1e
f7
f7
0b
15
fd
f6
23
0b
f9
06
06
01
e9
1e
d5
e2
05
e3
f0
14
20
0a
df
1b
07
f7
f8
f5
17
16
f2
f6
e7
f2
01
12
f8
0e
bb
f9
fc
04
f5
f2
09
43
f5
fa
f2
12
ee
06
ec
f6
29
e2
ee
d3
ec
2b
00
d8
f9
f5
10
e4
f5
e4
f4
00
fe
fd
fa
f9
f1
f7
0b
fa
22
11
d1
da
ff
13
f3
d8
e2
ed
e6
e8
0d
f5
09
fc
ea
f6
f3
0c
0e
07
f3
08
ff
ef
1d
ec
d0
1e
18
ef
19
00
3d
fa
12
0b
f8
01
09
f6
e0
0e
d0
e5
24
e0
12
17
f8
d8
10
ef
16
f5
fa
12
0a
d0
21
e9
fa
f3
eb
ed
0d
0d
09
ef
09
dd
ef
13
f0
f8
04
17
0f
e3
0f
fc
06
ea
f0
f4
01
12
0e
f1
0e
f3
04
d3
f6
fd
fa
e1
09
08
d5
e2
16
fe
25
fb
fc
ed
d5
08
1e
10
e0
19
e8
e4
21
d1
ff
2d
e6
10
e0
13
0a
14
0b
03
13
05
e9
e7
ea
02
02
05
00
f4
ec
e6
04
d2
fc
06
e3
f1
02
f6
02
07
0c
04
04
0b
f7
f5
23
f0
2c
0f
d8
ed
ed
ea
ec
16
1b
0c
fc
ba
11
02
0b
05
08
fa
29
e4
d6
f8
00
0d
03
fd
02
26
f1
12
29
ee
0e
f0
08
00
25
08
0b
fb
10
c7
e4
ed
ed
0f
00
f0
11
fa
e4
1b
1c
ee
ec
05
0d
03
29
0a
fe
cb
0d
00
16
07
13
fd
ee
0b
08
0f
37
38
08
ef
26
0e
2f
ef
e4
f8
e7
13
1b
15
1c
e5
1e
06
f8
0d
d6
24
f5
11
db
f4
f9
19
ee
d1
0d
08
2e
0a
18
17
14
14
cf
0e
dc
fe
dc
f9
15
d3
29
1d
f0
f5
f6
ee
ee
d1
fb
24
d3
12
f0
25
fc
d6
f2
f8
e0
20
ed
35
0c
fd
f7
08
25
0e
3c
e7
f4
ef
f5
04
1b
dc
23
1e
1a
1a
15
fe
16
10
11
19
d8
fc
ec
00
de
12
f0
1b
06
df
de
07
fe
01
e7
05
13
0d
eb
28
08
de
0f
1b
eb
1a
2d
d5
17
3f
d3
09
05
1f
17
db
32
11
14
e2
fd
0d
f9
c9
10
1a
16
1a
f0
1e
01
4b
fb
16
0d
2d
1b
22
24
0a
17
2d
ed
d9
d3
eb
fe
1f
d5
d8
fb
f0
f4
1a
eb
35
ed
24
ca
ee
f7
11
d0
00
ec
18
10
fa
cd
17
f2
23
fc
fb
fd
0c
c2
fa
05
f0
ed
14
f1
15
e5
f9
0b
f4
15
f7
ee
f9
0e
ef
0d
04
1b
eb
06
0a
17
1d
03
01
04
d5
dd
e9
e6
00
13
0e
0c
fb
26
fb
01
05
11
f3
f3
f7
ed
ef
06
e8
1c
ed
f7
fd
dd
18
00
00
fe
16
0d
0c
07
fc
04
1a
07
0f
e0
30
20
08
e6
01
e5
f5
2c
fc
0f
1c
f8
06
f0
15
0b
04
ef
f5
f9
07
13
f0
05
f5
0a
12
d6
19
db
1c
15
ed
08
ea
fb
dd
1c
1c
f0
23
0d
e9
f7
ef
ee
f1
10
e7
07
fa
ff
fb
21
f1
06
14
ee
fb
3a
c5
18
0e
bc
f1
d9
02
d4
e2
d7
ff
07
d7
00
ed
12
d4
10
05
e5
07
10
01
27
f2
0d
03
0f
ce
18
0f
f7
07
13
11
13
e2
12
e1
0f
d7
d9
ea
24
0b
0a
15
e6
10
2c
e2
2d
e5
f6
fd
ec
10
dc
14
04
e3
02
1f
ff
0c
09
10
c6
ea
0e
f0
29
f4
1c
06
0e
d5
dd
ed
01
2b
17
00
12
05
10
09
0c
01
dc
04
b1
dc
f6
ff
12
e2
dc
0d
1b
01
f8
11
f1
1e
1a
f3
e0
24
f1
0b
d0
08
0c
dc
09
ed
f2
14
f9
31
05
f1
f9
0e
14
ec
fb
13
d6
fc
04
10
34
14
e6
14
03
04
ee
f1
fe
01
0d
ec
fe
3a
4a
08
f9
f2
fa
13
0a
e4
fa
d4
e4
ff
1c
09
09
f6
12
2b
fe
15
fa
de
00
08
dc
ff
ed
05
15
ff
10
ea
fa
f8
d3
0e
14
08
16
fb
e9
f7
16
45
0a
f9
05
13
f9
2f
1a
0c
f0
1c
ff
11
23
22
22
fd
fc
11
f8
1f
0d
f5
02
f7
e2
08
11
e6
f2
df
01
14
02
f6
22
fa
2a
20
e7
1b
00
22
0d
1e
f2
0c
e6
27
02
ea
06
08
0f
ee
20
d3
f8
dc
18
0a
d5
de
f5
ef
22
ec
f6
1f
19
13
01
f3
d6
f4
fe
0b
07
f4
fe
df
e2
1f
f7
19
fd
1e
05
eb
07
1a
0c
06
02
cc
11
03
e8
f1
13
07
14
ef
e2
ff
f2
f8
f2
04
ff
07
00
1c
dc
ed
09
ca
e7
ec
f9
13
dd
f9
20
f5
06
07
e6
fb
23
ee
07
00
04
2b
de
f3
2c
10
15
f1
f1
07
12
14
08
39
0e
00
14
ee
fc
0f
fc
09
fa
f4
16
29
08
0b
08
03
f0
eb
03
01
05
ff
0c
f0
07
11
20
1b
15
f6
00
e3
f6
dc
01
30
ee
f8
1e
06
01
fb
02
e1
f0
f4
0d
f9
ff
e4
02
fb
fa
fc
11
18
2b
02
24
0e
14
24
25
27
f9
0b
14
eb
f9
0b
0d
f0
01
07
df
e4
06
04
2e
0c
03
1d
fc
d7
eb
e6
29
e9
15
d4
f9
ee
f6
0d
0d
1f
05
e3
0b
ed
0d
0f
f3
ed
23
fd
12
fc
05
03
e0
f7
1e
f1
17
06
0c
fa
07
1b
22
16
fe
e8
e7
e1
11
ed
25
20
22
00
d8
11
e3
ef
02
08
db
18
f3
08
1a
f6
14
02
19
18
fb
1c
0c
dd
09
e1
e2
0c
04
ec
05
00
fa
18
2b
05
09
dc
ec
09
ff
ec
17
fb
0d
06
d1
15
1f
06
26
10
05
cf
dc
0f
10
0a
0f
01
f0
24
07
1a
d7
fa
fc
fd
e2
2c
15
ef
ef
f0
0e
1d
eb
06
00
ce
ee
21
e7
1e
26
f6
08
13
03
09
1a
ee
07
0c
14
e8
06
f4
17
f2
0d
ea
b3
01
cf
10
0d
00
f3
10
1c
0c
01
04
29
09
02
1d
0f
f1
f7
18
e7
ef
0f
16
08
ef
d5
29
0e
1c
f8
f5
f2
ec
e4
24
e8
cc
fd
fc
1d
1b
f4
07
ec
e0
05
fb
dd
db
13
21
fd
05
ed
df
f9
ee
17
f8
13
0c
0d
e5
fb
1c
f2
e6
f3
fc
e0
f8
fa
07
fd
f3
0c
12
f5
12
2f
16
fc
e9
02
f0
1b
0a
e4
d5
09
29
e0
08
eb
06
c4
00
09
e9
0e
11
0c
d2
11
f0
ff
fa
05
16
f5
12
f8
1f
fa
dd
ef
0e
02
07
04
04
07
c3
08
1b
21
de
14
00
e9
e0
27
eb
f9
02
20
fb
2d
ed
06
01
ee
0b
ec
fa
0c
e5
fb
d8
f2
e5
fc
15
f5
01
e0
0e
d6
e7
21
f3
20
1e
f9
e8
de
ad
0e
15
01
06
f3
eb
f0
00
fc
dd
0d
ef
f1
32
f8
fd
df
fd
05
fc
f5
fb
f0
eb
f2
1b
2e
28
e8
17
09
f9
19
0b
ff
fb
df
37
ee
31
0f
25
d7
f0
e2
03
de
ff
0e
f2
16
d8
15
e5
f3
fc
d1
0b
13
06
1e
34
0e
06
10
f7
fb
ee
fc
0e
17
15
02
ef
09
19
03
ee
1b
f4
12
02
0c
d8
24
0d
de
0e
e9
fe
20
ff
ff
27
16
e4
10
0a
e0
13
16
19
da
10
0c
02
1f
fa
f1
02
07
dd
fe
0d
0a
df
00
f7
28
eb
13
c5
c7
03
18
1f
ee
0c
f9
f9
fd
dc
e0
12
f6
ea
fd
f1
03
f2
f2
10
ec
fd
dc
1b
0c
14
f9
ee
dc
ff
1f
0e
05
01
10
fa
15
f6
dd
0e
0e
16
0c
14
17
12
ff
16
12
1d
ed
f8
fc
df
ef
de
13
00
d6
03
e8
e3
f9
1e
0d
e3
ee
f6
f6
28
10
22
ec
17
d9
14
29
f0
0c
29
16
d0
0a
02
db
fe
13
00
f1
09
f3
12
1c
0a
0a
e3
0c
fb
e8
e0
10
ed
f9
f8
ea
14
f8
eb
f1
17
0f
04
e0
e9
09
ff
0a
03
ef
07
f5
25
06
0e
f1
03
08
f1
0a
d5
1f
f9
f9
fd
ea
05
02
fe
02
0d
ec
15
e2
e6
ed
20
10
2e
f3
16
08
1e
f0
14
f5
41
e2
0b
f8
08
ed
04
e9
ef
cc
e4
f0
0c
16
23
16
12
0d
e0
fc
da
10
03
fd
f9
10
e3
f5
f6
f5
23
02
19
f9
0f
f4
f4
fa
f7
e5
09
e7
1d
0f
03
1a
02
01
0c
1d
01
0b
02
06
08
e5
1f
fd
ec
0b
24
13
f5
ef
0d
07
0b
09
e4
03
09
24
d6
f4
13
ff
05
27
08
eb
f5
ff
0b
fa
02
09
07
f4
ef
d9
0d
fe
0f
23
0b
1b
f6
e4
00
f3
11
ee
f5
1f
12
ed
f9
ea
18
08
09
1e
fd
f8
ff
12
fe
01
0e
fa
fb
02
ed
f0
ff
f7
14
1d
f0
14
06
e4
04
e8
26
0f
0e
02
0e
fd
f6
01
ff
f5
0e
12
03
19
21
02
ff
ed
ff
f0
0d
04
01
08
ed
d3
fe
fc
10
f7
0e
16
2e
06
07
01
ec
f1
ef
04
05
1d
db
ed
fd
f1
11
28
02
f7
db
ed
08
ec
f0
0c
f2
f6
09
e5
08
0b
04
e8
00
22
33
fd
0d
00
1c
03
e9
e4
09
f6
d9
ed
ee
17
01
f8
09
ef
22
fd
d3
f6
03
12
0e
18
f0
e7
fd
f2
08
0c
f0
03
04
02
de
17
ce
26
04
3d
e8
fa
e4
15
10
f1
df
eb
f5
fc
06
1c
0f
08
05
14
f9
22
f8
f4
f8
11
d9
e4
ff
e8
f8
f0
16
f5
d3
df
2d
ef
f7
ef
05
ea
f6
29
0d
22
fe
24
f9
0b
f9
f8
0f
07
08
19
03
cc
f9
e9
0f
0d
22
0c
fd
26
eb
2f
eb
3a
01
f5
ed
fb
08
04
1b
00
0e
0d
e4
0a
e7
08
08
ea
05
0f
f7
0c
02
f3
fd
07
23
ed
33
f3
00
f7
fc
ef
26
f0
fd
d5
07
04
16
f6
ee
0e
06
06
f7
02
1d
04
04
e6
ef
fc
0d
0d
f9
0e
ec
1a
fb
fc
10
fd
0d
e2
07
fd
f8
18
01
16
f3
06
16
0c
07
ff
14
f1
02
fb
09
ef
25
f2
fe
f8
16
1e
f3
01
0a
ed
de
16
21
fe
0c
e5
f8
0d
1c
0e
18
db
f1
12
1a
e4
25
01
ec
1e
06
1c
11
1a
15
0f
ef
cf
f9
17
03
eb
f5
fd
fe
e8
e0
05
fd
e7
eb
08
07
ed
f5
ff
dc
ca
0e
02
e7
05
fb
05
10
0a
f5
04
06
f2
09
23
f1
07
ff
c9
1d
f4
0f
fd
15
fe
1c
06
dd
f3
05
20
18
0d
f2
f2
0f
08
fc
06
fb
0c
f8
fe
10
ef
ff
e8
e0
13
e5
f8
02
f6
13
1b
e6
03
1f
f4
07
19
e4
1e
fd
19
1a
00
df
0e
f1
02
e4
08
07
de
f6
11
fa
f4
f9
0f
e2
07
f7
ea
0c
02
dd
19
08
10
f2
dd
f3
d1
ff
1d
e6
e5
1a
e4
e0
22
db
0d
0a
01
f6
ce
f4
ec
02
f6
f9
ed
f6
f7
08
08
e6
08
09
ff
0d
21
11
e5
00
f9
f2
1a
da
13
f4
fb
f4
fd
