fffa
fffa
fffe
fff9
0003
0000
fff9
fffd
fff0
fffe
fffe
0008
fffc
0001
fff8
0006
fffc
000d
fff7
fffb
fffe
0007
0003
fff0
0002
fffd
0003
0002
fff4
0001
fffb
fffa
fffc
fffc
0008
fff9
fffa
0001
0004
0004
fffa
fffe
fff9
fffd
fffc
ffe1
0000
fff6
0004
0003
fffd
ffff
fff8
0007
ffff
fff9
0001
fffe
fffe
fff6
fffe
0000
000c
fff8
fffc
fffc
fff8
0008
0003
fff9
ffe7
0006
0003
0001
fffb
fffd
0000
fffb
fffe
fff3
fffb
0000
fffa
0000
ffff
fffc
fff8
fff7
fff5
fff4
0008
0003
fffa
fffc
fff4
fff8
0004
fffb
fffc
0006
0001
fffb
fff7
fffc
0002
fffc
0008
fffd
fff5
fffe
0002
fffc
fff5
0001
fffe
fffb
0002
0002
fffe
fffd
fffe
fffd
fff4
fff0
0003
0000
0003
0004
fff3
0008
0003
ffff
fffe
0002
0005
0003
fffe
fffc
0007
0002
fffb
0006
fffd
0004
ffff
0000
fffd
000a
fffe
fff3
fffe
fff9
0008
fffb
fff9
fffc
fffc
fff5
ffea
0003
ffff
0003
000c
fff8
fff1
0000
fff5
0000
0001
fff6
000d
0000
fff7
0000
fffc
fff4
fff0
fff8
fffb
fff8
0007
0000
ffff
fff7
fffb
000f
0003
fffd
fff7
fff8
fffb
0009
fff9
fff2
0004
0001
0002
0008
ffff
000a
0002
0007
0003
fffb
fffc
fffd
ffff
fff4
0008
000c
0003
0002
fffb
fffd
fffe
fffc
fffd
ffe8
fffa
fffd
0006
fffd
fff2
fffa
0004
0001
0007
ffef
fffd
fff8
0001
ffff
0000
fff6
fff5
ffff
ffff
fff7
0001
fffd
0003
fffd
fff5
ffff
0006
fff8
fffb
0000
0005
0002
0000
0000
0001
fffe
fff8
fff0
fffb
fffa
0001
fffd
0005
0002
ffe5
fffc
ffff
0002
fffd
ffff
0007
fff7
fff8
000f
ffff
ffff
ffff
0002
fffe
0002
fffd
ffff
0002
fffe
0005
fffd
fffe
fffe
000a
0003
0003
ffff
fffe
fff5
fff0
fffc
ffef
0002
fffe
fff9
0003
fffc
ffff
fff8
0001
fffb
0007
fff8
fff2
0007
0007
fff7
fff9
fff9
fffd
fffa
ffff
0001
fff3
ffed
fff8
fffc
fff5
fffd
fffa
fff7
0005
fff6
0006
0002
0001
fffe
fffe
fffb
fff0
ffff
0007
fff7
0000
fff7
0000
fff8
ffff
ffff
fff3
fff5
0001
fff8
fff7
0001
fffe
fff3
fffd
0000
0000
ffff
fff6
000c
fff2
fff9
fff6
0002
0000
0009
0006
0001
0003
0005
fff8
fff5
0005
0004
fffa
0000
fffb
fffe
ffee
fffc
0000
000b
0007
fffa
fffc
fffd
fff6
fffe
fffa
fff0
0006
fff6
fffb
fff5
ffed
fff5
0002
0001
0004
fffa
fff9
fff4
0001
fff0
fff8
fffc
fff6
0002
fffc
0004
0002
fffb
fff8
fffc
fff8
0000
fffb
fff9
fff8
fff3
0006
fffb
fffa
fff7
fffe
0000
fffb
000d
fff9
000c
0001
fffd
0000
0001
fff8
0006
ffff
0002
fffd
0001
0006
fffb
0001
0001
000b
ffee
0001
0002
0002
0000
fffd
fffc
fffa
fffb
0004
0007
ffff
0003
0004
ffe8
fff9
0006
0017
0001
fffb
fff7
fffd
fffe
0004
fff9
0003
fff7
0006
fff6
fffb
fff9
fffc
fffa
fff8
fff8
fffa
000d
fffc
fff8
fffe
ffff
0004
fffd
fff9
fffa
0000
0007
0005
0000
fffe
0001
0002
fff3
0009
0005
0005
fff9
0006
0001
fff6
ffec
0001
fffc
0003
fff8
fffe
ffff
fffe
fffa
fffe
0002
0004
000a
fff0
000e
0004
0008
fff5
ffff
0003
fffe
0005
fffe
fff8
0004
fffe
fffe
ffff
0003
fffe
fffd
0003
fff8
fff1
0004
fffc
fff8
ffff
fff6
fffe
0001
fff0
fffc
0007
fffd
fffd
fffd
fffb
000c
000c
0004
fff9
0003
fff6
fff4
0003
fffe
ffff
0002
0007
000a
0006
0004
fff7
0005
000c
fff3
fffa
fff5
fffb
fffc
0001
fff7
0003
fff6
