90 1 3 3
22
fb
08
21
d8
c6
1f
04
dd
0f
fa
1b
fc
1f
34
d3
32
1b
d1
dc
25
d6
ec
20
be
01
f9
0a
f3
fb
15
eb
e4
d8
0a
e0
04
19
1a
08
09
1b
0e
1b
f2
e5
fc
ed
f1
ea
f2
fa
e7
f7
02
26
fb
fd
e1
b8
ef
21
17
03
d6
ff
05
d3
ed
f0
e6
ef
fb
ee
fc
f2
cb
01
0b
d5
03
b5
d5
e1
ec
0c
05
2d
1e
0a
ed
e9
d0
01
e6
a6
2a
e0
2c
07
25
09
1a
19
0f
13
27
fb
ec
0f
04
0e
18
ff
36
20
fa
c7
00
21
e6
ec
19
f6
f6
05
0b
1f
16
14
1c
10
f1
05
ff
fd
ef
df
ed
0a
ce
fb
f2
f6
df
df
fb
f3
d0
ee
02
f5
e3
09
09
f9
ff
f3
e9
18
eb
c9
0b
f8
da
0f
ea
d2
e3
0a
ea
0c
d5
1b
42
bf
07
12
e5
08
d3
ce
f8
ea
f9
fc
14
14
11
e1
e2
f7
ec
e4
e3
f2
ff
fe
06
10
03
05
23
0f
17
1f
07
f9
2b
38
07
0d
1c
0e
1b
f2
ef
ff
f2
ea
02
fc
f4
05
cc
02
f4
11
ef
e4
de
ef
ec
ea
34
c1
fa
26
d4
37
cd
d0
28
0a
f8
14
f2
d7
d7
f5
fa
cf
fa
09
1b
07
cd
d5
cd
f9
00
e7
d8
09
eb
d5
e4
f4
ef
f3
ea
1b
1e
25
09
0c
26
02
fe
09
e1
08
db
f8
d7
f7
f1
c8
09
10
f8
2d
0d
e5
26
fa
f7
ff
26
04
04
21
22
01
04
0e
d8
29
2c
e3
14
13
bd
ea
25
1b
0f
0b
ea
eb
e2
c9
e4
ed
ff
1f
2c
0a
2d
20
dc
ec
04
0c
3e
f0
1b
3c
16
2b
04
ca
22
14
fb
1f
2e
02
0a
1e
02
23
e2
d0
22
b2
00
fe
da
fc
14
dd
d7
fa
e5
cd
e4
ea
05
be
e6
16
f5
1b
0f
21
11
da
00
2f
bb
e5
d1
3e
0f
f1
d6
fa
3b
fc
38
34
bc
39
dc
e0
e6
f7
05
dc
e9
01
f4
cc
fb
86
10
27
00
f5
1c
fd
e1
28
ed
ee
f8
fe
f2
db
f4
0c
d1
4f
06
e3
25
38
05
c8
a9
f1
06
cc
b5
cb
f8
17
39
28
08
f7
e9
ea
e8
db
fd
03
ef
d6
fc
f9
ce
cd
e3
1e
fa
e2
f4
01
02
09
16
14
10
12
18
23
1e
07
05
13
16
0e
08
21
0a
12
fd
fe
25
20
19
f4
2c
28
ef
dc
13
c7
ff
5f
c4
b1
34
fe
1c
06
f8
31
1a
0f
ea
03
27
15
f3
17
00
00
17
12
09
ea
16
f0
dd
18
3a
16
20
42
0d
d0
d9
e5
0a
f6
d1
fc
15
e0
ee
e9
e7
fa
2b
eb
e0
f2
e5
db
e5
fb
f2
f2
0f
15
00
23
f2
01
d9
f7
f0
d9
d9
0e
13
07
16
08
23
1b
ff
20
0e
fe
2d
26
1b
04
f9
0f
fb
05
06
18
11
ec
f5
12
c7
c9
d7
f5
01
c9
08
39
19
18
30
04
1d
fe
e8
f5
2c
cb
26
29
04
22
ef
0e
22
d9
e6
1b
d9
e2
ef
eb
06
14
fe
0d
3c
34
06
25
20
f8
e8
29
2e
fe
f1
19
f4
11
20
ed
fd
2f
fb
eb
33
f8
10
28
ee
1b
0d
bb
1d
15
fe
f5
13
ce
e2
e7
d2
d2
d0
11
15
0c
0a
20
0d
f9
0c
13
14
22
0f
19
25
13
fa
1a
0d
f6
07
ea
38
26
f0
10
2f
0c
eb
f2
fd
f6
ea
e4
00
f2
05
03
2f
20
fd
24
3b
db
ff
17
07
18
fe
10
24
19
06
0c
1b
15
d1
04
34
ca
24
1d
cd
20
f5
f9
f0
e6
f0
f3
fe
da
e6
f9
fe
f1
1d
25
05
1d
28
fe
10
1e
19
15
29
21
f5
10
fb
1d
cf
e5
00
fc
1d
35
2a
e5
0c
18
02
21
20
17
07
1a
0c
fe
f7
eb
ce
f7
ea
ec
ea
f9
02
ee
ee
c5
e2
e9
09
ec
f9
02
0a
06
f3
ee
f5
d5
d3
f6
07
10
04
0e
23
06
12
12
04
15
13
14
23
42
fb
f7
f1
f7
16
23
27
19
2a
12
f9
0b
19
0d
1b
01
1c
22
0b
13
18
f4
09
fe
2a
32
37
3b
ef
0a
ed
52
1a
ec
09
ef
f5
08
fb
03
12
41
1c
f3
bb
f4
fb
ee
d5
e7
fb
fe
f1
03
e8
f5
e1
de
e2
ef
0d
2d
31
16
01
20
0b
0c
ef
ca
1d
1a
03
f5
d1
e5
0a
24
fb
03
fd
d5
c4
1b
c1
dd
c8
9c
eb
f6
1f
32
11
fe
09
f4
ed
dc
e6
e6
e2
dd
cd
10
ff
0e
10
27
1c
1b
1f
ed
05
dd
e2
db
df
e3
08
fd
fa
1b
18
18
19
1a
13
e6
ef
13
f7
07
0e
05
15
1c
0c
1a
09
fe
ff
fc
d6
00
07
d4
ec
01
f9
d4
0f
06
db
00
e8
13
c3
de
e1
f7
ff
e8
e7
04
e3
03
0b
12
13
1a
1c
04
1a
17
01
25
29
14
fd
0c
38
0a
06
0a
18
1d
c4
2a
30
fa
0f
03
e1
ff
ef
ec
fb
d3
e8
f3
e1
f9
09
18
03
27
26
13
1a
20
03
fd
f4
09
ea
d2
d5
f0
e5
f8
15
25
b9
0d
bd
48
d9
30
e3
f9
15
f9
fa
20
19
ef
27
2f
fd
eb
e2
ec
fe
f2
02
e7
ed
ea
0b
f8
11
23
0a
0b
13
20
07
08
0b
22
2e
15
1a
31
00
01
1f
07
08
14
25
02
11
0f
eb
e8
fa
fe
eb
0c
eb
ed
f1
df
0b
f7
de
e6
e5
fa
fa
0a
f3
fd
1d
03
ea
e4
1b
3b
22
00
e8
0d
ff
c7
04
cb
0a
fd
12
07
03
fd
fb
f6
cf
dc
ea
f1
d8
fa
21
24
05
dd
e6
e6
1c
2d
29
f5
23
28
ef
bb
ba
26
17
1f
07
1e
1a
e8
ea
f8
e5
25
19
02
25
2b
15
fe
14
15
1b
0d
0b
30
29
f5
0d
19
0a
12
0d
1a
19
1c
bc
c3
d8
e5
06
cb
16
19
e7
29
15
ea
f0
f9
f8
e3
eb
f2
e1
f2
fb
f0
e1
da
d5
d0
f8
d9
07
e9
e9
2c
ce
05
30
c9
31
cc
05
fc
e6
ef
00
e8
f3
0b
dd
f1
1f
eb
ef
d8
f8
12
c8
e9
03
ee
e5
f0
f2
ea
f9
18
f0
d7
0e
15
0e
21
29
10
eb
00
0b
f2
f6
f9
ee
ec
ed
ef
df
fa
c9
06
02
f3
c0
dc
ef
ef
fc
12
05
df
1a
1e
08
18
1e
1f
0c
f1
04
18
1e
f2
11
31
14
06
1d
21
ff
03
28
0c
05
f4
