ffd4
ffd5
001e
ffed
0004
fff7
fffa
0007
ffdd
0029
ffe7
ffef
002f
fff9
ffcd
fffd
ffce
000d
fff9
0017
000e
003d
0016
002f
ffcf
0042
0039
fff6
000b
000d
ffca
ffe8
0034
ffe0
0001
0039
0020
0020
001a
0004
ffd6
0017
ffed
0045
0037
ffce
ffea
ffe2
002c
fffa
fff5
ffd3
ffc8
0046
001c
fffd
003e
ffe7
002a
ffd2
003e
000c
001a
ffff
ffce
ffe9
ffd7
0008
ffd5
ffc7
ffc6
0002
001b
0035
ffcd
ffef
fff9
ffe0
ffed
ffc8
0000
0037
ffee
fff5
002c
0034
ffdf
0025
ffd3
ffda
0039
ffeb
ffc4
ffca
0045
0019
fff1
0026
fff0
0015
0035
ffe8
ffdf
ffd2
0035
0042
0038
ffe4
ffdf
fff5
ffd5
fffe
ffdb
ffff
003c
ffed
0040
0010
0034
ffd5
003d
fffc
0004
ffca
fffb
ffe2
ffd1
0029
ffe6
001f
ffcd
000c
ffcf
0031
ffe5
0025
fff5
ffda
fffd
003a
001f
0033
ffc7
000a
0023
0025
0025
0045
fff0
ffce
003a
0015
0017
0031
ffcb
0035
fffa
ffe6
ffd2
fff4
0005
003e
0031
ffd1
ffd6
0037
fff9
0015
ffdb
0034
0007
ffdc
fff7
0028
ffd9
002f
0016
ffd5
0018
ffda
0007
002f
0007
ffec
ffdf
ffe9
fff7
0035
0000
002b
0003
0018
0022
001f
0003
002c
fffe
0020
0032
0016
0006
001b
002c
ffd5
0002
000f
003b
ffdf
ffe6
002e
fff1
fff3
ffd5
ffdc
002a
fffb
0029
ffe5
ffd8
000c
001a
ffe5
0013
ffc4
0034
fffc
fffe
ffd7
0031
ffd3
0034
ffe5
ffd9
ffe3
ffca
fffe
ffef
fff1
fff1
ffde
ffd9
001e
ffcd
ffef
fffb
ffcd
0010
ffdc
0039
001b
ffed
003a
0036
fffa
ffd6
ffe4
0008
fff9
002f
ffdd
0037
0010
ffda
ffd0
ffd1
000a
0016
0041
002b
ffcc
0012
fffb
fffe
0034
ffe2
0027
0020
0032
ffc8
fff5
ffce
0034
0012
fff8
ffec
fffa
fff4
002e
0014
ffea
000b
ffd2
ffe0
ffdd
ffd8
ffdc
fff2
ffcd
002e
ffe0
0000
ffca
0018
0032
0021
003c
002b
003a
ffda
ffcb
fffa
ffef
ffd8
fff9
0030
fffe
ffd1
fffc
000b
fffb
ffd4
003a
fff4
002f
0037
0022
0041
0022
0020
0021
0029
0037
ffc5
0039
003b
ffca
fffd
ffcd
ffd3
ffe9
ffea
fffd
ffff
ffd0
0041
ffd9
ffd4
0018
fffe
0007
ffda
0010
001d
ffe8
0027
000b
ffcc
0026
fffb
ffca
ffe9
002c
002b
ffed
0043
0002
ffd7
0011
0030
fff6
002d
0012
000a
ffe2
ffca
ffd9
ffe6
001e
0030
002d
ffe9
ffcc
ffdb
ffe7
ffca
0004
0010
ffd0
ffde
001c
ffe3
ffec
001f
002f
0031
002c
0025
0014
fff4
0029
fff6
fff6
ffd5
0016
ffca
0008
002a
ffdb
ffe0
0033
0038
0006
ffd3
ffc7
000e
ffe6
ffdc
ffce
fff3
ffe0
0033
fff1
ffcb
fff8
000c
0031
ffee
ffe6
ffef
ffce
0034
fff1
002d
000e
ffce
fff6
0025
ffe2
0036
0029
fffa
ffd8
0019
0019
fff9
fffb
0006
fff6
002d
001b
fff1
fff8
ffdf
001f
0025
ffc9
002a
003a
0011
ffd8
ffd9
0029
0016
0011
002b
0038
0037
002a
001f
ffc8
ffde
ffcc
0020
ffd9
0006
ffd0
ffd4
0035
fff6
0011
fffc
0000
0033
0009
0004
0020
002c
ffee
003e
ffff
ffd1
ffda
001a
0000
ffda
002c
ffef
000d
ffcf
0036
ffff
ffd6
ffcb
0028
0039
0030
0030
0007
ffd4
000d
0004
0008
0007
fff1
ffe6
003f
000b
0027
ffc2
000e
ffed
fff1
0042
0022
ffd9
0035
002c
002f
ffe1
fff1
ffc9
000a
ffd8
ffd5
0007
fff7
fff5
0034
fff5
0003
ffe3
ffca
ffea
fff9
000d
ffd0
0033
002c
ffcc
0029
0006
0014
ffdb
0037
ffc6
fff0
0033
000d
ffc5
0030
003e
0034
0032
0032
ffdc
001b
0028
fff2
fff1
ffe6
0032
0000
0029
fff8
fff9
ffeb
