180 40 1 1
f8
1d
f0
0c
e1
08
f0
02
dd
22
26
2b
e8
ef
0e
20
11
07
09
f0
07
3a
e3
ef
f7
19
d9
10
21
c4
de
14
13
0f
e8
00
16
0d
0b
ee
0c
0f
f3
cf
fe
02
15
e6
d7
25
fa
05
f5
ec
eb
e8
fb
12
ea
f8
ef
fc
00
07
04
f5
d9
1f
ef
fd
0f
e9
f8
12
22
f6
1d
d0
e1
09
02
05
09
e9
13
10
eb
1b
fa
06
f5
f4
e2
07
1f
03
f4
e6
d2
1f
19
dc
08
d0
0c
bf
3c
1f
06
ed
2f
e7
d2
0f
ed
01
fa
f8
0b
1d
10
14
f0
fa
00
d7
e8
29
e8
03
e5
f8
10
0a
f8
02
e6
02
1f
09
08
0b
28
ea
ec
f7
f2
05
e0
e7
e1
04
2a
f5
f2
c9
e4
fe
06
23
16
eb
f3
0a
ec
ef
09
e7
ea
f8
e5
e0
fa
10
fc
12
1d
06
f8
11
f0
fd
ff
c7
f6
04
fb
03
ed
0d
0a
f6
f3
19
f3
f5
1c
17
06
f4
f2
fb
1f
13
f3
f0
fb
19
fa
12
2b
09
0e
fb
f1
fa
df
03
0a
11
ea
01
00
0f
f7
f4
db
f3
22
f5
04
eb
0a
05
03
1a
06
e7
07
e5
ee
12
1e
e8
fe
28
03
de
e6
13
f0
fe
f3
e8
eb
f8
04
19
0e
1a
0a
e3
0e
e6
f0
10
f2
07
07
f9
11
06
24
2c
f5
e3
de
ed
0d
f8
ef
db
ad
28
20
e6
ea
f4
ea
18
0c
01
0f
f9
1b
fc
ee
e0
ff
e3
ea
08
e7
f8
17
2b
d4
17
e1
ec
09
fe
05
07
fc
d4
e7
0f
04
fd
03
f4
10
e7
01
fa
0f
e4
01
1d
ef
13
05
cb
dd
e1
07
10
d5
0e
18
07
f9
14
f8
2c
20
f1
01
fb
07
f7
10
f1
f5
19
f9
f2
e8
11
07
e5
0c
fb
fd
17
e2
33
e4
1e
20
16
06
05
15
0d
1c
f8
f6
01
05
09
ef
c7
05
fa
1a
cc
fc
02
2e
f7
d0
1c
d6
dd
03
bb
f0
ec
0f
e1
0c
08
ea
21
eb
f1
e4
01
d0
0a
24
12
ec
1d
cd
ce
f4
19
09
24
04
20
d6
07
14
0b
09
fe
c2
12
ca
dc
06
0c
fc
1a
1b
2a
02
14
05
21
17
ed
11
f0
f0
2b
18
f2
f7
09
ff
fc
d6
10
f9
24
04
24
0d
00
e3
29
e3
04
cb
0c
ef
fe
15
e5
07
16
e7
db
f0
38
f5
f6
fe
ea
23
04
e0
e5
f0
0a
e5
e3
d9
c6
f3
1a
f9
05
d2
25
fe
f1
fd
f8
19
dd
10
23
12
17
11
04
eb
f2
09
1f
39
d7
c7
01
ee
20
0a
ea
e9
12
f1
07
ed
e8
fd
f8
0b
13
2c
14
cc
f8
00
bb
e7
0b
20
e7
14
26
f7
ef
ea
d9
ed
d8
e4
e3
fe
11
ec
07
04
28
e4
07
1b
0f
dc
fd
f6
01
2f
d6
07
03
fc
27
ff
f8
16
ed
0f
f3
21
18
21
06
ec
0b
05
04
d9
f3
24
e3
f6
c2
f5
1e
16
cf
3b
ff
01
d7
0b
03
29
fe
e2
ff
ee
13
ea
f4
bf
0d
fe
0b
00
1e
0c
dc
31
11
f4
2c
11
f6
18
0a
fb
07
01
eb
07
08
2b
f6
f8
07
fe
07
0e
0e
f4
de
24
05
f8
09
fd
11
db
fb
e9
db
e5
dd
f4
e9
0f
d2
df
0d
06
13
dc
17
ea
20
14
1a
22
d9
0e
04
01
2e
e7
f5
ec
1a
f3
e2
f2
30
f5
fd
f5
f8
d7
15
0a
ed
ca
12
e7
f1
dc
e1
10
df
39
f8
ee
cd
e1
f8
e2
1d
17
ee
1d
22
f4
11
f3
ef
0f
d3
03
07
28
e8
03
e4
16
f7
eb
13
1b
05
06
0f
09
05
fc
0a
02
1b
1f
01
fc
0c
f4
02
02
ea
f5
05
df
f0
1a
16
0f
02
e8
eb
08
03
13
00
0c
e6
01
14
21
19
13
ed
04
eb
fb
18
05
eb
11
e6
1c
11
1a
ee
ed
ff
e3
f5
f2
20
fc
17
fc
18
f9
dd
0d
de
df
17
fc
04
0a
f3
ca
df
13
04
ed
f1
0e
e9
dd
ec
06
26
cd
2d
21
06
12
19
0c
16
fe
ed
25
1a
f0
f3
fd
20
18
1e
f4
19
1b
ff
fa
03
0d
2b
19
01
1d
ea
14
ea
c8
41
0e
d0
fc
0c
d3
35
1e
e0
f9
03
0f
09
1e
23
14
fd
0b
19
05
42
0b
e6
e9
ed
2d
07
19
ec
54
ef
01
11
db
29
e0
0a
ec
13
dd
19
10
a0
17
e1
10
e7
14
f3
26
ed
06
0b
ea
13
e4
d3
20
fc
29
0c
1e
d9
1e
28
e8
47
05
0e
01
ca
e7
24
d0
14
f2
e6
f7
ff
08
dc
2c
cd
12
1a
3a
fe
22
13
01
11
f9
15
2a
07
04
0a
15
ef
08
0f
e8
fb
21
2a
04
e6
06
0e
e7
ef
17
f8
03
24
0a
f0
e9
9f
0c
f3
14
0e
19
1d
1b
07
e7
0f
e5
f0
03
ce
1c
ee
d0
16
f1
14
07
eb
f0
ff
10
e3
04
04
26
d0
e9
e0
0d
19
06
08
1f
d9
f2
f6
10
f3
00
09
f6
20
02
e8
f4
13
0d
1d
ef
e1
23
0c
fb
eb
df
fd
fe
15
08
df
f5
04
d7
1b
f4
f9
07
1f
e9
0c
c8
eb
17
ea
00
03
e8
0d
0c
ca
e6
ea
0b
06
e7
0c
24
f0
f1
de
1c
04
17
f9
2e
04
eb
13
22
06
f4
26
fc
f1
07
f5
03
f1
27
1b
d1
cd
0f
0b
f3
05
e1
0d
e9
12
fb
02
19
16
2f
17
d2
fe
ec
e8
16
e3
dd
f6
df
f0
08
f0
09
e6
2e
1a
14
f7
e2
0f
0d
02
03
0a
04
16
00
ee
12
de
0b
f5
d8
c0
d5
db
00
f8
e8
fd
fb
ff
f1
f7
11
23
19
f2
e8
01
1e
fe
15
fa
ef
1e
ea
ee
0b
ea
0a
db
f6
e4
21
0a
e1
07
10
16
0b
0f
08
f3
f1
13
f7
f6
e7
f8
05
f6
f1
0b
02
fb
f7
eb
03
f2
08
2f
ff
1c
f7
fa
11
14
0f
20
06
11
e9
0b
e9
f0
fc
f0
ef
04
dc
24
fc
17
ee
ed
fe
2a
08
f0
19
34
11
16
ea
18
e4
ec
23
f1
03
0f
02
00
14
08
36
e0
f8
fa
17
f5
f0
19
f5
e1
00
0c
ed
12
f0
0a
f8
f6
0d
ea
0b
27
fa
ff
f0
fc
e4
2d
22
00
06
01
0c
05
f8
fb
fb
f7
01
fd
f7
12
df
fe
0a
f3
21
fd
04
f8
f3
f3
fa
13
e9
0e
e3
ff
05
e1
00
eb
e6
fe
c3
fc
f4
f4
cb
f8
ee
e0
29
0b
ef
07
0a
2a
08
ea
1d
fe
e6
de
df
0d
21
01
0b
e7
1a
03
dd
f6
0f
0f
02
1d
fe
f3
0a
ec
12
0d
08
f1
0c
18
f3
14
e7
17
ea
28
0d
1b
00
ea
15
15
ef
03
bb
13
06
0a
05
c8
dd
04
f5
16
2a
07
e7
f7
1f
ce
f8
ff
09
00
f9
1b
05
fa
1b
08
f0
1a
f7
08
0f
16
fa
fc
ea
12
10
ef
f0
fb
00
22
eb
1b
18
f4
e8
f9
f8
06
e4
2a
0f
18
f7
05
05
21
29
02
ff
d2
db
03
0c
d7
10
07
08
f5
f8
38
ed
18
f3
02
09
e2
14
f9
16
05
19
00
01
cc
ff
fb
13
f3
f0
e5
fc
fa
d7
1a
0c
04
eb
04
20
07
ed
16
f4
e9
0f
1a
f3
ed
05
fd
0a
0f
02
23
dc
ff
16
01
11
ed
06
ee
01
09
14
18
f1
00
f5
ed
20
fd
04
15
f5
09
17
47
ff
f5
13
2c
21
0a
f6
fc
13
f0
00
ef
f1
01
1a
e4
f9
26
01
f8
0a
f4
fe
19
fc
11
05
c7
05
ef
d0
f7
02
f5
16
11
1d
17
df
ab
15
e8
f8
20
04
26
2d
0b
06
11
d2
05
e7
d7
07
00
e3
1f
ec
dc
1b
2a
10
24
e3
22
0a
1f
2b
d4
f3
3a
c7
0b
03
42
0a
fe
02
f7
ff
fb
d7
11
28
28
23
06
0e
c3
06
fa
06
e9
07
1b
09
eb
3f
ea
1d
16
ec
ca
f7
f2
fa
be
ef
eb
20
fa
f6
15
03
0a
0b
12
e0
fd
eb
0e
ed
ff
f8
f4
f1
0a
f5
16
0c
03
2a
04
d0
22
06
04
0a
37
00
e5
e3
16
0e
0b
19
f7
dd
d3
28
10
00
1d
b6
4f
d6
06
08
1c
e5
01
eb
13
28
ed
fd
16
f6
10
eb
16
f8
01
1d
ce
0b
03
bd
fd
0d
fd
1b
06
24
0d
1f
23
0a
fa
e5
f6
20
13
0a
fb
f4
2e
e5
fb
f6
d9
e8
de
de
f5
3d
11
2e
12
cc
29
be
ef
d4
1c
e1
fa
1c
ff
02
01
28
09
12
07
2a
22
1b
0d
df
01
29
f8
e2
f2
fc
13
12
13
16
f2
fd
00
f6
f7
00
00
f5
fd
08
27
19
0f
00
02
0e
1b
fb
03
06
ef
0d
ef
02
00
dc
fb
0d
f1
22
f7
32
2a
19
1c
2b
14
22
12
f0
dc
0a
14
16
e7
17
fd
02
04
0e
0a
e6
f6
03
f4
12
0e
18
f7
eb
e1
06
02
03
fd
fc
f8
1f
18
f8
f8
fc
03
f8
02
04
fa
d6
f0
1d
ee
fb
0e
0b
0e
1a
06
09
0a
22
ec
f3
d9
f3
f3
c7
06
03
02
24
14
02
10
e9
03
08
13
e5
0c
de
0b
03
e9
05
fb
1e
04
03
13
e3
29
10
f4
20
11
15
fb
f1
27
19
18
fc
ec
0c
f3
fd
13
f8
f6
f7
1c
0e
13
ed
fa
fe
e4
33
0c
fa
2f
ef
fb
01
18
e8
da
e0
2b
03
09
f4
f0
1f
ff
06
05
e9
f8
06
ee
ff
08
e1
14
03
0d
fe
fb
13
fc
dd
dc
0f
06
0a
1a
0d
1d
f5
2b
30
06
12
db
35
f0
f8
f9
e3
01
d7
32
f1
f7
e8
06
f0
ef
2a
03
0b
f7
16
f8
fa
2b
d4
f7
f1
12
f9
c8
17
22
f9
0f
0b
2e
d9
27
ee
f6
ee
e4
05
11
1d
17
34
fa
04
f5
eb
2f
ed
f5
2b
01
1b
da
28
c2
e6
db
21
db
23
f7
16
fc
ea
fe
ee
0e
e5
02
eb
f1
e1
c9
fb
e6
f7
04
19
03
0e
df
cf
b8
17
06
f6
2e
ee
e6
27
f4
3a
09
dd
e4
12
08
19
f3
c5
13
22
f4
ef
19
13
fb
36
dc
0c
c4
15
da
e8
f5
f3
cb
fa
fa
e8
19
e7
df
f0
15
fe
e8
ef
d9
fc
02
10
38
e1
f4
02
03
f1
09
fa
ee
f7
12
03
f9
ff
e3
0f
11
25
18
ee
00
19
ff
cf
fb
04
f5
fa
fa
13
f9
fa
f7
ed
ee
ed
f8
32
0f
1c
fb
e1
1c
df
f0
f3
d2
01
2d
15
f1
ef
fe
09
01
1f
19
2c
c6
1d
10
d2
f7
11
f1
11
d3
09
37
f8
01
08
fb
17
13
32
ec
ed
fd
14
e9
05
0b
0d
12
01
06
f1
03
05
15
e2
f9
06
e5
f2
09
f4
09
02
f8
e0
f4
0c
04
f2
0a
dd
07
ed
23
15
1f
fb
f0
fe
1b
d1
0c
02
02
07
18
f2
ed
1a
1d
f3
e1
0b
cc
e7
e3
e7
e1
0e
fc
c1
f2
39
f1
0b
fc
02
11
17
db
35
fd
18
0d
2e
1c
2a
02
11
e0
dc
e8
f9
ea
02
ff
10
fa
1a
35
e2
20
eb
d3
1c
f8
ed
02
fb
f7
fa
e8
27
c6
fa
16
ce
02
05
df
ff
ff
eb
10
f8
05
cd
2b
02
10
db
08
fc
e2
eb
07
dc
dd
13
c9
11
f1
03
34
da
f0
15
1d
20
16
0b
f0
12
fc
e7
f0
08
e3
e7
02
06
0f
f4
ee
fb
f2
ed
fc
01
e5
1b
f1
f5
cb
12
01
e9
3b
26
11
ea
f3
11
0b
de
da
f9
1d
e1
12
19
ea
2f
ef
08
15
02
0e
05
10
f6
fb
e3
16
e5
23
00
08
dd
fa
e5
14
01
05
27
06
f9
13
00
ed
f9
0e
0d
03
c1
d9
28
07
13
fd
f7
fe
06
02
f8
17
f0
d8
fd
07
f2
0a
34
f2
0c
d0
f9
e1
f0
db
f8
0e
10
09
e1
e9
19
fd
fa
f6
10
f3
14
f4
05
2e
0b
f8
03
e4
20
fe
df
10
fd
f8
ea
12
0b
02
c2
2e
09
12
2e
f8
b8
11
ed
13
f4
14
05
fe
1f
ea
dd
1a
27
08
ce
27
fc
f8
f7
18
e4
10
23
f8
f1
05
fc
0e
0c
f6
fd
cb
d3
0f
10
0d
f8
26
05
f9
cc
ee
ef
e6
e1
14
e6
05
28
1d
03
10
18
fe
fe
f3
ed
06
1a
fd
0f
0d
fa
02
0b
e9
0f
f4
01
f3
e0
07
e4
08
26
e9
0c
00
10
fb
ea
fb
01
dc
fb
01
e8
12
01
0e
0c
10
f6
08
eb
0d
15
0b
ff
f2
12
e3
f9
0d
25
22
1d
03
08
19
04
12
0c
0a
cd
f8
23
05
16
1f
0c
13
08
04
03
f4
f8
f6
08
0d
f4
1b
08
f2
06
0e
f0
0b
fd
0e
f9
13
2a
ef
0a
19
f2
08
0c
de
f1
fe
21
12
e2
25
e4
02
da
02
fd
e7
00
fc
de
ee
18
0b
28
ee
04
fe
12
f5
06
31
48
10
dc
1a
fa
17
da
08
14
05
f8
f0
1e
db
22
0d
30
04
02
e9
2e
f5
d4
21
0a
0f
0a
24
ee
21
1e
07
31
0c
e3
0b
2a
08
f8
f6
2b
11
1a
22
2f
f7
dc
1f
12
e3
09
fd
18
f8
e5
04
05
22
e2
0a
20
11
09
ff
f9
c9
10
fc
10
22
e7
2c
eb
cb
0d
0d
30
e5
0f
13
e5
1e
dc
0d
1f
ec
fd
10
0b
ff
18
05
e3
e0
02
04
ee
f8
15
ea
0e
0e
df
2f
f7
18
1f
00
13
13
06
e9
14
d4
20
cf
07
09
18
16
2e
11
f6
0d
07
f1
04
e3
11
fd
0f
13
f3
3d
22
f3
13
df
03
fa
1d
d2
00
f6
06
f9
24
09
e9
09
0d
17
f3
dd
0e
21
07
0d
10
f5
f4
1f
fd
f3
05
11
17
16
ee
08
07
05
da
0e
ea
ed
1a
f3
18
0c
05
e5
ca
0c
f5
ee
01
ec
06
fc
09
27
1d
fe
f5
f8
01
22
f2
e4
f6
1f
15
0d
1a
06
f2
04
eb
0d
00
f1
09
09
d3
01
e2
28
f3
17
ec
f1
eb
f9
1f
f3
2e
fa
0d
0c
38
c3
11
19
d7
f8
1a
39
18
ff
ea
05
02
f6
f9
e8
ea
e7
e1
0d
14
04
f5
f2
ee
18
cf
f8
16
2a
f6
f9
c9
fc
18
ed
2a
02
10
f1
2c
fb
ec
f8
f2
0c
28
f2
f7
f8
dd
d4
3c
e5
fc
00
30
34
01
02
1b
e5
db
cd
f0
e6
16
d8
09
13
17
01
03
f8
dc
0b
04
0d
05
f7
fe
15
dd
ee
ee
ed
0a
f8
fa
dc
f8
ff
00
fc
f0
02
cd
24
db
e6
1c
f5
f7
26
fa
01
ea
eb
36
f6
f2
0c
05
08
2b
12
12
e1
14
0c
0c
e7
ee
10
f6
08
d9
eb
2f
06
fa
f9
f1
f3
1d
0b
fa
10
10
19
01
ee
03
f0
e1
05
13
01
e2
f7
01
f1
10
00
e8
0e
f7
0e
00
0f
12
fa
f0
fd
f9
e4
0e
fc
1d
10
07
0e
eb
01
0a
e2
23
06
05
1d
f4
fe
fd
25
22
f6
22
f0
f1
21
08
da
0b
10
0d
f6
1e
f7
0f
f0
ec
eb
ea
0c
1d
18
02
10
da
0d
0f
f2
fa
f4
fc
f3
0e
0f
0d
0e
26
f7
27
08
ef
ec
f7
0d
f5
fb
28
1f
34
f2
22
26
05
fa
e2
22
1c
21
0a
fe
24
03
37
33
1f
f4
12
d9
ee
0f
fa
f3
53
e1
08
1c
25
0a
04
0f
ec
f4
0d
e2
0f
09
f4
08
f7
df
0b
11
fe
20
d7
01
17
07
ef
f5
1c
25
0e
f9
02
fc
11
e3
21
0a
05
f7
f9
ff
03
0f
1b
11
2d
f3
f7
34
ee
0f
fe
13
16
f9
13
07
11
f3
cf
fc
cd
df
f7
f8
30
e2
ca
1c
02
2b
08
13
fb
2d
06
cd
d6
04
f3
10
06
eb
f4
fc
f3
07
06
02
e8
05
16
06
1d
d9
fd
10
fe
f3
25
12
e8
0d
15
e1
e4
25
ee
e7
07
04
0e
14
11
e7
e1
f0
08
f5
08
3b
00
25
10
0d
11
14
df
05
f7
02
f2
1b
14
15
0c
1c
fa
f5
0a
f3
fb
e8
2a
e1
12
f9
15
f0
fb
dc
3a
ee
f9
fb
01
ce
ec
f2
23
fa
f0
f5
ef
ea
0f
2b
f8
23
ed
d1
25
f0
f0
18
fd
d9
31
d8
ff
fa
08
0d
fc
fc
3d
f1
ca
d9
06
0a
0a
0a
e4
e0
eb
e7
e8
e3
0c
12
d5
10
f0
06
f3
0e
f4
e3
dc
0a
01
04
e8
09
20
eb
02
1d
35
1e
fd
49
2a
18
16
05
10
03
04
fc
07
04
04
f9
e3
c9
00
19
13
f5
fb
fd
0a
12
e8
d5
f9
fa
1f
1c
ef
ef
c0
19
ec
01
0f
18
fb
05
fd
f6
ee
07
e6
1a
ed
e8
21
f2
f2
f9
02
09
f4
f7
fd
06
1a
fb
0c
0f
f5
1e
e3
fe
2d
09
de
15
20
08
b7
29
ee
09
ff
1d
1b
fa
e8
10
eb
f3
ed
12
fe
2d
fe
ff
dc
18
f1
e0
21
11
e1
f9
fc
04
30
1e
0f
0b
12
0b
fc
e4
07
0f
e0
fb
de
fa
0b
f5
15
2b
fa
e9
08
0e
f5
2e
ed
b8
fc
ea
d2
00
f4
ff
e3
f0
1f
0a
26
d7
24
ca
f6
ed
fc
e7
ce
ee
1f
06
00
0c
fd
da
0e
c0
0a
11
da
01
04
03
08
f3
fc
c1
e1
f9
17
ed
da
07
e8
17
f0
f4
1d
ef
f3
01
01
e8
09
1f
11
01
08
fb
fd
f8
fe
16
ea
e9
0f
d8
05
d9
23
dd
e9
0f
1b
0f
02
ee
f8
f5
0a
02
f4
04
ff
e8
fa
0e
19
f3
1a
04
f6
01
23
0a
14
fb
55
f6
0f
00
0e
ff
f6
fc
03
02
37
e9
f5
d3
02
db
33
0c
f4
1e
29
09
28
15
e5
fb
2d
2e
1d
fd
e4
30
f0
ed
02
2c
f1
e6
f9
f7
f9
f4
e1
06
17
f8
0f
2e
f0
05
03
01
02
e2
ea
08
33
f7
eb
f1
ee
f9
12
fc
31
f5
17
1c
d9
0e
22
1a
0a
ea
ee
11
09
f1
01
1e
0a
fb
f8
ee
0e
06
07
0f
1c
ee
fe
f8
fb
3c
ee
de
e7
17
16
2a
12
15
fb
1e
0a
08
e6
1a
d2
29
ef
18
f1
0a
07
e4
01
14
e7
05
06
fd
2c
0f
cb
fb
12
d7
1a
05
07
16
ec
f9
06
ec
11
d6
fb
f5
13
18
c3
04
f0
f3
03
ed
ed
fe
0e
e4
e0
e7
27
26
05
f4
ed
08
df
f4
f5
19
dd
0a
03
03
e9
f1
f6
12
ef
f3
ec
0b
0d
ed
eb
f0
f3
16
ed
fc
f5
33
f3
10
0c
24
39
05
0e
d4
0c
0f
0a
ff
22
e1
f9
27
0e
06
01
0c
08
16
fb
02
ff
fc
0a
d7
0e
0f
16
1f
e0
ea
f2
05
f0
20
35
ff
13
c2
fb
2c
16
fb
e5
e1
05
ea
23
46
ec
f1
fa
f2
1d
e9
11
f9
0d
e1
f7
04
11
26
13
f5
1c
19
fe
e9
f8
0d
12
e9
df
0d
eb
05
1a
17
0d
ee
d3
09
0c
f9
2e
26
0d
0b
f8
f9
02
1a
23
f3
e6
f4
05
e3
fd
f8
fd
1f
20
20
f3
f6
02
02
09
28
2a
01
f0
fd
12
f9
16
f2
f2
fb
f5
08
f2
13
f4
fe
fe
08
f6
13
fc
06
23
e3
f7
ed
01
e3
08
09
14
03
2d
3c
fc
0f
22
f9
11
1b
e1
19
dc
0e
1c
f7
16
1a
ed
f4
1d
f3
03
fd
04
1d
da
cb
f8
ed
eb
03
23
f1
18
14
e7
fa
0d
05
e8
fa
02
1a
08
dc
07
17
e9
1e
e1
09
2a
04
00
de
f5
0c
0f
25
f7
12
24
f6
0f
e0
09
22
18
30
fc
f4
ec
04
e6
fc
d4
cf
f1
09
01
21
0a
1a
1a
1f
0e
f9
ee
f0
f6
21
f7
37
cf
ec
06
e8
24
0b
e2
fe
31
0a
28
dc
24
f7
f9
1b
fe
0a
09
ea
e1
da
01
10
da
05
e9
db
fb
e5
31
e4
0e
e9
10
db
15
2c
41
ef
e1
f6
ce
02
25
f3
be
1e
05
d4
05
f1
39
20
fa
ec
05
18
e3
17
f5
ed
f3
08
f1
d7
18
cd
e9
f7
16
09
15
e9
dc
18
0c
11
ec
28
dc
17
fb
fc
e3
02
e6
ef
1b
f0
10
0f
f5
0e
28
06
06
dc
15
ed
2c
ea
ed
1e
f6
0a
11
fa
09
0d
d7
33
03
d0
03
fc
fc
30
09
0f
da
fb
17
ff
e0
fe
fd
02
00
0a
00
1a
02
27
cd
09
d7
10
f8
dd
19
e8
e8
17
2a
f9
12
09
ef
d3
fd
eb
e2
ea
f9
d4
21
e1
f7
ee
0b
fe
f9
0e
ff
00
13
05
0a
01
05
04
d3
f8
19
f3
02
f1
f9
31
fd
09
10
f2
32
d9
e8
f2
04
03
08
02
f9
18
03
ec
05
0d
40
2f
e5
10
f7
0e
21
1d
0b
18
f5
e1
df
13
fa
0d
0a
f4
05
f5
ee
02
0f
15
0b
07
eb
06
0a
1e
19
19
f0
f7
f2
05
03
f9
f0
ec
f5
07
10
15
24
fa
cf
fa
02
e8
f0
e6
f7
fa
da
0c
ef
fd
eb
f9
eb
15
dc
25
0e
fb
1f
e6
d7
df
0c
e4
fe
2c
e0
fe
f7
0c
1a
f5
f2
ea
f8
e8
05
35
e6
0f
10
fb
f3
00
e2
04
d6
34
06
1b
0d
eb
43
e3
f1
f4
d4
1d
0c
0d
30
bf
e3
d0
12
14
12
3f
06
20
f5
09
18
fa
f8
00
df
e8
e6
06
07
e5
e8
0a
0b
12
21
f1
24
c8
13
cd
0f
09
37
f1
f0
f5
1c
eb
06
fd
02
e7
ec
05
07
fa
07
f7
18
38
fb
07
0a
c6
26
f3
19
ec
03
2e
ea
0e
23
ff
04
09
34
02
e9
e8
04
ec
dd
ff
12
0e
b2
05
f9
f2
07
31
18
e3
fa
01
e7
06
d4
dd
21
d9
1d
fa
12
d6
f7
1a
ff
19
10
1f
e4
46
03
ed
f8
f8
f1
1a
ed
01
02
f7
21
f2
f0
00
fe
1f
01
f9
ea
16
e3
f6
0a
18
ea
ea
0e
df
f9
ea
06
0b
18
f8
05
12
fa
e7
e6
f0
fa
ed
ee
10
f3
f8
06
fa
f4
fc
1a
ec
e4
ec
f1
13
f4
e6
d4
f2
e5
f2
40
fb
f6
fc
19
22
15
03
0b
06
07
1e
29
04
cb
da
ec
1b
fd
c1
f9
20
11
28
f1
09
f3
0a
08
27
30
f0
0c
d1
e2
c9
05
fd
19
f1
08
08
f6
e5
08
11
e9
df
1a
14
fd
da
1f
ea
2f
24
21
02
15
ec
13
f8
eb
03
22
09
de
18
10
09
f7
ed
ef
05
a8
0e
fc
21
19
16
f8
d6
0f
f8
09
f0
e5
fd
de
ec
33
e8
e1
15
12
13
fd
10
09
12
f1
05
d2
07
f3
3e
fd
18
ee
f2
f0
1e
00
14
ca
02
db
f6
f5
c2
fa
1d
f0
fa
d3
dd
f1
e8
0d
0e
f5
fd
f3
12
fb
e4
f7
ef
0f
10
f8
f7
e0
12
05
f5
fc
25
0d
09
27
10
f6
03
f0
0d
e4
28
e7
07
fc
0d
eb
fc
03
0e
08
f8
f7
f1
eb
21
08
04
05
f3
f0
f7
e6
f2
f0
e8
0d
01
f6
13
16
fb
12
01
f5
f5
e7
0b
0a
fc
02
24
fe
1c
fa
fc
12
f6
0d
1a
ea
09
fc
ed
f8
fc
d6
fe
00
f1
dd
06
01
fd
fe
df
36
ff
ff
0c
00
f0
e8
02
e2
e3
21
16
12
f7
1b
fa
08
fe
0d
f5
1c
ca
23
e7
0f
00
17
05
e6
ed
03
28
e7
e5
f6
dd
12
13
d4
0f
f5
1d
ec
1a
28
db
02
fd
1a
fa
05
00
fb
09
15
d2
1c
fd
1a
2f
fc
0f
d7
1f
03
f9
1b
f0
01
fc
12
08
e5
d8
25
ec
03
0b
03
f7
21
00
0c
08
f9
2f
ef
ea
d8
08
fc
07
e7
00
19
f2
1b
15
fd
06
12
fc
10
ef
07
00
e8
05
15
0e
00
e1
eb
08
05
1e
02
fc
fd
1c
1d
f7
0f
1d
d4
f8
f8
0b
f6
e6
01
20
fd
f0
11
1f
ef
f9
16
07
e5
ee
f9
2f
08
14
e7
00
02
2d
f7
f7
1e
04
01
01
15
fb
ef
21
f3
de
ef
02
f0
34
00
08
f7
21
ea
12
01
dd
17
0e
e4
ed
f4
f3
ea
f4
f9
fe
e1
02
1a
01
ef
e7
03
f4
0b
f5
0c
02
f0
1d
08
01
e3
07
fe
1d
fc
13
0d
c0
11
05
fb
f1
13
fa
04
f7
dd
f0
fa
df
f2
07
15
64
d9
fa
ee
eb
e7
c3
d8
ea
09
d0
e6
09
dd
0e
0d
20
e8
02
f4
c2
f6
ea
1e
0a
fc
05
fd
10
fb
fd
dd
01
1a
f9
f1
f0
13
f1
fd
d6
1f
18
03
ea
e5
0d
00
00
19
03
f2
f8
0a
2b
f0
00
dc
27
f8
e5
fd
ee
0f
17
fb
02
e0
fd
0d
dd
e5
09
f3
f6
f9
0e
11
14
07
06
1b
07
f6
14
02
fd
02
fd
ff
f6
d5
f0
02
04
08
fb
15
0f
f1
f6
24
07
e9
0c
04
f3
ee
ed
16
cd
09
f0
0f
f3
09
f4
26
ef
05
fa
02
d5
f7
fe
f3
27
07
08
e9
23
dd
d9
04
da
f5
f8
e9
f8
f0
08
fc
f8
08
f6
fd
eb
f8
f4
0f
f0
d6
17
ec
1e
03
09
f9
f1
d5
fb
03
d3
fc
f9
2b
3c
d4
1a
03
f8
ee
eb
df
16
24
ee
03
37
ff
fa
15
f5
f7
d4
f7
1a
07
02
16
c5
f8
0c
da
ed
0c
01
1a
f0
ec
e7
0e
16
db
e7
0b
02
fd
09
15
f8
f9
c9
db
00
07
16
e9
30
10
f1
1e
ee
ea
fc
d6
fc
cf
e8
0a
2b
e3
e8
ff
02
1c
1b
55
07
07
04
f9
0c
fc
0a
e2
cd
f7
15
fd
2b
1f
08
fc
1c
05
0a
df
f5
f1
11
e7
04
09
1d
0e
01
f8
0a
e9
0d
2a
de
f2
dd
ea
1d
08
01
c7
04
e7
e0
f5
1b
01
f4
de
25
01
10
e8
e6
25
1b
0e
0b
f4
fc
0f
fd
e9
0f
16
21
08
03
d4
d6
f2
00
0b
02
04
16
ca
29
fc
f9
30
0a
cd
c2
fe
2e
fe
ee
0b
11
23
d3
03
fc
e6
08
e4
c1
14
40
00
25
13
f1
e3
2a
1d
e2
f5
02
ff
18
e5
0b
00
00
0a
dc
05
0c
17
ea
f3
ed
12
d2
05
08
ed
19
07
eb
1b
c1
0f
28
04
f2
08
e4
01
01
f1
f0
1c
12
fa
0f
ee
f3
06
f1
08
f7
d4
0c
e5
2f
e0
fd
05
fe
07
fe
e4
db
08
fc
ee
ea
fc
0c
f7
15
14
09
f2
16
19
12
d6
e2
0b
11
ff
fe
05
0c
f1
ea
f6
20
05
f9
fc
3c
e7
f6
10
f9
0d
f4
e7
f4
f4
0f
08
08
02
0e
f5
fa
0d
1d
12
05
0c
fb
23
f6
fe
e5
d6
1f
e4
28
f8
18
f1
00
ea
08
39
d4
ee
36
de
20
05
0c
0d
f2
13
f2
02
fc
ed
e4
dd
f7
15
1f
05
13
fd
fd
e2
15
f0
07
08
0d
fa
01
13
29
4e
e9
01
e6
f3
10
e8
07
f1
03
dd
05
13
ea
e7
13
14
0f
2a
0d
29
f6
2e
10
d8
03
e1
00
03
12
0a
09
06
d4
07
10
3f
1b
07
c7
fa
37
0b
dd
23
e1
08
04
15
fe
f9
f7
21
eb
f0
25
dd
0c
ea
07
db
e9
03
e5
f0
05
10
0a
fb
f7
fd
dd
25
f3
e6
f2
f9
e4
d8
fc
fb
eb
22
ed
fe
19
09
02
fc
f7
fe
0c
0c
08
fd
f5
ed
0e
df
2c
15
14
04
14
11
fa
f2
08
ef
e6
db
f0
08
05
fe
04
29
f0
02
fe
f1
f1
02
15
fe
e7
f9
02
12
f6
06
e1
01
da
ed
0c
ba
1c
2b
31
f6
12
15
02
21
02
e6
03
f5
1b
1e
e4
25
b9
1f
f8
e9
01
3c
d5
e3
ca
04
16
13
e6
29
ef
e7
f0
f2
01
3e
0d
ef
f7
17
f1
d5
d9
10
ec
19
de
34
f6
fb
19
06
d7
36
36
1f
03
cd
20
fa
f8
f6
07
2a
ff
f2
d7
fd
fd
e9
f3
f9
ff
db
15
17
00
16
e6
06
fe
21
2b
0a
f0
fe
ed
18
e3
0d
f4
14
fc
11
f0
10
f0
de
19
1b
02
ea
04
07
fc
12
0f
11
02
fc
13
0f
02
fa
fa
2c
06
2a
09
14
fb
f9
0d
fb
2b
d0
f1
ea
0a
10
10
d7
04
17
07
26
03
ec
d1
ed
1a
0d
ed
f5
ea
0a
01
f9
ff
05
13
df
08
fa
f9
26
f7
08
12
02
19
03
e5
f6
16
08
ee
12
06
12
ef
f5
02
f2
10
12
00
fe
04
e1
00
06
01
15
f3
03
0a
d9
f1
0a
14
1f
06
46
13
02
11
03
14
f8
04
d6
f4
f7
c1
16
cf
f9
db
22
d9
14
f5
2b
f7
f4
25
2a
c1
10
d9
07
e7
f0
04
0e
14
f1
02
19
f8
07
15
fe
1a
2e
e0
f0
fe
f9
20
fa
fd
f1
0a
0d
fa
ee
fc
07
1e
fb
03
e8
f3
1f
10
e9
fb
fc
26
eb
fc
e0
27
ef
01
ea
18
d0
14
07
e4
ec
00
ea
d9
d9
eb
23
ef
df
04
fa
17
0c
08
30
1d
eb
28
de
04
3a
ff
e7
15
fd
e4
08
15
31
f4
35
10
e6
00
d3
f3
fa
01
cf
b0
f8
fc
f6
14
e8
e8
02
25
fd
38
dd
17
fb
10
0c
f9
01
fe
12
e0
07
0a
fc
01
e4
fc
eb
08
15
19
3f
fc
01
ec
37
f1
f9
1e
02
3e
2b
f1
07
05
ff
01
0a
10
12
fd
f5
05
fe
0e
ec
2c
e5
f0
f5
09
03
f5
fd
e8
18
11
fb
04
fe
dc
07
01
1a
0b
0a
0d
f0
21
fe
06
f1
bc
00
04
03
14
ea
01
f3
34
f9
03
35
f2
1e
02
05
0c
ea
f0
e8
06
fc
21
2d
fb
18
f9
f0
db
e7
de
ed
06
fa
1c
f9
f4
dc
11
03
17
ee
fa
10
13
01
18
0f
36
05
15
f6
0e
0c
f0
06
06
02
0c
12
de
15
e7
fe
f5
e5
0c
ed
1f
f0
f7
f7
08
03
ed
f2
16
e1
0b
31
f1
06
04
06
f8
f9
fd
e4
01
ef
bc
1a
10
02
07
c9
d9
02
13
e7
1e
df
0b
fa
f6
f0
07
07
e4
16
fa
f3
12
f5
0a
07
17
e6
3e
f7
01
af
f6
e3
04
e7
24
d5
e8
c4
16
08
e5
f4
dc
37
ec
05
ea
ee
ea
06
ec
06
b6
17
f9
0f
07
f1
ec
f7
e4
33
0b
08
dc
de
f9
ee
0e
d8
f8
04
1f
1f
e0
c1
07
0d
08
45
18
e4
32
0e
50
f2
07
09
df
de
09
0a
ee
0e
15
11
1b
28
28
fb
ee
ed
f3
06
fe
ef
00
e8
cd
eb
d3
1a
04
f4
1f
e6
f6
0d
0e
f7
f9
14
09
f9
e2
0d
16
17
f5
23
07
0c
f2
12
eb
03
08
02
fd
e4
18
13
19
10
06
01
1c
e3
2c
29
0b
e8
eb
27
e3
f5
42
02
1f
4c
16
01
fa
ef
f8
e8
fc
f0
1b
f1
1e
e8
dd
f4
c2
fd
3f
12
1a
1b
e8
d4
fe
08
00
ff
0a
21
09
06
02
24
f7
15
10
d1
f6
09
f2
e4
e2
e6
08
0a
09
fb
d6
e8
00
16
12
09
09
03
12
fa
eb
34
05
16
fb
05
fe
fd
f8
15
0d
ed
ea
03
cc
fe
ef
04
23
fc
f5
20
04
0f
e3
09
17
06
0e
0e
08
fe
06
e6
fc
18
08
14
19
f1
f1
16
df
0d
04
00
0a
04
16
03
1a
15
0c
eb
f9
f8
04
e5
e9
f9
0f
0d
f0
10
f6
e9
0d
16
f8
e5
da
07
f3
02
08
f7
fc
ee
0a
ee
da
ec
01
f5
cc
f4
ff
00
e7
fd
f5
05
f7
fe
0d
11
21
17
db
f2
d7
e6
08
ec
27
20
22
fd
f6
e7
fb
08
35
e4
ed
12
ef
ce
f6
fc
f0
e8
0c
ff
e2
fd
e7
eb
fb
ea
d1
15
07
0e
f8
08
dc
1e
2d
04
e6
17
02
11
ee
0c
f5
e5
03
33
02
f2
1b
f8
0a
22
e5
f7
02
0a
1e
fe
0e
05
e4
fe
0a
03
31
fd
1a
2b
c0
25
13
21
2e
17
d2
16
1a
fa
f6
fc
ea
43
19
f0
f9
f8
05
e4
13
d7
ca
f0
e7
14
e6
18
0b
fe
f5
14
05
01
f3
0c
ee
e2
fa
dc
01
e4
fd
f1
d4
23
05
fe
18
03
fa
f4
12
11
f9
22
c8
03
15
06
2c
09
f2
f5
fa
e7
0a
20
19
0d
10
f8
0c
db
20
ec
09
f3
1d
fb
06
40
fb
fe
ef
03
c7
48
0b
11
12
ec
34
fa
13
55
fb
ff
00
fd
fc
08
ca
05
0a
e7
21
23
23
e9
fd
18
04
fd
15
ff
1e
ff
07
de
e6
0a
0b
ee
14
c6
18
e8
19
00
ec
bf
de
d5
65
d5
f9
1f
e9
bf
f9
08
fc
fe
32
11
ee
08
09
11
11
0d
0b
e9
00
fb
01
12
fd
f6
e7
c8
f8
fe
23
0d
05
07
eb
e8
f5
2a
f4
fe
14
eb
e8
fe
1a
cc
2c
f7
19
f1
0e
0f
13
f5
f5
09
0b
fd
00
0c
12
2e
fc
13
0d
03
0c
fa
f8
f2
ff
17
09
11
15
fb
dc
f0
0e
0f
17
17
f3
ec
11
09
2e
e1
05
c9
f4
e1
d7
fe
06
fc
fb
02
d7
cd
e8
04
d5
ee
1c
0f
fa
f6
f2
f0
25
01
16
e6
27
f6
f9
e9
d9
fc
2b
ff
19
f1
ed
da
f8
ff
fc
fe
fc
ec
f5
fe
18
fe
0d
fd
10
e9
fc
33
00
d3
01
0c
06
fe
14
f2
35
10
e9
f1
2a
13
ff
da
0a
22
01
c6
30
0a
11
10
1a
e0
09
d2
fe
f5
42
db
f5
01
27
15
ee
fe
15
45
d6
fb
dd
11
e4
31
33
ef
0a
1e
07
c2
f1
e9
dd
e6
f3
e9
f4
e8
16
14
09
05
22
fd
e2
12
eb
1d
29
13
fc
d9
fc
e4
d7
e7
f3
17
e5
2a
da
e1
fc
10
e4
f0
16
f6
ed
01
f3
eb
f8
fb
0d
e7
eb
1c
f7
ed
fe
31
ff
e7
e6
03
e5
03
15
27
1a
df
13
df
20
00
05
dd
2e
19
ea
04
09
e3
f5
04
ed
21
05
2d
0d
f2
1f
e3
07
00
c3
f5
f8
f3
f3
07
fd
ec
f7
23
f8
1f
f5
ed
09
f0
12
f8
06
fc
f3
ec
1e
fe
19
f4
2d
fc
ff
18
f5
ce
fc
01
f3
ff
ee
f7
e8
16
10
e3
14
ff
e1
eb
de
29
da
fa
21
d4
1a
03
f4
ff
11
0c
e5
15
17
f2
f8
22
0d
fd
f2
fd
04
f5
dd
e7
0a
d0
cb
26
04
17
f7
ef
11
1c
04
1a
02
fa
1c
04
02
19
e5
01
fd
f9
00
f1
ee
07
f6
0b
1f
e9
16
00
11
ef
01
fe
fe
00
01
00
fe
08
26
16
f7
06
0c
0a
ea
0f
ff
fd
f6
10
fd
f3
10
0e
ff
01
f3
08
03
eb
03
2c
03
f4
00
04
e5
ee
11
f9
f5
fd
06
f0
f3
f2
f5
f3
20
03
04
f0
03
fa
15
f4
23
16
f4
ec
f5
13
e4
15
01
f6
fe
00
eb
fb
20
29
df
3c
14
f2
02
e1
eb
f0
e5
17
07
39
08
16
fb
16
09
d0
fd
f1
d7
1c
01
e8
da
fc
29
eb
ed
20
f5
05
fb
24
09
f0
0b
f9
10
f6
03
02
45
fa
06
f2
3a
01
f2
2a
d3
f2
1a
1b
06
e6
2f
ec
f4
c3
f3
ff
23
2c
f5
0d
f7
15
1d
25
01
17
0a
fb
e1
0e
ef
34
01
f4
de
13
f2
e8
0b
cb
ec
d6
e9
0b
01
ef
27
eb
f3
ea
f4
f1
f1
fa
17
13
fb
24
00
f2
e0
35
02
00
ea
0d
e8
f9
25
ec
01
25
0c
f2
dd
16
20
f6
e9
1f
d0
20
15
ea
e8
f1
ec
0b
f8
d6
18
20
ff
f7
00
0b
13
0e
d9
00
21
f7
f8
f6
13
ea
e1
f1
02
ea
00
fe
09
e1
06
1d
d8
0e
11
fc
16
fa
f7
d7
ee
01
20
e9
1c
e9
0d
d0
ea
ff
04
f4
f5
f6
18
fa
e9
00
03
3c
e2
17
d6
f0
08
dd
0f
f1
db
fd
e9
f8
08
f2
06
ea
ff
10
1f
01
28
f0
2d
18
20
d3
15
e9
08
fb
dd
12
05
e5
fe
e4
05
fb
0e
da
24
1c
fc
df
ff
03
25
fc
12
21
12
15
11
11
03
f3
f7
10
f2
2a
f4
11
15
fd
13
21
0d
0d
29
00
ee
d7
fa
24
33
17
17
d6
2a
e7
00
f8
02
ff
f8
f6
eb
10
08
f7
e4
19
1c
0b
03
ef
2e
fe
00
03
09
fe
e2
0c
18
06
eb
0c
0c
dd
10
f7
f6
12
f0
fa
03
05
da
2e
25
ee
d6
f8
f3
e1
0d
fb
ef
ef
3e
fb
0d
14
f7
28
f6
f1
0f
ec
ec
a9
e4
eb
c9
02
09
fd
16
5c
02
03
f3
0c
f8
db
eb
20
08
01
fa
16
f7
fd
16
34
18
13
31
f5
bc
19
15
1c
fc
30
d4
06
f5
e0
f9
23
f6
16
d9
26
32
36
05
f7
13
08
1b
23
10
00
f8
0b
1b
f5
ee
fd
e3
fb
05
13
0e
20
32
ff
ed
f8
f0
f2
f2
da
ff
ee
c5
16
0c
18
0e
d8
18
ff
f7
12
ce
ff
01
03
13
ee
ef
ff
e6
04
04
0f
ff
0b
0e
0b
1a
f2
f3
f2
d2
0c
f9
ca
0d
f0
fd
f5
12
0e
25
3f
23
f1
de
f5
06
0e
df
07
19
fc
04
f7
12
fb
db
e1
0d
26
f8
db
ef
2b
ff
17
e1
20
ea
ff
06
17
0e
12
f7
fa
18
e8
ff
f4
09
eb
03
d5
f3
fb
ed
01
ff
08
c5
0d
01
1c
f8
18
f1
f4
ee
0f
05
03
44
0f
e0
e8
f4
ed
2a
0e
13
e2
1d
ef
0e
0f
f9
ea
f3
fe
f0
e4
03
08
07
fe
cc
fe
e6
02
12
09
ea
cc
f5
e7
0d
fe
e5
e9
eb
df
cf
ea
e6
f7
f2
fa
11
2f
0f
0f
3a
ee
f5
1f
24
e5
ef
f8
07
05
f7
04
23
e0
cf
f6
ed
0e
0c
fd
29
12
28
f0
12
fa
05
f5
f8
05
ef
fb
0c
13
14
06
22
fc
05
0b
1e
f5
f7
fb
19
30
02
05
f1
f5
0f
de
e1
ec
f9
f7
f1
0e
cb
e9
ea
fb
06
16
16
fb
17
f5
00
e8
06
fd
0a
1e
28
09
d1
e0
07
f9
08
fe
2d
e2
f1
fb
fa
ed
0e
fe
03
27
12
03
19
13
e9
22
ef
cb
00
f5
01
03
e8
27
c6
26
f8
07
16
f0
12
0e
09
3a
28
eb
0c
09
05
f2
e6
f0
ee
02
0b
f5
3a
04
1c
00
04
f5
00
0b
e4
02
d7
c4
0f
19
07
03
07
28
11
22
c2
ef
e9
05
0d
07
13
e8
18
0f
f9
13
d8
21
ff
eb
18
e1
10
df
12
ee
07
ea
f9
1e
0b
fe
12
0d
df
0a
35
15
28
11
f5
2c
f2
f8
01
e2
f9
00
f1
14
09
fc
ed
0b
ee
f3
1f
03
e9
f9
12
05
04
fc
fa
11
01
16
fa
04
ef
fc
1a
24
f9
08
ee
fb
1f
16
0a
f3
ff
2d
27
f1
06
e8
02
03
e2
1a
fa
0b
0c
e9
2c
3d
08
e0
04
fe
0a
08
f8
13
23
11
f9
36
fa
f8
de
1a
0c
00
f9
02
07
dd
08
08
05
20
f1
10
ff
08
1d
1a
f5
34
ed
09
06
f4
f9
f3
f2
f2
f8
e4
f2
25
f7
02
fb
06
26
0f
fc
10
1e
1e
f4
09
13
0b
cc
1d
03
03
0d
eb
d3
e9
f9
ef
27
1c
d6
0e
10
fd
0e
fb
02
07
d2
01
fe
27
31
fa
01
23
c3
05
e4
02
e0
f0
22
fa
f4
2c
e7
03
11
e1
f0
02
d5
05
02
ec
fc
2b
0f
e5
fe
21
1d
0c
07
09
e6
d9
f1
02
e2
f9
f3
0b
0b
1a
f9
e1
f9
00
0d
06
e4
fe
08
f0
f4
2c
08
39
04
0f
f3
17
ec
1b
18
27
fa
25
1c
32
e3
f1
f2
f3
0f
f6
08
f8
48
f2
1b
14
1c
07
d3
07
16
e8
f5
29
f4
0e
13
0a
ea
36
08
f9
1b
da
e3
dc
e6
ed
df
ed
1a
d3
14
03
12
ea
c8
05
df
14
fe
e2
0f
19
e6
15
07
01
e5
1a
ef
ea
0c
f6
e7
20
0e
ec
e6
06
31
fc
c2
18
2d
e5
ed
de
fb
f5
e7
09
18
0e
f2
0a
fb
d8
04
05
d9
e5
05
12
e6
d1
f4
05
ff
f9
ee
06
2e
00
05
23
02
1e
db
d7
fb
e9
27
ff
f6
ff
fb
09
17
2a
3b
ec
cd
de
15
1e
24
12
e9
07
13
ff
1f
00
0a
fb
eb
0e
fd
ec
f6
ec
f5
e7
f5
ee
fb
0f
0e
0d
0d
e2
01
09
fb
ee
05
0f
fd
ff
00
e8
06
ff
ff
e2
0b
e5
f1
1e
f9
ef
33
e2
0e
16
f8
df
1e
03
f8
f5
15
fe
21
0b
0c
f1
e2
fa
f4
f9
13
e0
03
fd
0b
e7
19
15
17
f8
00
32
f4
f0
e5
e8
20
ee
f5
0e
f6
ed
eb
21
fa
11
ef
08
e1
f9
ea
01
23
ff
f1
21
e6
23
02
03
08
4e
f5
df
21
ff
ff
07
df
0a
07
fa
18
20
c0
fe
2b
02
08
ef
ef
07
17
07
f3
02
07
16
1b
df
07
f8
09
0d
0e
e5
0d
08
fd
ff
aa
fb
15
0f
20
01
16
0a
ed
11
08
f9
1a
ff
fd
14
04
0f
fe
22
f5
13
0f
06
df
0f
1f
06
f3
d2
eb
19
11
15
0d
d6
ff
04
f7
e7
10
06
0f
06
ef
e8
f8
2b
12
13
01
02
0c
e4
fe
19
1f
00
ff
08
12
f4
01
fd
e1
2b
f3
ee
f5
e9
0c
0c
3c
16
1a
11
f6
36
fd
0f
dc
f7
1a
f5
14
f7
f8
f6
0c
fb
fe
19
ea
1a
fa
fe
fa
f7
e9
de
0c
08
06
f8
0e
f0
14
11
09
03
ef
f1
f5
21
ff
e0
05
e8
ba
f1
2f
e6
fc
3a
e7
ce
dd
1d
0d
de
c8
fb
eb
43
11
1a
cf
22
01
04
00
f5
e3
1a
21
fb
25
ed
ca
be
d1
03
03
16
21
00
ea
e7
f7
0b
fc
c5
fd
ec
ee
2a
e4
0a
0e
0d
11
f8
21
f7
e6
f1
31
33
20
db
df
35
c8
12
07
fa
dd
e7
02
f1
1e
dd
15
e7
0c
e9
05
1f
e6
09
e9
fa
db
00
f5
13
d7
eb
eb
02
fa
dc
e2
f0
f1
ef
06
1a
04
0f
d4
24
f5
f6
e9
e0
f2
0a
e4
07
0d
0a
1f
12
e3
21
eb
20
1d
e8
08
10
d7
1e
16
0c
f1
0e
f2
0a
fa
07
1d
f9
00
18
10
35
ef
f8
d3
23
2a
04
fa
0c
f1
0c
1a
fe
02
02
f4
fc
fc
dd
09
07
e6
f5
02
1b
1c
10
08
18
0a
f9
24
03
0a
03
02
e3
11
2b
e5
fd
03
17
10
f4
06
d8
0b
fe
21
e4
c9
0e
00
01
02
05
fc
05
18
0a
0d
0f
e0
e7
06
f9
00
de
fa
f8
32
f5
07
d8
ff
fc
fb
0f
0a
e6
29
0a
e8
48
0d
e0
e4
f0
ff
f1
0c
14
0a
12
03
1a
2f
f6
12
01
f2
f4
1b
08
1b
0a
14
1e
12
0e
f9
10
0d
dd
06
fd
f9
ef
21
ed
12
e1
ea
18
fd
14
d6
d3
07
0f
2e
18
d9
0d
fa
d3
0d
00
fa
d3
de
10
d8
20
f7
02
da
10
38
fd
0c
fe
e9
e4
13
f2
04
15
0a
11
11
07
03
e1
17
ef
cd
0f
ff
17
03
f0
f9
0a
14
f8
13
f6
16
01
f5
f0
ff
03
ef
07
ca
f1
14
00
0e
e3
d7
fc
03
fa
01
08
f2
fb
11
f2
04
0a
07
df
f9
03
30
31
15
00
2e
f2
05
f6
0f
fd
09
f3
0f
16
16
0f
14
ff
16
0c
e8
f5
eb
d5
ed
e9
07
10
1c
ef
f9
00
1f
02
f0
eb
f0
f4
02
00
e9
fb
0f
15
06
04
23
e5
1b
ef
02
fe
1d
ff
b6
f8
06
ff
f9
04
e8
06
ca
e8
28
f2
f3
e1
e0
04
1e
e8
e0
0e
cc
f4
11
fe
3f
0b
f9
f3
21
f4
f2
cb
22
f1
ef
e7
11
e7
3b
e5
e5
10
13
f9
03
d3
e6
f5
d1
1c
e2
12
04
2d
0c
04
e6
0a
17
18
02
ed
e9
09
09
e2
04
f9
f2
e3
13
1c
e7
db
fd
2a
c5
f2
00
28
1a
e4
12
44
14
f2
19
0e
f9
0c
ff
f1
17
1c
1f
01
04
f8
dc
eb
fa
2d
18
ff
12
1f
00
e4
c5
0f
f2
26
0b
05
0a
16
ff
f9
ff
0a
27
fb
00
10
02
05
e8
ef
da
f1
0d
06
04
16
f5
06
f9
ff
20
ec
f7
ed
36
fe
f5
15
e1
1a
02
f3
dd
0e
07
eb
1e
01
e0
00
24
1e
26
f6
e7
f2
f7
f8
1e
23
fc
f6
0c
00
0d
32
f0
35
ee
b4
11
30
e3
2c
ea
1f
05
23
fc
22
fc
f1
e6
0a
ff
13
18
22
1d
e9
e5
05
bf
d3
0b
0b
12
fb
03
18
f7
ec
f5
02
f0
06
e0
ff
23
09
fe
fd
eb
d6
5c
dd
13
fb
f1
15
13
0a
f5
16
f2
39
e9
29
34
01
b9
16
e4
20
ee
15
15
f3
fb
f3
e8
26
fd
03
0f
27
d0
f7
0e
ea
04
ea
fc
10
06
fa
13
f6
e1
09
fd
ce
0c
df
d2
f5
e3
0e
f4
18
0b
f2
fb
f9
2e
ff
fd
1d
1b
e9
57
ef
10
47
13
08
ed
ec
23
0f
09
1a
21
f4
28
0e
12
f9
f6
09
14
f3
22
06
22
02
17
18
f5
c4
c7
0f
fb
0e
0c
0f
19
f6
27
01
de
23
e4
be
17
fc
ed
ed
d5
dc
07
cc
09
01
f9
29
f4
fa
d8
15
2d
18
f1
f0
19
f7
f8
ff
07
ed
e3
ef
ed
f4
0b
0b
00
15
02
d6
09
00
02
f5
07
03
04
e1
ed
02
fe
08
28
36
f2
03
fc
0d
ee
da
ee
02
e8
fc
0f
03
f0
e5
08
fe
fd
f5
f6
0a
f7
0f
fc
ff
fe
f4
fc
fd
12
f2
f0
04
00
1f
11
07
07
f9
dc
0d
fe
fa
0f
f4
0d
16
0c
dd
0a
10
f2
ee
ec
d8
17
ed
e9
f2
02
1e
1a
d7
ff
fc
f2
ef
33
fd
f1
d1
08
00
01
08
09
27
12
e7
1b
16
13
12
d4
06
00
e2
fc
e0
03
fc
25
ed
fb
e8
f1
17
07
05
02
1e
2f
f0
f7
ec
01
0f
09
21
ff
1f
0e
2b
1f
0b
0b
ff
fd
fd
0e
00
f5
06
0a
03
f0
fb
01
ff
ff
f9
0a
08
00
ea
f4
f2
0f
f7
ec
fa
f2
02
08
fd
e8
0e
14
fb
0a
06
05
fd
01
f2
f3
ff
10
11
1e
fe
f8
f5
f3
f8
f6
04
06
ee
fe
fb
e5
f1
0b
e7
ee
ff
d9
e7
2d
f0
01
f3
10
29
20
dc
06
0a
ef
05
0d
f9
ec
f6
29
12
f8
0b
fc
eb
11
12
12
ef
f7
ed
07
04
cd
05
f5
ec
fd
f1
d5
0a
f0
ee
ff
13
ef
0c
23
21
e5
39
07
f9
ea
0e
02
f3
f6
dd
fc
02
f6
fa
07
15
fc
da
0f
35
0c
18
f9
fb
0f
fb
1a
ce
50
c9
19
13
03
21
23
06
19
f7
0d
11
e1
1d
02
f6
00
20
fd
05
02
09
0a
f8
14
00
ed
e5
d7
00
17
f8
d5
f6
e7
c7
ef
12
dc
d0
41
eb
23
dd
03
f4
ec
06
fe
10
13
fb
fd
16
ef
fc
02
0d
e6
d2
24
ea
2d
f4
0c
fc
fc
00
0c
0b
17
1c
03
f6
22
11
29
1d
0f
ff
0f
17
ef
13
d9
f6
dc
e1
0c
f7
12
02
07
0a
fe
07
ec
f5
02
0c
fd
f8
fe
ff
ec
eb
0f
0a
f2
00
02
13
eb
f9
ef
0b
ed
31
dc
19
00
05
08
eb
01
2b
14
1b
fe
fd
e7
eb
16
d8
ea
08
02
fe
e2
fe
0e
d6
fc
22
12
f5
08
fc
24
eb
fd
1a
15
20
ed
ff
12
16
f8
1f
f0
00
31
08
e2
11
e3
01
fa
04
fe
18
f9
12
2a
f9
f3
fd
da
07
f2
f9
e9
ef
fb
0a
01
ea
f4
ee
e8
fb
11
cd
06
17
10
33
32
14
fe
0d
fe
15
f7
0d
e2
00
d2
fc
1c
e8
e3
09
12
fa
2e
f2
f4
11
0b
c9
03
0b
e1
18
0e
14
2a
13
f3
f3
f2
ff
12
fc
16
e7
e7
0d
1c
0e
f2
eb
fb
cd
08
18
09
e8
fb
d8
0e
f6
fd
fc
25
e2
e9
f8
0f
f3
e4
08
17
f9
f2
f6
e8
da
00
12
22
0e
01
09
06
34
0d
0e
ef
ee
25
fe
11
14
e7
04
f3
ea
e9
10
04
fa
14
fa
ff
f5
f9
02
03
e4
ed
f8
28
f0
ec
f3
fb
e2
f6
12
10
ed
08
25
ed
eb
f1
ed
05
ec
f5
04
20
f5
c7
3a
f1
01
f5
ed
14
23
ff
f2
da
d8
ff
f9
11
0c
0f
25
f9
fe
e2
e9
f3
0e
36
f9
1b
f8
03
f8
02
d7
09
06
f0
f5
f6
10
ff
16
03
01
dd
ec
1b
01
1a
02
df
2a
23
13
13
d8
07
f3
23
f2
05
06
d3
2e
fa
01
e6
0d
eb
fe
07
12
18
c8
0b
32
05
f2
15
0a
06
f9
e5
21
1f
19
10
fb
ff
22
08
fc
de
1d
ff
e3
cf
1d
e1
ee
f7
13
e9
0c
fc
0b
f9
20
11
f5
f5
19
f2
15
f4
09
00
08
12
f8
ef
fc
f5
09
fb
f8
1a
f0
27
f1
13
ef
f6
e2
01
23
02
01
d6
ef
19
04
f8
0a
f8
e9
f9
2e
07
fc
09
14
10
0c
01
0d
12
f5
14
f7
f2
05
f9
1d
fe
0c
f1
16
14
f1
1f
03
04
f4
0d
0c
e1
13
f7
11
18
0a
d8
ee
dc
5e
f7
f0
1f
f4
2c
fd
27
10
f2
f7
10
e4
fc
f7
fc
28
00
1a
ff
fa
09
e7
f6
f2
07
cc
fc
12
15
1f
0a
bc
fb
eb
1e
16
05
fc
1e
f7
0d
1c
f6
03
10
f6
10
9b
da
00
1c
d2
24
dc
da
da
fb
0f
01
05
f6
e2
ef
e7
19
ed
19
e2
f6
06
fc
0a
25
2c
1e
17
e1
12
11
dc
21
05
ee
e5
18
07
fd
34
09
cc
10
06
0b
17
17
11
1e
26
ee
f2
26
f0
ff
00
2e
17
f8
ee
f7
ff
1e
20
f7
1a
fd
1e
fc
f7
f5
06
04
ee
02
f2
fd
1d
f9
10
ec
0c
0f
e3
f9
04
1b
0b
0c
df
08
f6
0d
fb
09
e3
f6
35
33
fb
03
09
28
f6
e0
03
d9
e7
26
13
2a
13
ec
2a
fc
fc
09
38
f9
14
d4
0b
0c
0d
04
18
d4
fe
07
07
07
f1
fc
ed
c9
0b
22
0b
08
f5
0f
e6
a8
0e
27
d9
f6
34
00
ed
d4
c4
09
20
de
00
ea
f1
e1
d7
f9
e1
c7
30
e5
0d
06
0a
03
fa
d3
29
0e
59
1f
46
09
2f
16
fd
17
0b
01
20
26
eb
de
b3
e3
1e
0c
1a
1f
13
f8
05
fc
3b
0a
ec
ed
1b
12
0a
ec
1d
02
f2
25
dc
13
08
ec
da
0a
f0
e2
ef
e6
ff
f3
21
ed
f9
1b
ff
e3
0b
16
1b
20
0f
e6
fc
2b
f8
0a
09
f3
26
06
11
03
ef
22
f2
00
d3
06
ee
19
22
e0
33
32
10
2a
fc
e2
09
f4
09
ec
0c
03
20
1e
dc
f0
20
20
00
0c
ed
0d
d9
f8
18
e9
19
16
23
fb
fc
0d
08
06
e5
ff
08
2b
08
02
06
e0
01
03
f0
ed
28
fb
ea
d7
0a
d5
e8
c8
e5
08
0d
d3
00
f3
f7
ec
11
f8
d5
fd
16
f8
1c
c2
f9
01
46
08
17
f5
ca
ee
05
fd
e1
1c
03
f5
17
09
16
28
fa
06
19
de
06
0a
13
f5
0f
10
02
fc
1b
e9
02
2c
ff
fd
09
0b
29
d6
f6
e3
f9
d9
dc
ea
fd
e7
14
e7
e1
02
e9
fa
35
0f
1d
2c
14
09
ef
02
e5
da
f4
f2
19
fb
0d
0e
11
e2
1b
f0
fe
f3
ed
07
0e
e5
e0
c7
14
f4
05
1a
f6
0c
fe
02
ea
13
ea
0c
33
1a
fa
01
0d
11
01
07
f1
da
10
14
03
ef
13
1c
d8
fe
00
e1
f4
0b
27
18
14
0e
0d
d3
0f
e6
2b
10
23
1b
01
09
ea
e6
1a
1e
eb
df
f6
3a
f0
04
fb
e3
29
c6
29
fd
01
f4
03
f2
16
0c
0f
ed
05
27
09
f6
f9
41
1a
fd
fb
ee
1b
df
f4
01
11
fe
e1
d8
e6
c6
f7
23
fd
da
f0
df
17
dd
f1
02
19
20
19
f4
1c
e9
0f
08
26
cb
fe
fd
fa
0b
d2
eb
13
fb
13
f4
24
cc
ea
fb
fb
14
ec
0e
f9
1c
0e
c8
f2
ff
03
e9
2f
e8
06
f9
05
da
0f
23
ee
fe
ea
24
1e
1b
0b
f2
23
dd
0d
07
03
05
0b
07
0e
0d
35
ff
df
f6
19
08
05
31
12
0c
f9
f2
34
ff
13
eb
e5
04
f8
00
13
20
0c
e2
f8
e7
f7
15
02
fb
e5
ec
12
03
fc
ff
c6
1d
01
04
17
fd
e6
2c
03
cb
e3
11
c2
f3
e2
f0
fe
10
fc
26
12
ff
00
25
2a
ec
ef
eb
06
ee
0c
ec
22
0d
fa
df
e5
f9
0b
10
f5
11
d7
32
0d
cc
05
2c
f0
0c
11
12
e9
1d
db
04
0b
0e
f6
f4
1b
e5
c5
24
f8
fa
fa
1d
fa
f9
e8
09
ee
0d
0b
14
02
1b
2d
02
ee
07
12
0c
e4
f9
26
05
f5
02
f9
07
f4
0b
19
04
1b
db
0b
ec
06
01
16
f8
11
f9
0d
c9
01
fb
1e
f5
eb
0f
f1
23
2b
04
25
00
ef
f8
d8
e3
f1
01
01
f8
15
20
2c
e6
db
f4
13
e1
06
e9
08
00
e8
01
f8
e1
e6
01
f2
0c
e3
f7
00
db
15
f3
ee
f3
e1
f3
02
37
e3
fc
dc
0b
f3
f1
02
15
f8
12
16
12
eb
f6
e0
14
11
e6
fe
f8
0d
1c
f7
12
11
f8
0d
11
23
ef
dc
05
19
08
03
08
01
09
14
05
10
01
01
e3
e0
e7
fb
f7
f1
13
f3
0c
fe
17
f5
e9
0e
04
f5
1f
fc
fa
02
f6
1d
c8
d3
11
f1
f4
0e
0a
00
05
e9
e9
01
0e
02
15
e3
f5
ed
07
0b
0e
f3
07
fe
0f
f8
26
0d
ff
02
0f
16
13
fb
18
f9
f3
f9
ec
00
ea
f9
10
cf
fc
0a
0a
ff
0d
f4
04
f3
11
f9
05
fa
14
08
fd
0e
1b
e0
fd
05
07
0d
fd
1f
14
21
fd
05
d8
0c
f8
23
ed
ff
1a
fb
ea
f1
05
f4
06
03
0b
ff
25
02
00
0c
05
f4
f4
06
fd
0b
fe
e6
03
f3
e5
ed
18
f8
fb
e9
f2
14
00
fc
02
18
f7
e6
fd
09
09
f6
14
02
14
02
00
2b
df
18
f0
2d
f1
0a
0e
05
09
d6
0f
16
fd
17
e6
db
ee
ed
22
11
fa
1f
f6
fe
ff
f4
0d
e7
e0
13
13
dc
de
22
ff
d5
f2
f3
08
11
18
25
ec
dd
06
42
1a
02
ff
f5
47
16
0f
02
09
07
f0
ea
f6
00
08
e7
0b
07
d8
09
01
f7
00
f5
e3
06
09
f7
d6
ec
05
55
bd
1e
ea
0a
ef
cf
f0
02
08
0d
ea
16
e6
0e
12
02
00
19
fa
f4
ee
db
07
09
33
ea
cf
ed
f1
05
e9
0c
e6
eb
14
ec
e0
ea
21
c1
03
02
e2
09
0c
03
09
22
12
06
fd
09
f5
c2
ef
2f
d0
da
17
f3
1c
f9
f6
e1
07
16
10
f3
06
e5
2c
38
db
ec
33
1b
19
04
e6
07
1f
23
4e
f6
f4
16
f6
f0
03
f2
e4
11
19
02
2e
db
ed
f0
db
f7
f6
e7
df
e3
0c
0a
0b
ee
e4
df
e3
cf
1f
3d
df
e3
fd
f0
0c
1e
25
00
00
d4
29
f4
fc
07
da
ff
fa
27
0a
dd
ed
01
f4
11
1e
ec
f5
14
09
f1
fd
18
48
0b
e7
24
f1
0c
f7
02
fb
11
ee
01
04
15
e3
28
e0
09
06
e9
24
02
db
de
12
0e
05
ea
09
fc
e6
09
ee
f1
06
f1
e9
0a
f6
e7
1b
f8
cd
19
14
0a
ff
e5
24
23
1a
c7
1f
06
dc
ee
2a
f9
ee
01
fc
dd
08
04
1a
df
0d
29
dc
f4
03
fb
f0
cb
d5
06
e2
17
2a
01
e8
07
ef
f1
f3
db
1f
34
0d
0c
24
f2
30
08
02
16
15
f0
04
ff
ef
12
eb
16
f5
13
21
f4
eb
25
0e
0a
f2
f3
11
00
25
0b
04
ec
ec
ee
ef
e5
f1
02
21
f6
07
ef
f4
04
32
16
ef
e4
21
2a
df
e8
eb
d0
06
f3
d2
fb
f1
0a
1c
f2
f0
f7
ef
c9
13
f1
1a
fc
05
ff
ed
f8
f8
0a
19
54
fc
f4
ff
f4
f1
16
03
f3
11
dd
10
17
0a
01
10
0a
10
e4
03
08
f6
fd
e1
e7
f5
10
01
fd
ec
03
00
12
fe
e1
e9
f5
06
04
08
ff
f8
2c
02
e9
04
f6
1b
02
e5
0a
e2
0b
14
f9
28
00
07
24
07
1d
fa
00
fb
01
eb
0d
13
f9
07
e6
ee
f7
f7
04
da
24
f2
18
f7
f9
0b
d3
f4
1f
05
07
ff
fa
fb
f4
1d
25
04
31
f8
f0
ec
01
f1
06
08
17
10
0a
02
17
f1
f0
0e
db
2b
1f
f0
e5
fa
f2
06
11
16
06
0e
04
1f
1b
ff
16
13
19
f4
fd
f1
12
fa
06
f4
f7
f7
e7
1d
fd
00
1a
01
fe
1a
eb
1e
16
17
16
f4
f4
db
d5
14
0e
08
18
ce
dc
1d
36
e2
d7
18
ed
15
22
d9
13
ec
fd
1f
f9
f1
e2
0e
0e
fd
12
03
15
0a
f1
0d
06
fc
f9
2e
df
fe
f9
0e
04
df
f6
ed
ed
f6
ff
ce
13
1d
f0
00
11
17
e3
0f
04
12
02
fb
ef
23
fb
2c
f3
eb
22
1a
d0
26
12
0c
d9
f8
0c
1a
f0
f6
fa
ec
0b
11
03
19
fa
f4
1e
0f
f8
0c
fa
09
1f
d8
09
fe
25
f3
16
06
f8
15
05
0c
f9
e9
e6
d7
ef
0e
ff
27
d8
04
ee
09
19
fe
e3
25
ec
e5
0e
fd
23
04
22
f4
f5
e1
13
ce
0b
13
f8
10
e8
19
fb
22
f6
0e
05
12
fe
10
0c
05
ee
fc
07
07
0f
0b
00
01
19
f4
13
0d
e3
fc
18
f1
0a
0c
e3
34
18
12
0f
13
fa
e9
27
f5
14
e5
3e
32
09
fc
e9
1b
f5
18
eb
ea
db
e1
e9
d4
0e
10
09
12
29
fd
1a
02
13
0e
0d
ec
01
14
0d
18
f2
e6
f1
08
0a
fc
17
1b
28
05
fb
0e
fc
f8
ea
e5
d1
f0
f3
33
02
00
1e
df
e7
ea
fe
09
13
ff
1f
05
e9
19
ee
18
06
d4
08
35
ee
f1
e2
f5
e8
16
0d
0b
f6
db
f1
06
00
17
26
fe
03
19
1b
17
34
f5
29
0b
e3
fd
fc
dc
fa
06
15
18
04
ee
2e
26
e0
3c
02
33
e4
eb
e7
f1
0b
fe
f5
28
f5
09
f5
00
f3
e9
0f
1d
fc
e1
fb
04
0a
24
12
42
d2
18
13
2d
f0
cb
f7
06
e9
f8
14
e9
e8
07
19
18
05
fe
08
03
0c
dd
01
e4
07
fd
0f
12
ff
17
1d
f1
e0
00
24
f4
17
09
12
f9
f8
f7
f0
28
11
19
de
0c
eb
06
e1
0f
2d
ff
0b
f5
dc
02
fe
08
e1
ee
e8
dd
05
22
f0
f6
0f
d1
fa
e2
19
0c
20
21
0d
02
14
f3
07
0c
f7
ea
04
0f
f6
20
0d
d0
f7
fe
e0
f8
20
f7
dc
f5
06
e3
0e
ed
01
e8
de
f7
d7
1c
e9
1f
25
e4
1e
11
0e
d3
f8
ed
ea
0f
0e
e4
0f
fc
e5
07
f5
01
18
f5
fc
f0
01
18
fa
fc
0e
ef
0a
1e
f1
fd
16
0b
17
1a
07
e3
19
f7
18
fe
f5
1e
fc
03
12
f0
0c
07
f2
02
fd
df
e6
f9
e3
d8
12
00
f2
15
08
02
0c
16
f8
f9
eb
ed
09
04
15
de
1e
28
00
11
f2
d8
1b
29
2a
ec
ec
e0
e2
d0
e2
3b
f1
f0
e7
fd
fa
f0
bc
12
f4
06
f8
fe
ff
18
f7
fc
00
02
ec
18
ee
fe
fb
03
11
00
d5
2b
fd
1c
04
00
f6
20
d3
db
0c
f8
0a
ff
e8
20
dc
0e
03
ee
00
f4
0c
ec
f9
fa
25
03
02
06
e2
0e
f7
05
08
da
f0
18
fd
fc
23
06
16
00
0e
df
ed
0f
e3
3b
f3
51
0c
06
c0
e3
0d
ef
e4
0c
d4
17
ce
21
ff
e1
bd
ec
1f
41
0e
1b
00
f3
25
17
cf
19
e3
1c
18
11
eb
20
f7
fa
fa
f5
12
06
14
df
f7
f6
e8
f1
19
fc
2f
13
08
07
ec
06
0f
e4
f3
f8
33
f7
f8
0c
10
28
12
e9
db
fc
fb
05
ec
f4
ed
16
e2
f0
0b
e4
eb
fd
02
00
13
0b
f0
f1
1b
f2
07
09
07
fe
f4
13
da
0b
19
0c
d9
d0
e4
f7
03
e5
0f
fd
f9
09
14
e2
ec
20
f1
f7
ee
f7
02
1f
f5
05
f3
e6
ea
f9
ec
0d
06
0a
cf
ff
fc
0c
cb
05
10
18
02
f1
11
04
11
1b
07
d8
f4
e5
e6
e8
d8
0c
f2
1a
04
f2
f4
0a
0c
f3
fb
e4
d3
fb
0e
23
0d
eb
37
fe
13
05
e2
0a
ff
06
fa
ff
fe
f7
e9
07
0f
fd
09
0a
15
12
fb
0e
07
ef
0a
ee
0d
08
b7
3a
01
f6
f0
f5
f0
dc
18
e2
0a
3e
3e
e9
f5
17
f0
25
ed
17
d0
f7
0f
02
fb
fe
2d
f2
16
12
02
10
fa
32
22
09
03
ff
0f
f1
ec
08
fd
15
22
f4
fc
f7
ec
ee
e8
0c
07
fd
ed
19
0a
1c
07
c3
e2
13
0a
fc
18
00
0e
12
f0
05
05
1c
f4
04
ff
04
2b
29
07
3c
1e
10
db
e0
db
2d
21
0b
08
fb
d0
0c
f2
03
ec
21
24
0b
fe
15
02
36
02
00
0a
06
02
02
fb
ec
00
fe
0c
f9
ff
f0
0b
0c
08
06
ff
e8
04
0e
f9
17
02
e9
d2
e8
2f
13
dd
f6
00
2d
fa
cb
f9
fe
fe
13
01
02
04
15
f6
e9
04
22
2b
23
05
f3
0b
fe
28
07
f5
22
f1
c3
19
0a
28
11
e9
03
fa
f7
07
0e
fe
0d
03
14
0e
1c
06
1a
0c
05
e9
ef
f8
0a
fd
06
1a
f6
f5
06
08
0d
41
e5
f6
04
fa
f4
f0
03
01
ef
f4
0d
eb
f0
bf
f0
07
00
c8
eb
ff
ee
08
32
0d
e5
f9
09
ee
18
ff
fc
00
05
08
09
fb
0d
14
15
fc
f2
ec
ff
e4
e9
f7
d9
f2
02
00
d6
04
f6
04
08
1e
f8
05
09
10
05
f3
ff
e4
fe
f4
f6
e7
09
e8
e2
f0
1b
ff
15
ed
0e
ea
f0
f3
f9
02
00
00
ec
f8
f6
f4
13
05
02
06
f6
e3
16
ec
db
f8
1a
fb
2f
f4
15
f4
f9
06
04
12
f4
f9
ec
1c
02
05
04
f5
21
03
e3
14
07
ee
e3
12
30
16
19
fb
e9
0c
f8
e1
df
ff
f3
15
f5
26
00
ed
08
eb
e8
1a
23
21
e5
f5
ec
e9
00
f1
ef
0d
ed
da
04
e8
f9
1b
17
1d
19
fa
1e
d9
02
f7
f8
cb
08
d6
eb
d9
ff
f9
f9
e5
f9
f1
0a
e5
e9
fd
f2
19
fd
1e
f3
ed
01
fd
fd
f9
f3
f1
dd
10
07
f3
fd
f7
df
e1
fc
e5
f8
02
1d
fe
fd
ea
10
0d
13
0a
00
31
06
d7
13
16
0d
16
f9
07
04
ee
ff
01
f7
ec
08
fc
04
f5
17
00
15
f3
1a
0e
d4
e4
0d
f5
16
e9
e9
08
f5
ed
fd
1e
fc
f4
0a
f0
16
27
31
2f
0e
f2
1d
ed
e7
01
09
07
e6
11
f8
19
00
0a
3a
df
01
de
19
d4
ce
17
21
e2
08
23
e4
f4
f9
13
f8
ea
f8
fa
fe
0a
10
0e
0d
ff
14
ef
03
ed
fe
eb
f7
15
01
0a
00
0e
0c
f2
1d
08
0b
ee
04
fd
ff
0b
f0
0e
11
02
20
18
f5
df
de
07
fe
ee
13
23
0d
e0
1a
d5
0b
07
f5
07
2b
fe
27
f4
f6
20
ed
cc
fc
08
f5
0c
f9
d5
12
fa
0e
0a
04
0e
20
11
f5
0d
18
f2
ee
14
16
d2
f4
07
0d
f3
f2
f9
0d
09
ec
03
0c
18
fc
f7
fd
21
1d
e9
2f
05
fe
ff
11
05
f2
01
19
07
e5
f3
e3
09
de
33
d0
0e
0a
01
e4
21
06
f6
eb
09
08
1b
12
0e
ec
0f
09
f0
d4
d8
11
e3
ef
f0
20
01
12
ea
ee
12
fc
05
11
ed
f1
e3
1e
11
0e
f3
c8
fa
03
ef
01
19
18
23
21
ed
13
f1
f7
28
12
11
1c
fd
0b
e8
bb
0d
19
1d
03
1e
18
d9
0f
ec
10
f2
03
03
0b
02
13
f8
f9
f4
1d
0a
11
06
f4
1e
f3
2c
ea
22
11
cb
ee
19
39
ea
f7
06
e0
d9
05
23
05
09
e4
0b
12
21
f7
dd
06
da
0a
1a
19
df
f0
f3
17
fa
3c
f0
f0
0f
19
e8
fd
20
e8
e6
0a
17
fe
08
01
0b
e2
11
02
e8
b1
18
fa
2a
02
2a
08
fb
f1
f8
fa
f3
13
f2
f4
02
fc
09
f4
e0
eb
fa
ed
e5
f0
dc
26
13
07
f2
1d
f0
e7
d8
21
ec
e8
e6
aa
e6
f6
04
21
e0
ed
0e
e5
25
e8
e2
c0
ec
e9
00
ff
1a
ef
f6
0b
18
f9
1d
fe
fc
e9
0e
fc
2c
f1
30
e2
1c
0a
10
f7
fb
e6
0d
fc
1b
10
23
f0
f5
04
07
05
f9
e9
0b
07
f9
08
e0
cf
f5
fe
f9
e3
f0
2e
f6
18
12
33
14
dd
0b
01
44
df
0f
05
0d
0e
df
ed
07
03
f9
0a
d6
fe
e4
19
16
14
33
e6
08
0c
e0
f8
0b
fd
06
03
f2
e0
e2
d7
0b
06
13
f6
37
f1
00
17
1d
fe
eb
1f
0d
e9
d6
fb
18
e0
17
ff
0b
ea
e8
d9
26
fc
11
1d
ed
44
05
16
f8
10
f9
06
cf
23
e8
ff
ec
05
ea
01
16
ee
0d
f9
02
2b
18
14
0c
19
f5
2c
02
15
03
08
12
eb
f0
fb
fd
f9
1f
ff
16
1a
1f
16
2c
e0
30
14
1a
27
2e
19
f3
04
08
05
24
e0
01
f9
f0
eb
fa
1f
15
26
fa
20
df
da
f8
14
12
01
05
0b
ec
06
e8
f1
09
f1
14
f3
15
02
e1
f6
d8
f7
16
03
f8
fb
0e
cb
d3
40
2b
db
f5
00
07
c1
ed
09
f1
e2
f7
37
02
15
24
c8
e0
09
d6
ff
e2
f7
3e
09
fa
de
f7
c1
1b
eb
e6
da
02
ec
fe
ff
00
ff
28
e1
25
ec
15
0b
2c
10
02
d9
f6
0e
26
46
f4
28
fe
dd
09
18
e1
10
f7
f2
fe
f9
0c
08
15
0d
c4
00
f7
f3
fe
ec
fd
2a
0e
da
14
20
db
09
dc
09
f9
15
15
d8
00
14
06
04
ed
eb
0f
34
15
cc
0f
fd
0f
d3
1c
f9
f1
f8
13
0b
27
de
11
28
e9
e7
fa
25
cb
d1
07
0e
ee
0e
e3
1d
f7
12
08
e6
cd
f4
17
da
1b
0f
c1
19
b1
27
f3
1e
1d
df
09
f0
1a
f6
dc
16
df
10
3a
2a
ae
e0
cf
fa
05
fc
f9
06
15
f7
f3
0e
11
fd
0e
10
30
f4
26
f0
18
d7
0b
ff
ec
06
14
f2
fa
0e
dc
f7
fe
19
04
bb
25
1e
03
20
d9
db
24
f0
e5
d4
e9
e9
0f
1d
db
37
fa
09
14
03
e4
0e
24
ee
ed
fe
24
00
e6
cc
f8
18
f6
0f
33
dd
0b
03
2a
ed
e1
de
15
e3
0b
19
d4
26
0b
fc
ff
f2
ef
f4
f1
13
36
ff
03
f8
e5
0d
23
36
29
07
2c
24
09
0a
f7
f1
0b
f7
02
fe
25
28
04
1c
fd
20
00
1f
eb
10
0f
17
1a
f2
0b
f4
0e
fe
3b
08
19
01
f6
08
07
33
ba
1a
07
14
ea
13
0d
f8
10
0d
f1
12
e9
12
14
2f
d3
f7
eb
0d
e3
c2
fe
04
e4
c4
ee
0e
ec
f6
18
00
1d
f7
d2
ff
05
08
05
2c
fe
ec
21
d4
18
f7
fd
eb
09
ea
1a
f5
1c
19
dd
15
07
f8
d0
10
08
01
30
0a
13
12
d6
36
f0
f8
11
b5
e6
f1
f1
0c
0b
15
f9
19
e8
1b
01
f7
02
0b
ff
35
2a
20
10
06
f0
e3
1b
03
e7
0b
05
11
07
21
08
06
f6
1a
28
24
0a
e6
00
f3
27
ed
ed
ec
22
20
02
d8
0c
00
e3
de
fc
f7
e2
14
fd
eb
1c
f8
fb
02
e7
eb
f9
11
fc
d4
02
ee
f6
10
f9
22
ec
f3
04
03
15
2f
17
cc
07
18
24
17
26
f0
d4
f6
1a
ce
ec
e9
1b
03
db
09
25
1f
c7
1b
f0
1d
0c
f1
db
09
18
16
23
f3
09
19
04
15
eb
ff
fc
e8
32
01
f2
02
f2
16
03
d5
27
ef
f8
ec
fe
f6
19
e3
12
ce
09
e5
f5
e6
e9
fb
f9
db
08
0b
1b
09
d2
f7
0f
13
05
d8
07
11
13
2a
e0
e3
df
e7
06
20
fe
ec
0d
fb
06
05
12
01
0c
0b
ef
ce
12
fb
06
0a
0a
e4
04
20
fb
ec
f0
0f
24
25
10
1b
1a
f2
e8
f9
17
19
ea
16
03
07
0f
0f
00
f4
ea
12
09
1f
09
05
06
d2
ed
13
06
1a
ea
11
1f
d6
0a
e7
07
04
00
d3
e4
2f
f1
23
ed
c3
1c
e9
07
dc
1b
02
e1
fa
cd
f1
e9
c9
fd
0e
19
f3
fa
00
ea
00
fe
d7
10
00
04
13
16
07
10
08
fe
f6
f5
1d
26
0e
16
20
16
f1
25
d9
05
ea
d9
df
22
f2
fd
f3
dd
1f
ee
10
f2
fe
21
0d
25
33
eb
15
3b
eb
30
fe
17
16
06
0e
ef
02
24
06
09
eb
e2
d7
08
11
04
e4
1a
c0
07
fb
fc
16
e7
fe
fa
f3
f9
f1
09
fe
fe
e4
19
25
de
03
e5
e8
fa
fa
ee
e7
f5
14
ef
03
c0
fe
0d
2a
f2
1c
15
d8
ef
d9
d0
1b
e8
f4
e1
14
0e
fa
10
08
ff
d4
b6
f4
1e
f5
16
fb
f7
17
d9
fa
e7
03
2e
09
eb
f8
0a
ed
fa
1a
04
e6
e6
05
fd
f5
fe
02
f4
f7
29
16
1e
22
16
fe
06
ff
ea
0e
0d
f6
05
07
00
09
15
10
f0
04
0c
15
02
01
eb
11
fb
ea
0b
01
ec
fe
08
16
26
11
ea
08
f9
0d
17
f9
20
08
28
01
05
14
12
ed
f3
c2
ed
df
11
10
0f
34
09
e6
15
e8
d4
06
0a
10
fa
c4
12
0f
0b
fd
30
0e
ee
f2
1c
fb
f1
dc
15
2c
d3
0d
11
1b
f7
fb
01
01
19
f3
0c
e5
0e
0f
03
52
06
02
37
0c
f0
f0
ea
e5
e6
e1
d3
04
00
f5
1b
05
05
10
28
16
07
09
f3
0f
07
f8
0d
25
e3
01
fb
00
f9
11
fd
09
10
31
19
fc
e7
08
08
f5
f3
10
ec
07
07
fc
06
f4
1a
09
04
15
12
29
de
16
f3
04
fc
f4
0b
f3
05
08
ff
36
16
ed
10
10
04
f0
06
ca
fe
01
cf
20
0f
f1
02
e8
f8
f0
ff
d1
ff
04
05
fb
2a
1d
e8
f9
19
05
fb
e2
07
0f
2d
04
15
e9
f8
24
dd
37
0a
07
f9
f6
0a
ec
fd
fc
ef
d8
db
0f
18
e5
f1
ff
00
f4
08
13
ef
ca
fe
0f
14
e0
13
33
12
01
e3
1f
15
f9
0e
c7
00
d6
18
ed
ea
00
2d
3d
f0
17
e0
ee
1d
ed
12
ef
0c
09
df
d0
e0
09
db
0b
ee
ee
e2
23
00
00
10
05
cb
46
d6
21
13
f0
1d
ed
0c
fe
26
fb
e7
dd
4c
f1
fc
cf
f6
0c
27
f1
ff
ec
2d
04
f3
fe
23
20
fd
fb
18
d8
04
15
db
e5
09
f7
df
e4
10
34
f2
f0
f5
14
f9
fe
f9
fc
04
26
fa
cd
ff
12
25
e7
f8
f7
f7
1a
05
1c
2a
ef
02
1a
ed
e9
05
0d
00
0c
11
ff
2d
e3
15
21
15
f1
03
11
f2
de
e7
db
fb
1d
32
f4
0e
0b
11
fe
d1
1f
ff
14
16
0c
e6
f9
f8
de
19
eb
11
09
f4
ec
01
f6
f2
0e
0b
02
09
e3
f0
1d
13
0c
f3
f4
3d
01
02
f4
2b
0c
39
f9
27
0a
d7
12
ea
d5
f3
09
ff
0d
0d
e2
01
f0
dc
07
f6
09
fc
0b
fe
f0
e7
04
06
fb
05
2f
e6
01
e0
18
08
39
e9
d3
13
e7
20
f7
f8
f1
1b
fb
dd
e1
08
33
ed
09
08
30
06
f5
28
ee
01
d3
32
f5
e2
f3
06
db
ea
1d
fd
eb
1e
f9
fa
df
19
05
cc
08
1a
df
32
1b
01
ed
dc
ea
03
14
e3
da
17
1f
00
18
ef
0c
00
10
fd
f5
14
f7
10
fd
1e
ad
0d
ed
e4
ea
f3
f1
d9
32
27
42
1f
d0
f5
19
ed
2a
f6
e2
18
2b
1c
fc
0d
f8
f1
2d
10
32
30
0c
06
27
fd
1d
2e
13
fa
e0
06
ef
13
c8
ee
e8
15
fa
18
03
11
e8
11
f9
fd
f8
f3
04
0a
1d
fb
18
e1
ef
ff
eb
17
ed
f8
10
f5
10
13
22
02
27
f4
d7
fd
e8
e9
17
0d
1c
1a
01
0c
03
ef
08
11
f3
04
14
28
18
30
05
34
de
eb
21
e7
0a
d7
11
ed
0c
02
0e
18
e3
f2
f1
00
f5
e3
f2
fc
07
27
f7
01
11
f9
fe
fe
06
15
14
ed
25
f8
db
08
f5
10
f1
0d
0f
01
e6
09
17
f5
1a
0d
1a
18
fc
fc
17
ee
12
27
0f
ff
f6
ec
ff
e1
f3
e4
21
e8
00
dd
04
10
fc
16
0c
06
15
52
dc
fc
13
f0
10
ef
18
0a
ff
ed
fc
04
06
d8
f6
e4
0f
ea
e0
34
07
16
d6
09
0a
ed
08
0d
fc
ef
07
01
fd
06
f4
1b
25
e2
fe
14
fa
1c
f4
f9
0c
0a
f9
fc
05
04
c7
1e
ff
22
26
fd
f5
09
c4
0a
14
03
1f
11
f1
ea
f5
fd
e7
1d
e5
e7
e2
12
0a
06
05
f1
04
0b
e8
0a
14
ec
0f
21
ea
0a
14
19
0b
d6
15
08
fb
1b
1e
05
13
f1
06
0c
0c
fe
f5
fd
ee
e1
fa
1c
0c
22
1f
19
18
21
03
09
38
e5
da
e1
20
25
ec
e0
fa
14
13
e4
21
04
21
01
10
fc
fa
eb
ec
e7
1a
fa
05
18
f6
fc
e7
25
0b
f0
04
ef
12
f3
0f
04
05
e4
fa
15
fd
19
e9
20
29
0f
0e
04
01
08
02
f2
f1
ec
12
ed
ce
e7
06
0e
ef
ff
25
f5
07
1a
0d
17
f5
fe
bf
eb
04
ed
f9
f7
e7
f3
e6
b4
fa
0a
f0
e4
ed
0a
2e
ff
2c
fb
1c
ed
12
db
fc
28
04
dc
0e
1c
17
f8
11
f2
ce
00
00
fc
de
ea
fb
16
f9
f3
2a
f8
1c
38
f2
1a
45
34
2b
e5
c3
37
d9
16
18
02
dd
da
39
e0
28
22
14
cb
f4
fe
ff
fd
06
28
24
0a
01
01
e1
0d
ee
40
09
d6
fc
cc
e7
08
15
11
fb
f1
fc
e9
03
10
08
20
dc
ff
dd
df
df
fa
07
f3
e5
f4
07
f3
1b
f1
d6
0c
fa
04
ef
05
08
1e
bf
e2
0a
14
ef
0a
1b
06
16
03
01
fd
10
11
f9
11
fb
17
21
ee
e2
2a
12
f4
f4
0c
e6
13
16
ef
e5
f0
25
12
0c
01
f7
00
2b
f2
04
13
18
14
e9
fd
08
e8
0e
f9
08
fa
0d
f6
ff
1f
25
fb
e1
e6
f6
f9
ff
28
0f
03
fd
09
0b
f7
13
05
f1
fa
d6
0f
fa
ed
34
21
16
f7
17
01
e1
07
f3
09
ef
d6
f4
1b
ff
0d
0a
f8
f3
0f
0a
05
11
11
ed
d0
c1
26
23
00
01
0d
1a
03
32
e8
eb
02
1c
eb
01
11
ec
f5
f9
dc
0f
1a
06
1e
23
f7
05
0a
e6
13
12
14
07
ea
13
18
db
08
ea
0b
0c
f7
e7
ed
12
04
1e
05
ea
ee
ec
ee
07
f5
e2
05
e7
07
03
e4
0f
1c
f6
fc
3e
ef
1a
fe
01
05
07
04
28
f5
ff
24
15
08
f6
f9
f3
f0
f3
19
11
18
f8
ea
00
e6
29
ef
e7
fa
e6
04
18
11
29
e0
f5
10
e7
09
d8
fd
13
09
1f
1c
fa
ec
10
07
08
ff
eb
df
fb
08
18
02
e9
e4
1e
0f
02
00
02
10
fd
04
fa
da
f4
03
ff
fb
14
fa
1b
ed
0d
f7
11
01
1a
00
f8
0c
f4
f8
04
04
03
07
07
08
29
01
06
f0
0f
f9
d0
f9
0c
24
d4
0d
f7
0a
25
fd
bd
16
f7
05
f0
f6
f3
09
06
07
07
e2
ff
02
24
22
08
14
f7
f1
f2
0b
ee
08
f1
d8
fd
04
f7
e2
0b
03
13
18
17
28
07
f5
25
1a
0f
1b
f8
1e
d1
f3
31
ee
fb
f8
e7
ea
2e
19
0d
f9
15
f5
02
12
f4
38
10
17
35
ef
e9
e4
fe
0b
12
e6
1e
f9
0b
ee
fa
e4
ed
05
ee
02
05
cd
e3
10
f9
fb
01
ec
f5
08
db
12
c4
20
0d
0c
ea
f1
1c
28
11
e6
f7
d9
07
0d
14
f2
08
14
d5
f7
00
15
1a
f8
ed
01
f8
eb
fe
02
07
f0
ef
fb
da
03
0a
f9
df
e5
f4
f8
14
10
f2
0b
f1
1c
04
d9
16
17
f9
d5
f1
20
19
f6
19
00
2b
e9
03
f7
e8
15
17
0c
0e
d7
26
13
e6
0f
fe
0e
25
0a
fb
14
e8
0b
17
21
dd
01
05
f0
ee
2d
f5
48
0a
e6
05
2d
f7
f1
1b
e0
09
01
f4
2a
03
f6
04
0e
fb
07
11
02
f0
09
08
f8
16
12
04
ea
ee
f9
1c
03
26
0a
f7
eb
02
38
03
05
3b
f0
0c
fb
f1
1f
0c
1e
fb
02
eb
ff
ea
0e
fd
0d
0d
04
08
f7
f5
fa
fb
04
02
01
f1
16
03
f3
07
fc
04
ed
fc
01
0f
f0
f0
25
e7
05
1a
0f
06
f9
fa
00
03
fe
f7
e3
fb
f3
fb
fe
02
01
f4
0d
1f
06
ec
09
ee
de
fc
15
fe
fc
2d
de
ea
fa
03
e4
f2
05
eb
f7
11
14
e9
e8
23
1a
f8
f8
1f
06
dd
f3
38
f4
01
f6
e5
11
14
c4
09
c6
08
0c
0b
1c
ff
fd
ea
d8
dc
2a
f2
e1
ee
ef
b0
ff
ea
e0
e3
04
e2
f5
22
f5
fe
ef
f7
f5
fe
31
ff
ed
e6
15
f3
ca
05
0f
2b
05
f4
bd
13
1e
13
ed
1a
1d
01
02
f1
20
ff
ea
10
1b
09
14
01
f3
ec
f2
00
0b
da
f9
0a
0b
da
f4
1f
f2
11
17
0a
fc
17
e6
fe
f2
ed
e0
fc
f6
e3
fe
f3
fd
f7
01
f8
25
f9
e1
07
12
0a
fe
0a
19
f7
1d
18
f0
f0
1d
be
e9
f4
d3
0e
15
06
02
e4
24
e1
e0
f8
da
fc
d5
dc
15
e1
ee
00
1e
db
00
f4
19
17
03
fd
01
12
3a
24
0b
10
0e
fa
e3
e9
e5
f5
12
ed
dd
d6
f3
bd
fa
23
31
eb
f4
ec
0a
df
d0
f6
f3
00
fd
25
ea
0f
ec
02
00
fa
d6
ee
f8
43
0f
11
fd
eb
ea
0f
ea
dd
38
13
fc
db
17
fe
f3
f7
f1
f6
dd
17
20
d5
03
e6
0a
f4
06
f8
34
f6
e8
1e
0a
fe
d8
d9
03
19
1a
31
e5
fa
f8
02
e1
cc
19
e8
07
ea
0b
d1
fa
0b
e0
f6
e1
c5
20
18
01
e7
e7
f1
f9
19
03
ee
fa
14
f2
12
02
1e
fd
05
00
17
28
03
18
f3
fc
09
fb
fe
0f
fd
f7
f9
ed
fd
0c
0f
26
1d
f9
e4
f3
03
10
11
ec
f1
12
f8
28
1f
ea
ef
22
fe
13
16
05
fc
26
e9
fd
11
1d
f0
e9
19
0e
0d
1d
13
07
00
fa
09
0c
f4
da
ff
f1
16
f9
f9
0d
12
05
0b
23
e2
04
f3
10
fa
f8
10
03
1a
11
06
03
de
07
fe
11
0c
06
0b
fd
11
06
ea
e6
01
f6
e8
f9
13
e5
08
fb
f8
06
08
f7
f4
02
d6
f2
0b
21
0b
e4
2d
dd
e9
ee
16
fb
de
fc
0c
31
ff
01
f3
f7
15
f4
00
25
0e
ef
d3
f7
ed
0b
fc
de
06
3a
ce
ed
fd
e0
13
11
fb
42
0e
e7
f4
04
0c
c2
23
fd
09
0f
0d
07
e4
e9
dc
22
d8
ed
08
1b
13
20
0a
18
dd
2d
cd
e4
03
0b
e6
fa
fd
e3
01
f4
1b
e1
df
07
04
e4
d3
e2
da
3d
2a
0b
f0
10
e0
f3
04
f2
d9
fd
1f
fe
ff
1e
f9
ff
23
fb
24
00
06
16
07
02
0e
ee
31
fd
c7
05
32
0e
08
f0
1a
ea
12
1f
e2
0f
d1
e1
0b
11
ea
ff
fa
02
f9
0c
19
fc
dc
14
01
1e
fe
f6
eb
e4
06
f9
08
00
1d
fa
ee
fc
08
ed
01
c5
fe
ec
e0
02
f8
f9
11
ef
e6
05
09
d9
03
0f
f2
ef
0a
16
07
f7
e2
01
ef
e9
e1
23
1d
d3
e8
f9
f3
0a
fa
11
e2
e1
42
f8
f0
fa
e3
fc
d4
12
0e
4a
02
06
e9
f4
13
20
eb
ca
3b
e7
e2
b6
00
f1
fc
1f
22
e0
ee
20
05
06
03
f8
ec
15
10
fe
d9
0f
1f
09
cc
e9
d9
ee
45
1e
e6
21
e9
21
d4
e2
2a
d1
c8
02
ee
da
da
c3
e9
ed
06
eb
14
ea
f0
d5
e2
da
dd
f0
e9
f5
01
12
00
dd
30
29
f6
30
fc
e8
eb
ed
f4
fb
f2
fb
09
d5
16
16
ff
33
fd
1e
f4
0c
f7
f6
e3
ef
e7
ea
03
14
0b
fd
ff
07
e6
0c
23
0a
fd
08
17
f7
0c
0a
f1
e3
02
fb
07
fa
bd
01
18
0a
13
d4
ec
dd
0e
f5
ef
31
f9
d7
11
02
15
e6
bc
39
0e
1d
f6
00
f5
ec
bd
e1
0a
e7
31
09
eb
1a
fe
f8
e5
d7
f5
29
18
0a
c1
ff
f0
14
e4
f1
de
15
06
fc
eb
f7
1e
e8
3b
ff
fa
12
3d
12
de
f8
e9
ee
f0
d7
12
03
fd
03
f3
ef
f7
09
0d
e4
e2
f4
1a
24
18
1a
f8
f6
fb
e3
e7
fd
cd
fa
e6
f5
10
08
da
f5
01
f5
ea
ea
fe
ff
ea
1e
20
d6
0e
19
05
cc
22
f9
01
11
ea
1b
ed
f2
10
da
f3
f6
0f
11
07
09
f3
18
0b
00
05
21
dd
10
05
e3
fa
eb
fb
18
08
f7
4a
23
1b
16
f9
ec
07
fe
10
20
ec
fd
e6
02
f8
0f
d4
0a
03
f2
d2
20
df
db
27
ee
e5
18
18
05
06
f8
1d
0e
ef
f4
16
1e
04
e0
1a
f8
0e
0b
dc
0f
ff
ff
ff
2f
0d
01
10
03
f7
f2
ff
e5
f5
f7
fe
e5
fb
0a
15
1b
18
25
00
02
e8
0b
fd
ef
e5
0a
f1
00
05
06
ef
e9
ee
e7
06
05
ea
02
ef
f1
10
02
00
10
e4
1c
ed
f8
09
f5
f2
19
e9
1d
ee
fe
eb
04
f0
ef
2a
04
ed
0d
fd
f8
0c
e0
f5
12
0d
08
0e
04
c2
06
21
1d
16
11
dc
e7
ed
00
2f
0c
d5
ee
17
22
de
07
ed
ee
0e
00
e8
f9
17
ef
0c
fc
d5
ed
10
29
28
01
34
0d
d9
17
fb
fd
1c
27
ff
e4
14
f0
de
16
05
0d
31
1a
25
f9
e6
f1
f5
19
21
c9
b6
32
14
0d
3c
d3
cf
d8
e2
27
f0
da
f3
31
05
01
26
e6
0a
21
e5
0f
e1
ee
1b
e4
e9
e2
13
e8
fa
00
10
10
e7
0a
2e
db
18
f1
f6
e9
fe
10
0c
ff
15
01
ec
0d
14
e6
f1
05
fe
cb
0f
14
03
12
fe
11
01
f0
0c
11
fb
ff
1a
06
05
0f
fe
eb
ed
08
f3
ed
f5
f1
f3
0d
16
0c
fd
fc
05
2f
f3
e4
f7
eb
fc
f5
00
f2
0d
e2
f3
05
03
12
00
04
f6
04
e8
18
f3
e8
00
2e
fc
c2
2e
ed
e5
f3
08
1a
06
f8
2c
2a
da
ef
04
e9
f4
1c
05
f8
f0
1e
f5
ea
fc
f9
f5
de
f5
0b
31
e8
2b
09
ff
fa
f3
1a
ee
f6
04
06
f5
1a
f2
14
0a
f6
fe
07
f2
13
e4
05
23
13
22
3c
17
03
08
eb
fe
17
01
ea
f0
fb
1c
1b
20
f8
08
23
15
3c
f4
e0
ff
0b
04
1c
04
e3
0f
f1
0c
db
f1
e8
f4
e2
11
18
11
ee
12
1c
0b
d4
fb
f2
ff
cf
f7
fc
fd
14
15
ef
ed
ea
08
29
ea
23
21
09
0e
21
fa
00
06
f8
0b
dc
07
07
09
e3
07
f3
ee
08
07
dc
f5
f6
19
f1
ec
18
34
06
12
fd
ea
1a
03
18
17
02
04
e9
f8
fd
fe
e9
f0
1d
12
f0
06
16
01
dc
16
06
fd
fa
f3
f7
ee
f9
e6
f2
0c
dd
01
fb
03
1c
0b
02
e8
d8
d9
f2
ec
ff
d3
ec
e0
e6
28
10
eb
16
f8
1d
0b
d3
ea
c1
05
14
e3
ef
16
02
de
cf
14
04
13
dd
07
02
06
ce
28
10
fe
06
f3
3e
0e
18
27
11
18
00
42
05
41
03
fa
33
f0
0e
d6
0b
0a
08
28
df
0e
00
d8
cd
38
fc
12
38
01
d8
fe
f0
23
09
03
0c
ed
ff
d7
0a
fb
0c
16
0f
2a
f7
f7
eb
d8
e1
07
05
03
15
0e
ed
cc
f9
eb
f7
f2
f2
eb
c1
14
15
08
03
11
ef
18
f0
c9
f4
0a
03
16
ff
e2
f4
30
fb
08
02
07
10
f8
28
37
e8
2e
fa
18
cd
1c
03
e0
ee
fd
e6
0a
f6
d1
17
2f
fd
09
f8
00
ee
07
de
3c
f4
f6
03
fe
df
f8
d4
08
2e
f3
19
c0
0d
35
e0
25
f4
e9
e8
ce
df
ea
de
d5
05
05
17
16
f2
05
00
e5
05
f8
24
06
02
f8
1a
0b
32
0a
c8
b7
38
e2
19
14
db
26
fa
f8
f4
10
de
ea
fe
07
d0
e8
0d
07
0c
f0
12
d2
f5
11
43
f2
1a
fc
d8
f4
f6
01
ff
e8
f1
f0
e6
01
18
06
e6
15
04
df
14
2a
e8
00
01
00
15
de
22
05
06
ff
fd
fe
05
fb
ef
2d
01
01
19
19
f4
0d
0b
f4
02
e7
28
2b
f1
e7
03
ef
21
2f
0b
ff
eb
fa
ff
02
fc
fc
09
0f
01
00
2e
dd
ff
f6
1d
ea
10
f4
e8
ca
eb
0f
ff
0a
13
07
01
e4
fc
10
1f
f6
15
f3
ff
f6
17
22
18
07
02
e4
0b
13
f9
21
ec
cd
fd
f4
ef
32
fe
08
fc
03
fc
14
c4
fd
fc
06
f0
ff
f9
04
16
e8
1a
ea
01
17
1c
05
08
46
ee
f8
07
fa
05
f2
10
fa
09
0e
da
f6
ef
14
f3
27
18
f0
e3
e8
eb
00
f5
09
dd
0d
de
f8
03
ba
ef
06
f3
e2
04
d4
12
0c
09
ef
f1
34
12
ed
11
22
d3
17
ca
15
40
d8
fa
f3
ff
13
1e
fd
0a
e6
02
eb
db
0d
03
f5
c9
0b
14
04
1c
fc
fe
0d
f4
30
f4
d0
05
ef
15
df
da
d4
26
09
48
aa
0f
02
f6
e7
fd
f9
18
fa
04
23
d8
15
f0
2a
f2
02
f6
0b
fa
f9
01
fb
09
04
f9
0f
f2
f5
f6
2f
f2
ee
e2
08
08
ee
13
ee
07
e7
08
23
19
fa
fc
1a
20
ea
1d
03
01
e5
08
00
f9
f6
fd
09
fd
06
29
14
e1
0a
11
06
11
01
fe
38
e3
f4
fd
09
06
fb
e2
0b
fb
04
38
d2
e7
f8
02
36
26
21
14
f8
21
ef
db
02
0b
0f
e6
d1
f9
ea
25
f4
2c
d5
fe
07
f4
21
08
0c
ca
cf
13
0a
f6
fe
f6
f1
fc
f0
20
0d
1f
e2
d7
dd
19
f8
29
14
f5
0f
12
16
f9
14
03
01
f3
ee
14
02
f9
2f
1c
de
da
1f
e9
1a
0d
0b
fb
16
e4
24
00
e5
e5
fd
ec
19
13
03
07
0b
01
fb
27
fb
db
f7
f0
23
f7
20
ec
f8
ea
01
05
dd
ea
e3
0c
11
06
20
f1
11
ef
17
f3
05
d7
06
21
01
d8
cf
d1
33
02
f3
22
fc
ef
0f
fb
d0
2e
24
13
07
13
f2
08
26
39
ee
e1
e9
13
20
d2
0d
0f
1c
04
f0
26
f0
31
de
ea
01
19
05
23
f8
ee
14
37
df
f0
00
00
ea
2d
e9
f1
16
f3
f7
33
f8
cc
11
2a
e4
0a
fe
f9
f1
08
1c
de
0a
0f
18
be
fd
f5
01
d5
08
0c
1d
34
17
12
1e
d9
00
04
2e
eb
21
d1
fc
e3
db
24
0e
f7
f0
0c
f7
1d
d1
f3
ef
0f
fb
06
16
fc
2c
11
20
1a
16
f8
f7
04
31
17
de
cc
21
f7
ea
fe
e0
3d
2a
21
1c
2c
b8
df
f8
18
07
06
f3
e6
10
07
16
f4
0c
05
f8
13
fe
e9
f5
23
ee
13
ea
f1
11
10
18
f3
0c
dc
2d
17
12
f1
28
07
12
10
de
c9
f2
1c
ed
f6
e5
f7
df
0b
e8
0b
fe
0e
25
19
0b
f4
18
0a
12
06
ef
11
ea
02
0a
0c
ff
ee
db
02
fd
eb
ff
fa
fd
e5
1d
09
0f
f5
fe
f8
df
03
2e
f7
03
da
d1
07
fe
ea
de
21
ce
19
03
f9
ed
e8
13
f4
08
ea
01
fb
01
f0
e4
fe
0a
f1
12
02
0f
13
3a
ff
ee
e8
f7
0c
08
c4
11
03
f9
e9
f8
b5
eb
05
00
24
29
fb
2e
f0
e8
0c
f6
0e
d1
04
3d
11
e9
33
db
21
fb
0d
fe
10
0e
04
12
03
2d
26
e8
d2
fc
f9
0e
e2
f0
16
1b
0f
ea
f7
e9
f1
03
0f
f5
fb
22
e7
ee
29
fc
0b
f5
ff
fe
f6
09
03
ea
0e
02
1f
09
f1
25
fd
e6
01
26
ef
f5
06
03
b6
f0
ef
f2
16
00
2a
be
e5
01
d8
09
12
e7
0e
f7
d4
d5
2d
1a
37
fc
0a
0f
18
2f
fe
fd
fe
ee
28
04
f0
16
df
29
f2
f5
09
35
cb
30
1f
3f
0c
0d
20
1e
14
07
1d
cf
2c
eb
c9
ee
ff
eb
08
2c
0e
27
f1
1e
db
09
1a
4d
fc
19
01
2e
2c
30
0e
f6
df
e1
e7
f6
00
21
48
13
fe
0f
06
d8
ed
da
d1
d7
fb
f9
fa
14
02
f6
02
f4
01
15
16
09
1f
2f
f4
0a
20
f4
06
d2
09
fa
f8
00
06
f1
f2
fa
11
01
22
f3
f1
03
08
ef
27
03
f2
df
11
fa
11
0d
13
1b
03
0f
04
fc
2f
03
e6
fe
0e
f7
ef
1e
05
18
ed
0f
04
02
08
07
0d
04
1b
04
e1
f7
fa
ee
ca
1b
14
29
08
23
ed
01
e7
eb
18
04
1b
e0
fa
0b
09
ed
e5
d8
06
f8
19
fe
fa
00
e9
fd
05
f3
08
f2
ef
fd
fb
1a
0d
f3
09
19
fc
ef
14
f4
00
03
fe
0a
24
fb
f0
f6
de
24
ff
ea
0c
ef
f5
09
0f
fd
08
08
0d
d8
00
04
fc
e1
16
31
f7
14
f6
09
fe
1f
cf
f8
f1
fb
0f
0f
2f
05
f0
e9
e7
05
dd
0e
fb
fe
eb
fb
e9
0d
0c
f8
11
10
ff
0c
e0
09
fc
e7
27
06
ca
0e
35
08
d8
25
12
d8
46
03
0f
03
06
ff
e2
d7
27
de
d7
f1
cf
bd
e9
f5
0d
17
ee
02
0e
e0
11
0b
e5
fc
03
f6
d1
fb
14
ff
14
fa
45
fa
0a
d7
03
02
f9
ee
00
f4
f9
ef
ec
f0
e1
da
fe
1a
0b
29
eb
1e
e9
f4
14
e0
01
1a
10
dc
02
ce
29
fa
d5
da
19
e5
02
01
14
f2
e4
cd
07
e4
1a
1f
ef
e2
14
37
1c
2d
fa
1f
1a
fe
1a
e1
df
05
f5
dc
16
2d
f6
fb
04
ef
ec
e6
e4
08
f0
1c
14
cc
e2
cf
0f
0f
f6
24
0e
ec
1b
0d
e7
03
11
06
ec
02
08
e9
06
d3
2e
00
10
0f
00
0a
ed
01
e8
ea
e7
0f
0c
12
10
0a
04
f5
f1
0a
f5
dd
f4
d6
00
11
e1
f0
01
c2
1b
06
13
01
06
27
fc
fe
f7
14
04
fd
15
08
f3
f6
f5
f2
15
22
2d
f7
d1
2d
16
06
05
26
fb
08
ea
11
16
f1
0b
08
da
fa
04
f0
23
ee
fd
e9
f6
0c
07
12
fb
e2
22
fa
d0
05
ef
e4
0a
15
ff
1b
f5
14
30
ed
01
f2
fe
07
15
04
f3
07
07
fe
f8
f8
04
e9
f7
09
c1
1e
f8
f6
ed
17
1b
0d
f1
1a
00
0e
05
0c
f3
0d
cd
e1
21
29
ea
f8
14
0d
05
0c
ca
f1
e1
2e
12
15
0b
2a
11
f1
e6
1b
e0
f8
16
f9
f9
25
ea
ef
06
f4
fe
fc
e9
fd
ef
d1
f9
fc
f7
17
3c
eb
f7
f8
19
22
04
fd
00
0b
10
05
f6
0c
0a
11
f5
e5
2e
06
07
00
16
21
0f
ef
00
12
f0
04
28
01
06
05
f7
f7
fb
26
25
d1
10
21
25
e7
eb
f7
04
dc
1b
18
df
28
0f
06
ce
0e
f3
23
f6
f4
17
07
b0
fe
21
11
ff
e3
f3
14
1a
fb
0b
ed
10
f3
d7
02
f1
ec
e9
e9
f9
31
f7
11
f7
09
30
19
f2
07
0e
00
19
f6
fc
ff
1a
16
be
34
1d
2b
f3
05
f1
fa
0f
e6
35
00
18
0b
f5
ff
e8
1c
e8
0a
00
f5
00
20
f3
15
e9
15
d7
28
ff
dd
f3
f5
f8
fe
14
04
fb
f3
f7
f3
05
f1
fe
16
f9
d8
1f
08
fe
f4
f5
f4
fd
fb
03
e7
e8
1e
f7
f2
d6
08
f7
09
0a
f3
e2
f3
07
0e
fe
fd
09
fe
cc
f1
fe
f5
e6
1e
0a
0e
1a
0f
ff
02
fc
ea
fe
ef
eb
e9
fa
cd
31
0a
14
e8
db
01
fa
15
e5
15
f4
e5
fb
02
f5
fb
08
e0
fd
0c
d1
0d
f9
c5
fa
02
18
03
d6
0a
e3
09
ef
03
05
d9
ed
fa
fa
1b
22
0c
fc
fe
dd
ce
e7
18
fd
20
f2
1f
0e
e4
f1
ef
e3
e9
20
0b
fc
14
f1
02
0b
00
00
13
02
07
ef
ee
ff
f5
20
df
00
ef
26
27
f8
ec
36
0b
07
00
2b
03
d9
0d
fb
e1
24
fb
08
11
1e
2c
19
03
27
0f
0d
00
12
ea
d7
18
0e
fa
0c
07
fb
0c
f4
03
ef
f5
ff
ee
2c
17
09
0e
1d
f1
16
35
0f
d9
e2
0e
fd
d6
fc
0b
42
e5
0a
06
06
13
f8
f3
e5
0b
07
e8
41
ed
d6
fe
bd
f9
0c
13
fa
14
f4
09
28
f3
17
f5
0d
22
0e
f8
0c
11
e6
fb
03
ca
ff
ef
03
e0
33
12
25
07
1b
16
2c
d4
36
bf
f4
15
00
f7
f5
1c
0a
1c
f2
2d
ef
fe
e2
30
e7
f1
18
c4
0b
22
04
1e
df
f0
00
f5
e7
0d
39
03
f6
f5
17
f1
f3
24
26
00
cb
f2
e2
0e
23
f6
e0
cf
ed
00
dd
06
f1
17
eb
f3
0b
08
bd
10
f9
fc
dc
ef
23
03
07
1b
d3
d9
fa
f9
1c
e5
0a
16
e3
06
0b
e2
fb
01
f7
ce
16
11
08
03
fb
29
1f
fb
f9
dc
f8
06
fc
07
17
07
1e
e5
08
dd
0c
05
ef
08
3b
dc
10
00
04
e8
1b
0e
0b
3f
dc
ff
05
c4
10
f2
e6
fc
1a
19
f4
11
10
f4
10
e0
0d
12
0d
d8
d5
e8
0d
13
ec
08
16
11
03
e3
12
2d
de
09
e4
fd
07
19
0d
25
1e
14
05
de
07
fc
f4
03
0c
f9
ee
01
e6
fd
f0
0b
f6
e7
24
fb
f3
36
24
0a
d1
12
11
0d
0b
f8
d3
c8
f9
f7
18
ef
0d
e7
01
14
d5
1f
df
db
f8
e9
fe
e2
fe
fd
fa
fa
f7
cd
fc
ce
17
f1
03
e1
f8
f6
e3
ff
e6
e6
1b
01
e4
0f
d1
1c
e1
fa
16
df
2d
27
e6
16
02
d4
1d
14
e0
e4
07
00
12
e6
0a
01
24
02
01
f1
de
07
0c
0b
f8
fd
06
ff
36
eb
fc
16
17
15
e3
13
dd
0b
01
3c
f4
f4
fa
e5
3c
03
ff
f5
13
20
fa
04
0b
2a
f4
f4
12
e9
e7
e9
4a
27
1d
1d
cc
3a
08
fa
17
1b
e7
fb
e3
15
e6
0c
ee
eb
22
30
08
f8
fc
f4
22
c4
f7
ea
fa
21
03
02
ec
1a
e2
0f
01
fe
e8
db
04
2a
20
fa
ee
fe
bc
05
de
e3
f8
0f
ec
0a
1c
f0
fa
28
fb
dd
30
cb
fe
2b
fc
00
13
fd
f5
f3
16
2b
ed
ff
03
0b
fd
ce
ec
19
fa
fe
f3
19
1b
f6
fb
25
02
00
f7
07
e3
f5
f1
1b
09
02
ef
f6
0e
ca
ec
f4
2d
0f
f5
20
fd
0f
05
f5
e8
fb
08
00
0d
f9
fa
2c
06
1b
ef
0d
f8
ff
17
14
01
09
21
fe
0f
e9
d6
fd
09
07
08
0d
f5
29
05
de
23
19
23
e7
c3
e7
ff
09
fe
e0
05
df
22
12
ea
ee
f9
04
21
0d
e4
01
1c
1e
d5
15
0c
d8
1c
e8
ee
17
15
f7
e0
fa
eb
13
18
f3
f6
0d
0a
13
03
09
15
e0
ed
13
0b
fa
19
05
0c
e5
1a
dc
fd
0b
eb
f6
04
17
13
fb
09
01
18
11
f2
fd
e7
fc
3f
05
f2
fd
fd
13
09
14
ea
ed
07
04
0e
f1
04
f7
fe
14
e9
d2
fb
f6
fc
f4
ec
1b
f8
21
e3
f8
f8
cc
fd
0f
2c
e2
0f
f6
1a
15
15
00
ea
0c
e4
2d
f8
fe
f4
30
0b
07
23
0c
00
1a
f2
e9
fc
fd
fc
04
d3
f6
e0
03
fa
0a
00
e7
03
ef
02
f8
04
0c
20
f6
fa
13
0a
12
18
01
f9
d2
fc
08
06
fa
28
21
de
f7
19
14
fc
ff
e7
1b
13
12
39
f4
00
08
e0
b1
1e
07
fc
fd
db
07
e5
f6
fd
1a
24
10
fe
33
ff
e5
08
e1
fc
ff
dc
0b
d9
d8
ea
0b
12
fc
fb
07
ef
f1
07
0d
0c
ed
f7
00
08
e3
ed
0b
e3
d0
00
ce
eb
d8
10
12
01
0e
15
ff
04
f8
f7
ea
f0
13
b9
e6
14
fb
e8
f2
1c
0d
15
f0
e2
f7
fe
36
f7
ff
01
00
f0
07
d9
f2
03
b3
0d
e9
08
2e
08
f6
25
ce
ef
f1
f8
ea
13
2c
fa
dd
0e
f5
11
08
f8
13
d7
f3
f8
f8
ef
fb
fe
07
f4
07
0e
12
e7
dd
fb
ee
f5
19
c1
ea
f5
00
e8
1a
0a
10
02
07
18
fc
e8
1d
ed
0d
cf
06
1d
06
1c
ee
cf
e6
e1
20
05
03
0e
02
f2
0b
24
2c
10
1a
1f
e7
16
16
47
f6
de
ee
18
22
fd
f8
f3
27
d4
1c
f4
f8
26
09
ff
eb
3a
29
0c
12
c6
17
22
04
03
13
08
0a
ee
f4
df
0b
00
e7
09
f8
06
ec
27
fa
0e
0b
fc
e7
13
02
e1
f2
0f
f6
d9
fb
fc
fa
f7
e2
f3
fb
1e
04
2c
0c
ff
f3
02
00
0d
01
f4
1e
ee
ed
ee
0c
15
2b
e8
1f
1a
ec
03
15
10
0c
f9
19
ed
fb
fa
fe
08
ff
ff
1a
f9
22
12
24
1e
e7
db
03
fa
e5
f4
fe
1d
fe
da
db
e3
fd
e7
07
1e
f8
f7
f3
ea
19
f2
09
46
e2
fd
11
16
1a
e4
f1
f1
0b
f3
1b
0f
de
05
28
f2
d0
ea
f5
e1
ed
ff
0e
fe
e6
d0
09
fb
05
00
ed
0a
01
19
a5
27
15
f1
08
04
de
f6
34
01
f6
13
fe
00
2a
16
f9
d9
08
0c
ff
37
fc
d8
f0
1e
06
13
ff
fb
fd
15
0f
e2
1d
eb
03
db
10
fe
12
0d
1f
fd
f4
13
2d
1b
f9
e3
fe
f8
11
17
1d
15
da
15
fe
0e
38
f0
d9
16
be
e2
f8
12
f9
fc
f7
ee
ce
d2
fb
ef
13
f6
09
fc
1e
fe
fc
f8
05
0f
df
f3
ee
13
ec
d1
fe
f0
07
12
df
f7
ee
0a
10
08
d9
ee
ed
e9
e8
16
f4
15
04
fb
02
03
13
04
16
e9
08
11
f5
fd
f9
db
e3
ef
22
12
21
dc
cd
0d
f7
0c
08
12
09
fd
fd
1c
a8
00
08
08
27
11
1b
ea
fd
e4
ed
fb
0d
f1
e0
ff
ef
e0
ee
ea
08
ca
03
bc
f2
0e
01
00
fd
e8
dd
23
09
ce
ec
25
ee
0d
fe
e9
fe
f0
f6
f2
ee
1e
20
fb
02
f4
e9
f8
15
09
fa
1f
0c
02
14
e2
08
ff
e9
07
28
26
f9
04
f8
21
f6
22
18
f9
04
26
04
02
03
04
32
f4
1c
06
fe
0e
08
09
15
fd
da
09
fa
f8
fc
08
f1
2d
ed
10
00
1e
1d
05
0d
30
29
01
05
3a
e5
34
02
f8
00
06
f2
17
25
e9
e9
ff
e1
20
04
1a
06
13
1e
e9
ed
ea
fb
0e
f8
e1
06
e4
1d
09
ed
25
ef
22
0f
0a
04
11
dc
0a
20
cd
15
34
f7
2b
f6
fb
05
18
24
e5
28
09
f9
17
e5
1c
0b
03
16
02
f1
04
f3
f7
15
ff
1d
f1
cb
19
f3
cd
0e
29
09
f4
df
1f
f7
09
d7
ed
07
e2
e4
01
f3
eb
f7
e2
de
fe
e2
43
e7
f2
fe
1d
db
e1
09
fd
ff
dd
1e
ff
22
f3
e7
38
df
f6
13
eb
cf
16
1a
04
ea
ea
f0
09
cb
f3
1c
f3
07
e9
10
12
06
10
fc
e4
dc
09
f8
e9
03
0f
0d
0a
02
15
e3
f9
ee
d1
e0
e6
fd
ed
2d
f6
eb
08
1e
19
1b
e8
1a
23
ec
1f
18
fe
1f
ee
15
f9
17
f5
04
fc
1d
16
14
1f
ec
ee
09
f6
ee
1d
15
f7
05
12
ed
16
00
12
fe
03
1b
e2
cc
12
f1
06
1e
15
2a
f8
e7
03
05
05
e5
fe
11
eb
e9
fd
ed
12
0b
14
02
eb
f6
f3
f5
0f
00
3d
09
0c
0c
fc
3b
1b
e7
f1
f3
12
e7
cc
e5
03
22
14
ff
09
ed
f5
dc
d3
ff
e6
f2
fd
06
e8
ed
ee
19
0b
36
f6
ee
f9
0f
e5
09
d1
e6
ea
04
03
e9
fe
e4
f1
fa
10
0e
d8
28
f6
1a
1c
ee
12
00
e0
d8
18
ef
25
1b
fe
0c
1f
ff
df
ff
06
fa
02
c6
1e
fa
0f
01
15
ef
c8
06
fd
ea
0a
e5
fc
df
f6
f0
12
fc
fa
00
03
17
d9
06
e6
fb
12
d5
ff
f5
e5
0a
ec
0d
19
f9
e7
f4
0e
f6
0c
f9
0b
e4
fd
f8
1e
df
09
ef
f7
db
0a
fb
17
f6
ef
15
f2
fc
0c
eb
f8
08
ee
f5
0e
07
f6
1d
f3
f5
0b
1d
e8
1a
fa
00
02
fd
05
e8
0a
ef
d5
ee
11
09
0f
f7
f7
10
f2
de
f6
2c
e2
09
0c
ee
e8
fa
02
fc
f8
05
f9
f6
fd
17
0e
e6
ef
21
f3
ec
ed
fd
f1
11
0a
f9
12
ff
fe
fb
e4
e0
ed
da
f9
fc
16
11
09
37
1f
f8
02
f5
e3
e0
f8
f7
f0
23
09
f5
fa
fa
ff
fb
db
0d
cd
04
0d
08
25
f4
44
be
04
5b
e1
25
04
d5
fc
e9
21
1d
12
00
00
f0
e0
e9
f5
07
f2
06
00
0d
18
ea
15
0d
0e
f9
e2
15
25
15
21
e5
2d
fe
25
f0
01
0f
cf
e3
ed
0e
14
19
db
e5
19
e3
0e
05
12
38
de
16
05
0f
00
f0
dc
f4
00
f9
fc
df
f1
14
df
09
03
0c
04
e2
ed
10
06
e7
cf
e9
f8
02
37
f6
1f
17
e6
f6
12
07
07
de
fd
e3
0a
11
d0
26
f8
f9
d7
f8
e6
dc
da
14
f5
f0
f6
0a
e3
0a
ff
d8
d6
df
2a
15
f0
12
08
f6
1b
18
f5
03
f5
e0
16
0a
f7
02
c8
06
07
05
0d
ee
13
ec
f7
fd
f1
ed
fe
16
01
03
e3
17
09
fb
06
fd
d7
16
25
f6
00
fd
fa
1a
e1
ec
0f
18
ed
ff
00
0a
13
04
ec
f7
0b
e4
fc
02
03
00
0c
0b
03
f6
fa
f1
19
17
dc
d8
ee
e8
10
e8
fd
fc
17
0f
0e
01
ee
d6
fb
f6
17
ec
e3
ec
06
17
1f
f8
02
08
df
0b
f5
f0
06
18
05
fa
d5
0d
fe
ec
ed
ef
10
fb
f7
01
e9
1d
14
04
0e
f2
15
03
07
10
fb
fc
ef
2b
07
fd
fc
f7
f8
0d
fb
20
fb
fc
01
0c
01
0b
ec
e5
1f
00
13
0c
1b
0c
0f
f9
09
0a
05
12
fb
f8
ed
23
08
1e
f7
f9
06
fd
1e
f3
07
04
fd
14
0f
f1
16
08
f3
e9
0f
e0
03
14
d9
ea
19
eb
06
22
0f
0c
10
fd
f1
f9
15
0e
01
e9
fb
02
ee
00
04
14
fb
f6
08
fd
fc
e9
01
ed
e5
09
07
ff
dc
0b
d0
16
fa
f7
d3
29
17
df
d8
07
05
f0
0b
0c
16
e9
06
17
df
18
4b
08
28
0c
14
f3
03
fe
d8
11
fb
0b
f6
fe
e8
03
3b
20
39
04
07
e2
ce
e9
ee
31
e2
14
06
15
0c
23
21
f8
fc
12
f8
dc
e5
f4
1b
0b
e8
d1
17
f7
ff
e6
0c
ef
e7
f5
24
04
f0
f6
eb
da
f3
ef
12
dd
06
ec
ea
fc
29
00
1b
f8
04
ff
eb
d6
d4
17
c7
08
eb
23
f2
07
df
fe
f7
0c
f9
13
18
06
f2
da
11
f0
fb
00
fb
f9
13
10
f1
0f
fb
2b
02
17
10
17
03
fe
fd
05
04
fa
0f
35
dd
0c
f3
e3
10
ff
f0
24
00
ec
f4
2c
ed
dc
f1
fa
00
16
0d
f7
f5
f7
09
d5
1b
f7
fb
ff
02
e8
00
02
25
15
f6
f4
1a
f7
fe
0a
f1
1a
20
ff
19
19
ea
15
11
07
0a
01
fe
e3
e8
24
01
da
0e
f5
ff
e5
fa
e6
03
25
ea
fd
0f
f7
0c
fa
fb
0e
0e
f1
ef
29
04
f8
05
09
0d
c7
f3
ff
04
fe
e9
ea
02
06
f3
ef
02
ea
19
02
db
cf
08
ef
fd
fc
20
ed
02
16
f4
16
21
fd
05
19
03
05
ff
2a
f6
07
ff
fa
13
f3
08
e0
15
00
e2
fd
0a
1a
3b
e9
fe
1b
f3
10
11
f2
dd
0e
11
0b
04
21
0e
f6
02
f5
19
eb
06
07
02
ee
07
10
f0
0b
26
19
f7
17
02
0c
12
f2
18
f4
ff
0d
fe
1f
05
01
e2
0b
c0
03
d0
17
2f
f4
1e
d1
d9
1f
fb
01
e1
22
01
fa
e1
0c
f7
d1
0c
14
f5
e8
16
08
d0
f0
08
11
d3
0a
eb
f9
0d
e6
e3
0c
18
df
22
fe
f3
01
e5
f5
d1
22
32
0e
fa
d4
06
0f
11
23
ee
21
24
f3
13
d7
0d
17
e8
d7
fb
13
d8
1b
2b
18
fc
1a
ec
08
f4
fa
fc
f2
1d
09
10
f5
02
f9
1f
0b
10
d9
ff
4c
f5
ee
ea
ff
19
02
fa
e5
02
0f
20
f8
f4
ed
2a
e4
1c
1d
00
ed
02
15
03
0f
e4
01
db
2f
10
ff
fd
ca
fe
f6
ea
0b
06
01
f3
1a
fd
0c
f8
01
11
e9
0d
1b
21
1a
f9
fe
c4
03
0e
f1
14
f5
fb
e2
e0
06
0d
f6
ca
18
02
ed
ee
f6
cf
e5
11
f8
0e
1f
28
21
d7
e9
1f
03
11
02
e8
0f
05
01
10
1d
f5
f5
fc
01
1d
e1
f5
e4
ff
f8
d4
21
e3
04
f8
e8
17
db
d3
03
eb
ee
ce
05
14
06
ed
f7
01
f0
ef
f1
ed
f5
04
13
e9
e6
1e
f9
e0
0b
0b
13
f7
f6
ce
1a
e8
ed
f8
0b
00
f8
fc
02
02
25
fe
f2
24
f9
19
f6
d0
17
00
d6
12
0e
d5
00
f2
01
ff
10
05
2b
06
0f
eb
21
e3
1a
17
0b
24
e4
f7
29
2f
0d
ea
d8
11
22
0c
0b
19
eb
fd
f7
0e
eb
02
fa
0d
f6
19
d9
eb
ed
ff
ef
f3
01
fd
0d
08
28
17
04
f6
f7
f4
e4
07
04
13
e7
f7
00
ed
13
f2
14
d8
f1
23
ee
fb
e3
ec
e1
0a
0a
13
09
10
fe
f4
0e
07
1a
f6
ff
e2
03
fd
f6
0e
ec
ea
00
17
fb
06
00
08
0c
e1
1a
09
2c
eb
ef
f0
eb
f9
fc
f1
01
08
10
f6
f5
0e
10
f2
e3
10
29
00
10
f3
f2
de
2f
fa
3c
e0
f0
1d
fa
ef
28
12
15
20
f8
08
10
ca
19
12
0d
15
ee
35
08
27
da
4a
12
f3
07
04
04
de
2a
f7
01
18
fb
fb
0a
f8
e8
09
29
e1
14
e5
02
0b
0b
fd
18
f1
15
3b
f2
04
e1
47
de
0b
f5
f0
de
f2
02
f3
e9
08
ed
0f
05
e0
e6
03
11
fd
16
13
0e
03
00
03
f0
04
23
21
fd
ec
31
0c
13
ef
0e
e9
3a
e2
01
de
f5
f5
fd
18
f4
e6
f3
fd
04
22
0a
30
fd
18
fa
f9
2d
10
e8
fc
29
1a
f0
e2
2a
04
02
05
0a
f0
ff
1e
ec
0e
11
07
0c
0c
11
f3
fa
04
f9
0d
e4
1a
50
f7
08
fe
09
1a
23
11
f2
ee
08
ff
f2
f1
c4
1e
10
3b
dc
13
f0
24
f4
27
26
07
08
05
f8
fa
3b
2c
ec
e9
ba
fb
16
f6
15
1d
ff
03
09
cd
2f
0d
03
09
13
fb
f8
14
03
05
07
ef
f7
03
e7
04
28
d9
1c
fa
ef
e2
09
e2
b1
e1
f9
ec
da
fb
2b
fd
f5
d3
0a
dd
e5
16
ee
f8
1b
18
fd
12
e9
1c
f3
f0
f7
06
f6
01
22
f9
f8
eb
f8
26
21
d1
0f
2e
f7
1f
0f
0b
06
ed
db
d5
ca
00
11
e2
f8
24
03
f3
dc
08
0e
05
ef
fa
18
f4
fb
fd
ed
ea
27
17
f4
f9
f7
e1
10
2b
ff
07
1d
b2
2b
e2
f2
1c
ec
1d
ec
02
2c
fe
f7
0b
0c
e8
02
fe
02
db
10
cd
1e
f5
f9
f8
07
10
f2
f7
f7
11
dd
34
eb
e2
ef
20
bb
15
10
02
01
be
cd
21
ff
eb
b0
fc
f2
20
d9
28
0b
2f
13
da
27
24
14
d4
f1
f9
15
f5
25
16
d5
07
22
14
e3
d0
4b
27
12
4c
1a
fb
10
b3
f8
19
e8
ec
f0
26
0b
eb
06
f4
0d
00
0a
14
ed
d5
0e
06
27
ff
02
2e
ff
0e
0c
f1
2d
04
f7
f2
07
ff
fd
f3
f2
e0
df
f2
0f
02
ef
02
05
1c
0b
00
0d
f9
f7
10
e0
fd
e2
0c
e9
fa
23
17
12
0c
18
eb
e3
fe
ed
ef
13
eb
00
e3
f3
36
05
15
19
ff
e8
fd
fd
28
21
03
14
ec
05
0c
eb
d6
ea
da
0c
01
fe
1a
36
e0
02
25
f6
f7
c5
02
ef
05
03
f6
fc
10
0a
11
0c
e3
11
16
f7
f5
0c
e9
02
17
0e
f7
07
f6
25
fe
ff
f4
f1
f4
21
12
ff
e4
0e
03
03
1c
f1
0c
f4
e8
ff
18
06
f1
02
00
0c
fa
ee
00
e8
10
03
07
03
f9
f9
e9
f7
f4
16
ec
06
1f
ea
0f
e8
f5
17
cc
ec
00
f9
08
14
ed
03
10
00
11
0d
fd
e4
1c
16
03
f9
06
01
18
19
00
e7
16
c4
e5
c6
d8
d2
f4
ff
09
18
08
0c
dc
15
02
d7
1d
f2
d9
fc
14
f5
f5
f3
06
10
08
19
e7
f4
12
fe
11
04
12
0d
10
14
eb
1a
1f
0a
26
f5
0d
08
f8
03
e4
13
0a
e4
27
d0
f1
01
05
e4
f6
3c
21
fb
e5
d7
07
d9
02
1d
ed
f4
37
f5
33
06
d2
14
d8
d9
e4
ed
02
01
1b
00
14
e9
41
f6
ed
16
f7
f0
f7
ea
ff
fd
dd
e5
f8
f9
f1
e8
f0
09
ea
19
2c
07
d3
3b
13
0a
bb
fb
de
06
1a
e0
0c
ea
02
04
f5
fb
0b
28
07
ef
eb
ee
09
18
e9
e7
1e
27
dd
ee
19
f9
07
c1
14
00
f0
f6
19
fd
05
ec
d8
fb
f0
12
00
0b
f7
01
14
cf
11
1a
ea
17
f5
d7
12
09
ce
fc
1c
11
16
ec
f5
e2
ef
fc
ce
e9
e0
04
f5
f2
f7
fd
f9
24
13
d0
27
ec
ec
13
0a
23
fe
f9
f6
fd
07
f9
04
fd
02
00
0a
fa
e7
14
0b
e3
0a
19
06
02
f8
f3
eb
11
14
e5
f6
f6
0e
ed
e8
0b
1e
e7
0e
f4
03
f0
0d
12
10
fd
f0
cb
e9
04
1c
12
08
03
f0
f6
20
0e
f6
f2
f5
fc
f9
11
03
1c
ea
f2
21
06
f8
27
24
21
f6
06
12
07
15
e2
02
1e
f9
00
36
10
35
43
18
09
03
ec
07
0d
48
17
da
0a
1a
d5
25
ea
0d
13
01
f2
0f
d7
09
f2
ef
f7
07
f6
f3
ed
cb
ee
10
01
fd
0e
0a
18
0f
11
01
e5
13
ef
fe
07
dc
e4
e9
02
db
ca
f8
0b
28
fc
31
f3
e6
15
05
20
f2
23
2c
f2
09
03
fa
f6
c5
0d
d5
2d
eb
20
08
0f
00
f6
ff
04
f6
f5
11
1b
ec
02
fb
0f
f9
ea
e7
27
1e
f3
f2
16
10
f1
02
0c
f1
17
1f
f6
0a
de
b2
ee
e8
d9
ed
c5
01
f4
29
f1
07
f3
1e
0e
f4
e5
25
e9
dc
fa
e1
04
f6
16
d2
00
2e
1f
e5
13
e0
f1
04
1c
e7
de
fe
e6
bf
0c
dc
0e
09
eb
d4
09
fe
06
1f
fc
22
ed
1a
16
e5
0c
1b
12
1c
f7
22
19
e3
00
f2
e8
0a
f6
0d
ff
f6
eb
4d
05
33
03
1a
e6
fa
2d
fa
e4
e1
04
e6
ed
16
e1
14
0a
fa
1d
10
ff
e7
e8
e5
e1
07
0b
f3
df
03
cf
f5
fe
03
06
07
f7
02
19
31
fd
15
07
04
1e
dd
0b
ec
f6
fa
fc
0d
35
f2
29
f4
21
20
fe
04
0e
dc
e6
ed
f7
20
fc
02
19
e6
07
41
fc
fa
08
fc
01
30
f3
f3
06
e5
f4
06
ef
16
d5
fb
ea
fe
16
e7
fd
f6
09
19
e2
dd
fa
0e
16
10
15
f5
f9
02
fd
22
28
f5
0d
32
10
18
07
e9
eb
f4
11
f4
27
fa
30
fe
fe
f2
fb
01
08
05
e9
00
d3
f5
03
ec
d1
dd
20
f1
d7
23
0c
f6
15
e2
dc
1e
13
03
ea
0f
01
e7
2a
e7
24
f5
e1
06
e5
0c
e2
d7
06
1e
07
ec
f7
eb
ea
f4
17
c1
07
10
02
ea
09
19
29
1c
fd
df
20
f8
19
ea
0d
0a
20
07
04
0c
f6
2a
06
10
06
f4
0d
ed
d1
f1
e5
28
02
12
f8
02
07
eb
47
f5
e7
20
0e
e3
2b
19
1a
ff
f5
15
dc
09
b7
13
1f
01
00
19
e8
33
12
21
22
09
1f
f2
ea
e9
ea
06
13
c8
f6
f8
06
07
e4
e8
29
f9
f7
1f
14
f0
d6
28
22
14
05
0f
e2
d9
e9
08
ee
f5
08
19
e9
f5
d1
fc
0f
f5
05
dc
f3
f4
fd
e5
e8
dd
d8
fb
fc
f1
01
fb
1a
1c
fb
f3
24
06
ef
f2
0b
0f
e7
f8
00
f1
f1
2b
f8
f5
ec
29
1e
02
f0
d7
d6
f2
ef
f9
f0
c6
2c
0d
0d
27
f4
ca
20
ff
03
f0
30
19
09
0e
e1
12
f0
ff
06
03
24
21
14
2b
da
cb
05
f5
2b
36
d8
ed
b9
e9
d2
f5
f4
0b
0f
f1
0b
22
dc
fa
e3
f1
03
f7
0f
25
fb
06
d3
00
19
f6
28
0d
03
16
0f
1a
f5
13
1e
f0
d6
b7
01
05
1b
ed
e9
f1
d4
05
fc
14
ef
f2
e4
0e
fc
12
f8
fb
f5
05
06
d2
0a
04
f0
14
fe
45
0d
0c
fb
f0
ec
de
0a
e2
ec
07
20
0b
fb
04
ed
0f
f4
e0
09
fc
13
f9
0c
1c
28
0f
00
c6
15
ef
10
0a
13
ed
f8
e0
17
d3
f4
1e
15
f7
ed
17
f5
d6
ef
e0
28
eb
15
e8
ec
f2
fe
08
0a
01
e9
fd
ff
18
04
fa
f3
0f
c9
0e
01
29
1b
0e
fd
01
e8
04
fe
09
06
fe
fc
eb
22
e4
f9
de
fa
f9
38
05
ec
0b
0f
fd
08
08
04
d7
ef
12
11
03
e9
d6
ed
fc
f4
f4
23
0b
1d
1d
f1
f0
00
19
e1
fa
fc
06
12
15
d5
f8
f4
09
04
13
12
0e
eb
f7
f5
05
12
09
0b
f6
fd
f4
0f
08
10
e2
ea
f1
ed
f5
ee
01
f8
d0
e8
0c
12
f6
0d
08
18
ef
08
f0
f7
ef
e8
f5
f9
00
cd
ea
d6
fa
06
0b
dc
fa
02
14
28
03
00
0a
39
d7
10
fc
03
fd
09
05
14
10
fb
e5
17
fa
26
08
fe
fd
10
00
31
01
09
e9
11
0e
e1
06
05
d6
28
1f
e9
10
e5
ca
05
f9
0d
0e
05
fe
df
03
28
0e
30
0d
03
15
0a
cb
2e
30
f1
f7
fd
fb
20
f7
d4
27
1b
f9
fb
1e
f5
c2
04
29
ea
fe
3f
2f
00
27
e1
04
01
ed
0a
e8
ea
f0
27
ef
c9
02
1b
dc
1c
fb
f1
09
eb
10
1d
f5
f9
e1
0d
ec
f4
19
05
fd
fa
20
0d
13
1c
04
f8
e0
14
eb
ee
e4
07
0a
0a
08
0b
ed
10
fe
f6
d3
18
15
04
1a
09
18
f8
05
f4
10
e8
0a
f3
ee
08
26
03
d7
0b
f2
0e
eb
0c
e0
f0
d7
13
ec
18
0b
02
dd
00
ef
0e
d1
2b
f2
04
3d
07
ee
e4
17
f8
fe
ec
e1
04
06
f2
13
d8
fe
fd
29
f1
e9
e1
0d
01
da
e9
e9
21
fa
04
12
f8
e2
04
08
22
12
f5
ee
f8
0e
0a
fe
1d
0f
fb
eb
ee
df
06
17
eb
0b
17
ea
f0
17
12
17
0d
4f
32
41
f0
32
fd
ff
1f
13
ca
0c
ee
f5
14
0b
01
1e
05
26
cb
f4
f8
ea
ea
01
27
e6
16
e1
02
18
f8
0d
e5
c8
21
fc
25
c1
11
fa
34
ce
00
0f
e9
fc
38
ee
0b
eb
e7
2e
f7
e9
e5
0c
0a
12
f4
3d
f6
0e
15
f7
f6
da
09
fa
e7
da
23
d8
ab
fa
f9
05
0e
e5
f4
1b
17
0c
03
d5
f4
00
1b
09
07
08
0a
11
18
ec
0e
c8
e5
23
ff
ea
1d
01
f2
05
11
1a
fe
fe
18
f1
ec
e6
17
21
cb
16
d2
01
06
e9
0b
ff
f8
fb
f4
d8
ed
e9
11
0e
06
ec
f6
2f
1d
05
e4
e3
07
1d
15
00
1b
ff
04
1e
f8
16
09
f6
2a
f0
d9
1f
01
ed
2a
f2
fd
2c
0c
0f
ec
0c
01
13
3c
ff
ea
fd
0d
d5
dc
0a
19
0f
24
fa
cd
28
08
fc
f8
05
01
15
f2
01
ef
28
28
2f
15
fd
f4
1f
e9
0a
df
fb
ff
e5
e5
f8
ec
ee
0a
ea
19
fc
08
05
0f
e9
f5
fa
f7
1d
11
e7
df
1b
e2
29
f0
04
d5
0e
e5
23
ef
f2
f6
d8
d7
04
14
0c
e6
fa
13
f0
1e
1c
f1
17
f6
fd
13
f7
fc
0d
dc
0e
ff
f9
ec
e1
c3
0b
ea
22
d5
fc
01
02
17
de
fa
07
1c
05
1c
23
ee
10
f6
0e
e6
0d
fe
ee
04
0c
09
f1
09
06
06
f6
01
fb
06
09
e8
fa
fe
09
01
0a
05
09
14
19
13
06
06
17
1c
19
da
1f
f3
13
11
e0
fa
1a
22
05
0d
1b
e3
12
d2
e9
eb
13
19
09
10
0a
0c
eb
1c
09
06
f3
0d
24
1b
04
f9
0b
26
fa
c1
de
17
12
0b
f2
12
f8
08
0f
cf
d4
0c
15
1a
39
eb
0d
ed
f8
fa
0a
e8
e3
1a
f9
0a
05
fe
00
ee
f7
dc
ef
d7
0c
ec
f4
08
06
09
0e
d6
0c
e0
dd
0d
fb
12
21
22
04
ef
0a
1a
14
0a
fd
05
0f
1a
f2
0b
fc
14
08
08
08
ef
0a
ed
08
14
f6
f2
f0
07
f3
e6
d4
eb
f5
e7
1c
11
f6
07
ff
15
ed
e9
0f
f2
f0
f4
ea
07
b5
15
0d
04
18
15
e1
f6
fd
10
1a
f2
f2
11
fa
e2
03
05
1b
06
03
1f
30
d9
11
10
0b
e5
fe
f6
e2
f6
37
01
e3
09
fe
fb
19
ee
19
09
f6
fe
07
01
03
ef
0e
e7
39
13
ea
1c
2a
f0
0e
14
09
26
16
e8
0e
12
f4
f2
dc
db
ff
f4
ff
0b
06
e3
f2
cd
34
24
0b
e9
f5
02
2b
01
d0
ed
ee
d8
01
21
e0
d8
12
08
f3
1d
22
ff
0b
db
1d
f9
11
07
f6
06
08
0a
02
d1
0b
01
07
e3
07
ee
e1
ea
37
1c
e1
00
e3
0c
0f
1d
13
11
d6
f6
f8
03
23
f5
ff
df
0e
0d
f7
ec
de
08
e4
f1
23
1d
f1
f8
ff
20
0b
22
d0
ef
01
ea
f7
27
ec
0a
e7
dd
20
c7
01
eb
25
11
08
19
e3
2c
f3
fc
fa
25
03
0a
25
c7
2c
05
00
db
4f
f3
e5
db
13
c5
f2
f3
01
e2
1b
fb
19
f8
22
06
03
1a
e6
dd
1f
fb
fd
0f
0a
fc
f8
f6
ff
07
fc
17
f7
f1
f1
f9
fd
01
0a
12
fd
ee
16
12
13
f1
fb
21
ef
ff
f2
ec
f0
18
f6
0f
f9
e5
fd
f5
f0
e6
1f
f9
df
f7
15
2b
02
10
f1
e8
e3
08
00
16
fa
13
0d
00
04
0d
f4
03
ec
d0
e2
27
03
13
de
f7
f2
e0
e9
17
e0
f4
fd
09
18
fe
df
1c
f8
f0
04
f7
19
fe
e9
e1
f2
eb
02
12
ce
07
f3
f2
ec
ed
28
fc
03
1a
e7
fd
0c
44
0e
eb
e6
06
f6
00
f5
0b
f4
1c
21
f3
11
12
ed
0f
fd
0c
10
ec
15
ee
f1
05
f1
05
fd
e3
ea
02
19
0b
27
eb
0b
e6
f2
0a
1d
2d
ee
30
e4
21
f2
26
02
28
ec
13
1a
12
f8
14
0a
01
d6
05
fd
0a
2a
fc
ee
fc
f9
f2
1d
ef
2b
15
10
e6
21
e9
00
f6
04
fc
e5
eb
f0
f9
ec
10
f2
10
e7
e6
17
f8
fd
12
f9
f7
03
ff
17
16
04
ee
10
0e
02
24
09
f0
04
fa
fb
f0
07
25
fd
fe
fc
f4
d9
ff
ef
f3
ff
0e
df
fe
ed
e7
e8
09
d9
1a
eb
0e
d8
ed
31
e2
2e
36
0b
f7
bb
f9
ea
e9
49
22
fc
19
05
3e
1a
e0
15
fb
1f
0a
b3
38
1a
2a
17
00
29
fc
31
24
06
e5
f1
e6
ea
e7
f7
da
14
11
0f
dd
f2
28
11
0e
f3
00
12
1c
fc
0f
e9
03
12
13
10
06
fa
22
ea
f5
1f
e7
f0
e8
fd
cd
16
d7
ce
de
be
d2
08
e9
08
e9
e8
ef
0f
09
1c
0a
e4
f9
08
f0
e9
15
0f
f4
eb
e4
ee
09
15
23
f0
e1
ef
23
05
1c
1e
0a
1f
1c
29
ed
fc
f5
0d
11
fc
f2
18
17
0d
fc
ec
fe
07
26
ed
02
0a
d2
10
20
f6
2d
eb
24
0a
07
e3
e9
13
e0
13
f9
16
0b
08
ee
14
08
fc
1f
00
f3
1d
dd
d6
e9
10
20
d2
17
00
e8
25
c7
e1
00
da
ef
ed
1a
f3
12
05
28
0d
1d
11
09
00
f7
d4
e8
1e
ff
16
fa
f3
00
0c
f8
02
fa
16
eb
0d
25
f1
28
2c
00
bf
0e
f9
11
2d
fb
03
0b
1d
06
fb
f3
ff
e0
01
f5
43
cf
ed
04
f0
c2
35
3d
0a
d8
ee
08
08
09
10
de
18
12
ce
24
e3
fe
02
03
dd
08
31
1d
0e
05
19
12
d4
ec
11
f6
0b
2f
0b
cc
02
05
f3
05
05
19
00
f3
e5
33
ee
22
03
fb
2b
dd
f6
0f
e8
d3
33
d6
f7
f5
fb
f4
16
27
ea
08
12
07
1d
c8
26
3b
1c
06
01
33
0c
09
20
05
14
15
20
09
fb
1c
f5
e5
fb
06
d5
12
03
18
2a
f2
2b
14
