a0 3c0 1 1
fa
04
f2
04
fb
0d
fb
ff
07
fd
fb
05
00
fc
fe
02
f9
fd
f5
fd
12
fe
04
08
0c
ef
f1
08
02
02
ff
04
05
f9
fc
02
f6
03
ff
f4
fd
12
fa
f9
fd
04
fe
04
08
03
fd
fc
04
fc
09
f4
00
00
fc
fb
fe
f7
fe
08
fe
f7
fb
f9
0a
02
ff
ef
ff
ff
02
08
05
06
01
fa
02
ff
05
08
05
fd
04
fd
fe
f4
04
06
fe
01
00
f5
00
0c
07
09
fd
ff
06
12
04
03
09
fa
03
f5
f3
f7
f0
fb
06
fc
01
fe
f9
f9
06
f9
0a
fe
05
01
03
f8
04
f8
02
f9
02
0f
0b
f9
02
06
f9
f5
ff
05
0e
f7
0f
05
08
fc
f3
0a
ef
f9
09
f7
ef
0b
04
04
06
08
0c
f9
ec
fd
0c
00
f8
00
f0
0d
fb
fd
fa
00
f9
f7
03
08
f7
ec
02
04
fb
f5
fb
f9
06
f9
fb
00
0c
01
f9
fb
ff
f4
00
07
fb
fe
f8
fd
f5
f7
01
f4
0d
fc
0f
ff
ff
02
fc
f8
0b
f9
03
01
ef
02
fd
0c
00
fd
14
fe
f2
09
fe
03
01
0a
06
0c
00
07
f9
03
f7
f4
ff
02
f7
fd
04
09
12
00
04
03
07
fa
00
0b
0a
f3
08
fa
04
f9
04
f2
07
fc
04
0b
fc
f6
01
fb
f1
06
05
fc
06
f5
f4
f3
00
0e
ed
05
0c
00
00
07
fe
ff
f3
00
0e
ff
fb
07
f5
03
07
f9
0a
f6
00
06
fd
fb
03
f4
08
07
05
fb
06
0b
13
fc
01
ff
06
f9
04
f8
fb
0b
ff
f9
03
01
fb
02
07
fb
11
0e
f8
fd
fd
0e
0b
fa
03
fe
02
0f
fe
14
05
f7
fd
05
00
06
02
fc
05
05
08
f8
fd
0c
f1
f6
09
09
06
00
0b
06
fd
f7
fe
00
fc
02
f0
0d
fe
02
02
f1
03
ff
fa
01
03
f6
01
08
05
03
02
05
f8
00
0f
f7
03
fb
ef
08
06
fa
f5
f3
0b
fd
ff
fa
f3
f8
fb
fd
0a
06
fd
0e
07
02
05
ff
01
f7
01
00
04
02
ff
08
08
f7
f1
f9
05
00
0e
02
02
0a
10
0b
f6
02
07
03
f9
04
02
12
fd
00
f9
fa
ff
05
fd
06
0a
00
02
f9
05
01
06
f5
f9
fd
05
fe
f8
fe
09
07
01
f4
f7
09
ff
03
f8
fb
02
ff
f8
05
04
fd
fc
fe
f5
0e
09
00
05
07
f6
ff
ff
ff
04
fb
ff
fd
02
f4
ff
05
ff
fe
0b
f8
03
00
03
02
04
f5
02
ff
fb
fe
06
08
05
f4
f9
fb
09
f8
00
00
0a
fd
f8
05
fc
03
f8
e8
03
f9
fc
f0
02
fb
05
09
04
f8
03
fb
12
09
fd
f8
fa
0e
f5
03
fd
00
fd
05
05
f8
09
fa
01
00
fb
07
04
07
f5
07
08
07
03
03
07
0b
05
06
fc
03
f5
06
19
00
04
f4
ff
0b
0a
ef
fa
03
0c
02
0b
fa
fa
ff
fb
f6
06
f5
03
09
fd
f6
0f
fc
02
02
06
fa
fd
f8
f4
ed
01
ff
00
f9
0c
07
fb
fc
fe
02
f6
fa
03
fc
fc
05
07
f9
07
ff
f9
fe
fc
f6
f5
0e
fd
03
0b
f8
ff
04
08
07
04
0c
00
00
fd
f9
03
fd
04
f1
fc
ff
00
00
0c
fb
00
fc
10
ff
fc
05
02
00
05
fe
f8
f3
f9
06
f9
fa
00
fa
08
f3
f6
f9
f9
f6
f5
0d
f9
02
ff
fe
0c
fd
08
01
ff
ff
08
0e
fc
fd
01
02
fe
fc
fc
04
f5
00
04
09
f8
0c
03
fe
04
0b
06
fa
fa
05
05
f4
0b
fb
05
05
fa
ec
fc
fd
07
f5
01
e7
fc
ff
0a
fa
05
08
fb
f7
09
04
f4
fb
00
03
03
09
03
fd
fc
ff
0d
04
04
03
09
06
09
f4
01
00
fd
0a
f9
f9
04
fd
00
fc
f7
06
06
fe
fb
f0
03
fb
fc
f9
fc
f7
ff
fe
f9
fb
02
06
f2
14
ff
01
00
04
01
06
00
ff
ff
01
06
fb
06
03
f6
fc
09
f9
f3
05
fe
04
10
07
f8
03
ff
fd
06
fd
ff
01
01
fe
03
09
02
05
02
0b
f3
fc
01
02
fd
ff
fe
06
00
fc
f9
00
fc
00
02
f6
fa
fa
09
ff
f0
05
f9
03
fa
fa
fb
fa
01
f9
0d
02
fb
07
00
f8
14
fd
10
04
fd
f9
fd
ef
fe
08
0e
00
01
05
00
08
fd
fe
08
05
03
0b
00
00
00
fa
0a
f3
fc
f2
ff
fe
f4
fb
06
fd
00
ff
11
f7
06
00
01
fa
ff
0d
02
f6
f6
fd
02
00
0b
03
fa
12
09
00
f3
f7
03
0c
0f
09
ff
fc
fd
01
01
00
f3
01
04
f9
fc
0a
f5
0a
f8
fe
fc
fa
f4
f7
f7
02
fc
04
fa
fc
03
fd
fb
fc
f6
0c
08
f4
fb
0c
07
f8
fa
f9
f8
05
fc
fc
0e
01
ff
08
04
0b
ff
0d
f0
00
ff
f8
fc
02
f5
10
fe
fb
fc
f3
02
fd
f9
09
02
04
00
f9
fd
0f
0c
fc
00
f5
f7
02
0a
fe
05
01
fa
fa
08
05
0a
0b
01
ff
f3
0f
01
03
fc
f1
12
00
0a
08
07
05
fe
00
ff
07
05
05
fe
f9
01
0c
fe
fb
07
06
f7
fd
04
f7
05
08
01
e9
fd
05
02
ff
15
f2
02
04
06
09
fe
04
0d
fc
05
07
07
0c
f5
f6
f7
fa
0a
0d
f6
06
f4
f2
0a
04
02
fb
fb
13
0a
0b
f8
00
05
03
06
fa
fb
08
00
02
02
fe
ff
0b
0a
02
f9
02
f9
fe
04
00
f9
07
07
01
0a
ff
05
02
ff
02
fa
fc
f9
17
f3
fa
0d
f0
07
01
f8
01
08
0d
05
01
f7
01
09
fb
03
f7
02
f9
02
f4
00
03
02
04
09
f8
03
fa
fe
04
f8
fc
f7
ff
f7
fc
f8
00
f3
0a
fb
0c
f1
fb
01
09
16
05
0d
03
02
00
0c
03
fa
0c
03
f0
fd
fa
01
0f
f9
f7
00
fe
fc
ff
f4
17
03
ff
15
01
0c
ff
ff
fe
01
02
04
05
04
05
08
fb
f2
04
00
f2
fe
04
f5
ff
07
f9
00
05
f3
01
f8
05
fa
09
03
02
fc
fc
08
00
fb
f9
ec
01
07
ff
0a
fb
fc
0b
07
0b
0d
0a
0c
fe
00
08
06
f7
ff
09
09
05
fa
0d
fc
00
f9
0d
07
fa
05
fe
0a
06
fd
02
fb
0b
fe
f7
12
fa
ff
f3
f7
09
02
f9
ff
fc
fe
04
05
03
01
00
00
f3
f6
fc
08
08
fa
f5
0c
05
05
fb
01
ff
fc
07
02
0c
06
06
fc
0b
0d
f0
04
02
18
05
fa
01
0c
fe
11
04
0a
f8
09
f9
0b
fc
f8
e8
05
fb
01
f9
03
00
f8
06
f8
12
07
01
fe
f8
f8
10
02
fa
fe
f3
00
f5
fb
fd
fe
fe
03
f8
03
f9
f4
18
00
fa
04
f4
fd
eb
f9
00
fc
f2
fe
09
07
04
04
15
f9
fc
f8
08
09
00
12
f3
fe
0c
00
0c
f8
f7
f9
03
f7
13
0c
09
fd
f1
f6
08
06
1b
f1
08
f6
07
00
fd
01
fc
00
fb
02
f2
0d
05
0e
fd
0a
0a
f3
03
08
fa
fe
02
03
00
ff
fe
fb
05
f5
ff
06
02
ff
fa
0f
03
10
f1
01
06
fe
09
fa
04
03
09
f7
f6
fa
02
05
0a
f7
00
08
f8
03
fc
09
ee
01
fe
03
f8
f3
05
f9
f6
fc
f5
f6
01
00
04
ee
f9
08
f7
05
fa
05
f7
0b
f6
03
06
fb
0b
fd
01
05
eb
07
fe
06
00
fd
f7
fc
04
0b
04
fe
02
f7
f6
05
07
05
07
0c
ff
fe
f5
06
02
f7
09
05
0f
03
fe
f2
00
fb
00
0d
fe
0b
ed
02
f8
04
f9
fe
05
fa
02
f6
04
fd
16
06
ff
0b
fa
03
f8
f7
f5
05
fc
0d
fd
05
03
fd
01
fd
f2
ff
02
f9
0b
04
05
05
fe
09
01
00
00
0a
ef
ff
03
fd
fc
fc
07
03
fd
fb
07
f6
13
01
f8
f3
f7
0c
01
ef
04
05
ff
f5
06
0c
f3
fe
06
fc
06
00
03
fb
f2
0e
02
fb
02
00
13
04
f6
03
fe
03
f4
12
16
02
fd
ff
10
fd
04
12
f9
0c
f5
f8
fe
fd
05
00
08
fc
fc
f7
04
08
01
01
f7
0b
01
f9
04
fa
09
0a
0d
0b
01
05
08
05
0d
fa
03
f1
0d
ff
13
fe
09
fb
09
fa
0b
00
06
fa
03
02
0b
ff
fe
ed
f9
f3
fc
f7
fd
ff
f9
0a
fe
0b
00
05
02
f5
01
02
04
f9
01
fc
fd
01
10
fc
04
f7
fc
f5
07
0b
00
02
0a
07
08
f8
f9
ff
07
fd
f1
fd
03
09
03
06
08
04
fc
03
00
fb
06
01
01
02
03
fe
fa
fc
e9
06
ff
04
03
f7
fb
00
f7
fa
fd
ff
f5
fe
11
f3
09
09
0f
07
fd
07
02
02
f7
fa
fa
15
fd
fa
f4
0d
f8
00
01
05
09
00
07
0d
02
f5
08
05
fa
05
03
04
fa
fb
fd
fe
f5
fb
03
06
00
fc
fa
0d
08
f8
0d
fc
0d
09
01
0d
06
f4
f8
04
fe
05
08
04
f3
fd
00
f5
09
fb
f2
03
04
f7
f6
00
02
eb
f8
f9
0f
fc
fd
03
03
fe
05
02
03
04
01
0d
ef
f6
fd
f2
12
f4
0d
fd
f0
fb
fe
02
fd
0a
0b
f5
08
f4
0b
16
08
00
fa
0a
09
ff
0a
01
06
15
07
f0
f7
05
f8
fa
f6
07
03
04
fa
01
fa
12
ff
0f
0e
07
fe
07
05
fd
04
f6
f9
0e
07
07
05
03
fd
02
07
f4
01
05
fc
ed
0a
07
00
eb
f8
03
fa
0f
02
01
05
06
f6
fe
fc
f7
08
fe
00
fe
07
f7
09
f4
fe
ff
fe
fc
0e
03
f6
05
0d
f3
f5
fc
fd
04
fd
0a
ff
11
f8
01
05
fc
04
fc
f9
03
0e
08
fc
f9
fd
fe
06
fc
05
0e
01
fd
08
fd
fa
02
04
fe
06
fe
08
fd
03
05
f4
fa
fa
0f
05
f2
fc
00
02
04
ff
fd
08
06
0e
f9
0a
f7
fa
03
ff
00
04
ff
fb
07
00
ff
fd
f4
05
08
fc
07
01
06
09
fb
09
0d
01
f7
01
02
f2
00
fd
ef
ff
0d
f9
fa
05
04
f8
04
07
ff
ff
fe
00
05
03
fe
0e
08
fe
f6
fb
0e
06
ff
03
f9
05
ff
05
06
fb
fb
ff
ff
fc
02
fc
01
f6
05
fa
11
00
07
01
fa
fe
fe
f8
ff
08
ff
ff
01
f9
00
f6
fa
07
f9
09
0c
f7
fe
fa
0a
fc
01
f5
03
f3
06
fb
07
f8
08
fb
03
fc
fc
00
fd
f9
f6
00
02
fe
fd
08
05
ff
09
f5
fe
00
f4
06
13
0b
02
f1
fa
f9
08
ff
00
03
06
05
fc
fe
fa
03
03
fc
f9
fa
f9
f7
fb
fa
f7
06
02
f9
05
f7
04
09
0b
08
0a
06
0b
f9
fb
04
fc
03
08
fe
fe
03
07
ff
07
02
05
f4
06
fc
fb
fd
f9
02
08
08
05
f9
0d
06
f8
fa
f8
04
0b
02
02
0f
01
ff
fb
03
f7
08
08
00
fc
f7
f4
fe
fe
fd
fa
0e
fb
04
07
05
05
06
06
f2
fd
fd
07
06
f6
07
03
f5
03
fd
06
00
07
00
03
fe
01
f8
01
09
02
fd
ff
f8
f9
02
fa
0f
03
fc
03
06
f6
0f
fd
01
0d
f7
fc
01
02
fc
07
01
fc
fa
f9
fa
fa
02
06
fc
06
0a
fe
07
fd
f3
fe
03
f8
ff
09
04
01
fd
02
ff
03
08
fa
04
08
0a
02
06
02
05
05
f7
07
fb
08
05
fb
ff
03
f8
07
02
04
04
00
01
f6
f8
f4
fa
f7
ff
04
f8
07
01
03
fd
01
02
fe
02
02
f6
fc
00
04
0d
f2
05
09
09
02
01
fb
00
01
fc
01
02
f8
0c
00
0a
03
f8
0f
fa
fc
fc
ff
fe
fb
fa
f7
f6
f7
00
f9
0f
11
f6
f3
ff
02
00
03
08
f5
fc
02
05
fe
07
00
06
f9
03
fb
05
f1
fb
07
00
03
fe
ff
01
05
02
fd
fd
02
05
fa
02
08
07
05
04
07
0c
fb
02
02
fc
ff
07
f2
f9
03
f8
06
0c
02
02
01
fc
f5
09
04
ff
fe
0b
fd
04
fb
f7
06
06
f4
f9
07
0c
03
00
fd
f7
01
00
0a
00
fc
ff
04
0d
fc
04
fa
01
01
fb
08
f9
ee
09
02
01
fb
01
05
15
fc
fa
fc
06
fb
06
f9
00
fd
01
ff
f9
f4
ff
09
02
fe
02
03
ff
fe
08
03
02
00
0b
f8
11
09
f9
fa
fe
f8
00
fa
f3
f9
f1
09
07
0a
fb
fe
09
08
f5
fe
02
ff
07
06
04
fa
05
f5
00
04
0a
01
07
ff
fe
03
05
fb
ff
ff
fe
07
f9
f9
0a
01
0b
0a
f7
06
02
05
01
fa
06
02
02
fc
0c
fe
f9
08
f1
08
fc
fb
06
f2
0b
03
f7
03
f9
f9
11
ff
fc
fc
fe
ff
04
01
04
f8
00
fb
03
03
04
03
08
ff
f9
fa
03
04
10
00
03
fc
fb
ff
f9
02
03
01
02
f7
f9
0c
fd
f6
f3
08
06
fe
01
04
0d
06
f6
02
fa
fd
05
04
06
fd
fb
02
0a
0b
10
04
fa
f3
f5
f8
fc
02
0d
fd
0c
06
03
f9
fd
f9
05
f8
08
01
03
02
06
fa
fc
02
05
02
08
04
0f
03
fb
04
ff
02
0f
0a
00
00
05
03
04
02
0c
02
04
00
f1
01
09
f6
07
fc
fd
fa
f8
f9
01
fa
fc
08
00
02
f9
fc
f4
ff
ff
0a
f8
04
f6
00
f6
03
f6
01
05
fc
fe
00
01
00
09
fb
00
08
f9
0f
fd
fe
04
fe
f2
f3
fb
fa
00
02
f2
ff
0b
fe
ff
03
ff
08
04
01
02
f3
03
fe
07
07
ff
fe
10
01
fc
0c
fa
ff
02
06
07
07
04
02
f6
08
0c
0c
01
03
04
02
fc
05
fe
02
fc
03
f7
00
00
0f
02
08
f8
06
f9
13
00
09
10
f2
02
01
06
0a
05
00
00
06
04
07
f5
00
f5
09
0c
fe
ff
f6
fd
0c
f2
fb
ff
fc
f5
f8
fc
0e
f4
05
f7
f9
f6
fc
02
0b
fa
02
fd
f9
08
ff
08
07
f5
0c
03
07
fb
04
fd
f7
fd
ff
fd
01
02
04
00
03
00
fd
06
02
f8
fc
00
fc
fc
ff
fe
04
f8
04
0b
05
f0
fe
03
01
00
08
fe
0b
fa
01
09
01
0b
fd
fc
fb
03
fe
f3
05
fc
11
05
f5
01
f9
02
f4
f7
fe
ff
f5
fb
04
f1
ff
fb
f4
fd
02
fa
02
06
02
01
04
0a
05
f0
00
08
0d
fb
13
07
f8
09
fb
01
ff
f7
fe
0f
04
f8
f4
f5
fd
f9
fe
01
09
07
01
fd
02
fe
ff
f6
07
fe
fb
02
00
07
07
f5
03
f7
07
07
02
fc
fa
08
fe
08
fc
00
05
f5
f4
fd
04
06
04
02
f8
01
fa
01
07
fb
f6
03
04
ff
fe
03
fc
09
09
00
0c
fc
fa
f5
04
fb
02
01
0b
f8
fc
01
ff
03
09
f3
12
f8
fc
04
fd
fd
fd
03
05
fa
07
fd
fd
01
fd
04
03
00
05
05
11
06
f6
00
ff
02
0e
09
ff
07
f2
09
00
08
fd
06
fb
01
02
f2
fd
f1
02
fc
f9
01
02
ff
12
03
01
01
fe
fc
f2
01
f6
fe
f6
ff
fa
f9
f7
0c
08
f4
ff
f5
02
0c
fa
fe
0c
03
0c
06
fb
fb
00
04
f9
03
0c
01
f4
ff
06
02
fc
fd
ff
04
f3
02
fe
fd
01
05
00
fc
ff
09
00
04
03
01
f6
ff
f9
02
fb
0c
04
f8
04
fc
09
f9
fe
f3
05
f7
11
fa
ff
0a
ff
01
0c
02
04
fe
08
ff
00
07
fa
09
03
fd
0c
0b
ff
0e
ff
fe
07
fe
f3
04
07
07
01
01
0b
0b
09
02
06
04
05
fc
fa
01
f9
fe
0c
0e
06
fa
fa
f8
04
02
07
f3
05
fb
00
fc
f7
02
fb
fe
03
fc
04
fc
fd
f5
fd
ee
ff
fe
f6
fc
01
05
06
f7
ff
fd
f6
06
f4
fc
00
01
02
fc
0f
08
f9
fe
0b
f3
fe
ff
fe
03
f9
ee
fd
fb
ff
fa
06
08
01
fc
fd
04
f6
fe
00
03
fc
fb
05
03
fb
0b
f6
f6
05
05
05
08
0e
01
01
00
05
06
f4
f4
0d
0a
08
f6
f4
07
05
06
03
0d
fa
f8
04
03
fe
fa
ff
06
fa
06
07
ef
07
fb
07
0d
fb
f4
01
0a
ff
03
07
03
01
00
fe
05
08
02
01
04
f8
fc
f9
03
f9
f7
f7
ff
03
f8
f8
fd
0c
05
01
09
f9
06
fe
f9
01
f7
04
fd
07
fd
0a
f9
07
06
f5
09
f6
f8
06
fb
f9
01
01
fb
f4
f7
00
04
fb
00
f9
01
00
00
02
05
fd
02
00
fd
0c
05
0e
06
05
fa
fe
07
f8
02
07
fb
0a
0a
fa
fd
04
08
fd
fd
01
01
18
05
05
10
fd
05
f0
0f
fe
fd
08
fe
fe
fa
fe
05
f4
f6
01
07
02
05
fb
f8
00
0d
f7
01
04
fb
f8
fa
ff
fb
f5
fc
01
00
05
06
f8
fd
05
05
f6
ff
0b
05
07
01
f8
04
ff
f6
f8
0a
06
06
07
fd
f2
ff
fc
f7
f7
fd
03
ff
08
05
fb
fd
08
ff
04
fa
f3
06
f2
02
00
01
fd
fa
ff
fe
04
f7
f1
02
fd
fe
06
ff
0b
ff
00
02
06
05
00
f6
00
00
06
0d
07
09
fd
0a
09
ff
fc
f4
f6
05
ff
ff
fa
02
ff
f8
02
05
fb
05
0b
04
02
05
fd
f7
08
ff
f6
f8
0b
fc
0a
fa
f6
01
09
f8
02
05
08
04
fb
fe
04
f5
f4
fd
fd
02
f9
0b
08
02
04
08
05
fe
fa
03
f4
f6
07
07
f4
fe
fc
fa
f7
07
00
04
04
06
fc
01
fb
ff
fa
02
0b
02
f6
06
f3
fe
fe
f5
fa
fe
f9
00
f9
05
00
fe
f0
01
fa
11
07
fd
0d
fb
f8
f8
06
05
f6
f3
fb
ff
0c
00
f4
0d
0e
05
ff
fe
02
08
f6
04
02
04
08
ff
fb
03
ff
fb
02
01
02
00
02
03
ff
03
fd
04
0b
f9
00
f2
01
03
05
fa
04
00
0f
0a
06
f5
fe
ff
0b
f1
fa
f4
ea
05
01
f0
fd
fb
07
05
ff
04
f8
07
fe
06
f8
fe
01
f6
0f
08
ff
09
f2
04
fd
01
fb
03
fc
f5
03
f9
f4
01
fc
f6
fa
04
f5
ff
fa
fb
02
fd
fe
08
08
fb
00
fe
f6
04
f9
05
08
05
fa
06
04
04
03
fb
ff
fc
0a
f1
05
0f
f9
00
0b
0c
f9
fb
0d
f5
00
fc
03
fd
f2
08
fa
01
01
f3
05
f2
fc
f7
01
01
08
ff
0c
0b
06
f9
08
0e
05
09
08
08
01
01
01
f9
fc
ff
01
fd
02
fa
0a
03
fc
f5
fc
f8
09
03
06
0d
fe
03
fe
00
03
fc
00
0a
fd
00
0d
02
01
fe
fc
fc
02
ff
f5
02
08
07
fa
f8
06
fd
00
05
06
08
04
00
04
07
01
05
fe
f9
fc
fd
05
f6
fc
07
fa
05
06
f5
0e
ef
f0
f9
0d
fa
f6
0d
fb
00
01
08
02
f6
0a
f9
fb
01
00
fe
fe
03
f2
0b
f3
fe
f9
fe
ef
04
09
f4
07
f7
fc
02
0a
06
02
03
f4
ed
0a
0b
07
f7
08
f7
f8
fe
fa
09
0b
ff
f8
01
f8
04
03
f3
00
08
fd
06
fa
02
f6
05
ff
07
f8
fa
ed
f2
01
fb
03
06
08
fa
fe
f8
ee
fa
f3
00
f1
02
0a
0f
f8
00
01
ec
f4
0e
f9
01
04
fa
f8
06
fb
fb
02
f6
fd
fa
0b
04
08
fb
08
00
05
0a
0a
02
05
08
fd
12
fc
f8
f0
f8
fa
02
fd
ff
06
fb
08
06
05
fc
fb
f6
fe
08
04
fc
fe
12
fa
04
f8
03
fb
03
ff
01
0c
04
fe
fc
ff
0e
0a
00
00
08
04
fe
08
fb
fc
ff
ff
0a
f9
02
07
04
02
03
fc
02
f5
04
0b
fe
02
05
fe
06
fc
04
00
04
f7
02
02
f6
06
fd
00
fa
f6
02
f9
05
02
0d
fb
fe
f8
f8
fb
01
08
12
fb
0c
fe
f9
f7
12
01
03
ff
ff
fe
00
01
f3
0d
02
ee
0a
fe
ff
f6
ff
f1
fd
f3
fe
0d
ff
f9
f6
fe
05
fb
08
e8
05
00
02
ec
fd
f1
f0
f1
05
ff
0d
0e
01
06
00
f5
fc
02
fc
f6
f9
12
0b
01
f5
0d
0a
fb
fa
0d
f7
ff
04
02
fa
f4
fa
03
0a
fe
06
0b
03
00
00
f8
f9
0c
f3
00
04
fe
03
06
05
fa
fe
05
09
f6
00
0e
fb
05
f8
ff
fe
06
01
ff
fe
02
ed
fe
ee
03
f3
ff
f5
f7
0d
08
fa
0d
fe
fe
05
05
f7
02
09
ff
fc
fb
00
f6
03
f3
01
f4
02
04
08
fa
fa
ff
01
fc
02
f9
10
01
00
ee
f9
fc
ff
f8
fb
f5
fd
ff
07
f1
02
04
fb
01
03
01
f5
08
02
fa
00
f0
09
0a
f9
fd
fa
f7
fe
03
09
11
0c
02
fa
ea
07
f6
07
fc
fa
ff
ff
f9
06
ec
09
07
0e
05
fd
f4
08
02
fa
f7
04
f7
fd
fd
fd
fb
01
fe
fe
fb
0c
0a
03
fd
01
01
fd
04
fa
02
01
02
fe
02
fb
ee
01
fd
f4
f9
05
fa
07
0c
0b
f7
02
f7
09
f0
f7
01
04
f3
fb
03
06
fe
02
fe
fa
fe
01
fc
f5
f2
f6
ff
01
09
f8
ff
f7
fc
fb
ee
f3
09
04
01
f3
06
07
f9
0a
0a
ef
05
01
f1
f5
fe
f7
f7
f6
05
0b
f6
14
00
00
04
ff
06
fd
02
f4
f9
00
00
fc
00
03
f8
ff
06
06
f0
ff
08
f7
f3
03
09
03
ff
0a
0d
fe
04
00
01
01
04
12
fb
04
ff
ff
02
10
f1
04
fa
07
fa
fd
0c
fc
16
f7
ed
0c
fd
0d
fb
06
f7
08
fb
f8
0b
f3
fc
fd
f2
f8
07
07
f1
fd
fc
0c
0c
08
f1
f9
f7
06
01
04
08
f6
f4
08
01
ff
09
00
00
f5
04
07
06
fe
0a
04
0b
07
08
f3
f9
f3
f3
ff
fd
0d
11
0c
fc
08
ff
fe
11
13
fe
f7
00
00
ff
05
f4
fd
09
04
fb
0b
02
03
0a
09
11
02
08
03
fb
03
fc
09
f8
17
04
fe
f7
02
f3
02
00
ff
04
fa
f1
06
04
f0
fc
08
01
ef
06
0c
08
00
00
fc
00
08
fa
04
f3
f9
05
fa
f1
01
fa
0c
f3
ee
f9
fb
fb
f7
0c
03
01
f8
fd
fe
fb
e9
04
03
fe
05
04
fc
06
0c
fc
fc
f6
04
ee
f9
fe
fc
fc
06
06
fb
fa
0d
00
04
05
fe
0b
08
f1
01
f9
0f
03
f6
fd
02
02
fa
fd
f8
ff
f9
03
fa
fe
02
e9
03
ff
fc
fd
08
07
ef
08
04
0a
01
f6
fa
f8
fb
fd
02
00
ec
01
f8
f1
f2
fb
05
05
00
06
fb
06
fe
04
08
02
f5
04
f3
f6
03
fe
04
00
02
01
03
fb
ff
f8
12
f5
09
08
fc
ff
fe
04
0b
ef
fa
fe
11
f9
0b
09
10
01
05
01
f0
09
05
08
03
03
f5
0f
05
08
0f
fe
04
fb
fb
00
06
fe
f8
0f
fa
f8
fa
fb
05
01
f3
08
fb
ff
fd
f8
ff
fc
fd
0d
03
05
ff
09
02
fc
03
05
fe
0f
07
02
f4
fd
f6
fa
00
02
ff
fd
03
0a
fd
03
03
fb
0b
05
fa
fc
fd
f6
0a
0a
fd
03
03
fe
00
09
05
0d
f4
07
01
ff
04
09
03
08
ff
fe
00
f8
0a
fe
fd
f7
fb
07
fb
ff
f7
f3
ec
01
fd
06
00
05
fb
f7
09
fb
f8
0d
f9
03
0e
01
0e
fa
13
f7
fe
0d
02
06
04
08
07
07
05
07
fc
fa
02
fd
f2
0e
fc
02
fb
fc
0a
00
fc
05
ff
07
f9
f6
0a
02
01
04
03
10
fd
ff
00
0d
fb
f5
fc
fd
12
fd
fb
0a
07
0e
07
18
09
0a
02
fb
ff
02
fd
ee
0c
fb
00
04
00
0a
03
0b
07
fd
08
07
fc
01
0e
02
ff
f5
03
f9
f7
01
01
fc
ee
ff
00
fe
f0
03
01
ff
05
f9
fb
fb
f7
00
fc
02
09
07
0f
f1
00
0c
02
0c
09
f1
03
01
04
00
f9
0c
fa
07
f2
0b
ff
02
04
00
05
ff
fe
fb
0e
fa
f3
f9
0d
05
06
fb
f8
03
08
07
fe
fa
fb
01
fd
04
0e
06
f7
07
f3
04
fc
04
06
07
f9
02
00
f0
0d
ee
ff
00
fb
08
fe
03
f6
02
06
fb
08
fb
01
f1
03
07
f6
01
fb
09
ff
08
09
0f
ff
05
00
fb
14
07
ff
ff
01
f1
da
f3
04
f3
0f
ff
f9
fd
f5
f9
06
05
03
0d
fb
07
f6
fb
fb
0e
10
fd
f5
01
00
f0
01
fa
00
0b
f9
fe
03
fe
fa
fa
07
f3
08
f1
fa
0a
fa
fe
0c
07
04
ff
13
00
fe
0a
f6
08
ed
0d
05
f9
00
00
fa
f1
fc
05
f3
06
03
03
02
0e
0e
fd
08
fb
06
f7
0e
ee
ef
00
0e
f4
00
fc
03
f3
fd
f6
fc
f5
05
ed
04
fa
f4
f9
04
05
10
06
f1
fd
ff
f1
fa
11
08
fc
f6
ff
fa
ff
0e
03
00
f8
e7
f8
03
f8
0c
fc
f2
09
f8
07
f8
04
fc
01
f4
fa
0c
07
10
02
06
f6
fb
f1
0c
fc
06
05
fd
fe
fd
0a
00
11
fa
f4
07
0f
ff
ff
eb
fc
00
03
f9
ff
fa
ff
00
f7
f8
03
f3
fe
11
f8
f3
fc
f7
f8
0d
07
00
00
16
01
f7
12
fa
03
0a
06
fe
08
0f
01
05
f9
ff
f8
02
f8
ff
f7
ee
f1
0c
05
09
03
00
07
f7
fe
07
f6
f7
fb
fa
fa
10
04
15
f2
f6
f7
fd
fd
0a
01
fb
fa
00
0d
01
08
fd
11
01
f8
00
13
ff
fb
03
01
f7
04
eb
07
fd
f7
fe
f6
01
01
02
03
07
14
05
f5
03
07
03
03
0a
f8
03
fb
fd
02
01
f5
fd
f1
f9
ed
0b
00
00
fe
fc
02
10
f2
03
0f
f8
f5
0c
06
f9
f7
08
13
f6
00
f8
04
fa
01
fe
ff
02
09
f1
09
0d
09
08
03
04
00
03
04
0d
fb
f6
05
fe
1b
06
f6
05
05
06
f9
fe
f9
0c
ff
f8
04
01
ff
0a
ff
05
fd
09
fb
02
04
fb
02
e9
07
08
f8
00
fd
14
f8
f8
12
09
04
fe
f8
0a
fc
01
fd
f6
fb
f4
ff
0d
10
0a
09
f5
fd
06
fe
01
ff
05
05
f5
04
02
fd
f4
f4
fb
08
fe
ff
f2
fb
fa
fe
ef
04
02
fb
01
07
0e
f3
ff
fe
f8
0b
fb
f8
f6
05
09
04
fa
f6
0b
fe
10
0b
07
0c
05
07
fd
fb
f6
fc
09
f7
f6
f6
fe
f8
f8
02
0a
08
fa
07
ff
03
fb
05
fe
ff
01
ea
fe
f5
fd
0b
09
0e
0e
f8
06
03
f1
03
01
f8
00
07
06
09
07
f8
04
fa
fe
03
fe
f9
f0
00
fc
03
01
ec
fa
04
fc
0a
08
02
00
0d
ff
01
fd
01
00
08
07
fe
06
07
08
0b
f7
09
fe
f9
f9
fd
0a
f2
ec
fd
fd
11
0c
0c
1a
04
ff
0c
07
07
f6
f4
08
ff
16
fe
05
01
0d
01
fc
0a
ff
0c
04
f5
07
fc
02
fe
00
f8
05
05
02
05
fb
fc
08
07
07
02
06
05
fd
01
fc
fd
ed
fd
0e
fc
08
f4
02
08
0e
06
07
f5
ff
02
08
fa
0e
00
fe
0a
00
f9
0b
f3
f5
fd
fd
06
11
01
fd
04
0c
06
08
06
f6
f7
fb
05
0a
00
e3
00
fd
0c
03
fe
04
00
08
fb
12
f4
04
0f
e8
fd
08
01
ff
f8
0b
fa
f6
14
fe
0d
fb
05
f9
06
fa
03
fc
fd
f5
00
02
03
f4
03
13
f8
03
f5
f8
04
06
f6
fb
01
00
07
0c
fa
0c
13
f9
08
fc
01
f7
fa
14
f2
fc
06
00
15
fb
eb
fd
fc
10
01
01
ff
f1
fe
06
11
00
fe
05
10
f9
fd
f7
f1
05
09
07
03
06
03
fc
fc
0a
06
ec
f9
fd
10
02
f7
ff
01
fb
f1
fa
04
0d
ec
0a
fc
01
fb
0e
00
13
05
fa
01
03
16
fa
f2
00
04
06
00
1c
09
0f
fc
07
0c
00
00
fb
0b
0a
f4
08
0b
f9
02
08
f0
03
fd
0b
08
fc
01
07
fc
f8
0b
07
00
0d
04
0c
f5
fd
04
fc
00
08
f0
08
f9
03
fa
09
f7
0a
09
01
02
f2
08
fd
f9
05
f9
03
09
02
f8
f9
05
07
1e
f1
07
f4
f3
09
0a
0c
05
0c
0b
02
ee
01
0a
ff
11
f4
17
fc
02
fc
fe
fa
fe
07
f9
08
15
f4
fc
f9
fa
18
05
ff
f0
01
09
02
01
f5
f8
f2
fd
09
12
fa
0a
ec
03
08
fc
07
0f
fa
15
f2
0b
fd
f2
01
fa
e8
0d
07
f7
08
0a
fb
fc
00
07
ff
f5
02
fe
fe
1a
0b
03
0e
03
f9
02
05
00
05
1c
ff
12
f4
05
0c
ff
ee
fe
0d
07
fe
f7
f5
f6
0b
09
0f
f3
fc
fe
13
1b
11
f8
ff
f5
0a
fc
0d
fa
05
fb
fc
f1
01
fb
0a
f5
f2
05
00
06
f2
ef
ed
00
04
fb
10
00
f9
ee
f1
02
fe
01
0a
05
05
f6
f7
08
05
03
00
04
f7
f8
03
06
fc
fe
fd
16
ff
02
0a
00
fc
09
fa
02
01
03
f9
0f
08
07
07
f5
f8
00
02
f9
10
0b
fc
15
05
f2
f7
e9
0c
08
03
f5
fd
12
ea
04
01
f8
05
f7
0f
ff
05
00
fa
0c
0e
fe
f6
09
01
00
f1
04
07
f6
11
03
06
f7
03
fb
f2
fc
10
f9
07
08
02
06
03
ef
fa
06
0e
eb
03
09
f2
ff
00
03
f3
07
06
16
06
01
fd
0e
01
ed
09
08
f6
0e
07
00
09
01
08
fd
fe
02
fd
0c
f5
05
f9
ef
05
06
f7
01
f4
06
ef
f9
08
02
0a
f9
0d
0c
fb
07
0d
ff
03
06
fd
11
1b
f6
fe
09
f7
f9
09
0f
f0
fc
0b
0f
00
01
f2
fb
01
06
f4
08
0b
06
01
f5
05
08
ee
06
fb
02
fc
01
0d
ed
f3
1d
00
12
ff
11
f5
05
ff
f7
08
eb
00
ea
fd
f2
f3
f6
01
0d
fc
0a
f4
fb
00
fd
fb
09
09
01
f9
19
07
01
01
07
07
f7
02
08
0a
ff
fe
f6
f2
f4
0e
02
12
0b
08
fd
fc
19
0a
10
fb
f7
03
0a
f0
de
fb
0a
fd
fb
0a
fc
0a
0c
11
f4
ff
04
f6
0b
f9
fd
f8
03
e8
00
f6
03
fb
f6
f0
04
fa
0c
fd
f7
f7
0c
fd
ff
0a
f9
09
09
fc
27
ff
01
04
f5
f3
f9
03
f9
fc
02
0b
f1
fd
0c
08
04
fa
ec
fa
f7
0b
ff
e6
07
f4
01
ed
04
f8
fa
f8
05
f9
f9
ea
0a
eb
fc
e9
f6
09
06
fc
02
02
0e
ff
f0
00
0b
02
09
f4
19
0e
0a
0e
fd
fe
0a
f8
0e
f1
0c
f9
f5
02
f5
0b
f6
0a
f1
06
f0
08
06
0c
e8
03
f5
ef
02
f0
04
f2
d7
fe
04
ee
fa
eb
e8
f9
01
fc
00
19
0e
fb
fb
f0
f8
02
0c
02
01
fb
ff
f7
f6
f2
f7
ef
0f
02
fd
08
f9
e7
ff
f4
01
f7
02
fe
0d
ff
09
07
ff
f5
f2
02
f2
fb
fc
01
0a
f0
04
f5
03
0a
e4
11
fc
fe
fb
05
04
08
05
14
f7
06
00
f7
0c
f4
f5
fb
06
14
fe
ea
03
f5
f7
12
01
0a
13
09
0c
07
fe
f0
01
06
0a
ef
fa
f8
0b
02
0b
f3
09
1f
03
00
f6
f6
04
05
ef
e7
00
fd
07
07
f9
1e
04
08
03
f1
f6
f7
fa
fa
03
13
0b
02
f6
f8
05
e4
f3
ff
fe
05
03
01
f5
02
0b
e4
02
02
f6
f9
1a
fd
02
0d
09
fb
fe
fd
0d
01
f3
0e
0f
06
ef
ff
16
02
01
fe
0d
07
f4
0f
f8
f9
fa
fe
02
10
fb
fc
ee
02
07
0a
fa
ef
05
00
00
01
0e
f5
03
fe
02
0b
0c
05
ff
f8
fc
fa
f9
14
01
f0
09
f8
00
0d
f5
f5
05
03
06
fe
f1
fa
fe
f4
fc
ff
00
fa
ff
12
0d
19
08
f4
fa
fa
03
06
00
fe
fa
f6
fa
f3
fc
ff
0b
14
f4
f0
f9
eb
f4
f7
f7
fd
09
03
f7
ef
10
03
f6
04
02
03
07
02
16
06
f2
04
0c
fb
ff
f3
0b
f7
14
0e
0d
fe
f1
06
07
04
f6
0c
19
04
f5
fa
ec
e8
f8
07
09
0d
f5
07
fd
00
09
09
07
f5
08
11
04
fd
09
f4
f1
08
0a
0e
fe
fe
ff
04
ff
08
08
fd
08
f7
f9
fb
f7
fe
06
ff
f5
f0
f6
07
05
0d
06
fc
f4
02
f6
f1
fd
00
fb
01
fe
09
08
00
fd
01
15
10
f0
f1
08
f5
fe
05
f3
13
0a
08
06
f1
01
0a
fd
0e
fe
06
f7
fc
ec
f6
fb
f5
0b
06
f6
09
12
08
09
09
11
f7
10
fa
06
fa
04
07
03
f6
07
fa
fe
f7
f5
04
06
09
fd
0b
02
0b
ed
1c
05
f5
f6
00
f3
0c
06
08
fe
02
f2
03
fc
ff
00
00
03
05
03
05
fe
fb
19
ea
f8
fe
fe
fe
14
fd
f7
07
ff
fd
ff
07
00
fd
18
fc
f6
06
f8
eb
0b
01
0f
04
0d
0a
03
0c
08
f7
0d
ff
f5
f8
08
0d
02
fd
06
05
06
02
fe
0f
0c
f9
11
04
f8
f4
f9
fe
0b
0a
fc
f7
fc
04
03
fe
07
f8
ef
fb
06
07
00
00
00
0f
02
f3
fc
fc
01
ff
0a
07
11
f8
0b
f7
ff
01
f3
f1
0f
f9
ff
0d
f6
01
04
02
11
09
09
fe
0e
fa
fa
06
06
06
09
12
fe
f7
fd
fc
fc
fd
f6
08
f6
04
03
ee
04
05
fe
fd
fd
f9
fd
00
0c
fb
f6
01
fe
0e
0a
fc
02
07
f2
ee
1c
0b
04
fe
fd
01
0e
07
08
0c
fa
01
04
f2
fe
08
f4
fd
f9
00
10
f1
f4
f9
0e
0c
f8
f7
fb
05
01
00
03
02
f4
11
15
fd
fd
06
f8
ef
f3
ff
05
05
02
00
ff
f7
13
0c
f7
fe
f8
00
04
08
12
03
f2
06
fe
fc
00
05
01
07
09
fc
f7
0d
fc
f2
0b
f7
06
f8
05
fb
fb
fe
06
ee
03
fd
f4
f9
02
fc
f5
13
fb
fb
0a
f2
eb
00
08
14
01
fe
07
fd
0b
00
fe
fa
08
fc
09
fe
03
fb
f7
ff
f3
0d
fe
05
ff
f6
0e
00
07
08
0a
ff
fd
07
ef
07
0f
fe
02
04
02
04
fb
04
f5
0a
04
f8
fd
11
f5
fe
03
fb
04
f6
01
f9
02
01
f8
01
fd
fa
ea
f8
fe
01
07
03
fe
fd
01
08
fb
f0
05
0d
ef
07
fb
f5
ff
fe
0e
05
12
04
f7
f9
fe
05
fb
f1
07
07
fe
f6
08
01
ff
ec
f8
eb
03
01
09
0e
09
fc
ff
f5
0f
f5
ff
09
ff
fa
06
f3
0a
f2
fe
fd
06
f3
05
fa
f7
ff
fc
04
04
03
01
ff
02
fa
f3
01
e8
fc
02
f9
f1
00
16
fc
f5
f7
08
06
07
eb
04
06
07
13
08
03
f5
fc
fd
f4
07
05
02
01
08
01
f6
ef
ff
f1
f5
05
fb
0e
06
fc
ff
ff
fb
f8
f7
0d
00
fb
05
f4
12
00
04
00
00
02
05
f5
fe
00
0b
f5
04
f9
00
00
0b
fe
ff
10
02
02
f3
fc
0a
03
08
fc
0f
09
ff
09
fd
fc
f1
05
f6
02
02
08
00
f1
ff
fe
ed
00
00
f4
07
02
fc
08
ee
f1
0f
04
07
ff
03
06
08
fa
08
f2
f6
01
0d
02
ff
11
0d
f5
f6
03
fe
fa
eb
0b
07
0d
f9
f1
03
f8
f6
f8
0d
04
10
fd
f2
08
04
fc
13
fb
00
f8
03
fd
07
f8
12
0c
ff
fa
fe
ef
05
fb
1c
f8
f8
05
f8
fe
fb
fd
0b
05
fa
fd
ee
08
08
f6
04
fa
13
04
fd
0a
eb
fe
09
fa
05
04
03
f9
0b
ee
05
ee
02
05
f1
10
fc
fd
06
f2
02
0c
07
ff
f9
fe
f3
0e
01
09
00
09
0d
08
fd
fe
04
fc
00
09
04
f7
0a
ff
f6
0a
f9
f8
00
0e
f5
03
02
f9
fc
fa
f0
fd
0c
00
02
01
00
f6
f6
0e
00
0d
fc
02
f9
00
fc
07
f2
01
f7
05
05
f8
09
02
00
ee
12
f5
fe
03
05
f8
ff
f7
fd
03
03
fb
03
f4
f6
05
f5
15
f5
0c
0f
f1
09
fc
f7
08
03
06
f6
00
f3
fe
f7
0f
06
f5
ff
0d
0a
0b
01
f7
f7
0b
09
f6
fe
f4
01
ed
01
f8
0c
fc
15
fa
0c
0c
0b
01
09
09
fc
f5
08
fa
0c
fe
f6
0e
f7
07
fa
ef
09
fe
00
00
0d
ff
f5
fc
f7
03
f6
03
fd
1c
f9
08
fb
05
02
fb
01
06
0d
01
01
fa
07
02
01
ff
ee
06
09
10
03
0d
fb
05
f8
03
06
f9
04
0f
fd
00
ef
02
02
00
f8
04
01
fa
02
08
08
06
f6
ff
fe
06
06
0a
0a
ef
ef
0a
f7
f8
fb
ec
f5
04
00
09
f8
04
0b
f8
0b
fa
0b
f8
fd
f4
fd
fb
08
ff
0a
fe
fb
0d
fc
0b
0d
10
03
ee
fc
04
f5
05
fe
f6
08
fd
fb
fd
0c
06
00
fb
0c
fa
f1
1a
f3
08
06
fd
0b
fe
05
00
ff
fe
01
12
06
f9
05
ff
fa
fc
07
06
0e
01
03
f1
07
fb
0b
ff
ee
fc
05
fd
07
f9
f2
ff
0e
fe
fe
f6
01
fa
f4
13
02
fc
0b
0a
f7
02
04
03
03
f5
02
03
06
02
fc
f6
ff
03
ff
01
01
f8
fb
15
04
f7
02
fa
fd
f5
fc
fe
0a
02
03
f7
f9
06
fb
01
f5
f0
00
ea
ff
04
0a
12
11
f1
00
0b
fc
e9
0b
0b
06
f5
fb
fb
02
0a
05
fd
03
f5
fc
01
fa
04
f9
f9
00
07
fc
f6
01
fa
ff
e9
fe
f5
f7
f7
09
0c
0c
04
fc
fa
f3
fb
0b
f7
0b
ff
02
06
f7
00
0e
ff
fd
0d
fd
f1
06
02
04
0a
f8
08
04
f3
fd
f9
01
f1
06
f4
0e
f9
f2
08
f9
0b
0c
ff
04
fa
02
f2
09
17
03
17
01
f7
0a
0a
f8
fe
ec
00
f4
0e
02
f9
06
ff
0e
18
08
f4
15
f0
03
ff
f9
01
e5
f4
05
13
fa
08
07
11
0a
04
04
f2
0d
01
fa
03
02
fd
fd
ff
11
0b
0b
ff
05
0a
fb
02
14
f1
07
f4
ef
f6
ef
00
f9
0c
04
f3
f6
f4
ec
fa
fb
ff
07
0b
0f
ff
07
f6
04
0a
fd
09
10
12
fa
02
09
f7
f5
f4
f9
09
07
f5
02
05
ff
f9
f4
fb
12
fd
0b
f2
03
0a
0b
ea
fa
0b
f5
f8
01
01
05
0a
05
ff
08
00
03
f1
f9
09
f1
fc
ff
fd
e4
fb
0e
ff
02
08
f4
0a
05
10
10
07
f3
f2
ea
f3
f3
f6
f4
fb
fe
21
04
f2
ec
ec
f8
04
e7
06
01
00
ed
fd
f9
02
fc
00
02
f5
17
ff
fd
0e
f4
06
02
ee
e5
02
0b
f3
1e
fb
ed
0f
0f
ff
f9
ed
f5
11
11
05
16
f3
01
f1
fe
ed
00
0b
fd
05
f9
02
f4
fa
fc
f2
05
1a
03
fa
04
f6
eb
05
03
0e
05
fc
fb
01
07
00
f0
f9
05
06
03
04
00
f5
0d
00
e9
f1
f1
fd
01
f3
fe
02
ea
f8
fc
0b
0c
01
f8
10
00
02
05
07
e8
0b
03
f1
08
04
f1
06
f0
0a
00
10
02
fd
f1
f5
fa
fe
f5
0b
0a
04
07
01
f2
f7
fe
fa
02
12
03
0f
ee
f5
e7
f4
12
f9
06
fb
f9
16
08
f4
0a
f9
f6
ff
fd
ff
08
fc
07
0f
fa
05
f6
04
f5
1a
0c
f8
08
f5
ea
f9
ec
fe
f8
03
f7
07
f6
fb
0f
10
f7
ef
fa
fe
00
f1
ff
03
06
ed
07
0d
17
0b
fb
06
fd
fe
02
04
0b
00
02
0a
0a
05
09
f4
09
f8
0e
fc
01
05
0f
f8
fb
f5
0e
f8
ff
00
f7
07
ff
03
fe
07
fe
f6
ee
fd
f7
04
ff
fc
f7
07
08
02
12
08
f8
f4
0e
12
0c
fd
f7
fa
0e
f5
ea
16
fe
15
ee
05
00
fb
12
ff
f2
fb
f9
04
f7
f0
f4
17
08
f8
ef
f4
f4
fd
16
05
00
0d
f6
08
0e
ff
07
fc
fa
0d
f2
05
f3
ff
01
f1
08
13
f4
0b
01
02
fa
09
00
10
0d
07
01
f9
0e
f0
0d
03
00
fe
ff
00
02
0b
fd
0d
18
12
0f
01
14
f2
fa
17
13
ef
07
07
04
21
0b
fb
05
e6
06
eb
fc
0b
08
fc
04
fe
f2
0f
04
07
f9
10
fb
0a
01
10
04
02
f9
08
04
02
fb
0a
fc
e9
fb
01
ff
06
fe
01
f9
01
f3
fd
fc
ff
16
f7
01
f8
17
12
12
11
fd
fb
25
10
f8
09
f4
ef
12
03
00
f9
fe
f5
ec
f7
06
06
fe
fd
13
07
03
ff
1f
f8
10
0d
fe
02
12
f5
fa
fb
05
08
eb
f6
f5
04
03
fd
02
f4
fc
12
13
f7
11
fe
0c
10
fc
04
0b
08
08
f1
f9
07
03
f3
ed
f4
01
fa
f0
09
f0
e6
ff
f8
11
fb
fc
0c
f5
f9
0b
f5
02
0a
ef
f6
0d
de
f4
eb
12
03
fd
f9
12
05
ef
fb
0c
00
f4
0d
07
04
f4
fe
07
fd
01
0a
02
14
08
f5
08
09
11
fb
03
07
01
04
f1
f0
ee
0c
00
f9
1c
fb
ff
01
ef
06
02
0a
fd
0c
f0
02
04
fa
0d
0b
05
fb
f0
03
19
ff
02
07
fe
06
fb
01
f4
fd
ff
01
fa
02
0c
e9
05
fd
00
18
f4
f8
08
ff
09
05
06
09
04
0e
09
05
f1
f0
16
05
1a
fb
0a
e5
0a
06
08
f9
04
02
21
0c
ff
07
12
0b
04
14
0d
00
04
fa
f6
fd
0d
14
fe
04
02
fb
0a
05
00
07
10
fc
ee
fa
07
ff
f6
0e
fe
0e
00
06
09
07
fd
0b
16
0a
ff
fa
01
00
10
03
06
06
10
f9
f8
03
00
f3
01
03
05
07
11
fb
f6
f8
00
07
01
1a
03
f8
02
0f
0a
0a
01
12
f8
02
06
07
07
fe
04
f3
f0
07
fa
e1
06
fb
1a
06
0d
00
f9
fe
02
0a
fe
f3
fa
f9
0c
06
06
ff
0a
0a
0d
f0
0f
0b
f9
08
f4
f5
16
0e
ff
f8
0c
fc
0d
ea
0a
02
f3
04
1c
f0
0d
02
f6
00
0b
ff
05
0b
fb
08
fb
03
02
15
f5
f4
01
03
06
f7
01
02
fe
08
f4
f3
03
f6
05
fe
ff
0b
f6
04
10
f1
eb
fd
08
ff
fe
fb
04
ff
f7
18
04
f7
e8
02
ed
fc
09
0a
f4
f9
fd
ff
f3
fa
fc
ef
09
e4
fa
f1
f5
f5
0a
04
fb
f7
fb
fc
fe
f4
05
fd
fc
f9
0a
02
fa
01
fd
f9
06
07
fc
02
12
00
fc
11
f8
f3
03
fa
02
05
08
f7
01
03
ff
05
09
0c
01
ff
f2
03
fc
13
fe
08
ea
0d
fb
fc
fd
04
f3
05
fb
fd
04
ff
00
00
02
00
09
10
fc
0a
0e
00
fd
fc
0b
05
fb
f4
fc
fe
f9
0e
07
08
f7
ee
f0
ff
fb
ff
0d
ff
07
02
fc
f6
ff
f5
ed
fc
f0
05
05
f9
06
05
09
02
fa
e7
01
f7
0c
fd
15
01
ff
f1
fc
06
f8
fc
f9
00
fe
ff
f9
f3
01
06
fd
05
f9
fb
fa
ff
f3
fc
f9
00
02
f1
f6
04
11
f4
06
02
06
05
02
f5
08
09
08
05
f4
0d
fc
ff
f2
fc
03
04
ff
fe
02
05
f9
fc
08
0f
f8
f4
fa
ff
f5
fe
f8
01
0a
f0
ff
0a
0a
fb
04
f8
01
f2
fb
07
00
fa
01
00
03
fe
0c
03
0c
fe
fd
01
f1
0c
06
f4
06
0b
04
05
ff
fb
f9
f6
f4
0d
fd
f7
00
ff
fb
fc
f8
f4
fb
ea
ff
0a
0b
f6
f3
05
ff
06
05
fd
07
08
0b
0e
13
fe
07
08
03
f8
04
fe
f9
05
fc
f2
fb
ee
0b
e8
04
02
fe
f9
02
02
fe
ff
ee
f7
f9
fb
04
f5
01
f8
00
fd
06
04
f0
f9
f2
08
ff
f8
fe
f3
04
f7
01
01
fe
07
fe
e8
09
0d
0a
0c
f4
ef
00
0f
f4
f8
f2
04
07
03
fd
fd
f6
fa
0c
00
f3
00
f5
01
fb
fd
f9
fd
03
00
02
f6
fa
fd
f7
02
fe
17
fc
01
08
fc
fc
02
fa
04
f1
f9
04
0e
01
07
fc
f1
fb
f3
f4
f7
ff
09
ff
0a
03
0b
07
07
0b
fb
01
fb
fd
03
f4
0a
fd
07
10
0b
06
07
fb
f5
12
f4
f9
0b
fd
02
fd
0c
01
ff
f7
fd
04
fc
08
fe
02
fd
05
04
fe
f7
fe
fb
fe
04
05
f9
00
ff
06
fb
16
f5
0d
01
fe
02
fd
03
06
f6
00
f7
ff
fd
f7
02
fd
03
fb
fb
fb
0d
07
ff
02
07
f5
f7
f9
03
08
f4
07
08
0a
fa
f9
fb
01
01
03
f2
f6
06
f9
ff
fb
ff
fd
f6
05
01
ff
02
06
01
fc
0e
0f
05
fb
fe
ff
01
f8
f7
07
f5
fe
fe
06
f9
07
ed
ed
fe
ed
f3
07
07
fb
12
f9
fc
08
04
00
11
fb
00
f9
0b
00
0d
0b
0a
f3
ef
03
fd
ff
07
f1
f8
f2
01
02
ff
08
f4
04
f5
03
fd
ef
fe
0d
07
02
0d
0c
0a
f2
fa
fe
ff
0d
f3
fa
03
06
fa
f9
01
ff
0a
0d
fc
02
f8
fc
03
00
02
fa
05
f9
02
f5
f4
00
00
03
01
f3
ff
ec
00
fe
07
f4
f2
fb
ff
fa
09
f9
fd
fc
f5
0b
f7
0d
f5
00
06
f9
f2
f8
ff
f6
04
05
f9
f9
01
ff
08
f6
f6
fe
f7
f5
e9
08
fe
01
00
07
f7
06
f5
05
0e
0e
f7
0a
ff
fc
00
05
fd
04
fa
06
08
04
00
05
fc
fd
05
03
f2
04
0c
01
f7
fa
fb
f5
fa
ed
00
01
02
00
05
02
fc
01
f4
f6
f7
02
10
fd
06
0c
f7
05
10
05
fa
f6
0f
fe
00
07
fd
fd
02
f9
00
07
08
02
01
fd
fe
fe
eb
05
f7
0a
f9
f6
fb
f3
03
f5
ef
f2
ee
01
fc
01
f4
02
01
07
f2
0b
0b
03
fc
02
08
fb
f9
fe
fc
06
f2
09
01
06
00
0c
0c
04
fa
ff
0f
0e
0a
f6
09
f6
07
07
f6
f7
fa
09
00
f4
fe
fd
ef
0d
0a
fa
05
fa
04
f3
f8
02
fc
f8
ff
f7
03
0a
03
03
fc
06
f9
f8
08
0e
05
f6
fd
0b
0b
ff
f8
f4
07
f7
07
fd
f8
01
04
ff
fb
03
f3
f2
08
0d
02
0c
01
fe
ff
fd
09
fc
fc
fc
f6
07
0a
05
fb
ee
02
0b
f8
fe
f7
f7
04
f8
f7
12
12
fb
09
f0
03
03
06
07
fa
07
0a
fd
f3
05
fa
01
03
05
0d
f7
05
04
eb
fa
06
08
f4
02
01
0a
03
f1
ff
13
f7
ef
01
03
13
01
04
f1
00
12
f3
f9
ff
05
f4
fb
fe
0b
ee
0a
04
07
01
ff
ff
f4
f6
fb
fb
0a
fe
fa
f8
f4
03
07
fe
02
02
ff
ff
f7
00
0e
fc
01
f3
f8
fe
03
f9
f8
fd
fb
0f
02
0c
fc
03
06
f5
01
ff
04
f6
f2
03
fb
0e
fb
00
07
04
05
fa
04
07
05
0e
00
f6
fa
fc
06
03
01
f7
f7
0a
0a
00
0c
08
10
fd
f3
06
0d
01
ef
f1
f8
00
f8
f9
f9
ff
0d
e9
06
0f
08
f3
00
e9
09
f5
f1
17
f2
fd
00
ef
f7
f6
0e
1e
f1
f9
fa
ea
02
fc
f8
fa
03
fb
03
ff
05
f2
f0
f8
17
00
fb
05
01
02
fc
f8
02
05
fc
fe
0a
f9
06
ff
01
00
0b
06
08
00
04
09
ee
12
f7
05
f4
02
fe
04
f6
f4
00
0a
0b
f8
0d
ff
fe
08
ff
03
04
fa
fe
0f
07
06
13
03
fd
0b
02
f4
f3
f3
fd
fb
ff
f2
02
f7
02
02
f7
01
fd
f8
f7
02
fb
fc
f5
02
13
0f
fb
f9
f7
07
0a
09
f8
f5
fd
ed
e6
f7
02
fb
fb
ed
ff
0a
02
06
0a
04
fd
f9
fe
f5
09
01
02
0f
12
fd
0d
07
ee
f5
02
02
fc
f2
01
f3
fe
fd
e5
12
fd
01
09
12
f5
07
03
fc
fd
00
0a
fa
09
fc
f5
10
01
fe
03
08
f8
07
0e
fe
0b
f4
01
0e
10
0c
fb
fd
f7
00
06
f2
06
f8
f0
f4
f0
fe
f0
fa
0a
ea
08
0d
fd
fd
03
03
04
11
fd
fe
ff
00
f4
04
04
0c
f1
ff
0d
fe
f9
f2
07
f1
03
03
ff
00
f1
ee
f9
fa
f5
0e
09
f3
f2
fe
fb
fd
0a
f9
09
08
00
f8
fa
08
f9
02
ff
04
02
06
f3
02
04
ef
f2
fa
fd
f5
02
0a
eb
03
0d
f7
f4
fb
fd
ff
fa
f8
09
0c
fa
f0
fc
02
0a
05
f1
0f
00
fc
f8
ed
02
04
08
03
0b
f0
0d
f5
ff
04
0f
07
11
07
13
16
fc
fc
12
01
f8
0e
fd
12
04
08
0b
ef
fc
f6
fb
f6
fc
00
01
05
0a
0a
f9
f5
01
ff
fe
f6
0d
f8
f7
00
f0
14
03
06
09
f8
f8
f7
fa
05
fb
ec
05
03
0a
08
07
0f
0d
06
fa
00
04
ff
f7
f3
f1
f4
fa
0c
00
04
06
03
fc
fb
0c
01
07
05
fe
0e
06
f4
fc
03
05
fd
01
ff
ee
0a
fd
ff
02
ed
08
fc
f9
f9
04
06
f7
00
02
03
f9
0d
03
01
f0
ff
fe
fb
0d
03
06
16
05
01
01
fd
f6
07
fd
00
0e
0c
06
f6
00
f6
f1
05
ea
06
07
09
06
f7
fa
05
02
06
ff
04
f5
f5
0f
03
09
09
02
12
fa
f8
f9
10
f2
f5
f1
fb
01
f2
f8
ff
07
02
fc
f4
06
ed
f3
fb
fb
f3
f9
03
02
f0
0f
00
f9
00
f5
fd
fe
f5
f2
fe
ed
f7
14
ff
07
0c
0b
fe
fd
09
f7
ff
08
0c
02
0c
03
fd
05
04
f8
f9
01
f9
ff
01
0b
0b
0e
08
f5
f8
f7
04
0d
fb
ff
01
ff
06
f0
00
ff
f9
fc
fa
f8
14
00
ff
13
f3
04
11
df
05
0b
fe
05
f4
fb
fc
f8
05
ff
fa
fa
f7
f7
e7
07
07
04
fb
01
f8
f8
f3
05
03
f6
f7
00
09
fa
fc
f8
ef
0b
0b
fe
fb
fc
03
0d
fe
01
fa
fc
ff
f9
12
03
08
07
fc
02
f0
00
f6
07
01
00
09
06
0b
16
03
e4
fc
0e
f4
02
0a
0a
f9
0a
ff
0d
04
0e
01
e9
03
ef
f7
06
f0
13
f2
f6
fa
f5
08
fd
02
05
08
f1
fa
05
03
03
f2
fe
00
ff
0b
fc
0c
f7
07
01
fd
f6
11
f6
f7
06
f7
00
ec
ff
f5
07
01
fe
05
0b
0a
0b
f3
fd
06
f7
05
07
f9
03
06
ff
10
fd
fc
fa
fd
0a
f6
f2
0a
0f
ff
f7
03
f7
fd
08
f7
10
f7
f3
fe
f2
fc
01
04
00
03
03
00
0b
ef
11
01
12
04
f2
09
05
f3
0e
08
0c
01
f5
fb
03
00
09
05
02
09
0a
f0
02
fd
f3
f9
f9
fe
f2
17
ff
0a
fe
fc
fc
01
06
00
01
00
01
03
f2
0c
13
fa
00
00
fd
0e
06
f2
fc
f1
01
f7
08
0c
f5
03
00
07
06
fd
08
20
f1
fa
04
ea
fb
11
f6
0a
11
0c
f5
08
0d
ed
00
fd
09
ff
fc
08
05
fa
08
0c
0b
06
fb
01
01
0d
09
0a
0d
fd
fa
ff
fc
00
fc
03
fa
0b
fa
fe
fa
fc
fe
f9
04
f3
f4
fd
f8
f1
fd
01
04
03
0b
fa
f8
fb
04
01
0b
0c
08
f6
00
07
06
10
fb
0c
f5
05
f6
f5
ef
f9
08
09
f9
05
ef
08
03
07
08
06
02
0e
f8
fd
fa
fa
fd
03
0b
09
fb
fa
ff
07
fa
fb
ed
07
07
fc
f9
08
f5
01
f2
fa
f6
07
fc
02
04
03
01
ef
06
04
fc
03
f6
04
00
07
05
09
13
f7
09
09
f1
f8
01
09
06
0a
fc
06
03
f1
f6
03
02
ed
00
f4
f4
00
fd
0d
fa
f8
02
0d
01
09
09
0c
00
03
ff
f7
fe
f4
f6
f4
01
04
04
f6
f6
fd
05
fa
f8
fd
ea
f4
04
f3
fd
f4
09
f5
07
fc
16
f5
02
f7
fb
03
fd
fe
16
ff
08
09
f5
0d
0a
06
10
f9
f2
00
f8
01
fd
f7
ff
02
00
fc
03
03
fd
ea
06
eb
01
02
04
fb
f5
fc
f6
04
04
ff
f7
fe
07
f5
f0
ff
06
f3
06
01
05
03
02
f4
fe
02
f8
f8
07
fc
fd
ff
03
00
07
04
0a
fd
09
0c
04
ec
0d
fb
fb
ff
03
01
f3
01
07
00
02
02
ff
05
fe
f5
fd
f8
02
f9
f2
f3
f4
0d
fe
05
06
03
0a
f1
fc
00
0c
08
fe
04
f6
02
f8
fa
03
fb
fd
06
f6
fc
04
fa
0c
02
f7
0f
fc
f3
0e
12
fc
04
fb
0f
f5
f7
07
08
02
f9
f8
02
f4
fb
e9
fd
07
0e
0b
0f
02
f3
f6
00
f8
06
02
fe
fb
07
11
f7
fd
fe
01
fd
00
04
ff
fa
fc
00
fd
ff
ef
17
f3
00
03
03
0c
f8
ff
01
02
0a
04
02
fd
f3
fc
f9
07
fb
08
fd
fd
0d
09
f6
01
ec
0a
09
fb
05
fd
f6
03
02
00
01
04
fb
07
0e
f2
ff
0c
05
fc
f2
f5
0a
f7
03
fc
f8
fe
fd
f5
01
f9
f7
00
fb
fd
06
02
fa
0a
01
f7
06
0b
03
19
fc
03
00
07
01
03
07
f8
0a
07
07
02
11
02
00
f1
f1
08
01
fb
f3
f9
0c
05
11
02
fa
00
fb
0f
fe
ff
fb
ff
03
f5
07
09
fe
03
f8
05
ff
f4
f9
06
f1
07
f5
0f
fb
0b
07
f7
00
f2
03
f7
10
05
04
f2
fe
07
fc
f0
fb
e8
03
03
04
fc
fc
04
02
06
0c
13
08
ff
fe
00
04
04
fb
07
f8
09
03
02
02
06
0d
fe
0d
05
fa
09
04
fb
03
f6
01
03
0a
fc
01
08
fd
f6
f8
05
00
03
06
fa
fa
f7
09
09
f4
f3
f8
eb
01
03
f8
fc
00
03
fb
f6
ed
01
f9
ff
ff
03
03
01
f7
01
05
08
0e
fd
01
0a
fa
04
f9
00
fb
fd
f3
fc
fe
f7
01
10
ef
00
01
10
0a
08
f6
02
09
07
00
fe
0f
02
ea
07
0f
03
fe
fe
02
03
03
00
00
fb
fb
0a
f9
fd
01
00
fa
02
11
f3
08
fd
fc
01
f6
fa
08
f2
f4
ed
0b
00
fb
09
14
02
03
06
f7
f8
0a
fd
f6
03
fb
01
f6
fb
f3
f9
01
f8
eb
f9
f8
f7
fb
16
03
fe
fe
fc
f5
fa
0a
fa
ed
00
f7
03
f0
ff
11
f6
03
06
09
f7
f7
01
0b
f8
01
04
fd
fa
fd
00
f7
05
0a
fe
13
03
fa
03
f4
08
00
06
fd
06
02
04
fe
f0
04
fb
fb
f9
f9
f8
f8
f3
05
f9
04
ff
03
02
eb
f7
f9
03
07
02
08
fa
f5
00
10
fc
06
fa
f8
fb
03
fe
08
f1
02
fa
09
19
f6
fd
0b
f0
07
04
03
00
07
05
f2
0a
ec
06
05
09
f7
05
06
03
03
05
f3
06
fe
f9
03
0b
ff
0f
04
f4
fa
07
10
00
f8
f3
fa
01
fa
09
0b
08
06
f9
01
03
0d
04
f4
08
03
fd
f7
fd
06
f9
0b
0c
ff
fa
fe
f8
05
15
0f
f3
18
fd
fd
02
04
fa
fc
08
0a
fd
02
06
05
f7
14
ff
f1
f2
fd
f6
02
ff
fc
f9
fa
fd
04
09
ff
06
fc
fd
f3
03
0c
f3
01
09
f9
09
03
00
fd
0e
fb
05
fa
f8
fb
fd
fe
ef
fc
0a
f1
07
03
03
f9
0b
07
ea
08
0c
fa
fd
f5
0f
06
fa
00
fe
f8
00
f9
02
0a
ff
0b
05
f4
fd
fd
01
fb
03
f4
00
09
01
01
07
00
01
06
02
06
06
ff
f7
04
0c
06
02
fa
ff
01
0c
05
f8
09
05
0a
ef
ff
f6
0f
00
05
fd
fb
06
f6
05
00
01
11
ed
ef
07
0c
0b
f8
02
f7
f1
08
ee
03
ef
fa
f9
07
08
fb
fe
06
00
f4
f5
0c
f9
06
fc
0b
01
fc
08
0f
04
f2
f7
fb
02
fd
fb
00
0c
02
06
e7
fb
f7
05
06
f9
f2
05
08
ed
06
f3
0a
07
11
f8
fe
fc
03
fd
0b
08
f9
fb
ff
ff
f5
08
fa
02
0e
f2
02
f3
00
fc
05
04
05
fa
01
00
00
fc
fe
f8
03
fb
00
08
fd
06
fc
0c
f9
02
04
f7
f7
fd
f9
fe
04
f7
f7
08
ff
03
05
f7
f7
07
06
00
0e
ff
02
fe
0d
09
ff
f7
0a
f4
f8
f5
08
0b
09
fd
fd
fb
fd
0e
fd
f4
07
fd
05
f2
f6
ef
01
13
18
05
f8
f8
f6
fc
07
05
03
f3
12
f8
0a
07
f1
f0
fe
00
f3
fe
f5
ff
f8
02
e6
19
09
06
f7
08
f8
f4
f7
00
0d
02
08
06
14
09
fb
fd
fb
f3
06
f8
ee
0f
08
f2
00
ff
03
04
01
0f
05
f2
f9
0a
08
09
08
13
10
fc
ff
fb
00
ef
f7
fc
ec
fe
06
0c
ff
02
f9
fd
0f
0e
fe
fc
fc
0a
0d
00
ee
fc
fd
fc
fe
f7
f8
ff
05
03
fc
fd
00
03
01
f6
16
01
ff
fa
02
03
01
01
00
06
f8
0d
07
04
fe
0d
00
fa
fc
0c
12
08
03
08
06
fa
fe
08
01
f6
07
f6
f8
f9
0a
16
f6
06
04
0b
06
01
03
fb
0f
09
0a
09
fd
fe
10
f8
00
01
f0
14
fe
01
fe
f8
f7
e3
1b
f7
06
04
09
00
fb
fe
06
fb
fc
f7
ff
f1
0a
fc
ff
05
0e
fe
fa
fa
fc
05
fe
05
02
fc
f6
fa
04
07
ee
13
0e
04
fd
01
05
fe
fd
01
1c
f6
ff
05
fa
f8
08
04
0d
fd
f5
05
04
08
03
19
10
fe
f3
f3
fe
04
04
fb
f3
0d
ff
fb
08
02
ff
01
fa
00
f7
ff
12
ff
f5
ff
f7
04
f9
0c
fd
0e
02
0b
f1
01
fb
f5
ef
0b
00
fe
f9
fd
01
07
fa
04
00
fc
22
f4
00
f6
07
ff
f3
02
ff
05
00
05
ff
07
fa
f6
fa
00
fa
0f
ff
ff
03
05
fe
02
06
fd
ff
0b
fc
f8
04
fa
f8
06
f9
fb
01
fd
0f
02
fe
fa
03
02
06
08
05
00
03
09
ee
fc
0a
fe
f8
f9
ef
03
07
fe
02
01
f9
09
04
f6
f9
f0
17
fe
fc
e8
fd
07
02
01
fd
ff
f1
01
07
fc
fc
02
fc
06
fb
07
07
f9
0a
14
f9
05
fd
f2
09
ff
0e
f8
02
fb
f2
15
00
07
10
10
fc
f5
03
f7
12
0a
07
09
fe
03
f7
07
0b
f2
07
f3
01
fd
f9
ff
f5
fb
ff
09
fe
07
0a
fa
fe
ec
f7
fd
0f
04
06
fa
04
f1
10
02
06
02
08
05
0a
ff
ff
09
02
0b
03
14
ef
f9
f4
f2
f4
f5
12
fc
fb
0b
03
fa
00
ed
08
0d
02
03
f2
f7
fd
01
f9
0b
0e
fa
f9
fb
f9
fd
0e
08
09
05
f4
fb
ff
04
03
ff
0d
f0
fb
01
f1
fb
fb
f4
06
09
00
07
f9
f9
03
02
03
f3
fe
15
05
f3
07
f9
fd
02
e9
ff
fc
f8
05
01
09
f5
04
0c
0e
f6
09
03
f0
08
fc
f2
ff
00
12
f9
07
fc
00
f0
09
f7
f5
e7
0c
fa
ff
f5
0d
ff
fb
f1
fa
f1
0d
fd
0c
05
03
06
fa
08
08
05
fb
07
f5
0e
f7
07
f9
02
ff
08
fb
fe
05
03
00
01
fc
f9
fd
07
00
fa
20
04
09
fd
f5
fa
00
04
00
06
08
07
ff
00
f7
13
05
16
04
0d
00
fc
ff
08
05
f8
fa
09
0b
08
f5
fd
00
fc
fe
02
0c
ee
ff
fe
00
0f
fb
f1
f7
09
11
f4
09
f5
f9
0c
00
08
0c
06
f8
ef
f9
fa
eb
03
04
f4
10
0b
05
fa
01
f0
00
f2
fa
fc
0a
01
e5
09
f8
01
fd
fe
f6
f7
03
ff
fd
f7
f7
07
fa
fe
05
fd
10
07
03
02
fb
0a
eb
fb
03
08
fc
fe
fc
09
15
05
0b
e8
00
00
00
17
fc
03
07
fe
f0
fd
0d
fe
08
f4
03
fa
fe
08
03
fa
00
f3
f4
00
fe
09
ff
f8
f9
ff
08
00
f3
fc
0e
00
f5
03
02
08
fc
04
0c
09
ef
0b
01
04
fd
04
03
f4
f6
fb
fc
f8
fc
11
ff
f2
fe
fe
0d
0a
f8
03
f8
04
f9
fd
05
f7
fc
f9
fb
fe
fe
0b
f7
f9
02
04
06
fa
f9
00
fe
f7
03
0b
fc
10
f9
fe
02
f4
f6
00
02
fd
f9
fa
03
ff
0a
ff
06
f7
02
fc
eb
00
f4
f9
ff
07
04
06
03
00
f6
ef
f7
00
f4
07
fd
0a
03
13
03
f2
01
0a
f7
eb
01
fa
05
03
fb
f7
f1
fb
02
02
04
07
fc
05
ee
f6
fc
06
06
0f
f7
06
02
fa
f8
00
0c
08
f6
05
f7
0e
08
0e
fb
06
fa
fe
f8
f0
06
f7
15
f8
eb
fb
fb
fa
0f
0d
0b
0c
fd
f3
ff
f9
04
ff
05
02
ff
f4
02
03
01
f5
fc
f9
fa
fe
04
ff
08
ff
fd
f3
12
f4
07
ea
fc
06
f7
f3
01
fa
00
06
f4
fe
f8
f7
0e
01
fb
f0
02
fd
f7
04
07
fc
08
f3
f5
ef
04
f8
f9
fd
06
05
09
f3
ff
08
fe
08
06
0b
fa
10
0b
09
fc
e7
fc
ff
0a
0c
ff
fc
0c
0b
06
fa
01
fc
0c
0f
05
fe
fc
ff
fd
f9
fb
09
fd
05
fc
0d
0d
fb
fb
fe
f9
09
02
ff
f1
fd
00
e7
fc
fe
07
00
01
ff
f9
fd
00
00
fa
05
fd
03
fc
f9
fd
fe
ff
ff
0b
15
f9
07
fa
03
04
fe
f6
0a
eb
06
02
04
03
fd
fb
ff
fa
f1
08
ff
fe
06
f5
0e
05
ff
05
fa
02
ff
05
f6
00
f9
f8
f9
03
11
03
f5
fe
00
09
00
fe
04
00
12
ff
fe
04
0c
04
f8
0b
04
07
eb
00
02
f8
01
f7
00
fa
02
ff
fd
07
08
01
fb
04
02
04
0f
f4
fc
03
0e
fc
f9
0b
0c
00
f2
07
02
07
01
fa
14
0a
04
fa
fa
00
fc
03
0a
fb
f9
0b
fb
06
f8
01
ec
fc
fe
05
00
f1
0d
e9
02
08
04
eb
0b
02
fa
f9
03
0f
04
0a
f6
fd
f6
07
02
ef
06
f2
08
08
02
f8
fa
f7
02
0d
11
ec
f5
03
fc
ec
05
fe
fc
f6
08
0b
03
14
08
0c
ef
fd
00
f4
00
f5
fd
ff
f6
06
07
fb
05
fe
08
fe
02
05
fc
ff
f9
04
0c
06
ff
f4
02
ff
06
03
fa
fe
0a
01
00
f2
06
03
0a
eb
08
fb
00
f5
0d
01
0a
f5
f8
fd
f9
04
fb
08
f3
11
fe
f9
0b
01
f9
fa
06
02
ff
ff
12
08
04
eb
03
05
01
00
fe
e0
fb
14
fc
05
01
f2
01
00
f8
06
fa
f8
08
ff
09
07
f2
01
fc
0b
05
f9
05
02
14
fc
f0
f8
0d
0c
e9
03
fb
01
04
06
fe
fd
12
f9
f8
07
fd
10
f6
f5
12
fe
fe
f6
ff
f4
15
0e
00
f2
06
0b
f5
f8
ff
01
02
11
fc
0e
f8
01
04
03
fb
f2
fd
f9
fb
06
fe
0d
f7
09
f0
0b
f3
03
fb
f6
01
09
f8
07
fb
f8
f7
05
0c
f4
f9
00
00
09
fd
09
f6
fa
fa
05
00
fb
01
fb
04
fa
08
06
01
04
f3
0f
0c
fa
f2
06
ef
fd
fc
f1
08
fa
f4
ff
02
0a
f4
fa
f8
03
f1
fc
03
05
fa
03
fe
08
f8
f7
05
11
f9
ff
0d
02
f9
ff
00
f6
09
00
fd
f8
fe
04
f9
f9
01
05
f7
03
fe
06
08
05
fc
00
0d
08
02
0b
fd
f8
f3
09
fc
ff
ff
fb
0b
fa
f9
fc
0b
f8
f9
fe
00
12
ec
f2
03
00
05
f9
f2
fb
15
07
fb
e7
15
04
05
fe
e4
05
fb
12
04
fe
01
03
0d
fa
04
f1
08
01
eb
f7
ec
0e
f6
fa
fa
05
f3
ef
e7
03
fb
03
0e
04
fe
04
fa
fa
fe
fb
fb
f7
fa
08
0e
08
ef
fa
05
ec
f9
f4
01
fd
fb
fc
fe
08
f8
f8
06
04
f7
fb
fe
fa
f2
f5
03
18
f4
fc
ff
f6
03
fe
06
ff
06
f7
f4
0b
06
1f
fe
0e
04
04
f6
ed
03
09
fa
f5
03
03
02
00
0a
ff
fe
03
0f
fd
fa
f8
04
02
f6
03
14
fb
e9
ec
fb
e8
03
0e
f1
fb
05
f3
05
07
fe
06
00
05
f3
0d
f4
f3
04
01
07
04
f3
f8
f7
00
05
0e
fc
0f
f8
02
fe
f8
f9
fe
fc
08
07
ff
fb
f9
02
fc
fa
08
07
10
fb
fb
07
f3
01
0f
f8
ff
fb
0b
0d
f5
f1
fd
00
06
fe
07
fe
0b
f6
f1
ff
00
f7
f4
f6
04
f9
02
fd
16
ff
f5
fd
fd
04
03
01
05
ff
fe
04
fa
13
f9
fe
fd
fe
00
05
03
0c
09
08
ff
05
06
f9
0a
0a
f0
08
f6
09
07
fd
f6
15
f2
10
0b
fb
f5
01
fd
fa
0a
f5
fd
0c
08
f9
14
00
f5
03
fb
fc
f4
fe
fb
fe
ee
08
f6
00
12
ff
0b
03
fd
f6
fc
ff
fc
0c
00
fb
06
15
fb
fb
11
03
f5
08
00
0c
f4
09
04
e4
07
fb
f6
06
f5
ee
fa
ed
f9
fe
02
02
04
fb
fc
f8
03
fd
ff
f8
fe
fa
07
f1
02
eb
10
03
f2
00
f4
08
05
01
04
f9
f5
f4
ff
f4
fb
f3
01
07
fe
00
fa
09
09
fe
f9
05
fd
05
e9
f9
f4
fd
04
fd
fa
fc
03
04
f7
fa
ed
fe
01
06
f6
0e
05
fa
06
f6
f6
05
f1
0b
0f
fb
fc
08
04
fa
fb
02
0a
00
05
f7
0b
04
0e
03
ff
0b
fc
03
04
f5
01
06
07
f6
fa
0b
05
ff
07
0e
02
08
07
f1
11
03
00
04
ff
05
08
09
f4
f8
fd
fe
05
ff
ff
08
fa
f6
03
fe
f3
f1
f9
0b
fe
0a
f4
03
08
00
09
06
0d
17
fb
fa
ea
f3
ff
f2
0b
fb
fb
f6
f9
17
f9
02
f6
ff
04
0b
06
fc
04
f7
01
09
fe
01
05
05
0d
f0
05
f6
fc
05
ff
ff
01
0a
fe
03
f8
13
f7
f4
15
f8
01
12
fa
f8
05
ee
f5
09
04
08
09
0e
04
0d
05
08
03
fd
ff
fa
03
06
01
04
f8
02
1b
f8
07
01
01
fc
ff
09
01
0a
fe
fa
00
03
03
ff
fe
16
f0
0b
ff
0c
00
f6
fa
03
f7
f8
f5
00
ff
f9
fb
08
13
fb
09
04
09
f9
01
01
0d
f2
fb
fd
00
f6
02
fa
fe
fa
fe
0b
0b
f5
fd
0d
ff
ff
fb
01
09
01
01
0f
0e
07
03
0b
fa
ff
00
09
05
09
07
f9
fc
f7
fb
02
f6
01
f4
f5
0b
ed
0a
fc
fe
00
ff
f6
f8
03
02
fc
01
05
05
fc
08
05
fb
04
00
00
12
04
fc
01
fa
0e
fd
04
fb
fe
0b
fb
f3
02
08
09
fa
02
fe
fd
0d
f6
f9
09
06
02
07
01
0d
04
0d
05
fd
ff
00
05
0a
06
01
02
05
04
0b
0a
fc
0e
00
0a
06
fe
ec
03
04
02
fc
09
fb
0d
05
fb
fc
02
f8
f7
f5
f4
03
04
fa
07
fb
00
11
0b
f9
f1
09
0d
f8
07
f9
f6
fd
f9
f7
fd
f7
07
ff
05
04
07
fb
fc
f4
ff
fe
fb
f6
f7
ff
04
f6
02
03
fb
03
f9
03
fa
f2
f5
05
03
fc
fc
f1
fd
04
fb
fb
fd
fb
ff
06
f8
07
fb
ff
f5
05
0a
f4
08
fb
fa
01
03
fb
03
f5
0a
06
fa
04
0c
fc
09
09
f9
f6
07
ff
f3
00
04
05
01
f9
fc
0a
10
f3
f9
02
03
09
f7
f6
f8
00
f7
06
ff
fa
ff
01
05
00
0a
eb
fc
03
fa
0f
fc
f5
01
14
0e
02
00
01
01
10
fc
06
05
f4
fd
f2
f5
f7
03
fd
f6
04
16
fd
04
0e
03
ff
04
ff
04
02
fe
f8
fb
0d
fc
fd
f1
01
02
f5
fc
f9
0a
07
07
fb
02
ff
0c
03
fe
0b
05
fe
01
0e
f8
03
f0
0e
06
f5
fe
03
0c
ff
07
08
ef
f1
fb
fd
02
ef
08
0e
fa
fe
09
ff
ff
02
01
fd
02
0b
fb
00
fd
fa
0b
07
04
fc
02
fd
01
f5
07
fa
f5
fc
02
02
04
fb
f3
0f
fa
fd
0c
04
04
f8
08
0e
05
fb
fa
f6
fa
09
05
f9
02
0b
fb
08
01
f9
fa
f8
06
f8
04
0b
fd
f9
fc
04
10
fb
05
02
ff
0a
00
0a
07
fa
0c
fb
00
08
f9
f3
01
08
f7
0d
07
fd
f8
04
04
02
04
04
fa
02
ff
f8
0c
ff
fe
ff
04
fd
fc
04
00
fb
0d
06
f5
f7
f9
f1
0e
fa
02
03
07
f8
01
01
03
08
fb
ff
f2
f4
09
f9
fb
13
04
08
f6
fc
fb
f2
07
08
fa
fb
f8
05
ec
f9
03
02
06
04
03
02
ef
09
00
ff
0e
ff
06
02
f7
fe
f6
fc
f8
f4
0f
05
f0
fd
01
0b
fb
f5
f6
09
fd
fc
01
0a
ff
f9
fb
fb
07
fd
fe
08
07
06
ff
05
ff
ff
f6
fd
f9
00
05
11
00
0a
ff
08
fd
f3
fc
04
fd
fb
0c
06
fc
00
00
f5
fb
fb
fb
03
f8
0c
06
f7
03
f3
fb
ff
f4
fb
fa
00
0d
06
0b
0a
ff
f5
fe
fe
08
fe
f7
00
0e
0c
0a
f8
08
07
f9
f6
0b
ee
06
ff
fc
02
f4
0d
06
f7
0d
0d
fd
fc
f8
07
fc
fa
fd
f9
0a
09
ff
04
06
03
03
02
f8
fd
03
00
06
fa
f7
01
f3
0e
fc
00
00
f9
fb
f6
f7
01
14
f5
0f
02
f8
09
fc
08
04
f2
0a
01
fe
fc
08
fb
ff
fb
f8
f8
03
08
fb
ee
02
fd
0c
ff
08
0b
01
f8
12
f9
06
01
03
08
06
ff
ff
fe
04
03
f9
00
f7
06
01
05
f4
fb
f7
ff
0f
05
11
fc
fb
f7
02
02
0c
01
08
07
02
01
ff
f0
ff
01
02
fb
00
02
00
f9
04
08
ff
07
f6
f4
06
fe
04
00
fa
06
ff
fa
07
04
0b
05
fb
04
09
02
0a
fc
fb
07
f9
02
11
fd
00
fa
03
f6
fe
05
fb
01
03
f6
03
fe
ff
fd
07
fe
05
04
fa
f8
f5
f6
02
ff
0b
04
00
f8
01
0d
00
fd
e2
02
ed
f8
04
fc
09
01
06
f9
0d
fe
03
ff
ff
09
0c
fa
03
f6
09
00
e5
fd
03
ef
01
f3
06
fd
05
ff
08
01
ff
01
f6
fa
08
09
07
f8
fd
fb
f5
0e
03
01
ff
fe
f6
05
10
00
04
0b
ff
06
00
0b
fc
06
ff
04
04
06
02
10
02
fc
04
fd
fe
ff
03
f8
fe
fb
fa
f8
07
05
fa
ff
04
08
05
07
0b
0e
fd
04
fc
15
f8
f9
ff
01
fb
fd
06
02
06
0c
0c
fd
fa
09
0b
f0
00
ff
02
fe
ea
00
06
fc
01
f1
04
07
fd
06
08
f5
ff
0b
04
ff
fc
ff
ff
f7
fb
ff
f1
fb
0a
04
06
07
00
f3
ff
f3
f8
06
00
f7
01
08
03
f7
f9
fe
03
0b
f5
00
18
06
02
0c
0d
fe
f6
f4
09
fd
05
e7
0c
04
05
06
fc
07
f2
f6
03
fa
0f
f5
03
01
fc
03
12
ff
03
f7
0f
0a
fd
11
03
ee
ff
ff
ec
f3
fe
02
01
0e
f5
03
07
00
fa
0a
10
10
03
04
e8
f9
03
03
ff
fd
03
00
f4
0f
01
fd
f9
f6
00
f9
fd
fe
09
17
f9
00
f4
fa
fe
f8
07
03
0b
fe
0b
f9
04
07
01
05
00
03
f2
10
f5
0a
0b
ed
0b
f3
15
0a
0d
02
07
07
18
fc
0f
00
11
ff
f6
f9
0b
0e
11
fe
f4
fc
07
f8
f8
0e
0e
02
f4
04
fa
fe
fa
13
ff
0a
07
f5
01
07
ee
fd
0e
f9
fd
08
f9
02
07
05
0c
fb
07
05
fa
fa
fd
01
ff
19
f7
fa
03
ff
01
03
15
f1
02
fe
19
ff
0b
07
00
07
04
12
04
00
fe
02
04
f1
07
0d
01
fe
ff
fc
06
f6
07
09
08
f4
07
f9
05
07
10
fb
00
06
fa
0b
02
fe
fc
08
01
f7
f7
09
ee
ff
f9
f4
f4
fb
f7
f4
f9
06
fe
05
06
06
fe
fc
f1
05
f4
04
fe
05
0c
fe
0a
0e
f7
fc
02
06
06
fa
07
fd
fa
0c
01
15
11
04
00
06
f1
ff
f9
02
11
05
12
f2
05
04
01
fb
fc
0e
fa
fc
06
02
19
fc
ff
09
06
f4
ef
fc
fb
fa
08
fb
ed
fd
fd
16
fa
08
17
ff
0b
05
02
f3
03
01
05
fe
05
fe
f8
0e
00
fc
fd
ff
00
0b
fd
fb
0d
fe
07
0f
03
04
fd
f4
f7
fd
04
06
08
f5
05
ff
11
ff
00
03
f8
0a
08
0e
f6
04
0b
fa
09
fe
fd
fb
f9
fa
09
04
fc
02
f3
01
f4
09
f4
06
03
f5
11
11
f2
01
fa
fe
ff
fd
07
03
0f
fb
fb
f2
0b
06
f6
0d
fc
0b
f8
0a
f7
02
0a
0c
f6
f6
0d
f6
e7
ed
fe
fe
00
04
04
ff
f6
04
fb
fb
fd
03
f3
0a
0e
04
fc
04
0a
03
fb
fb
03
fd
f9
f6
f9
11
0b
fc
08
f2
fe
f8
03
07
ff
06
00
fb
fe
0b
00
f6
07
0b
fd
f4
f2
f9
03
f8
f9
f9
05
f8
ff
08
21
fd
fd
01
09
10
ec
01
07
09
0f
fd
fb
05
09
01
08
fb
01
01
00
f1
02
07
f7
00
f9
01
08
fc
f6
00
fa
05
0a
f3
02
0b
09
f4
09
fe
fb
f6
0c
03
f7
05
17
fa
f7
f1
fd
0c
17
fa
ff
08
13
f4
16
fe
fb
05
11
ff
02
04
fe
ff
fb
06
11
fb
ff
fd
01
f4
0c
04
fc
f7
06
f8
02
05
0b
0d
02
fa
01
f6
06
f3
fc
0a
09
16
01
04
03
10
0d
f8
f3
05
04
fe
0a
fd
00
05
f8
05
10
f9
ea
f5
f5
0f
fc
fd
0b
03
fa
0d
0b
fc
0d
fa
04
f9
f2
02
0d
fb
02
04
f3
10
f3
05
06
fa
06
f0
f4
12
fc
fa
f3
f6
04
01
08
06
fc
ed
f1
13
f5
f6
f4
0b
fb
ec
02
ff
06
02
fe
25
f1
fd
09
fd
07
0a
06
ff
f3
ff
fb
0d
fd
0e
f8
05
06
01
11
0d
04
fe
fd
f5
16
0b
f5
f8
f9
f8
00
07
ff
02
f7
fd
08
04
0e
ff
fa
f4
03
ff
0c
08
0e
f6
03
0b
03
11
07
02
07
00
02
03
f2
f6
f8
11
f7
00
ea
fa
ef
07
f9
fa
02
0a
04
19
fb
f3
f2
03
06
fe
f9
fa
f9
03
e9
ff
01
fc
12
ff
ee
fc
f5
03
07
03
07
07
fa
f9
05
fd
13
f5
14
fd
00
09
02
07
f0
f5
05
f7
08
0a
17
f0
fd
02
f2
f5
05
fa
0f
f1
ff
fb
0d
f6
fd
f4
ee
0f
07
f5
02
16
f5
fc
04
f7
00
08
15
1c
f9
0c
fa
fb
f5
fb
f5
0a
12
f5
02
fc
02
fa
f9
03
fc
0a
0e
ff
f6
f7
fd
0d
03
ef
05
0a
fd
f7
f3
0b
f4
07
03
0a
ff
0f
f1
f9
11
f3
f9
f3
09
ed
0c
06
f6
f2
f1
14
03
fd
06
fb
f7
01
f4
fa
0e
ed
0c
0a
ef
fc
0e
fa
0d
f5
fd
fa
01
02
f4
00
0a
fc
05
fe
0a
04
ee
f6
08
0d
f6
07
f8
f9
00
f1
04
07
fd
fb
0e
03
fa
eb
f8
11
f6
08
16
fa
0e
13
f6
f3
01
fd
fd
ff
08
02
0a
00
f8
01
02
f5
f6
fe
ff
05
f4
f1
04
01
09
f8
04
01
05
fa
05
0e
fa
f4
09
06
fa
ff
ff
fa
0c
f9
ff
f9
f8
fd
fa
f7
06
0d
00
fc
f4
18
06
0d
02
08
0e
f5
f5
ff
f9
06
f2
fe
fe
03
0f
f0
ef
0f
f8
0b
f5
fd
fe
07
f3
f8
00
f4
02
0a
03
01
ff
f6
03
ff
04
f7
fd
10
05
0b
f3
f4
00
11
02
fd
03
f4
03
01
01
01
fd
f6
fa
ff
ff
f7
f6
fd
03
f5
f7
f5
0b
0d
f7
01
fc
f5
f2
00
0a
08
f1
f5
f7
f0
0e
fe
f0
f8
0d
fa
11
f4
f3
fe
f8
fe
ea
06
01
fe
f5
fe
04
02
02
0b
ff
f3
05
f1
fa
f4
01
06
f4
f1
0a
09
fd
04
f1
09
f9
0c
ff
fe
ff
f6
f8
ff
09
fd
09
ff
05
00
0a
01
fb
fd
06
f8
fd
00
03
fa
fd
03
18
04
00
ff
06
f7
05
09
fe
fa
06
00
06
0a
fc
fb
01
f6
00
12
03
f4
0d
f7
07
f7
fc
09
fb
ef
11
0a
10
03
f3
fa
f5
fa
0e
f5
fb
f5
0b
fe
fc
05
09
0b
06
fe
f9
f0
f0
05
fb
f8
0b
f9
f6
fb
e5
f1
05
fe
04
13
01
0a
0e
fe
f3
f3
02
04
fe
f8
02
fe
07
10
f4
05
04
fd
0a
09
13
fe
02
ff
fc
f0
fb
03
f1
f1
01
03
f3
07
f9
0d
02
07
f8
f7
01
fc
03
02
fc
06
01
fd
ed
f9
e3
fb
fb
fe
04
f8
fc
fa
01
0c
fe
f4
0f
f3
ff
04
01
fd
f2
fa
fc
f2
01
fe
fa
02
f9
07
f7
05
09
f0
f6
f3
f6
fa
f9
00
02
0b
08
02
ff
fc
03
05
00
01
f9
02
09
f9
03
13
f6
f6
ef
03
fd
e7
ff
0a
f3
fe
f1
f0
fb
f1
fa
07
ff
f5
fa
01
02
14
ff
ff
fa
0d
f6
0a
09
0b
fd
ed
ff
15
f6
e9
04
0e
f0
0d
06
06
f7
fe
03
02
09
f3
04
0c
02
06
ff
02
07
18
f8
fc
fe
f8
03
13
f6
03
09
05
fa
f9
f8
0b
02
07
0b
02
fe
08
f3
f4
01
06
0e
03
fc
f3
0e
08
fd
10
fe
fa
00
07
01
fc
f5
fd
ff
02
f2
f7
06
fc
ed
02
03
ff
03
fa
07
fd
f0
fd
fc
fc
04
f7
fe
fc
f9
fc
00
01
fa
08
14
f5
08
07
04
f5
f6
06
f4
f2
fe
02
0f
00
00
fc
fb
12
fe
f6
fd
04
00
02
f3
01
03
fb
fb
fe
ee
0c
fd
05
0b
f9
fa
fa
11
06
10
fc
ec
fd
07
04
f1
f3
f7
ff
ea
05
ef
fb
01
00
15
f7
f8
f6
ff
04
ff
01
09
ee
05
f3
f8
03
12
f9
04
fb
07
f8
fc
0e
fa
fd
03
fe
04
fa
f9
02
09
03
0c
fb
02
03
ef
ef
17
ff
fa
0a
f5
fc
f3
f7
0d
09
f1
f8
e9
08
eb
ec
04
0c
08
ff
05
01
e9
ff
f4
03
fa
06
13
10
0c
fd
f9
0c
f1
fa
fd
11
f8
02
0a
09
0f
f1
f6
0b
00
03
fa
09
07
01
0f
05
01
f9
01
01
02
00
04
fa
fe
fc
fb
fd
f8
f6
0a
ff
f5
04
f4
ea
ff
0d
10
05
05
f9
00
fb
f8
ff
f6
0a
fe
10
0f
f1
f2
fc
0b
03
f0
fa
0d
fc
ff
03
f8
0e
fe
00
fa
03
f5
00
f8
f0
f2
f1
fd
00
fb
06
fc
00
0d
0d
08
01
f4
ed
fd
e8
fc
0c
ff
08
f7
00
f7
06
fb
08
01
01
fe
00
02
0d
fc
12
05
0a
12
02
f3
0c
f3
00
fa
ff
12
f3
ff
0a
07
f5
06
00
07
06
fd
ec
fe
f7
02
f9
f9
06
11
07
07
08
fd
f8
f3
0d
05
f3
14
f6
01
f5
f0
f9
01
fa
13
f0
f0
14
03
0d
f8
04
f0
fb
fa
01
03
05
f4
ee
f3
ec
01
1e
ff
f8
fd
fa
fe
eb
00
f8
08
fb
fc
fc
0c
00
f4
f8
03
05
00
fd
f7
00
f3
03
ff
ff
f4
03
0b
f7
05
fa
1d
f9
05
04
0a
09
fd
fa
fa
ee
ff
fe
04
02
19
fa
01
05
00
09
07
f1
f0
f9
f2
08
0f
fd
0a
ff
ea
05
f4
11
ef
fe
04
05
f3
05
08
0f
fa
07
0d
06
f8
07
f4
08
f2
fd
0e
0e
fb
04
ea
f8
fe
fa
00
07
fb
fe
f3
01
f7
fa
07
0b
f8
fd
fd
08
f7
14
fe
fd
01
f2
f5
f3
fd
fe
04
fc
ea
02
02
00
fd
f6
f7
f2
0e
00
00
f9
f9
02
07
12
14
f8
07
03
05
0a
02
fc
09
02
0e
11
fd
f9
fd
16
fb
0b
0d
f4
01
fe
06
fb
01
06
02
03
13
08
f4
0c
02
06
00
0e
f6
e0
fd
fa
0a
00
03
05
f7
02
eb
f9
00
f8
fc
05
f9
0a
fb
00
1a
fb
08
fe
0f
f7
fa
f8
f3
0c
ff
f2
f3
02
07
0b
0b
00
07
0a
f8
02
07
0c
f5
f2
f6
fa
02
09
f4
ff
0a
06
f8
f0
00
ec
f6
00
03
0d
f3
fe
07
f7
f9
f9
fd
07
f6
ef
fb
fa
fc
08
f3
05
fb
0d
06
02
03
03
06
03
fd
03
ff
f2
fb
f8
fc
0a
0b
02
07
02
06
03
07
fa
06
f6
06
02
fc
01
0b
fd
fc
ea
05
00
01
fd
03
f7
0a
fe
f6
ff
f8
f5
07
0b
ff
f3
fd
06
0a
06
05
07
06
fb
06
06
01
00
fb
fa
03
f8
05
08
fe
05
08
fd
fa
fe
fe
fd
05
01
fe
03
0a
fa
04
04
00
f4
fe
04
03
f9
0b
ff
05
f4
fe
0b
fb
01
10
0c
02
0d
09
f9
11
02
03
0b
f6
f0
04
f8
f1
06
fe
09
ea
03
fd
f4
03
f3
03
06
fd
03
f3
f8
0c
05
f8
04
fb
03
fe
02
01
fb
fb
fb
05
f6
06
00
01
00
f4
05
ff
09
11
fd
00
f3
fc
f0
fe
fb
f7
03
f3
09
08
0e
ff
09
f9
f8
f8
fb
f2
04
08
04
fb
02
01
00
fe
f5
00
09
04
e7
f6
04
0a
ef
09
f9
f8
f6
0a
05
00
11
08
03
02
f8
fb
01
01
ff
fd
f8
07
09
ff
07
08
f1
fb
f8
00
04
08
fc
07
f5
01
fc
f7
07
0f
ff
fd
05
04
00
04
fa
04
03
fc
04
07
fe
f0
06
09
03
fd
04
ff
0d
04
fd
fe
01
06
07
f8
fc
fd
02
fa
00
0a
01
ff
12
03
01
10
fc
ff
ff
f4
f2
f9
fa
f1
fd
0c
fe
fe
01
f9
fb
f6
02
0b
f1
fb
12
ff
fe
ff
f9
0f
0a
fe
fc
0a
fa
12
0e
fc
fa
07
fc
06
04
04
fa
03
0a
05
0e
ff
f2
08
fe
04
06
f7
04
fc
16
f7
f4
f7
03
0a
f3
0e
04
04
fc
f2
06
07
05
ff
05
f8
0d
11
f2
08
05
08
03
f9
08
f9
01
f3
f2
00
fb
ff
0a
ff
0a
02
07
0d
ff
0a
07
f9
fe
08
02
fe
f8
fb
03
0c
06
fb
00
0d
0d
f0
fb
12
16
01
09
eb
f6
fc
fd
fd
fd
fa
f7
fb
f5
fb
0d
06
f7
fe
f7
ff
01
f9
fc
fc
00
fe
11
13
03
03
0a
fc
01
04
0c
0d
f5
0f
01
01
08
f8
09
06
04
0a
0f
0a
05
02
f5
03
01
fa
08
0b
04
00
f7
05
f3
fc
0a
07
fe
fa
f9
05
01
f5
07
fd
fb
0c
00
05
01
07
08
f9
fc
02
fc
fc
01
ff
03
04
08
ff
fd
f8
f3
10
f8
fa
ff
fc
fa
fc
07
fe
0a
08
08
05
0a
fe
01
0d
ff
07
0d
02
02
fb
f8
02
03
06
fe
fa
0a
05
fb
01
ef
ef
01
ff
07
fb
04
01
0c
05
01
04
02
f7
fd
fd
00
f9
0c
03
ec
fd
0f
f9
07
06
05
fe
07
0b
fb
01
f5
00
fd
06
ee
03
05
f8
fc
fe
00
04
f3
05
f4
0b
f6
ff
ff
fe
f4
f1
f2
03
fe
00
06
f7
fa
f6
00
06
e8
ff
04
02
0c
fe
02
0b
05
fa
fd
08
01
10
0f
fc
03
f8
04
0a
f2
04
04
fd
fa
00
01
fc
00
04
f6
01
ef
08
f1
f8
f5
fe
03
09
0b
f6
0b
f5
04
fd
0b
0b
fc
f9
01
0a
01
05
0d
f3
08
f8
08
08
02
f0
02
fa
f5
f3
09
f2
07
f8
00
07
ff
07
fb
03
f3
0e
fd
01
f3
f5
fe
eb
09
0f
fc
fa
12
fe
fc
01
f4
08
05
fe
08
f9
14
fa
0a
ff
06
09
ff
00
06
0a
f9
10
f5
fa
fa
fb
03
fe
09
fd
ec
07
0a
0e
f8
fc
ff
f9
08
03
01
01
ff
04
09
f4
fe
eb
fb
fb
09
06
05
06
fb
08
fc
f7
00
01
fd
f2
08
00
07
04
ff
fe
f9
0c
fe
06
0a
08
fb
fa
f8
03
02
0b
f1
08
07
06
f7
0e
fc
03
0c
fe
fc
08
fe
07
06
09
01
00
f6
01
0e
05
01
00
00
fb
0d
0d
f0
ff
fc
fb
f7
f5
0a
fe
f7
fb
f8
08
0d
f7
f6
06
05
09
03
ff
ff
01
f5
f4
01
12
f9
04
01
01
f8
0e
00
06
fd
03
f5
05
fc
0b
ff
ed
fb
fd
06
03
07
fe
fd
07
f7
07
0b
fd
f9
fc
0c
06
fb
f6
ec
06
0b
f7
09
f8
02
02
00
fe
04
05
08
f7
fe
0a
00
fe
04
08
06
fd
ff
08
f9
f4
01
fd
f5
f4
01
fb
13
13
01
06
04
09
02
05
04
11
0d
fb
07
0c
f6
03
fb
fc
ff
0c
01
00
0b
07
0b
05
fa
0b
fb
02
15
ec
0c
ff
02
05
f6
fa
fc
04
fe
fe
fc
fd
ff
fe
fc
fa
f6
f7
03
ef
ee
ff
01
ff
e5
04
15
f4
f8
ff
01
f6
f1
f6
07
01
0b
f8
ec
f3
fb
f8
01
01
06
fd
fc
fe
06
04
04
ff
ff
09
04
ee
fd
09
0b
ff
04
02
f3
0b
ff
04
02
fa
f6
fe
01
f9
12
fe
fd
fa
f4
05
0b
0a
ee
00
01
15
06
fd
0c
08
08
fe
01
07
fb
06
00
fc
11
f1
15
ff
03
fc
fe
fb
05
00
0b
f9
04
07
0c
f9
fd
ff
0e
fa
0a
07
05
f7
fe
fc
fa
fd
fa
09
f6
f2
fb
fb
f7
07
07
0e
fe
ee
04
f6
fa
04
ea
02
fe
fd
fb
f2
0a
02
0c
fb
ee
fc
fb
fc
11
07
f2
07
f9
01
fe
e8
01
f9
0c
fe
0b
04
fc
f3
0d
0b
fa
00
fa
f5
0d
fd
fd
07
02
f7
f3
11
00
ff
f6
f2
02
07
03
fb
fa
0a
ff
0f
f3
ee
f3
fe
09
fc
02
03
00
fb
fa
0f
07
00
03
fe
ff
02
fb
0b
15
1b
ea
f7
08
fe
fb
ef
02
ef
fd
03
f4
f7
fb
0c
f3
0d
f5
fc
08
fb
07
05
06
07
f4
05
0b
00
fc
03
09
fe
fb
fd
fc
04
02
f3
00
09
f1
05
03
ff
00
f7
fe
08
f9
09
f8
02
13
f8
fd
f7
07
05
09
0f
08
f8
f7
fe
04
fc
f9
04
f0
f8
07
00
04
02
0b
02
ff
f2
f3
03
f9
00
00
08
fb
fb
04
f6
f8
07
0a
0f
f1
02
f9
f7
fb
f7
f7
06
06
05
f8
04
0a
11
f5
09
06
02
08
01
f8
fd
fd
06
f7
fb
f8
02
07
03
f3
0f
00
fb
06
f2
fd
f8
f7
07
f9
e3
0a
f9
00
0a
f2
06
fe
03
05
09
fc
f4
09
f4
f7
ee
0d
fd
fa
0b
fd
01
00
07
fa
f6
04
05
09
02
02
fd
f8
00
10
f9
10
01
fa
fc
fa
f9
07
0f
01
fa
16
fe
f5
f7
f8
fb
fa
f9
0b
0c
10
fb
ef
04
ee
f6
ff
ff
f7
0d
07
06
fc
02
fc
07
ff
01
12
07
f6
0a
01
fc
0d
0b
f9
fe
04
f1
11
fb
0b
06
00
fa
fd
fd
0b
0b
08
f9
dd
fb
06
07
0a
ff
08
0d
f5
f7
fe
05
04
07
f9
0c
06
02
ef
03
fb
f5
0c
0a
f0
f5
04
0c
01
f7
f9
f7
00
00
04
fb
f0
07
09
fb
f8
fa
06
01
ff
0a
06
f9
fc
08
02
08
f1
05
f7
fd
00
0a
f8
01
f0
f5
fa
05
f9
00
04
ee
01
01
06
0d
f9
f1
04
05
fd
fd
fe
f6
fd
fd
f8
f7
0e
ff
f0
04
0c
fa
ff
fe
11
ef
ff
fa
06
f8
04
06
0e
ff
07
ff
05
f3
07
03
03
e6
fc
fc
f6
01
0d
0a
fe
05
fb
10
02
14
fd
f9
00
f0
01
0b
fc
04
01
0d
03
03
fa
0c
ff
00
06
f6
fa
ec
fa
ff
0a
0d
06
fc
02
00
ff
14
ee
06
00
fa
0c
fc
02
fd
04
06
04
05
fe
03
fc
01
0f
fe
f5
08
01
01
fc
fa
f5
04
0d
f2
ff
00
04
ff
09
f8
f7
02
01
04
05
f6
fd
0a
ff
06
06
00
03
06
06
f7
02
0a
06
f9
fd
fa
03
0b
0a
0a
00
09
07
f8
f8
08
ff
0a
08
06
00
f1
01
0a
f6
0c
06
02
f7
f8
08
ff
f7
fa
fd
0e
0a
14
fd
ff
fd
04
f9
f3
ff
0a
05
07
fb
fc
0a
0b
fd
05
06
0e
04
fc
f7
0c
07
0b
01
10
0a
04
08
f7
12
05
05
06
08
05
fc
0e
fe
fd
fa
04
04
06
fa
0e
ff
ff
f9
08
fa
fb
ff
fa
f8
fd
00
fb
01
00
fb
03
0f
07
fc
02
f7
00
fc
f8
f7
fd
0b
00
0d
f3
ff
03
09
fc
06
ff
16
fb
02
e5
00
fd
04
04
08
fa
0d
03
f8
0c
01
fb
f9
fb
fb
01
ff
01
0c
f3
f1
f8
fd
ff
ff
01
01
fc
0a
04
01
fa
fc
f7
fa
05
ff
01
05
fb
03
05
07
04
fb
fb
f1
fd
fc
04
f4
fd
01
09
fc
01
09
0c
fe
04
fe
04
04
0b
02
02
05
fe
f8
09
0d
f4
fb
07
0c
02
fd
ef
fe
01
0d
04
04
0b
fe
03
fb
00
05
0b
f1
ec
07
01
ff
07
ff
07
f7
01
0d
15
02
f8
06
fd
f5
fc
03
fe
07
08
00
0a
01
f7
fc
ff
09
06
03
1d
02
05
0a
07
fd
0c
fa
0a
f8
fc
fe
00
f6
ef
08
02
0c
fc
01
f8
01
03
02
0e
02
18
04
fe
0b
f1
04
ef
08
f9
fc
01
0a
fc
fe
12
04
fb
fc
01
fe
04
fa
02
03
00
00
03
09
fe
f6
07
0b
00
07
10
fc
04
06
fe
0e
11
0d
fa
fa
01
f7
ff
0b
fb
02
04
02
02
02
07
05
04
07
f8
09
03
01
fd
f7
fc
00
13
fd
fc
12
03
06
f8
07
00
02
fe
11
06
f8
f5
14
08
fa
f6
ff
f8
ff
fc
f7
06
0a
01
01
0a
fd
fe
01
f6
ff
08
fe
f2
00
f4
06
fa
14
02
01
ef
10
00
07
f9
06
06
05
05
0c
fa
0a
fa
ee
f7
06
fe
f6
04
01
f9
04
f1
05
05
f3
04
fc
08
f4
fe
f8
f7
f3
fe
fa
f2
ff
fb
0a
0d
f2
f9
f5
fc
f6
f8
06
05
02
f9
fd
0c
14
01
03
20
ff
0d
ff
01
ef
08
fe
fc
07
fc
04
10
ec
05
17
f8
02
f8
fc
ff
ff
f7
09
0d
0a
0e
f7
09
09
0d
fd
07
01
fe
02
ff
03
06
ef
11
11
f0
15
02
ec
07
0d
ef
16
09
0a
01
fb
f6
06
02
07
05
00
f9
02
04
04
03
00
09
05
0b
01
02
06
f9
fe
00
06
fa
05
f3
f5
04
08
02
fc
f7
03
08
fc
fd
02
0a
02
fc
00
0c
07
ee
fc
f1
fe
00
09
0a
ea
10
fa
10
ff
05
08
08
01
01
f5
f9
f8
03
fd
f6
f7
00
02
f5
12
03
01
0d
fd
03
ff
11
0b
09
f1
fa
10
f8
fd
f6
0c
f5
00
0c
00
fc
08
f8
09
08
10
05
fe
09
f7
fd
fa
12
fe
01
06
f3
f8
fe
fd
0a
fe
fe
f7
03
ef
fe
01
05
ff
0c
11
02
ff
0a
04
ff
15
06
0e
02
05
fa
0c
11
03
f9
07
08
fe
f0
f7
fe
f8
ff
0a
f0
f0
09
fd
09
06
07
01
06
0a
0e
02
08
f9
07
f9
00
06
f8
0f
08
f9
f4
15
06
0b
0a
fe
fd
03
06
00
f6
ff
0f
0b
fd
05
fe
f3
fe
09
08
08
0f
fa
fe
ef
07
ff
04
fd
03
02
fb
04
05
f5
04
0c
f7
ef
03
fa
f7
f9
f5
fa
f7
fa
02
10
04
fa
02
09
08
03
09
f2
fc
09
0b
fa
ff
03
f6
f9
00
00
f2
0f
06
08
fb
f8
f6
fb
fc
fd
fe
11
10
ff
fb
fa
07
07
04
ef
fe
13
fe
fd
0f
00
f0
ff
08
0a
02
ff
05
f5
05
ff
f9
03
14
04
f5
00
ec
06
14
fe
fc
02
02
ff
03
fb
05
fa
0d
04
12
f7
ff
ff
fc
05
f8
f7
09
09
03
00
f1
00
fc
fa
07
f9
01
0c
05
00
03
06
fd
04
f7
08
f8
09
03
0e
fb
f0
04
fe
f9
0a
f8
04
00
07
fb
03
0b
fe
fa
fb
f1
0c
09
1c
0c
04
fc
ff
ef
f2
00
ff
04
05
f6
01
09
05
01
07
fb
fb
0c
0a
03
07
07
03
02
f4
02
f1
06
fe
fd
03
03
f5
f2
f8
fa
f8
05
0b
15
f2
04
f7
f5
f7
fa
ec
f8
05
f9
0d
0e
fa
fe
0c
04
03
fc
f8
f5
00
ea
08
13
09
05
18
fc
fb
17
f6
11
04
ff
fd
11
09
f2
0c
03
12
02
f2
f4
03
fa
f1
08
01
08
07
f4
f6
fc
1b
03
0b
f0
fc
f8
f1
fc
fc
f5
ff
0f
fc
f9
01
fd
fd
0e
05
09
00
ff
05
08
fc
05
0e
09
00
08
00
00
ff
fe
f9
0b
05
08
0c
05
fe
03
04
0b
00
e8
f5
fb
fe
07
10
f9
0b
05
03
02
e8
00
f5
05
07
fb
f3
05
fd
01
05
02
0a
fd
09
01
ea
05
f5
05
f9
f6
fc
04
01
12
06
02
02
f1
02
fb
0c
08
f0
07
f9
f9
ff
e7
fd
f6
ff
f9
06
f2
06
05
fa
05
06
04
ff
07
f2
0d
e5
0a
ea
00
fd
f9
05
03
00
05
0e
f4
00
f9
04
0a
fe
fb
f8
0b
f4
ff
05
05
eb
f8
fd
01
f8
f3
02
0b
fc
11
01
f8
fc
fa
0d
05
02
fe
07
f9
fe
f6
f0
fb
0f
05
fb
00
0b
f9
fd
fc
fb
04
f1
0d
fd
06
ff
ef
f8
02
00
07
fe
f8
f6
0c
fe
05
01
f7
05
ff
02
06
fb
f6
00
0e
08
0d
f6
fd
11
ec
f0
fe
fb
f5
ec
0a
0e
ff
01
fb
07
00
04
0b
07
05
fb
ea
05
06
fa
f3
ec
0d
08
fb
07
fd
0b
fb
07
fd
f2
fc
fd
f9
0c
03
05
ff
01
f9
02
03
0b
04
f8
f8
1c
13
fd
f5
0f
f6
fb
04
f9
00
12
fd
06
0d
fd
f2
fc
07
07
00
ef
f7
02
0c
f8
fc
06
f8
0b
fe
f7
fd
0a
fc
03
f6
f9
10
0b
f3
08
fc
04
ff
fe
0f
02
fc
02
ec
0c
03
0a
00
f5
f2
00
07
f7
ec
f9
04
01
01
fb
09
0b
12
03
01
ef
00
01
ff
f9
06
fe
06
04
04
09
f8
00
0b
ea
f7
fd
f4
00
fc
ef
01
00
f1
f2
02
06
f2
f4
f9
0a
0a
01
0e
05
f7
f9
f8
00
fb
01
f2
0c
00
fc
0c
fb
01
04
06
03
06
02
01
f1
fb
fc
00
03
fc
01
fb
ff
ee
fa
ff
05
ff
02
02
f8
00
09
19
0b
0e
fe
05
fc
0e
02
09
04
04
f3
01
0c
01
02
04
02
fc
fd
08
fb
04
f8
01
03
fc
fd
f5
07
fd
05
fa
05
07
04
fe
14
ee
fc
04
ff
03
fc
06
f9
fb
02
04
f9
f9
f6
ff
04
f9
f9
f7
06
11
f7
03
04
06
f5
05
fa
05
07
0d
f2
fa
00
08
02
fb
fc
07
f9
fa
05
ff
02
fa
02
fe
0e
0f
0d
f3
ff
fe
07
06
fe
01
fa
05
14
05
f9
00
08
0a
fc
00
04
07
01
01
f7
fe
08
fa
01
02
05
03
f8
fe
f9
04
f6
05
06
ff
ff
02
00
07
ef
03
05
09
05
03
fa
fa
f9
fc
fb
05
03
fc
07
02
f0
06
09
07
fd
09
00
fd
fa
05
06
06
04
fc
07
01
f2
f9
04
fb
02
00
04
08
f9
01
f6
fd
04
04
fc
fc
f8
08
f8
fc
02
03
f1
f9
10
f9
08
00
fc
f8
0d
ff
f9
fe
fe
01
fd
07
04
07
fa
08
f1
07
04
04
08
ff
00
12
fd
fe
01
04
02
f8
0c
07
01
01
fd
07
f5
0b
00
01
fc
0a
00
01
02
fd
fc
06
f9
0c
08
fe
06
fa
fc
f9
ff
f6
02
04
05
04
fc
01
03
02
04
08
fc
f7
04
06
fd
05
01
06
09
01
03
ff
00
f4
fd
fc
f6
01
04
00
fa
fa
fd
0e
02
ff
f5
04
02
f9
fd
fe
f0
00
fc
fd
ff
fe
ff
fd
fa
05
00
05
03
01
06
fe
03
fb
f7
0c
01
04
00
fa
09
06
02
fa
fa
fa
f7
0d
02
03
fa
ff
fb
fb
ff
09
fc
01
fb
fd
fd
0f
00
fa
07
fa
ef
00
fb
06
fb
09
03
07
f9
04
f9
f4
03
04
06
01
fb
f7
00
07
f9
01
02
02
f4
fb
f7
fe
04
f8
01
00
fc
0b
09
06
fa
01
06
fe
0b
06
04
05
ff
fd
f9
10
06
f7
0a
08
fd
fc
fb
00
fe
02
03
f1
03
09
fb
fe
0a
03
f8
01
f7
fe
03
fc
07
02
0b
fa
09
02
f2
f9
f7
f7
0a
07
02
04
f1
0c
fb
01
f2
06
09
07
06
05
fd
06
09
fb
03
fe
f6
f7
05
08
04
f9
02
05
ff
07
0e
03
f4
0e
01
04
ff
00
0d
08
fd
ee
fa
11
00
09
03
01
00
16
ff
fc
fb
03
08
0a
fb
f6
fc
07
03
01
12
fb
04
0a
02
03
02
ff
01
06
04
fc
0f
04
fc
0b
02
01
fc
f9
0a
04
0b
08
0b
0b
0d
ff
ff
fa
04
08
fe
08
01
f8
00
01
0a
ff
f2
fd
ff
f1
05
ff
ff
03
f6
fa
06
03
f7
fe
08
fe
09
fd
02
f3
f8
08
f9
fe
03
f6
06
fa
06
f8
fd
f8
01
f5
0a
fe
03
0f
f8
05
06
fb
01
08
04
f6
0b
04
f4
f1
ff
f4
03
03
07
ff
fd
f9
02
05
fe
03
06
f8
0c
0b
02
f8
fd
00
fe
fa
fb
00
f7
05
03
06
00
0e
f8
ff
02
ff
08
f4
01
0c
04
fc
01
f7
04
08
04
02
03
fb
fe
fe
07
ff
00
ff
fc
03
f8
f8
f2
fc
0a
06
04
0d
08
04
f6
f6
0b
09
08
f3
fa
ff
fd
04
0a
fe
f9
02
02
09
0b
fd
03
03
fd
ff
f9
fc
f3
03
0f
fb
f5
07
0d
fe
fd
fb
f3
03
04
02
0c
fd
f7
f2
fb
0c
01
fa
02
02
0a
09
06
12
01
fd
fd
ff
f1
ff
fe
ff
f2
0b
ff
fc
00
fe
07
fa
07
fe
fa
f3
0d
fd
0e
01
ec
0d
02
fe
fb
09
02
09
03
fa
02
fe
04
fc
f7
ff
fc
f4
07
01
fe
04
08
03
00
ff
f7
fd
fa
00
f7
02
09
fe
01
ff
fa
09
09
fd
fb
08
02
09
f7
fc
f4
ff
03
f6
0d
03
fe
f6
01
02
f6
fe
08
0b
07
07
fb
06
f4
fa
09
02
ff
0b
fd
01
07
f5
00
04
09
fe
ff
03
00
ff
06
0c
fc
06
f3
06
0c
f2
05
f9
08
01
f8
04
fb
01
06
10
14
08
06
04
fa
00
f6
02
01
01
fb
03
ff
03
06
05
fa
04
fa
f8
05
ff
fa
fe
fb
0a
03
02
08
0a
00
ff
ff
fc
0a
f7
04
fa
08
fe
ff
fd
02
0f
02
05
00
00
01
fa
fd
fb
04
f6
00
00
00
fa
f9
00
0b
02
05
fe
f8
00
f7
06
07
fc
06
01
08
04
04
01
02
11
04
01
f8
ff
08
01
fa
f8
07
03
0b
03
12
04
ff
03
09
fe
02
04
06
09
00
0c
f6
fb
f7
fd
fc
04
f3
04
02
04
01
f9
fc
f9
07
fd
00
fb
03
fb
00
05
01
07
fb
fa
fd
01
08
fd
05
fe
0b
fb
f7
07
01
fc
fd
fd
04
11
f9
0e
fb
ff
07
fe
03
07
fb
04
00
fa
f9
00
04
f6
02
00
09
f9
04
f8
16
f0
ff
fe
f2
fc
fa
ff
08
07
ef
f1
03
01
00
09
fd
05
fc
10
00
07
05
01
fd
f7
f8
00
e4
06
fb
01
ee
0a
12
fc
fb
07
02
ff
00
18
ff
03
fe
00
03
05
03
f8
10
02
fb
00
fa
fc
f8
ef
04
0a
06
00
0b
00
f1
05
0e
01
ff
03
fb
ef
fc
fb
0d
06
f8
fd
11
fa
f9
f3
07
ee
01
f7
02
fb
10
06
04
02
04
03
f5
f2
f0
0b
fc
07
14
06
0a
05
06
f8
19
02
f1
07
fc
fe
0b
fd
fd
fd
f8
f8
14
f7
04
0f
00
0f
05
05
ff
ff
f9
01
f8
00
fa
01
f3
04
f6
f3
f1
f7
0a
f9
05
fe
fc
f0
01
f6
08
0f
0d
f9
ff
04
0c
11
f9
fd
f4
f9
f3
ff
f7
f4
f5
00
ee
01
12
06
01
fe
e6
02
f9
01
f9
0a
09
eb
0d
f7
e2
fc
f2
15
04
f6
f1
f7
fb
f2
09
fd
09
00
14
fc
f9
f5
14
04
ff
06
10
02
fb
fc
f9
fe
f6
04
fe
f0
05
00
fc
03
03
f6
ff
00
10
ee
f1
07
f2
fd
05
07
f8
fc
fe
07
0d
fd
0e
fb
02
00
04
01
00
08
09
f3
05
00
0a
f5
fc
f3
0a
05
ff
f8
ff
f1
f4
ff
f8
00
fa
04
f8
f3
0e
f2
f5
00
fa
ff
03
0d
f9
05
13
ed
fc
00
0a
01
fa
f5
09
fd
fc
03
ec
fb
02
fb
f8
0d
fe
0d
f2
fc
03
00
f9
fd
f7
03
f5
06
eb
fe
fd
fa
0f
f3
fc
f9
0b
f8
fb
02
09
f3
fb
fa
03
fd
fe
0c
08
03
ff
fc
ff
01
08
05
fe
00
f8
02
fc
f4
0b
06
fc
0c
00
fe
ed
08
ff
fe
00
04
12
0d
0a
0c
0b
04
fe
11
08
0b
02
03
f9
07
f2
f6
0d
05
00
08
f9
ef
01
f8
fd
ee
00
ff
ff
05
04
fb
ef
f8
03
01
fc
fb
07
03
09
ff
fa
0a
0b
fe
fb
fd
05
f4
0e
04
01
0e
ff
f8
ef
f5
08
f6
13
fc
0b
0d
f7
fb
03
f6
f8
f5
08
03
13
f8
07
02
01
07
fb
03
f3
04
ee
fe
f8
05
05
f7
fc
fa
f3
fd
fb
fa
0f
04
05
fc
f5
f8
fe
fd
13
eb
06
ee
04
17
e6
03
02
01
f8
08
f8
fa
06
08
f4
ef
ed
0a
04
06
f2
14
f9
f1
fb
f9
f9
fe
11
0a
01
03
ff
f8
04
fb
03
09
03
0d
f7
fc
eb
f3
07
f1
0b
03
f9
f3
01
06
0c
fd
f2
06
02
fa
f9
f4
0a
0a
eb
ff
17
01
08
07
f6
f8
ed
f9
01
fe
ef
ff
f1
08
0a
02
eb
04
f0
05
0d
ff
ec
03
11
01
fd
ff
fc
fa
07
06
07
05
ff
08
fc
0c
fb
fb
01
ef
0b
02
10
05
fb
fb
f6
fc
0a
f4
ea
fd
fb
e8
06
02
f6
fb
06
00
f1
f9
fe
fa
f5
0f
ff
ff
f6
fe
07
00
0b
04
fe
e9
fa
01
05
f3
fc
fa
06
03
0e
f6
f6
f2
08
fa
01
0a
03
f7
fb
08
00
02
0a
f6
0e
f3
ff
fb
00
fc
12
e7
0e
eb
fb
ff
0b
fe
00
08
f1
09
08
00
02
01
1b
fa
ff
fb
f9
05
fa
08
f0
06
09
f4
fa
fd
05
fd
f4
0c
02
f9
f9
fa
f3
0c
fb
02
0d
fa
f7
0a
fb
fd
01
0d
ff
0b
08
07
02
06
fd
0f
17
0c
03
04
fe
fd
fd
fe
09
04
fe
03
f3
01
05
11
f6
fa
fe
04
f4
fe
04
f9
01
08
12
05
fd
ef
f7
f4
f1
fc
fa
fd
15
fe
f9
00
0c
07
13
fa
08
fc
14
f5
11
ed
02
ff
fe
f9
00
fa
07
03
f6
fa
05
07
02
ee
fa
06
fd
00
06
04
fa
02
f1
00
fa
0b
0f
fa
08
12
f3
ff
ff
fe
0a
fc
00
04
09
06
f7
02
07
ef
00
04
07
01
08
01
09
f5
00
0b
0a
f6
f4
10
ff
09
06
f0
f2
04
f9
f6
f9
fe
06
08
fb
00
05
09
ff
0c
fb
0c
01
0f
05
f9
02
0e
fe
fd
06
09
fc
f4
02
fc
00
0d
f9
00
f1
04
03
0e
00
08
07
0b
f6
04
fe
fe
07
0e
fc
10
fc
f5
04
09
01
09
03
fe
f4
0a
09
fe
05
10
fd
f6
f8
02
fc
fc
06
ff
01
0e
03
f4
03
fb
05
f8
10
f5
01
04
f7
fc
f2
fc
eb
f8
0e
07
00
fd
07
18
0b
fc
fa
f2
04
0b
f6
05
06
07
ee
0d
f3
0e
06
fd
00
ff
fa
f4
f3
0d
01
f0
f3
0d
0b
06
02
fd
01
f5
04
02
f6
fc
0e
ee
09
ff
0d
f3
05
05
f9
0b
0a
0a
08
ea
07
0d
f8
0b
0b
f7
f5
f9
f7
fd
01
f4
04
09
fe
f7
02
04
0b
f4
f9
fc
fa
f1
03
00
ff
09
03
f8
00
02
08
03
03
04
00
fa
03
07
f7
fe
ef
0b
f4
00
00
02
fc
fe
03
05
fc
fa
0f
fd
fd
02
0c
fd
f5
ef
f2
02
f0
fc
fe
ff
0c
07
ff
fc
fb
0b
ff
01
0a
07
f7
fb
08
0d
f1
02
09
fa
0a
04
f8
01
08
02
06
f3
00
04
04
01
fb
0d
02
fe
06
05
01
ff
07
01
02
05
fe
08
08
fa
03
e9
01
00
04
f8
ff
08
01
0c
03
03
ff
07
03
fa
04
01
05
f5
00
06
0d
09
04
0a
f6
0e
02
08
00
fd
f6
01
fe
04
f8
08
04
0e
07
ff
00
08
fa
fd
03
f3
ff
ff
0b
07
fd
00
f6
05
06
ed
fe
00
fa
fa
06
04
09
0a
09
02
fd
fa
ee
0e
fc
f8
f1
fd
04
05
fb
f4
03
05
0c
f3
02
ff
02
03
fe
06
09
03
fc
f6
fd
01
01
04
f8
08
f7
06
f8
f6
ec
f6
fb
fe
03
01
00
05
fd
0d
ff
03
04
f6
05
fb
01
ff
f8
f1
fe
f7
f3
0b
fe
00
09
fc
05
ff
f8
f8
fb
02
01
00
09
03
06
fa
fd
02
06
fa
f4
f9
f9
04
fe
01
0b
fd
00
f1
0a
fe
02
03
fd
f6
fe
ea
f6
05
fa
0b
05
05
03
f0
fd
f8
0b
ff
04
04
00
fc
f1
ef
00
07
01
06
f3
ed
19
00
03
fb
e6
ff
fc
ff
05
03
01
10
00
fb
09
fb
fb
06
07
0c
0a
06
fd
f8
f6
02
05
f7
03
04
ee
fa
f6
12
f9
f5
ff
f9
fb
f3
07
fd
03
0f
fc
07
fd
e5
fc
fe
0f
0b
f2
f2
03
0f
fd
0d
fc
00
0b
03
05
0e
0e
06
07
00
ff
01
08
fd
0a
02
08
02
04
fa
00
03
fc
f7
02
fc
f5
05
fe
03
01
ff
ff
03
f1
00
f5
01
05
06
ff
f7
f4
08
fe
ff
08
ff
fc
fa
07
f5
14
fa
01
01
07
05
fd
00
02
f9
fe
ff
fd
09
f6
fd
ef
08
fc
05
03
f8
01
07
fc
08
fb
07
fe
0b
00
f8
0b
01
05
04
f1
05
0b
00
03
ff
fb
f2
fe
05
0f
fd
f6
fe
f5
f2
03
01
04
fd
f6
f9
f7
05
05
f0
03
fd
04
f3
ff
07
f5
00
f8
11
fd
08
ff
fe
fb
fb
fa
0c
f6
f7
f0
0e
f1
01
f8
f5
06
f4
fd
fa
fa
ff
04
08
00
01
f1
0a
04
fb
02
eb
f8
fc
fe
07
f8
f7
f5
fa
08
fb
fa
02
01
f3
05
fb
ef
03
04
06
f3
0c
03
0a
02
ff
03
05
fb
00
02
07
ff
ff
f5
06
02
08
fa
0a
ff
fc
f5
fd
0d
00
ee
05
0b
fb
f9
0b
0a
f1
05
07
fa
08
f7
fe
02
03
fc
fb
12
f4
0f
fb
05
f4
05
ff
00
14
fa
fc
01
fe
f6
f4
f9
f8
f1
fa
fb
f5
00
0a
03
fc
f8
ff
fd
f5
f1
fe
fa
08
05
09
18
fc
05
0b
f8
ef
06
00
fc
f1
04
0c
f8
05
fe
fb
06
06
09
02
00
07
fe
ed
04
0d
02
fd
fb
fb
08
05
f4
f6
fd
fa
f7
0b
fb
f3
07
f5
f7
ff
fb
0b
fa
ff
fe
f5
f6
02
01
02
f8
0e
ff
01
fa
f3
02
f6
fc
f5
03
0a
f7
18
09
0a
fd
09
0e
fb
f3
02
f9
fc
fb
ec
f5
07
fc
06
0a
ff
02
07
03
04
12
0b
0a
ff
00
f8
03
06
0c
e7
00
02
01
fd
03
f3
f9
03
0b
0a
00
01
02
00
f6
09
f1
f8
fa
0e
f1
03
fd
10
ff
f6
06
03
fd
fd
ee
05
fd
07
08
0c
12
fe
0b
f8
05
fb
06
00
fa
fe
0b
fe
fa
fe
0d
05
01
f8
01
01
10
ff
00
ee
fb
0a
fd
f9
07
05
ff
f6
05
04
0a
03
07
fb
03
ef
f7
f4
01
0f
f1
fe
0a
1a
02
ff
f9
fc
05
fd
ff
07
f4
fd
00
02
f8
06
02
fa
04
fd
f0
f3
02
0c
04
fb
04
f4
06
f7
00
09
f5
ff
12
fe
fa
fa
11
fc
fc
00
ff
ff
fc
f5
01
fe
08
fc
05
09
09
f6
fc
02
fe
06
ff
f7
03
f6
ff
05
0c
07
0b
f9
f8
12
e4
f3
fc
05
01
fd
fd
04
f8
05
fa
01
08
06
f9
0d
05
fe
fa
fd
00
fe
f8
f9
03
ec
05
fc
fc
01
f5
01
09
fe
08
f0
ff
ff
07
ff
02
ed
ff
fe
f7
00
f9
05
06
07
05
04
ff
f8
f6
f6
02
05
fc
fd
fa
0d
f7
0c
03
02
ff
fd
02
01
fb
03
ec
fc
fd
06
04
10
f9
07
00
f8
06
03
07
06
f9
07
ff
00
08
fd
09
fd
fa
f7
06
fb
0a
08
fb
fc
03
f5
f7
08
01
ff
f4
0b
fa
fe
07
0a
fa
fb
02
03
05
fb
03
f7
04
f6
0c
06
01
02
07
f5
02
fd
ed
f4
00
07
fe
01
f6
00
02
00
07
02
07
fd
06
f9
ff
0b
00
fb
fc
fd
0c
02
fe
06
fb
06
fa
f6
fb
02
ef
07
09
fd
ff
02
04
0c
f6
f7
ff
08
0a
07
09
fb
fb
f5
02
f8
f7
03
ec
fd
ef
f9
04
f8
02
00
fb
00
07
06
01
02
f9
ff
07
0c
02
0e
07
01
f6
05
f7
01
f0
fb
00
08
fb
02
fe
fd
fc
00
fe
f5
fe
06
ff
fb
05
05
fb
01
01
f7
fa
00
f5
fc
f9
f8
fb
fe
f9
f7
04
fa
fe
f8
08
02
f4
f1
01
09
0c
fd
0a
08
f3
00
03
0a
ff
f7
ed
04
f4
00
04
00
fe
fc
fe
04
fe
ff
fc
07
ff
00
ff
02
fa
04
05
fe
0c
05
f1
fa
0d
ff
01
fe
0c
ff
f4
fa
f2
f1
f4
f9
f4
f0
01
fc
00
0c
fb
08
f5
03
02
01
02
fe
fb
ff
02
f0
fe
ec
00
ff
01
f6
00
0f
fa
fe
03
01
f8
01
fe
02
fb
fd
ff
f6
03
05
fc
f5
07
fd
05
06
ef
fd
ff
02
fd
f6
f9
ff
f4
f0
fd
fe
fd
06
0c
ed
05
fe
03
ff
07
0f
07
09
0d
f7
06
06
13
0e
ff
07
06
fe
00
fc
00
0a
03
02
0d
15
05
03
ff
fd
01
07
ea
f2
f7
f9
00
0c
0e
f5
02
fa
07
f6
00
02
fb
0a
0c
fa
f4
0c
fd
fd
0b
08
f6
00
02
f7
fb
fe
0a
00
0f
fe
00
f3
0d
fc
fd
fa
03
f9
f9
fa
f6
ff
fd
06
ff
f6
f8
03
fd
07
f9
fc
05
fc
05
fe
06
02
0e
fe
fc
05
f3
07
01
f5
07
ef
02
0a
08
ea
0b
f3
f5
08
f6
fe
ff
0a
ff
02
f2
ff
0a
fd
02
03
fa
03
08
04
02
02
fa
06
0d
02
fc
fd
02
03
09
01
fc
f7
fa
f9
03
01
08
f8
04
fa
f8
fb
fe
06
0a
15
f9
f9
0b
f6
01
fa
f7
fe
09
03
00
ee
fd
fa
0f
ff
01
0c
07
fe
ff
f5
f4
fe
05
fd
f4
02
00
fa
fc
06
07
ef
02
f1
07
ff
08
f6
ff
04
06
0f
00
f8
fe
00
f8
ff
ff
f5
f7
f8
0c
ff
fd
ff
05
0d
03
f6
02
07
02
02
fd
f6
fb
05
f9
f8
03
03
08
fc
fa
08
fd
f1
f9
05
fe
02
fd
ff
f8
02
0f
02
02
ff
04
0c
01
f9
fc
0a
fa
fc
fa
05
f4
fc
fd
0f
04
05
03
f7
04
00
fc
0b
07
09
00
fa
04
05
03
f6
fe
06
f5
00
03
0c
fe
07
fa
04
fa
fd
01
03
07
0d
05
08
f9
f9
01
02
0a
fb
03
00
f8
0b
fc
ef
05
f7
fa
15
09
11
0c
02
fd
f8
fa
f4
01
ff
05
05
01
03
fe
04
04
f6
08
08
fe
f4
16
0a
09
08
04
0c
0c
f6
00
04
0b
00
fa
02
ff
fa
ff
05
ff
f7
04
fc
01
f9
01
0d
fb
09
fd
fd
09
fc
0b
fd
05
fc
0c
03
04
fa
06
f8
02
fc
f4
f7
fa
f6
fd
f4
07
0f
f0
fd
f7
0d
0c
fd
04
06
f5
fb
0b
03
ff
01
08
f6
ff
fc
fe
f5
f7
f2
f3
f7
00
01
f8
11
00
ff
fa
fd
09
fe
08
00
03
f9
f3
09
f0
00
04
03
fc
05
f4
f7
0d
fd
f5
02
0d
00
f8
04
06
f7
ff
fc
09
01
0f
02
01
f8
01
fb
f8
ff
f6
f3
00
03
f7
02
03
fc
fe
f9
fd
fe
09
fb
0b
fc
04
fe
00
01
04
f4
fd
09
ff
0d
fd
01
ed
07
06
03
fd
00
f6
0a
ff
ff
08
07
fe
f3
09
12
fa
01
ee
ef
f7
07
0b
05
06
0a
01
0d
fd
f5
06
03
ff
fb
00
05
05
0a
03
0b
06
f7
fd
09
f4
02
04
07
01
fc
f7
00
f5
ef
ff
fb
04
0e
02
f5
02
0f
f4
0f
03
f2
05
00
0a
08
08
03
00
fe
ff
fc
fe
03
ed
0a
ff
01
ec
10
02
f8
05
fc
f9
fa
ff
02
0a
f9
fb
04
04
04
0a
0e
fe
f5
07
f7
f8
fe
00
fd
fd
ff
fc
03
07
04
0c
fe
00
05
0e
f4
f6
fc
ff
08
09
04
0c
09
ff
00
02
fb
f9
f9
05
fc
f2
05
f9
ed
fc
00
f8
f9
0c
02
f6
04
0a
01
fd
00
f9
fe
fb
06
00
02
ff
05
09
fd
fa
f7
fe
f7
f7
fe
07
f7
04
fc
05
f5
05
f2
f6
f7
00
09
ff
0c
f6
f4
00
06
fd
fb
04
fe
0a
fd
f6
08
f1
04
06
fe
00
04
05
07
fd
f6
00
06
01
0a
f4
00
f1
f6
e3
f8
f6
06
06
f3
00
03
09
09
f8
12
07
03
10
08
02
1c
06
fa
f9
0d
07
06
13
0b
10
f8
05
fb
ff
f1
f1
f4
07
12
0e
0e
02
03
eb
02
ed
0e
f3
f1
13
03
10
ec
00
fa
03
06
f9
f4
11
eb
fb
02
fe
00
11
0e
f6
f3
02
04
04
01
06
fe
f2
fe
08
fa
00
04
fe
09
09
11
f1
f5
ef
fb
04
f9
f9
fb
e4
17
0e
f5
d9
fd
f2
02
f4
01
17
fe
f4
01
f4
02
0e
0e
fc
ef
0e
f5
04
f8
fe
f6
fb
0d
02
09
08
03
ef
08
fe
03
fa
12
02
06
f8
07
eb
17
fc
f9
f7
f5
03
05
02
06
01
fe
08
03
f7
05
04
fb
fb
fc
10
03
01
f6
e4
03
04
0d
fe
08
0a
f9
0b
02
f9
01
03
fc
00
fe
0d
15
ef
00
12
ff
0e
ed
e7
ed
09
f7
f7
fd
fc
0c
0b
f3
e4
ff
0e
f5
f2
03
f5
02
11
02
fa
e7
fe
12
fa
0a
ed
05
09
fe
00
f7
ed
0c
0a
ea
13
fc
fc
09
f8
11
06
f9
04
fd
fa
fd
03
f6
01
fc
0a
f9
03
f3
11
08
0a
fa
1c
06
f9
f8
f7
00
fe
0d
fc
fc
01
0f
fc
ff
f9
0d
00
04
f7
ef
fc
09
0e
0e
f1
f3
f3
fb
ee
f7
f8
02
f9
07
0a
f0
12
f9
f0
f5
f3
0d
04
04
04
00
0f
05
04
06
f7
fb
09
0a
0a
05
fc
0c
f7
fc
f8
fa
fb
fe
01
05
f7
14
0a
0e
0e
19
f4
04
0c
f7
fe
fe
ec
f8
03
ff
fa
fd
10
fe
f7
f8
04
fe
15
ea
00
fd
f5
00
02
04
f8
10
02
ff
16
f0
f8
0f
f9
00
f8
03
03
f9
f4
fe
ff
ed
0a
fd
f1
f9
f6
07
02
f8
03
07
08
fe
eb
f6
03
f7
fe
0b
04
18
fc
fa
07
03
fc
03
f9
11
f5
19
00
04
04
00
fc
00
01
03
06
fd
11
fb
05
fc
06
0b
03
f5
03
f5
0a
ec
05
04
00
fb
01
fb
ef
09
f8
fd
fb
0b
0c
03
ef
13
01
12
0b
0f
01
fe
0f
ff
fc
f5
fa
01
f7
09
01
fc
fb
05
fe
13
f8
f3
04
f5
10
f3
ff
08
0b
f3
f0
fa
ff
f5
0b
04
0a
13
0d
ff
fe
14
f7
f8
fa
07
07
ef
f9
06
f9
ff
f3
f8
03
f3
f7
03
00
01
09
fb
f1
09
f9
0b
f6
fb
f5
15
f1
fe
0e
07
fa
f2
08
fa
e6
05
0e
fa
06
f3
04
e9
f8
fe
f3
03
0e
f9
03
f7
12
f3
fa
05
e4
0c
05
f2
f2
09
09
02
07
01
fd
f7
07
0b
ee
0d
12
0a
f2
eb
06
17
f7
0e
f4
1c
0a
ff
f4
fd
0a
05
09
e5
fa
04
04
f8
00
0d
0d
01
fc
ff
fd
0a
f3
02
0b
e1
15
06
06
09
f1
10
fd
10
fc
0c
fc
f5
f1
f0
02
ee
04
03
08
f9
05
0e
fe
f9
04
fa
f1
04
ff
05
04
02
08
03
ff
04
ff
fb
03
fa
e4
f3
0e
fa
07
fd
fe
ff
ea
fd
05
05
f3
0e
15
ff
05
f8
f9
0c
f1
04
00
03
09
fe
08
f5
0a
11
fb
f6
fb
0d
08
0b
03
fe
0c
0a
01
fe
fe
1a
ee
f9
0e
11
0f
f6
f4
fb
fb
0f
f5
fa
fa
01
0d
18
fa
ec
03
01
05
12
07
00
f7
f4
10
fa
fc
01
fa
08
f9
01
0b
fc
02
00
f6
05
fc
fb
0f
fd
0a
04
02
00
f4
07
03
e6
ff
0e
f9
fc
00
ed
05
fd
15
09
01
fe
fc
01
f2
02
0d
0b
f6
15
f1
00
02
03
ff
00
02
f3
f9
ff
01
0d
e9
f9
fa
05
fb
f1
fd
fa
12
11
ec
fb
08
f7
e7
fb
fa
10
08
fc
01
02
f9
08
f7
0f
f6
07
0b
f6
fb
12
10
f0
fa
0c
f8
e4
fe
f6
07
fc
f9
1b
fb
f6
fb
fe
06
f6
05
fc
fb
f8
fb
ff
03
eb
0c
fb
f2
f8
f7
ff
0d
f9
fe
03
fa
04
fa
06
0b
01
ef
01
09
00
04
00
f1
f4
f2
fe
02
09
fe
f7
f1
f5
07
fc
f8
09
06
ff
07
03
fd
f8
24
07
f9
02
ef
16
0a
0b
fa
f1
f9
e4
08
01
f6
08
0b
fe
00
0d
fa
f6
04
18
10
00
07
0a
f4
fc
f8
f9
fd
e7
03
f4
f5
f4
08
0c
04
07
04
07
09
f1
fc
06
03
0f
ed
01
f8
06
fe
02
fe
00
0b
fb
f8
04
fb
0a
f8
f7
11
ff
07
0d
12
01
fd
f8
07
fe
f8
fe
ff
fb
fe
01
ff
00
07
03
00
02
0e
fc
fd
fb
f7
f5
09
d2
0d
fb
06
f8
0e
17
0f
06
13
0e
f4
03
f7
fd
10
0c
08
10
0f
12
04
17
16
f9
08
04
04
f6
fe
fa
08
0c
fa
f1
fb
f7
fe
0c
04
0f
08
04
fb
fc
fa
f8
04
08
fc
00
02
01
04
03
f9
01
f7
06
06
07
04
04
05
fa
09
ff
08
fd
03
09
08
09
07
04
0e
f5
06
f8
fb
f2
f8
02
09
0f
ed
f7
fe
04
f7
f2
f5
09
fa
08
fa
f5
fc
03
fd
fc
fd
0e
0d
fa
fd
03
05
02
fa
fc
04
0e
02
0b
08
0c
ff
0d
00
f3
f5
02
f8
f5
0c
15
02
fe
fd
00
02
f1
fa
fe
f5
f3
02
00
fd
ff
0c
f7
0b
0e
05
0c
07
04
f2
05
02
07
0b
f4
00
0c
0a
fc
06
f5
01
01
f7
fc
03
fd
fa
04
f2
07
fb
f6
09
00
01
f5
ff
fc
04
fa
01
f9
00
f8
f3
03
f9
fc
03
09
02
f8
fc
07
fe
00
f9
ff
e5
f8
f8
06
00
00
04
fe
05
07
fd
f5
f3
f9
ff
05
07
f8
f4
ec
04
00
02
fa
02
fc
09
08
f2
f5
03
0f
00
05
f0
0a
ff
f9
00
0e
06
02
09
11
fc
07
fd
ff
02
04
fb
fd
fc
f8
fc
06
04
f0
f4
08
0c
fd
f8
f7
fb
f4
01
09
08
ff
03
eb
f4
fc
08
fb
f5
01
04
f3
00
f4
0d
06
01
f8
03
f8
0c
e5
00
09
f7
ed
f6
0e
f5
05
01
fa
ff
0c
09
01
05
01
00
06
05
f9
09
f9
00
ea
fa
06
0e
fc
0f
01
02
ef
03
f4
fb
fe
0d
13
f9
fc
fb
11
02
02
fb
05
f2
0d
0b
f8
03
03
ee
f6
fb
0d
f3
08
f6
fd
f6
fd
fb
fd
f6
f3
f5
02
08
02
f3
f4
ed
fb
fb
0a
fc
02
fd
00
05
fb
fa
0d
08
00
01
0a
06
fe
08
fe
0d
f4
fc
fa
f4
fe
00
f6
f6
0c
fd
fc
0f
0f
10
f2
06
f5
04
f9
ff
03
eb
02
03
fe
fd
0d
f6
e9
17
03
f8
fa
f8
02
f5
f6
f5
04
f8
f5
f2
f6
06
ee
03
fe
fd
fb
0d
07
fe
ed
0a
04
01
f3
01
08
02
fb
09
0c
0f
12
01
f0
06
02
f0
04
04
09
0e
fb
01
05
f8
08
08
f6
fd
0d
05
02
fb
fc
05
04
03
05
ff
fe
fe
0c
08
02
f7
ec
01
02
f4
fc
02
07
04
0c
01
ee
03
01
10
fb
01
fa
fb
ee
16
04
0c
05
fe
fd
07
f2
07
0b
f7
0b
fc
fc
0a
e8
f1
09
00
f4
01
03
fe
f7
fb
03
fe
fc
0b
fc
05
f9
02
00
fc
0b
06
f4
0b
00
08
f7
f2
02
f4
fb
f8
07
f7
f2
00
11
04
0a
eb
fd
fb
0d
fa
fb
fd
01
f5
00
f9
ff
f9
fb
f8
0c
07
13
fb
f7
13
04
0b
f8
08
fd
fe
02
11
02
f8
10
02
f9
fe
0f
f4
fb
0f
04
00
fe
04
f1
f8
00
f6
07
f2
fa
fe
11
f5
06
04
f9
05
fe
f1
f8
f6
ed
0a
12
06
10
06
ff
0a
f9
02
07
07
f6
fa
f2
02
0c
f7
f2
1f
09
03
0b
ff
01
08
fe
02
00
fa
f6
f8
f6
01
01
06
0d
fe
fa
08
01
f4
fd
01
fd
00
f9
03
0e
fa
fb
05
f4
04
fe
08
fd
0f
f7
fb
fa
06
fe
04
04
02
f7
fc
05
03
fe
0c
f8
02
f7
ee
f5
03
0c
f8
f6
09
05
fc
09
f1
07
fa
f5
04
f2
fc
f7
01
0a
04
0e
09
fd
02
06
0a
07
fc
fc
02
f9
fc
00
fc
04
03
05
fa
06
08
0a
f5
e7
fa
01
03
f3
f7
03
08
f3
fc
fc
ec
05
ff
12
fb
fa
0f
f8
02
04
fa
fb
01
00
ff
f1
02
f1
0b
0f
fb
01
07
f9
fe
01
f9
03
fb
fe
09
ff
fa
07
e5
0f
fa
f7
07
05
09
f7
f5
fe
07
05
05
0d
05
fd
ec
fd
fc
09
11
00
07
02
04
f9
01
f8
0e
ef
f9
f3
01
10
f8
fa
f1
09
ed
01
fd
f6
0a
fe
fb
04
06
01
fc
0c
fc
06
0c
03
10
06
00
0e
f7
01
03
ff
f1
06
fa
04
f9
f3
09
05
f8
15
04
fe
07
01
01
0e
00
0c
f8
ff
fe
00
09
0c
0a
f6
fb
f4
03
fb
0a
f7
0c
fc
f8
04
06
02
ff
04
07
04
0b
f9
f0
08
ff
fe
09
f8
09
0a
fb
ec
03
f6
fc
00
f8
05
f3
fd
f5
01
f9
01
f1
16
fd
0a
f2
f8
f7
f9
00
06
0b
f9
f7
00
f9
fd
10
01
fc
13
06
00
05
06
fc
f9
fe
02
fe
05
11
ff
f8
eb
02
04
05
f9
02
01
02
f3
f4
00
ed
10
05
06
f4
f3
fa
f6
01
fa
fb
03
fa
f0
05
05
ff
01
fb
0f
06
07
03
f5
00
06
01
fe
01
fe
10
fb
03
fd
06
f9
fb
05
ee
06
e9
09
ef
0c
18
05
02
fa
0b
00
01
fc
01
05
01
fa
f3
f7
0c
fa
fd
04
06
04
f9
fb
fc
0b
fe
fb
00
00
03
08
f7
09
fc
01
f4
ff
ee
f0
08
14
0a
00
f3
04
f0
ff
06
06
fa
f4
09
f7
f4
fe
f0
ff
02
fc
fc
03
03
03
fc
f6
05
06
02
fb
02
00
01
ff
0d
f7
01
fa
ed
01
07
fa
ff
fb
02
fb
07
ff
0a
fe
f0
0a
00
f9
09
f6
fc
f6
00
fc
09
03
01
01
07
0c
f8
fc
06
f6
fb
04
ee
06
0c
fd
f9
ff
f9
f9
0f
0b
07
fa
06
fe
f7
f8
00
04
0e
fc
01
f2
06
07
ff
ff
fd
03
f2
0b
07
f6
ff
0b
fa
fd
04
fc
03
08
0a
f9
f8
ee
03
03
13
06
f8
fb
ff
fe
f6
f2
f3
f8
05
01
08
f7
0e
04
fb
04
03
02
06
05
f5
02
ee
0b
0b
f7
fd
f8
02
0d
ec
fe
02
f1
02
0a
0a
19
08
08
f3
0b
07
fb
f2
fc
f9
fc
14
05
ef
f4
10
f9
03
fe
fa
f7
fa
f2
fd
0f
0c
f8
15
fa
f6
ef
01
01
fa
09
07
fa
02
04
02
02
02
f4
f5
0b
f0
04
03
09
00
06
0d
02
fd
f6
fc
fd
00
f6
02
ee
fc
00
f6
f4
ff
08
06
f3
01
0b
04
fc
04
05
ed
f8
fc
07
f3
04
fc
f7
0e
0c
f8
10
03
fb
01
07
ff
fe
fb
04
04
03
fd
09
08
f2
fb
05
00
ff
04
f3
12
06
fd
05
fe
f3
01
fa
09
06
00
09
fd
fa
00
05
fe
08
f9
00
ef
01
03
fa
f1
ff
0b
01
f7
f6
09
fa
fc
f7
08
fd
f5
03
f4
00
fb
f7
f0
07
00
fb
f4
f6
06
07
0d
ff
fe
05
ec
05
04
08
07
01
05
fd
04
f8
07
0a
10
fd
f3
04
02
f1
11
05
f8
fd
07
07
f5
f6
02
0b
fa
fe
fd
fb
02
f1
fd
06
fb
fe
f8
fc
02
ef
00
f8
fb
e6
01
ff
f5
01
f8
01
ee
ff
ef
00
f7
01
06
0d
08
ec
02
f9
f7
02
fb
f5
01
fb
f0
f9
02
f0
03
07
03
f2
fc
0c
00
f2
f7
00
f7
15
f3
09
fb
0d
fc
0f
06
03
f2
0e
fb
02
0b
f6
14
ff
06
fc
02
fb
f9
f5
f4
06
06
01
08
01
fa
03
fb
03
f9
08
f9
0b
f8
fd
fa
f9
02
06
ee
13
06
fd
08
06
fe
0b
00
fd
04
05
07
f0
01
f3
03
f7
00
fc
f1
07
09
09
23
f7
f8
09
f5
f9
fd
08
fd
04
fc
fa
f6
ff
07
0c
01
f3
13
08
13
08
06
03
15
f4
00
fc
04
f4
ff
fc
f3
f2
00
fc
00
f2
0a
06
02
0d
0f
ea
00
fe
f5
0f
fb
10
ed
fc
f1
f9
12
fe
fb
00
fe
f3
ff
0a
02
02
04
04
ff
ff
f5
ff
f2
fe
00
0a
01
e8
fc
00
00
ff
00
02
0a
f7
04
02
14
ff
0b
fe
fd
00
fa
fd
06
00
fe
f5
06
05
fd
0a
fe
fd
0e
ff
fe
05
0d
02
00
ef
04
00
ef
06
08
fc
f7
f7
fa
01
fe
05
01
10
02
f4
04
f7
fc
08
f8
fa
03
02
06
04
f0
fa
f9
ff
fb
f4
f8
fb
f6
05
ff
01
fe
05
fc
f6
0a
07
f5
f6
fd
10
f3
fe
0a
03
03
02
fa
f5
fe
f5
f8
08
fc
f2
14
ff
fa
ff
00
f9
f5
fc
f3
fc
fe
fc
09
01
ef
f5
04
f9
08
11
01
f9
09
fa
01
02
fb
04
fd
0e
04
06
fc
ec
01
ff
0b
01
15
eb
fa
f4
04
05
07
09
02
ec
fe
f5
fb
05
02
f2
06
05
07
fa
f0
03
02
fa
01
fd
f9
f3
ef
f9
ee
fe
fa
ff
e5
fd
fb
00
04
ee
04
00
f8
02
01
f8
05
fc
0d
0a
fa
02
fe
0f
fb
09
00
f4
f1
f8
01
f9
03
03
06
f9
fa
05
f4
f2
0a
05
f8
fc
fc
03
f5
fc
ed
fa
0d
ff
fd
ec
02
f6
f5
03
0a
03
fa
05
01
fb
12
0f
06
fb
ff
f5
02
03
f9
ee
00
fa
fa
fb
ea
fb
f6
fa
f9
f9
0e
f7
f3
02
fd
0d
fb
07
f9
11
04
03
0b
15
e9
fe
f9
02
0c
fe
05
0d
ff
fe
f5
07
09
03
03
f7
f7
06
05
f6
f1
0f
f7
fd
ff
01
f0
fb
06
00
ef
06
00
01
05
13
fb
fa
05
f7
fe
fe
09
02
f8
ff
05
f0
02
ff
f3
f6
fe
03
f9
fc
04
00
07
08
fe
fd
f8
05
fb
ff
00
02
fa
fc
15
0a
14
ed
fd
00
04
06
06
03
01
fa
e9
04
fd
fb
fa
f7
02
0c
0a
fb
05
10
fd
08
04
fc
f8
ff
0c
06
f6
09
03
f4
fd
07
04
0e
15
04
01
fe
02
06
fb
0c
01
03
06
07
f8
00
03
f6
07
fd
f0
02
06
0d
03
f7
01
06
f7
09
0a
f7
03
04
0e
06
00
fd
fb
09
fd
01
ef
f7
04
f9
00
05
fb
f7
00
08
f5
fa
05
0a
f4
fe
f7
fd
f8
ff
03
03
01
07
fe
ff
ef
fc
0f
04
00
02
fa
f3
fa
fa
f8
f9
03
f7
0a
fe
fa
0d
f5
ff
0b
02
ff
07
00
f1
fd
f6
09
0b
03
06
07
f7
04
fd
13
03
ff
09
01
f6
fd
fb
0c
f6
04
f7
02
00
0c
fc
ef
08
02
fc
08
08
ff
ff
fc
07
ff
0b
04
06
07
fa
0e
0a
fa
02
f9
05
f2
04
14
10
01
fa
fb
0b
f6
f5
08
09
f7
fd
06
f8
fb
05
0f
0e
fd
04
f9
ff
fb
04
04
05
07
fb
01
ff
fb
18
05
f5
0b
01
00
03
02
fe
04
06
06
f2
06
07
f8
f6
04
f9
fa
00
ff
04
fe
06
08
06
f7
f1
fc
13
f3
0f
03
07
fc
03
f8
fb
0c
00
f5
fa
ff
07
04
08
fa
fe
01
02
05
fd
f8
fa
fe
ef
10
03
07
00
07
ed
fb
03
fe
fd
ee
fb
ea
f9
06
f4
0a
ff
ff
07
fa
fc
07
0c
fd
05
f6
00
f2
01
01
18
fd
f1
15
08
0b
06
ff
03
08
06
fe
f7
f9
ff
02
05
05
0c
06
07
f1
17
ed
04
f7
09
03
0e
fd
0b
fe
03
06
09
f9
16
ef
04
00
0a
08
f3
eb
04
fb
12
fb
f8
00
01
09
01
0b
fe
f4
05
0c
06
06
08
0d
f4
01
fe
04
f7
09
f7
f3
07
08
f6
fc
06
06
08
0d
0a
00
01
09
fb
14
03
f8
05
0f
ef
f8
f0
09
f2
fb
f2
0f
0d
05
f8
fd
01
fb
09
f6
04
fc
f0
f9
06
f9
01
00
0e
03
f7
f9
14
10
0f
01
02
04
0f
02
f5
07
03
04
f6
0c
0e
00
f2
05
0d
f9
07
f9
f7
00
01
07
05
05
fc
ef
f1
ff
fe
04
05
f9
fc
fa
06
06
0d
03
ef
fe
18
f3
05
03
06
08
f7
f9
02
02
f8
09
02
fa
f6
05
f6
04
01
00
01
0b
fb
18
10
f9
00
f9
07
0d
fc
f7
f7
0d
f7
f6
fd
08
00
01
0f
ed
0c
03
07
11
03
05
06
fb
06
09
fd
f9
0d
01
f2
07
0e
04
f6
09
04
04
fb
03
fb
fc
f1
ea
0a
f9
fb
09
0e
f6
00
fb
f9
f6
f6
00
0a
00
f3
fb
0f
fe
fb
f9
02
06
f9
fc
0b
fb
08
05
07
f4
0d
fd
f5
05
05
05
13
06
00
02
04
fb
0f
eb
f1
03
05
07
05
fc
ff
f6
ec
fd
01
f7
04
02
00
03
fb
f9
00
f8
0a
fb
f4
09
f9
fb
fb
f8
fe
0a
f6
0b
01
07
03
08
fa
0e
02
08
0f
04
e9
f8
0a
01
04
09
f0
fd
fa
0f
fd
00
fe
03
0b
05
13
fa
01
fe
fa
f0
ff
f8
0d
00
f3
01
f9
03
11
00
00
01
02
f9
0c
01
fa
f7
ff
f2
f7
fd
01
fd
0c
f9
13
0b
ff
09
fa
02
05
01
fb
03
fc
f5
04
09
12
05
fc
11
f4
ef
0a
0c
09
0b
fb
fb
ef
13
f9
03
fd
05
f8
fb
fa
14
00
f3
f5
00
fc
05
03
fa
ff
fb
ec
f9
04
03
00
01
15
06
0c
f7
ef
f6
fd
03
f7
04
ed
10
1f
fe
ee
09
05
04
08
03
fe
fc
18
f4
01
0c
f9
01
02
f6
09
08
fd
f3
fe
fd
fc
0f
0b
f9
10
04
06
0c
0c
0d
f7
fc
11
ee
00
07
f2
05
0b
fd
fc
01
f6
05
09
f9
f8
fb
01
f5
f7
fc
fc
f6
f9
fd
f7
f7
ff
08
07
07
f4
01
ea
fd
ff
0a
eb
01
f4
01
0e
11
02
f8
0a
fc
ff
02
04
01
04
05
fb
03
f4
ff
f9
01
fa
fb
09
05
fa
06
01
06
ff
01
f9
f9
fb
ff
ff
f6
04
05
fe
fe
f5
fd
06
fa
f3
fd
01
0a
03
0c
fe
ff
03
07
fb
fe
0a
fb
fd
fd
0c
0c
00
f3
ff
f4
f6
0a
fc
f8
07
fe
0d
f0
0f
00
f1
09
01
f3
fb
fe
02
06
00
f7
00
0e
fc
f6
0b
fc
fe
f6
fa
02
02
fe
fe
01
ec
05
05
04
03
f1
fa
01
f9
02
02
00
09
0a
02
0a
08
fc
ff
08
fa
00
08
0a
ff
09
f7
00
03
0f
05
04
f9
03
09
05
03
07
1c
15
f7
0a
fc
00
07
03
04
fb
07
fc
f6
03
fa
ee
0c
00
f7
0d
fa
f9
ff
fe
04
ff
f7
fe
01
fb
02
fc
f8
01
00
02
0d
02
fb
fd
06
08
07
fd
02
08
02
08
00
08
00
0c
ff
08
07
01
f9
00
05
f0
f8
01
fc
01
f3
f7
00
0a
04
fe
f6
f8
fa
00
11
ff
0d
f3
09
0f
fe
06
0c
02
00
09
ff
03
15
00
ee
00
12
0b
05
08
05
fb
fc
00
00
02
fd
f9
05
06
04
fd
08
0a
fa
09
06
fb
08
0d
00
08
04
08
02
ef
0c
fa
f6
fd
fe
ff
f5
02
05
f8
fa
04
fb
f9
f5
f3
f6
fa
f8
f9
f9
ff
08
01
01
f9
fc
fe
f7
06
04
04
f1
fc
00
00
fb
02
fb
04
fc
0a
ff
fc
fa
08
fd
03
13
fe
00
03
07
ff
03
02
01
fa
02
e8
fa
fb
05
fb
f9
08
07
fb
08
04
02
03
ff
08
01
f3
05
04
0b
07
01
fb
f2
01
15
06
ff
fe
f9
f3
f2
05
09
f4
05
0e
12
06
ee
f5
f5
fb
00
fa
f8
07
f7
f7
07
03
fb
07
02
0e
fd
00
08
05
01
fe
07
ff
02
f6
08
f5
f4
f8
02
03
01
08
07
f7
f9
ec
ff
fd
f9
05
fd
fc
04
fb
f8
03
f9
f6
fe
f6
07
fe
fc
02
07
05
04
ff
09
ed
07
fa
f8
03
0c
f7
fd
08
09
fd
00
fb
01
fc
ff
fd
f6
ff
fa
07
04
fa
fb
09
06
06
f3
0a
04
00
0a
02
02
f6
f9
ea
0e
0b
0a
fd
02
0b
fa
10
09
01
06
ff
01
0e
02
06
fe
fe
fa
fe
fe
fe
00
02
fe
fd
0c
fa
02
f6
f4
03
f0
fe
02
f9
04
0a
fd
16
05
0b
04
08
05
0a
fe
fd
01
0f
05
02
13
fc
05
f9
fb
06
05
fc
0a
f8
f6
07
06
ff
fa
00
05
01
ff
00
fa
0b
0a
f4
02
fe
fc
0a
06
f7
f9
0b
04
00
ff
ff
ef
02
f8
05
03
04
09
05
fe
f6
02
f4
f1
ea
02
ff
07
f6
fc
fd
00
09
fb
fd
0d
04
05
09
fc
00
fc
fc
ff
05
ff
0a
04
04
08
11
08
fc
07
00
0a
08
04
01
0b
0a
08
fd
fb
f6
01
f9
00
05
fb
fb
06
0b
f6
f7
07
0e
01
fd
fe
08
fa
06
0b
03
04
02
fd
f9
05
f7
fa
fe
fd
01
09
fa
02
0c
f0
f4
f8
f4
02
fd
05
0b
ff
fc
ed
0c
01
03
ff
fb
f6
06
06
00
02
fb
05
fd
01
fa
05
f2
04
fc
04
05
fb
0c
f6
fa
fb
01
fb
0b
fd
02
ee
f5
fd
05
f9
fe
04
fd
0a
f3
0b
fa
03
11
04
fa
04
00
f3
00
0a
03
fb
00
0d
05
05
03
f8
fe
fe
f3
0a
f8
ff
f4
02
00
15
05
06
02
00
f9
03
03
ff
ff
07
fe
f7
fd
fb
f9
ef
0b
fb
ff
08
07
fd
fe
02
fa
f6
06
01
f1
00
f9
07
fe
fc
fa
03
f8
09
04
0d
0c
08
eb
f9
02
fd
fa
08
fb
00
06
06
fe
01
16
fe
f0
00
04
02
01
ff
04
ff
fb
0a
fc
06
fd
fa
f5
ff
00
0d
f6
f9
0b
f3
04
fa
03
f7
07
05
00
07
fa
f9
03
fa
00
08
fc
01
04
08
fc
03
0c
fa
04
06
02
f8
05
f4
05
00
fc
0a
0f
05
ff
ff
10
fa
08
fe
06
fc
02
fc
01
00
04
02
fd
06
f2
10
0c
0c
01
ec
03
f9
ff
f6
0e
fe
0e
05
06
fd
02
03
f2
fb
fa
07
fc
fd
13
fc
f7
01
0d
0c
fa
03
fc
fd
06
fa
f8
07
09
fd
fe
f4
15
ff
f2
ff
ee
01
fc
f8
07
fb
f6
fa
ff
f9
f8
01
01
0e
fb
f1
0a
ff
07
ff
fd
f7
fd
fc
fa
f4
f4
02
03
f9
01
ff
08
02
fd
f3
0a
08
f8
ef
0c
02
f0
06
04
00
05
05
ef
01
06
09
00
fc
f4
f4
09
02
fa
fa
00
09
f0
fe
0f
fe
04
fb
f5
f7
fd
08
f6
04
01
04
0a
09
05
fe
04
05
03
09
ff
fb
fd
02
fd
01
07
f4
00
05
02
ff
fd
04
04
ff
04
08
04
f8
f9
fe
04
02
fa
f4
00
f8
f9
f6
f9
02
fc
06
02
f0
f9
01
f9
fd
fd
f7
ec
ff
04
02
06
f3
03
00
f7
ff
fd
fd
f6
04
01
f9
fc
fc
fe
f7
00
f6
f1
fd
03
f3
fb
f2
f3
02
08
0d
06
05
07
fe
05
0d
fc
ea
fa
00
f3
f5
06
f4
03
fe
0d
0b
fd
ff
08
0c
fe
0a
09
0b
02
01
01
05
f3
09
fc
0c
01
03
04
fe
f8
f6
00
00
f6
05
fe
fb
01
17
07
f4
f7
18
fb
02
fd
01
f7
fa
08
00
02
0c
f7
05
fa
01
ee
06
f7
08
04
0c
fa
04
fa
04
fa
fe
0b
ff
ff
00
08
fc
f2
04
00
fd
02
02
04
fe
00
fa
fd
11
fb
ff
03
f5
0d
06
fa
fe
02
f8
ef
0b
08
00
f3
fb
fb
f9
fb
08
fd
fc
fe
01
03
11
fc
fe
03
fe
0b
fa
f7
fd
07
f6
fa
ff
0a
04
f5
fa
f7
f8
12
02
04
02
01
fd
07
fe
f8
00
fd
fe
09
fd
07
fd
09
ff
07
00
08
05
fa
f6
00
0c
06
07
01
09
fe
fa
fb
f1
fb
08
f4
06
04
09
08
05
f3
06
00
07
fa
08
f4
f6
00
00
08
00
fe
05
fa
06
f8
ec
fc
06
00
02
f7
0c
14
02
0f
fd
ff
f7
04
0c
f9
0f
10
00
0d
06
fc
00
fb
01
fd
02
08
f6
07
02
fa
05
f6
05
fc
ff
fb
06
f9
00
03
fc
fa
fe
fd
f5
02
f5
05
06
01
03
02
00
10
0f
f6
fd
f9
10
fd
f5
ff
f9
fd
06
0a
06
02
09
09
f2
09
fc
08
01
02
fb
05
fc
02
0f
00
09
fb
f8
07
02
f7
05
fd
0d
fc
00
fb
f9
fa
fc
0d
f5
ef
10
f7
02
00
00
fa
fd
03
0c
f5
08
fa
ff
02
09
f3
ff
02
fb
fa
08
04
0f
ed
fe
fd
ff
f8
ed
02
f6
14
fc
05
02
fb
fe
fc
01
f6
fe
03
fb
fb
0b
07
09
f3
09
f0
04
05
ff
02
09
ee
f3
06
0a
0e
07
f5
04
02
0b
04
f7
ef
00
f3
f4
f3
12
00
04
ff
0e
07
02
fe
00
05
04
03
0e
02
00
f7
06
fa
0a
04
fb
fe
06
fb
15
fa
fd
00
f4
03
fd
0d
fc
11
02
fb
fa
07
f6
06
02
06
06
0e
07
f6
05
eb
fb
01
08
fd
f5
fd
fa
1d
f3
08
04
fe
f2
02
f8
fc
f8
00
ef
07
01
fc
04
fe
ff
fe
11
f4
f1
0d
01
fc
f7
08
ee
00
f4
02
0e
02
0b
0a
01
05
04
f3
f6
ef
00
07
00
0b
00
00
04
ed
f3
fd
fa
f5
f8
08
fd
00
0b
f9
03
f6
0e
0a
0e
00
0d
05
0a
04
00
fa
fe
f7
06
fd
02
f6
02
fb
04
fc
0e
04
fe
ff
fa
03
08
fa
05
02
f7
fb
ff
fd
0c
05
fc
fd
fd
18
fe
f8
f6
08
06
0a
02
08
fc
f2
02
f8
fa
ef
01
05
f9
ff
fd
ff
07
01
fc
fd
09
09
fd
fb
ed
06
05
02
03
fe
f5
01
03
08
f5
02
f4
f6
10
fc
f5
ee
f8
ff
07
f7
f9
11
06
fd
05
02
09
fb
ff
00
f9
fd
08
0b
03
09
fd
02
02
fa
03
fd
09
fe
0b
04
01
f9
fb
00
02
f6
05
fb
ff
11
0a
04
fc
fb
fb
06
05
f9
05
09
eb
09
ff
fa
02
fd
0a
02
04
f0
09
02
00
00
11
fb
03
02
08
00
fa
fd
00
00
0d
03
02
fd
07
13
fc
f3
fb
09
02
f1
04
f9
0b
09
ed
07
f8
08
03
00
0a
11
01
06
06
0a
fa
ec
f8
fb
03
01
fd
f4
01
0e
fe
f5
fb
05
03
ed
0c
fb
0f
0a
07
07
ff
00
f2
f0
00
03
f4
fa
00
00
05
f9
11
fc
06
f9
f9
03
02
01
07
08
f7
07
f6
fa
0d
0c
ee
08
0b
fb
f9
12
fe
ff
fc
0b
0d
01
03
05
00
0f
0d
02
03
f1
fd
05
ff
fc
13
f0
07
fd
fd
f9
f4
08
fe
03
04
ff
04
fc
ff
f7
ed
09
f8
f7
10
01
03
fa
f2
fe
fd
fb
03
04
fa
fb
ff
f6
fe
09
16
fd
01
fb
f9
03
f4
f6
fe
ff
fd
09
f0
07
04
fb
f6
0a
fa
f9
02
fc
f8
01
f2
fd
0a
03
00
0b
fd
01
01
fe
04
05
05
fb
00
fd
0d
fe
fe
f8
0a
ff
fd
02
ff
09
04
fd
fe
fb
f1
fb
07
00
0c
13
fa
00
04
06
fa
f8
f8
e9
09
f5
f5
02
fb
f9
ff
03
fd
f8
ff
05
05
0c
f1
f4
f9
fb
05
f5
fc
01
06
09
fe
fe
fc
f7
04
08
08
03
0f
fd
12
fe
fb
ff
02
02
f4
09
02
06
04
f8
f5
f9
fe
06
07
03
03
0f
01
f6
02
02
f5
02
03
03
13
fd
f7
f9
0a
f8
fc
06
f6
fd
fc
f5
01
09
09
14
f6
ef
f7
fd
0f
03
09
02
08
ff
04
f3
07
0a
02
06
fe
02
03
fc
f2
fb
02
03
f6
0a
fd
05
fe
00
fd
fe
f5
01
f1
03
ec
fc
09
f3
fd
fe
00
fe
fd
ff
f5
07
f9
fa
fc
0a
06
f4
00
0d
fb
fe
f9
03
04
f7
06
fa
01
f6
fb
01
f1
02
fd
0b
fa
f9
08
0a
02
04
f5
0c
06
04
09
05
f7
fb
0b
fe
06
0c
00
fc
04
f9
fc
f7
0d
f3
fd
06
fe
01
08
01
fc
fb
ff
fd
fe
0d
fb
04
ff
fb
02
0c
0b
ff
06
0c
01
fc
0e
f6
fc
00
fe
eb
07
11
07
09
fc
11
f4
ed
06
16
fc
07
fb
e8
f8
0f
01
f9
f9
00
fd
fd
f3
fd
fd
fc
08
ea
01
03
f5
ef
fc
fe
07
04
fa
00
11
08
f4
01
07
07
03
fe
f4
0d
06
00
17
03
00
f0
03
fb
f2
06
0c
08
fe
0d
ff
09
fe
f0
03
01
f8
f4
ec
ff
f6
05
f8
0d
fd
f3
05
fd
ef
ee
0b
06
00
0a
06
f9
02
0d
fc
fc
02
01
03
02
04
f7
02
0c
05
ff
0c
09
07
ec
f6
f8
e6
fe
fd
f9
02
0c
12
14
f6
f8
f5
fa
09
00
06
00
0e
0a
fd
05
ff
ff
fd
e9
ff
05
f6
00
f2
16
f9
11
fc
03
00
0d
fd
fd
08
07
f9
0c
f8
f4
ff
07
ff
00
08
f6
fa
04
05
03
fe
02
06
fb
09
fa
f9
f7
01
f8
0e
08
f1
0a
03
10
02
00
ff
03
06
01
00
f1
02
fc
f1
07
f8
05
06
fd
f0
09
ff
04
05
0a
f3
fc
ff
07
f3
fb
09
02
00
07
f5
f2
f6
f6
fe
fe
fe
01
01
f5
ff
03
fc
07
0a
03
04
13
f7
f8
06
07
15
ed
08
ff
f1
f4
fb
00
fd
15
f8
0a
01
f8
f7
fa
f3
f4
f2
02
f6
f6
05
e5
05
00
fc
02
f8
fa
00
fd
ef
08
02
ed
f1
10
f8
f8
ea
07
0d
15
03
03
ef
f7
f8
fe
10
f8
fc
fd
04
f5
f3
07
0a
08
0f
0d
00
06
08
f1
08
f4
f6
04
09
f1
ef
00
ff
fa
09
f3
03
07
f8
f4
f6
fb
e9
05
fd
05
f4
f8
f8
09
0b
04
01
ee
0a
ff
04
ff
10
fc
0e
04
01
00
fa
fc
0a
07
e7
ec
f9
f6
e9
01
ee
f8
fb
f4
ff
01
0b
03
fb
fd
04
0d
00
f2
fd
0b
17
00
0d
ff
fe
f8
fe
fa
fa
00
f6
02
0b
fc
ff
00
fc
04
fa
f9
fe
02
05
04
fa
ed
02
ef
f7
fa
08
0d
07
fa
00
fc
0a
fa
fe
f8
01
0f
06
ff
04
fa
02
09
04
02
f7
0b
01
f8
f6
fa
15
04
fb
ff
f5
f5
0a
0e
05
ec
04
fc
06
fc
0b
06
06
fe
0e
02
01
0c
02
04
07
f7
06
ff
05
f3
05
10
ea
16
ff
fb
f5
fd
ec
f8
e5
fe
05
f9
fd
fa
0b
f5
04
01
f6
f3
fd
fa
08
06
f7
f5
f8
06
08
00
ef
07
f9
03
ff
09
f6
02
f2
07
11
05
00
ec
f9
02
fc
00
09
fb
f2
ff
fc
00
f9
0c
06
0c
12
fd
f7
ff
06
fa
04
0a
02
04
f7
0b
08
03
fc
f4
03
04
f5
03
0e
05
e6
04
f6
05
01
ff
0b
03
08
f2
0a
06
f3
ff
ff
fb
f5
f1
04
0c
f3
08
f5
03
fc
fc
01
11
02
04
e4
0a
0b
fd
fe
f3
06
05
0a
ea
0d
0d
f1
fe
0e
08
02
fe
fb
03
f8
03
07
e6
fa
fd
08
fb
f1
fc
fc
f7
fc
ff
03
f7
08
0a
00
07
f5
fb
0a
f9
12
fc
01
0e
fe
fd
fe
11
fa
08
f8
0e
f5
fa
05
00
03
01
fe
02
fc
fd
06
04
06
f1
11
fa
00
07
f0
03
07
00
fe
fe
08
05
0d
0b
f8
04
02
fc
03
09
07
f5
06
f0
fc
fd
fc
fc
f6
06
f2
01
13
0b
16
02
01
f6
ff
fe
f6
00
fe
ff
01
ff
fd
f7
01
f9
08
fd
fd
f6
09
ef
07
f6
f3
12
06
fc
08
08
fb
fa
09
04
f9
0e
f8
fd
0e
f7
09
06
00
f4
fa
ff
fe
fb
f5
05
0e
ec
f5
f7
11
f6
fe
f5
04
fb
07
ff
0a
fc
05
05
06
06
01
01
fc
05
f9
0a
04
f5
04
f8
fa
f2
f8
f8
01
f9
01
01
04
fc
05
07
06
fe
05
0c
0e
ff
09
00
ff
f8
ff
03
13
05
0a
fb
02
f9
ff
08
fe
f0
fd
eb
10
fb
00
0f
f1
fc
fd
01
ee
03
0d
fc
07
0c
08
02
f5
03
02
08
06
00
0b
01
00
fd
01
0d
06
17
11
f5
e0
fc
f7
fb
0c
fb
09
fd
f4
04
ed
05
f4
fe
0e
02
f9
fe
06
08
fb
07
f5
0d
03
0a
02
f8
ee
03
00
ff
fa
04
0e
02
f2
0b
09
13
fd
ff
08
fb
01
f3
06
07
f7
05
f8
02
05
e9
fd
fe
ff
04
09
fb
f3
18
f6
f1
07
fe
08
f4
08
fd
ec
01
05
f0
09
f8
f7
0b
f3
fd
fa
04
01
fd
00
10
fd
fc
fd
04
04
f3
00
0c
13
fe
14
09
fb
fc
fb
01
ff
f8
01
06
fb
07
09
02
fb
04
f4
fb
f0
f1
f9
0f
f6
0d
fd
08
01
f4
04
fa
fe
fc
0c
fe
fa
07
fd
f0
f7
04
00
fb
f9
0b
f9
0f
f6
04
f0
e9
0e
12
f8
f9
fc
f1
f4
07
0d
06
fd
0d
f9
f6
f1
02
00
fe
ed
fe
00
06
04
fb
07
07
05
ff
fa
09
fb
01
fc
fb
07
02
fd
f2
fe
01
f8
0b
04
f9
05
fd
f9
e4
fc
f7
fe
0b
fa
0e
0d
f9
fa
eb
0d
0b
00
02
f0
0e
fd
fd
fc
06
f6
01
f9
fa
fc
f9
f4
ff
ff
f5
fa
fb
f1
00
fa
04
06
f1
08
0c
11
06
03
09
fa
ff
0c
fe
f1
05
f3
00
02
f8
fb
03
00
05
fd
05
02
00
fb
fd
11
fd
fd
06
0d
f8
f2
00
03
f1
0a
07
fe
fd
08
0c
fc
06
fb
f5
fb
00
12
08
05
06
0c
04
fd
f6
09
fa
01
f6
0e
ff
09
f7
f0
f4
01
fe
f5
08
03
05
fe
fa
fe
0b
01
11
fe
f9
09
04
0c
fd
fd
f8
fb
02
ff
f6
ff
f8
f3
fb
04
f4
08
0d
08
02
13
f4
fe
fc
08
0e
fc
fa
fc
fe
02
02
02
fe
fa
f8
0b
0c
0d
01
fc
01
0b
02
0a
02
02
ff
ff
02
f8
0d
03
06
04
01
02
0a
04
03
fc
03
15
06
fa
fd
09
00
02
06
fe
01
0d
01
02
f6
ed
fc
f7
07
06
02
f9
f3
06
05
fe
06
02
04
f8
03
fb
04
f1
12
03
02
0d
12
01
fc
f7
0f
fe
06
fa
04
fc
06
f3
11
08
f8
f3
fb
f2
fb
f5
fd
f2
0e
f9
fd
08
fd
eb
02
fd
02
02
f4
f9
02
05
fc
f6
fe
02
f9
ee
ff
fb
03
08
07
fb
ff
05
fd
08
0b
03
fd
f5
0c
fd
fd
03
00
f6
0a
fe
0d
03
01
fb
f8
11
09
f8
13
11
f5
f6
fe
08
07
02
fe
f3
00
fc
f7
01
f9
f6
fe
f1
fd
01
ff
f3
fc
fe
fd
15
ff
fa
f6
00
07
02
fb
08
f7
fe
f5
08
f7
04
f9
f7
17
0a
05
05
f9
07
f7
ff
f7
ff
f7
0e
f6
00
e5
f4
0f
fb
fc
09
ff
ff
f4
08
ff
02
01
07
02
15
fb
fe
05
fc
03
02
07
04
01
00
00
fa
fa
08
06
f7
fd
fe
f6
fc
eb
09
fa
00
f8
fb
fe
fe
eb
f8
fe
f8
07
07
fa
f3
04
f9
f5
ee
fe
05
00
f6
0c
02
0f
10
01
f5
09
f4
fc
09
08
09
f8
04
fd
03
f6
0c
05
fe
f7
00
0a
f7
01
07
03
f4
fe
0c
0b
fc
06
fe
01
fd
0d
0a
06
04
04
0a
0b
f9
01
09
f9
f6
03
06
00
04
0b
f4
fb
0c
fc
01
fa
03
f9
fd
0a
07
f7
f1
f4
08
0a
fd
f5
f8
04
ff
fa
fb
f8
f9
f7
02
0e
01
10
fe
01
00
f9
f4
f7
05
03
f9
fb
fa
f6
fc
f8
f7
ff
08
0f
02
fc
f3
fa
01
0e
fe
ff
0c
fc
07
f3
06
04
07
fd
00
03
08
00
02
0c
f3
f4
0a
01
f9
fa
06
ff
f6
fe
0f
09
eb
00
f8
08
f6
fd
08
01
f4
fd
04
f7
f5
06
fc
fd
02
07
fe
f1
fb
ed
02
f4
f8
f4
01
fb
03
07
f2
fb
07
06
ff
fb
f5
fb
01
fa
0b
15
05
03
01
fc
0e
f7
05
05
fa
00
06
fd
00
03
0a
f7
03
fe
f6
f5
f9
ff
08
09
0f
fb
fe
0d
fe
0a
fa
00
03
04
f5
02
fb
f6
00
fb
fd
05
03
fc
f8
ff
fc
f5
06
ff
0d
f9
07
f8
ef
0a
f8
00
00
f7
0f
fb
f9
08
05
fe
f8
0a
05
fa
02
e6
ff
04
0a
fa
03
06
fb
ec
0d
02
f8
0b
f6
04
ff
f2
f4
ef
00
05
01
0b
05
fd
0d
05
02
09
01
07
fe
05
ff
09
15
fd
ff
03
f5
0b
00
e8
ec
08
03
eb
02
02
fb
ff
f6
0f
02
fb
ff
0d
f4
04
f4
ef
02
ec
06
fd
01
fe
fa
f8
06
ff
f3
01
fb
03
03
fa
fb
fe
f7
11
05
0a
fc
f5
fa
0a
fb
fd
05
fd
ff
fb
ff
00
00
00
00
07
00
00
fd
1b
06
00
0b
ff
fa
0b
f9
f5
03
0a
07
0c
f8
0d
10
fe
02
04
ff
07
eb
04
fc
0e
00
0b
0d
0a
00
07
09
fe
f6
f6
05
fc
fb
fc
ef
f3
ff
00
0d
fd
fe
ef
0f
08
03
01
01
fa
03
02
08
fa
01
fd
02
fa
0a
08
05
0b
07
f2
0c
ff
0a
07
fa
fd
f6
fc
13
02
f3
f9
fe
fe
03
fe
00
06
07
07
e9
0d
fb
fd
05
f8
fa
02
fe
0c
0a
0a
04
fd
09
03
01
0e
fe
fe
ff
00
05
fd
07
fc
0c
f5
ef
fe
07
0a
05
01
02
fd
02
ff
f9
02
f8
01
0b
ff
0e
fa
f3
fc
01
0c
11
07
fd
0d
fa
fa
05
01
ff
0d
04
06
04
fd
05
01
10
fe
f8
fb
fb
fb
ff
fa
fe
05
06
01
fa
02
00
f7
08
0b
fb
00
f9
fc
ff
fa
0b
08
04
07
06
0a
00
fe
00
03
10
06
02
02
fb
07
fa
f2
15
01
01
fc
fb
06
03
09
03
00
ff
0b
0c
f9
0d
fe
0d
02
f6
f3
fd
01
00
09
09
f7
0d
02
08
ff
02
01
fa
06
fa
fd
fa
fe
ff
01
03
07
fe
f0
0d
02
02
14
f5
fd
ef
fe
f8
00
06
07
04
fa
f9
06
00
06
0c
fc
07
06
0a
f5
07
09
fc
fd
00
01
fe
fb
01
01
05
02
09
05
f3
fe
ea
f9
ef
00
02
fc
ff
fb
09
00
fc
ff
f2
06
ff
07
04
02
12
07
f8
ef
01
00
f9
fc
03
ff
ff
ff
fe
ff
04
04
0f
05
fc
f7
10
00
f8
fd
fe
05
fe
fd
03
09
0c
fe
fe
fb
f5
f9
06
ed
0a
03
f8
00
01
f8
11
0c
fd
0e
06
fc
ff
01
fc
f6
f7
fd
fe
0e
fa
08
0c
0f
09
f7
f0
fd
fa
05
0e
f8
f9
f3
ff
09
00
04
f7
f6
f7
00
10
fd
13
f7
07
fc
0b
07
f7
f9
fa
f9
f6
f2
04
fd
0a
04
f6
f5
04
01
14
0a
fc
fd
f9
fc
ff
fb
02
05
00
f0
01
f6
f1
fd
08
09
f8
ff
04
f7
f7
0e
05
fe
fe
fb
f1
fb
ff
08
fe
fc
04
f2
fd
0d
ff
01
06
fb
fb
00
fc
05
fb
ff
00
fc
06
fb
fa
00
f7
fe
03
f9
fe
03
01
0c
fc
ff
f3
02
01
06
04
09
0c
06
fa
07
ff
03
f5
0d
0b
fc
fb
f9
02
fc
02
00
fb
09
ef
fe
f9
fc
ee
0d
f3
fc
11
02
fe
06
00
fc
0a
fe
fe
02
ff
f4
0e
fb
f3
03
fa
f7
f8
09
f4
02
04
07
01
ff
fe
02
f6
f9
0c
fa
ff
e9
00
0d
02
06
f9
03
fa
04
f3
07
03
fd
f9
05
fa
05
05
03
f6
08
09
fe
00
f6
f9
fc
f9
f1
05
0c
fd
fb
ff
01
0b
02
01
02
0d
00
03
08
fb
f5
fb
02
01
01
06
02
f5
0c
f9
fd
f2
11
fc
08
f9
04
fb
07
09
0a
fe
fb
fe
eb
03
fc
fe
fb
0d
ff
06
0d
01
fa
f4
05
05
fc
07
f7
01
f8
f1
05
04
09
03
0b
f3
01
fc
fa
02
02
fb
07
f9
fd
f1
08
fd
0f
f8
04
f8
0e
07
00
0a
fd
0a
01
f9
f7
01
f9
fd
00
f8
fc
03
fa
fd
f9
05
fe
08
f9
00
fe
fb
04
ff
0a
08
07
05
f7
03
01
08
fc
0e
fe
01
0a
00
09
00
f8
02
0d
f3
02
03
03
0e
fe
00
fa
06
0b
05
03
f6
0a
02
fc
18
01
f7
f5
f9
fc
fe
fb
fa
f7
03
06
fc
fb
f2
ec
fe
ff
0e
ef
09
f1
fd
f1
02
fb
07
03
fd
08
fc
04
ff
f9
fa
17
04
05
fe
fe
fc
f9
f9
02
f3
0e
09
fe
ef
fd
00
07
0b
eb
fa
06
f0
01
09
0a
fb
06
fc
0b
ff
07
ee
f1
05
f7
f7
03
ff
0a
ff
fc
06
0d
0b
07
f9
ef
e5
04
03
fa
00
04
02
15
fe
0a
03
fc
0f
f8
f9
02
fb
fc
f9
fc
07
04
0f
fc
06
01
ff
f0
f6
06
00
03
00
f5
fa
02
fe
06
0d
ff
f7
00
04
ff
fd
0d
fb
05
03
fa
02
08
fc
fa
06
03
0c
fc
07
06
09
06
12
ff
06
05
ee
07
08
f9
f4
f7
02
00
fe
05
f1
fa
12
04
ff
ee
03
0b
03
0c
02
05
03
0b
02
fd
f9
02
12
f2
fc
fd
02
f8
03
03
04
f6
f6
fc
05
f7
0f
09
f8
f7
00
f1
07
0b
fc
12
01
0a
09
01
fc
fc
f6
07
05
ff
04
ed
f8
fc
f5
f1
09
fe
0e
05
ff
02
f6
f6
0b
03
f5
05
fe
fe
fe
f9
f9
f0
ff
02
0b
03
0a
00
fe
02
0b
fb
02
0b
05
ff
0a
fb
fc
06
00
f7
fc
01
ff
fc
f2
07
fc
06
04
0a
01
08
ff
f1
eb
fe
f6
0b
ff
fb
fe
08
f2
fb
0a
0b
00
f7
07
f8
f8
02
00
02
07
09
fb
fc
05
0c
0c
f7
ef
00
0e
f2
01
f8
f5
f9
02
01
fb
fe
05
01
fd
ff
03
05
01
fc
f1
01
0d
03
fe
05
f6
01
fb
09
fb
f9
0c
fd
02
0d
fb
f8
fa
fc
00
10
04
02
fb
fc
08
04
07
fa
08
03
ff
f1
f9
08
0a
00
04
f8
f8
f6
05
f4
fc
02
03
fd
07
f3
15
06
f0
fe
02
01
01
08
fa
f5
fc
f1
06
02
f7
ff
0c
0f
fc
ee
0e
f5
05
fc
f8
fa
04
03
f8
09
07
fa
00
fa
fd
ff
0c
fe
fd
00
fd
fb
0a
01
fb
06
0f
03
f5
fd
ee
f0
fc
10
19
01
02
f5
ff
fa
03
08
fc
ff
0b
05
00
10
03
fd
00
01
08
f1
0e
10
f4
01
10
00
ff
fe
07
04
02
05
ff
f2
01
f4
ff
fb
06
fd
04
fe
13
05
f6
07
03
07
fe
05
02
0a
fa
fe
fb
08
07
fd
02
fd
ef
f9
06
03
08
ff
f9
01
f7
f7
fa
06
fe
f7
fb
fd
00
ff
05
09
04
fb
04
01
03
05
04
02
01
f9
fc
0f
0b
01
09
ff
fc
01
fe
08
fb
05
02
09
f8
fa
06
06
fb
09
0a
05
0f
fd
fe
fd
fc
fa
03
03
04
fe
0c
0a
fa
00
04
fd
01
fd
02
00
09
03
01
07
fb
06
ff
fe
ff
fe
f6
03
f8
04
fd
01
08
f6
0e
f2
05
01
f5
fa
f9
01
ff
ff
06
fa
ff
fd
01
01
f7
0f
fd
00
fa
f7
ff
f9
01
ff
0c
09
fe
03
03
0c
f2
fa
fc
04
0b
00
ec
fc
fb
03
fa
fb
05
0e
0a
00
ff
00
0c
ff
fd
f8
03
05
06
fc
0c
01
03
ff
eb
fe
0e
08
05
05
0c
01
fe
f6
f0
05
0a
fb
04
0b
fe
07
f7
02
00
07
f3
fc
fb
00
fa
f5
ff
01
14
fb
f9
00
fe
05
05
00
fd
fb
fd
01
0b
04
01
f6
04
08
04
09
01
03
08
03
08
01
14
03
02
f0
f3
f4
00
f1
07
fd
11
06
fa
f5
09
f7
09
00
f6
fa
fa
04
fa
f7
06
f4
08
fa
0b
f8
f9
eb
04
0c
02
0c
f2
07
03
08
f7
00
04
09
02
05
fc
05
fa
03
05
02
00
05
04
fe
fe
fb
fc
0d
08
fa
ff
f9
14
1a
ef
f0
f9
03
0e
0b
fc
00
fb
02
f5
0d
fa
00
0d
ff
fc
fd
f1
01
02
04
0a
f7
00
f5
f7
02
fc
07
f8
fd
05
0f
f4
04
00
ef
f9
fb
fc
0c
04
fc
0e
f4
fd
05
08
00
00
0b
01
06
ff
0e
02
fc
f6
01
02
fc
ff
fc
ff
00
11
ff
f6
01
ff
06
f8
15
03
f8
f9
09
02
02
ff
ff
04
01
f6
f8
10
fa
f8
f4
00
06
fa
05
fc
00
03
fe
fe
fb
fb
f7
f9
04
01
ff
fb
f5
f7
0b
06
fc
fa
fd
05
06
fd
04
06
01
ee
fd
09
f8
03
0a
f2
fd
04
02
fe
04
fb
00
01
07
00
ff
fc
00
06
04
07
ef
fd
08
03
03
f6
09
04
fb
fa
fd
03
fd
01
f8
03
fb
06
01
05
f6
fc
fc
05
fc
08
fd
ff
f8
fc
f2
0a
05
f2
ff
f7
0b
fd
ff
f4
f8
07
05
08
07
fe
03
05
01
02
ff
fc
04
fc
fe
06
02
fb
06
0a
ec
fb
0c
00
f3
fe
02
08
00
08
fd
f4
fc
01
fe
02
fd
f8
f8
02
01
04
fd
f8
f9
fe
00
f5
0e
0c
0c
07
02
03
fc
01
fe
05
f7
06
fa
05
fd
fa
07
00
fb
03
03
fa
03
06
0d
ff
05
14
f9
08
03
fa
01
04
fd
fc
f5
fb
fb
07
fc
f7
f7
f8
fa
09
f8
06
fe
04
f8
06
fc
fa
04
fd
fd
fe
06
02
f9
02
03
07
ff
02
06
05
00
fc
f5
ff
11
fe
fc
02
07
f9
0a
f9
04
f2
fb
01
02
00
04
ff
f7
f9
09
f0
01
f9
ff
f7
06
fe
ff
fb
05
06
02
09
fb
0f
00
11
ff
04
f6
fd
07
06
fe
fb
f3
fc
04
fd
02
0d
05
0c
fe
fa
fd
fc
fa
ff
03
02
00
fa
fa
fd
07
fe
fe
fe
05
06
fe
06
07
f6
02
06
fe
0a
ff
08
f9
02
01
f5
fb
05
fb
f5
07
fc
02
03
03
fd
f6
03
07
08
04
fa
ff
08
ef
f8
ec
08
fa
05
ff
00
fd
ff
f5
00
04
fa
02
04
07
f2
fe
fe
f6
fb
08
0d
0a
02
f7
fe
08
fa
07
0a
01
16
03
f4
08
fe
05
f8
05
fa
f3
f5
04
fa
01
11
09
f7
fc
08
10
07
0e
fc
fb
f8
03
fa
03
05
0a
ff
0c
ee
00
fa
0a
f6
ea
fd
03
f7
f8
fb
06
ff
fc
05
08
08
fc
02
00
fb
00
07
01
00
03
fa
f9
ff
02
ff
04
01
02
fb
ff
f6
00
ff
ff
08
fe
fb
0e
f0
fc
07
fe
fd
fa
f6
09
0a
0b
05
02
05
04
fd
08
07
04
0e
f6
fb
f7
09
ff
f3
01
0c
0b
f9
01
f5
fe
fa
0d
0e
f8
ff
fb
f4
fe
05
05
03
f6
fc
ef
fc
0c
0e
ff
fd
0a
03
02
f6
00
fa
05
f5
00
0a
07
fa
02
f6
fe
12
fa
f5
07
fb
fa
f6
fe
06
06
f9
fd
09
fe
03
fb
05
04
ff
f7
05
f9
f6
f9
f8
ff
f9
fb
fd
fc
07
01
fe
fd
02
fc
09
fc
04
01
04
00
04
fd
07
fe
0b
fb
fe
07
fa
03
ff
fc
04
00
fc
03
f6
0c
f1
02
f6
fe
fc
0c
13
00
f5
09
f9
0d
ff
ef
08
01
fc
08
0c
ef
f9
f9
ff
fa
03
fd
fc
ff
fe
ff
10
fd
04
09
05
fd
fc
16
0a
08
ff
04
02
e6
f8
fd
12
00
f6
ff
fc
ed
0f
f4
f9
01
f2
0f
fe
06
ff
f6
f6
04
f0
f4
f9
0f
04
0e
f7
fa
08
fd
08
fb
15
01
09
fd
fe
f5
f4
04
0b
f9
07
01
f6
ed
0d
f5
03
00
f4
0d
fb
f9
ff
14
03
ff
f9
05
f2
04
08
f4
00
0c
02
fc
ed
f7
ef
07
06
09
fc
f5
07
12
fe
fe
0a
f5
0d
f9
e8
04
0a
0f
fe
05
ff
02
fb
f4
f4
fe
f8
03
15
0a
f7
0a
f9
fe
fb
03
f2
fd
01
f7
06
fa
00
fa
08
ff
00
fe
f4
f0
fb
03
f3
ed
13
fe
03
06
09
07
0d
00
07
f3
04
fd
fe
f2
fe
ff
0d
0c
10
05
ff
f6
f9
ee
09
08
13
f4
01
fd
04
fe
fc
fc
f4
01
06
10
15
0e
0d
05
ef
f8
e8
09
04
fb
1f
0a
0a
fa
00
f1
ef
f9
f0
08
f8
0b
f6
00
08
09
03
f8
04
fe
02
fa
01
fb
06
0a
04
f9
0a
05
06
fa
fc
08
02
06
f1
fe
f9
01
ef
ff
00
00
02
f1
fb
01
f2
08
f6
02
01
f7
09
01
17
00
01
f7
04
0f
08
08
0d
06
0d
11
ff
19
ff
e3
f6
f5
f3
02
f2
f0
04
07
0c
f6
f5
03
f9
09
05
fb
f5
02
06
fa
fa
01
fc
f3
fd
ef
03
07
05
0f
06
f8
f4
f9
f9
f4
0c
fe
f6
f9
07
06
f5
16
06
04
f9
ff
f6
10
ec
03
09
f3
10
fb
fd
00
f2
f3
03
02
03
ff
0c
f5
f8
f6
00
fc
f3
04
00
06
fe
fb
05
14
f9
00
f3
fa
fd
0a
07
fe
0c
f4
ff
00
02
00
02
ff
0c
f9
ff
fe
e2
01
06
05
13
fe
fe
02
f4
03
f1
02
fb
fa
01
f5
ef
01
13
fc
ec
f9
f8
0e
fb
00
08
f8
09
00
07
06
fa
fd
fe
00
f8
ff
01
0c
fa
10
f1
04
ee
fd
f6
fe
00
09
f9
f8
fc
0a
0a
e8
ed
f6
ed
04
fe
f9
ee
06
00
ff
fe
05
06
00
07
09
fa
00
f9
f8
fd
f2
fd
10
07
05
0a
07
fb
0c
01
f3
0d
f5
0e
00
fb
06
01
0a
f4
ef
fc
05
fe
00
0f
f8
06
14
fd
06
02
08
f7
01
f9
06
f7
fe
fe
01
f3
f5
f6
fc
ef
06
01
0b
10
ff
ec
13
f3
f5
e2
06
05
14
0d
00
05
09
ec
0c
f4
01
03
08
fc
fb
06
f9
fe
08
0c
0b
f1
12
f1
10
f3
00
f6
ff
09
07
0a
f7
00
f7
f6
f9
0b
03
03
fb
f5
03
08
f8
fa
f9
ed
08
0a
f4
ff
f3
04
00
09
fb
0f
fb
03
01
09
f9
f7
04
ee
fe
fe
0f
fe
02
f8
02
01
fd
f8
f9
fc
0e
f9
04
f8
05
fe
ec
ff
f4
04
f5
0a
fa
06
f7
03
fd
f8
0a
06
05
06
f0
f7
f3
07
f7
f9
ea
0f
00
08
ff
03
ff
0c
13
fb
0d
fe
02
0c
f3
0e
0d
17
f5
0c
ee
fd
fe
0f
04
00
03
0d
fc
f9
03
0d
01
0e
fc
ff
0c
0b
02
10
fe
07
12
03
0d
0d
06
f9
04
f3
ff
ff
