3c0 1 3 3
06
16
0e
ea
07
02
ec
ee
fc
0e
0c
10
05
02
06
eb
e9
f5
08
0c
15
01
04
0d
e3
e8
ea
03
14
10
0f
0f
04
eb
f9
e8
f0
f7
01
f4
fa
f6
f6
f6
ec
08
18
20
0b
02
07
ef
ea
f3
01
fa
e8
13
02
ea
0c
fe
e9
fd
f8
ed
17
11
ee
0c
f9
f3
e9
ed
0c
f7
fc
17
0a
0f
f9
e8
f3
ed
fe
06
fd
0e
08
0e
e5
e8
ee
11
1d
15
f7
f0
ef
fb
0d
ed
0a
ef
eb
e9
eb
fb
f9
f5
f8
00
fd
ff
17
16
14
02
f1
ec
16
16
02
f6
f6
f5
f3
f6
0c
ee
f6
19
e6
f9
17
02
07
06
0a
1a
22
01
01
fb
ea
e5
e6
0b
02
01
0f
07
19
ed
f8
ef
fd
fa
f3
fb
f2
f7
06
09
13
e5
e8
f4
f8
fc
f3
02
ff
f6
f7
e2
ec
0f
12
12
f1
fb
f2
f9
02
ed
f6
03
f3
07
fb
0f
08
fc
01
f3
e2
f3
00
f1
fe
01
fa
f5
f7
fd
f4
0c
19
0c
08
0a
0b
f7
00
f2
f9
fb
ed
ea
f3
f5
0f
0c
16
f0
f2
f1
fb
f4
fc
04
02
10
f1
01
f5
ec
f4
f3
f1
fd
0b
ee
ed
1e
f2
fc
0c
f2
09
06
f6
03
ef
f1
ff
eb
f6
01
fc
f9
f0
e4
f6
ec
02
0f
11
10
ee
ec
e6
07
f8
f3
0c
0d
0f
fa
f1
fa
03
f7
f3
fa
ee
f0
09
ff
08
ed
ee
f1
15
1c
0b
e8
e5
ef
fc
fd
0e
10
0b
12
eb
08
fc
f4
09
f0
ec
01
e8
f7
fa
fe
fb
fc
f3
f5
ef
ec
f6
f3
f4
0d
0f
19
f4
e5
f8
dd
03
0f
fb
06
0e
de
f1
1d
f9
eb
ef
12
0c
19
f5
00
00
fe
ef
f0
17
f4
e5
01
09
03
22
0c
d3
15
07
f2
01
fe
ee
0a
0d
0e
fa
fd
fd
eb
ed
ef
f8
fa
fa
03
05
08
0d
1c
0b
11
13
0d
f9
f4
f8
12
02
06
f4
f8
ee
f4
f5
f5
02
fd
fd
0b
ef
e3
12
07
ea
05
03
fa
09
00
db
13
fd
ec
13
fb
de
f0
ef
e8
05
0d
1a
ff
f7
ef
08
06
f8
05
01
fc
f1
ef
e9
f5
f4
ed
f5
fe
f1
0b
18
07
eb
ee
f7
ff
f4
ff
01
03
03
00
0b
06
0d
12
04
0d
0a
02
f6
fc
f4
ed
f6
f4
f2
f4
fc
22
1b
1f
f2
ef
ea
00
01
ff
f0
eb
eb
fa
fa
fe
20
0e
14
dd
05
13
ea
00
14
fa
f5
eb
ef
05
0e
de
e9
26
01
05
01
f6
f0
f2
fa
f2
f4
03
0d
07
ea
04
08
ea
0a
06
e7
05
15
f1
f9
f4
12
14
19
fe
05
fb
fc
f0
f1
0c
fb
f5
1e
16
13
00
25
fe
f3
0a
ea
e6
fc
f1
02
0c
07
ef
f3
eb
f2
fb
f8
fd
06
03
0b
18
05
23
10
26
f4
f0
e8
0e
12
02
ef
f5
ec
f0
0a
12
e7
fc
0e
dc
10
0b
f8
fa
f2
fc
f4
fa
0c
18
07
ef
fe
f5
fc
fe
f1
ee
fc
f5
fc
06
00
f3
f3
fa
ef
fa
f4
f8
f5
ef
f2
f0
f7
03
0a
fc
f4
f5
2d
ea
f3
39
01
ef
10
0a
f2
f1
12
fd
ed
12
03
dd
ee
18
f0
ef
11
f2
ec
14
ec
01
04
02
ee
f4
e9
0b
14
04
ed
18
f6
ed
19
f3
ec
20
ee
02
ee
f2
09
ee
f3
16
f6
06
28
fb
11
01
f9
07
f5
e9
f5
ee
16
ec
e7
24
f6
f0
0e
fe
fb
0f
ea
01
14
e8
03
08
e8
11
07
11
03
02
04
e3
ee
eb
e9
ec
ed
05
0d
04
0b
0b
12
f5
fc
ef
f8
fc
ef
16
10
00
05
07
04
02
fe
f2
ef
f2
ee
f3
f6
f7
f5
f6
f8
13
12
15
f4
f5
f8
f8
fc
fd
fc
f7
f8
06
ec
ec
16
1d
ff
fc
fb
f6
ed
f2
fc
ef
f9
01
0e
11
17
e9
e3
fe
00
04
f7
02
1b
01
e9
f8
14
f0
01
10
e6
f1
05
eb
e4
e7
00
01
00
09
03
fd
f1
f8
f3
f1
07
f9
05
f3
f7
01
f6
e5
f2
ee
f7
0a
0d
00
00
0c
ec
fc
f9
fc
f0
e5
f1
0c
05
f7
1a
ff
f1
08
03
f3
f2
fc
fd
ea
ff
12
eb
00
11
05
f4
eb
19
05
08
fa
ed
ed
f5
1d
e3
fb
16
ef
f0
01
ea
07
fd
da
1d
02
ea
0d
06
e3
0c
1e
0b
fc
f7
fd
f8
e9
eb
fb
f3
ee
12
10
ff
19
0f
02
02
05
01
13
0d
14
00
fd
11
01
0e
05
f3
f4
ec
ea
f9
ec
f9
f3
f3
07
01
09
02
09
24
f0
f9
ee
f3
f7
ff
09
1a
0d
03
f7
f9
12
12
00
01
09
0d
f1
f0
f6
f2
05
0c
04
19
1d
f2
ec
f3
f0
ff
0a
f2
06
02
f5
f9
f6
0b
17
09
fb
f3
f5
04
0f
03
05
03
04
ed
e2
e6
fc
f7
f6
f0
fb
fe
0f
18
0b
ed
ff
ec
0c
f5
e7
fa
05
09
fb
f6
f1
ee
fa
f4
04
19
1a
ff
11
02
f5
09
f7
ef
f8
e5
f6
eb
f3
f3
fc
f7
05
06
04
f5
f6
f1
00
18
f2
16
18
fa
47
15
e0
36
f4
df
15
e6
04
05
15
1e
fa
f6
f7
f6
f3
f0
ea
01
f0
08
1a
0e
e4
f0
fc
f4
f6
f8
15
11
14
fe
fd
f4
03
13
10
f1
f9
fc
ed
e6
f3
08
0d
16
fa
ff
f4
f6
ed
e7
05
f8
02
14
17
30
02
ff
fc
f1
e0
10
ec
11
04
f0
0b
06
ee
f3
13
ed
ee
12
f2
f7
02
fb
fb
00
fa
00
00
15
17
17
e9
07
eb
eb
04
fd
ed
fa
e7
03
15
28
fe
fc
01
f3
fd
f7
0b
fd
e2
09
08
ea
15
01
dd
df
fd
ee
f2
04
f2
01
0d
05
30
02
ef
33
f6
fb
1b
ea
03
eb
f3
de
01
02
f9
fa
ff
1b
0b
12
01
ed
ee
f3
f8
fe
f2
f2
ee
f3
00
fe
09
05
0a
14
d9
fc
fd
00
ea
10
20
16
c3
0a
09
f1
1f
f3
ed
02
e8
f5
04
06
02
02
0c
0d
04
09
05
00
ed
f9
f3
ef
f2
0f
07
1d
f4
f2
f1
f2
f5
f2
01
09
ff
fa
fb
f2
0e
18
17
f1
f4
f6
f2
f4
e2
04
0b
e6
04
18
f2
f4
f6
f8
f5
f9
fc
f8
f0
fd
e8
fb
f3
ef
00
0b
fd
11
1d
f5
f2
ea
09
22
0b
f2
f5
f8
f9
db
f4
fe
08
f5
14
19
10
10
0c
1e
f8
fb
fc
ed
f4
f9
24
25
17
0f
fd
ee
11
01
02
e6
f7
24
ec
03
14
ef
f4
0c
f2
f9
f5
fc
03
fe
f1
f5
ec
ee
e8
ea
09
00
fd
15
19
08
09
0a
09
ee
ea
ef
03
f9
01
e1
fd
f4
f7
1a
02
e7
e0
14
fd
17
06
ef
f9
f4
f5
e9
f5
0d
0c
01
f8
fe
f5
ef
ef
ec
06
fb
02
02
f7
f3
f7
ea
f4
ec
ee
f4
f3
02
09
07
07
1c
f2
f7
f3
fb
fd
fd
f3
f7
f3
f4
f4
f4
f7
f8
0f
e6
fc
10
01
e8
e1
f8
f6
f1
1a
11
16
07
0a
0b
fb
08
ff
e7
ed
ea
14
08
e7
13
07
ec
0b
02
f1
ec
16
e5
0e
1f
e3
11
04
e7
ee
04
fa
f7
fa
f7
f5
fb
ee
ff
03
e9
f2
1a
e3
f6
0f
ed
01
04
03
12
13
0f
0d
00
04
e6
e8
fb
00
06
0c
fb
05
fa
f5
fb
0a
f5
01
10
e1
f7
07
f4
02
ee
ee
f1
ef
2c
23
1e
f8
fc
f1
11
1a
15
eb
f0
eb
12
f8
ed
13
00
ee
19
fa
ed
01
fd
f9
00
f1
ee
fc
f2
f3
10
0d
0d
00
01
fc
ee
ea
eb
f5
04
0e
f6
07
0a
06
0e
31
e6
20
f4
eb
15
fa
ef
0a
f9
ec
fc
57
08
02
65
19
f3
26
f0
f1
eb
fd
f9
ff
1b
10
0f
17
f7
f2
07
ff
e0
f6
ea
ff
f7
f6
02
0e
15
17
fc
01
f8
09
08
f6
05
fc
ed
f7
e7
f2
f5
e9
f4
f7
ff
f7
0c
14
15
01
05
0e
08
15
0e
ff
09
fe
f1
f5
f2
f4
0b
04
e8
f3
f3
f7
f0
f5
04
fe
06
16
0b
15
f8
e7
f1
25
21
19
fb
f7
f9
fe
f0
f6
ed
ec
f4
1c
12
20
f5
f6
f4
f4
f7
f4
0f
18
14
ff
e6
f1
0e
f1
ee
16
fd
02
e9
f0
ea
04
fc
fe
15
18
12
ef
ea
ef
08
23
13
f5
f6
f7
f2
e2
e7
16
18
0b
ef
fc
f0
10
02
03
0d
21
17
04
03
03
f1
ee
f5
1a
0f
12
0f
0b
14
fd
ef
eb
1e
09
01
05
f0
ef
f4
f6
0a
ea
fa
02
ec
00
18
ef
f0
ee
00
f2
f9
13
0b
09
fd
06
f0
15
12
e5
0a
0b
da
0f
02
fa
08
ff
f7
02
f0
df
df
fa
19
ea
0b
0e
f8
fa
ec
05
0c
fa
ec
f9
ec
f2
f8
f7
09
15
f7
e2
f3
df
01
00
fd
f7
fc
e8
f1
f3
f3
0b
0c
10
10
23
0d
f0
05
f9
f3
01
fa
28
17
fa
17
03
02
0c
01
10
ee
ef
ed
13
0d
0c
07
0c
10
10
13
fc
03
f1
ee
eb
f1
f4
fd
04
0c
f5
f9
05
ea
f1
fa
ef
fa
f2
f1
01
ec
fc
09
fb
0a
09
0e
fa
02
f3
ec
f2
eb
f5
fe
f4
05
13
10
03
25
19
22
15
12
10
f6
0e
09
fc
09
ef
ed
03
ea
06
06
eb
08
ff
fb
f8
ec
fe
06
02
ec
ed
eb
f8
ed
fa
f6
f8
f5
ed
f5
f6
0e
0a
07
00
f9
f6
f0
f5
ec
15
00
e1
19
f0
fd
07
f3
02
e6
f4
fb
ea
fe
fa
03
1b
0b
06
02
ff
0d
03
07
1b
08
0e
ee
f0
fa
f5
fc
08
ea
f7
0c
14
f8
e8
20
f0
f6
16
f1
f5
08
fd
09
17
10
10
ec
f7
ef
ec
f8
f3
05
06
fd
f2
f6
f3
11
fe
e6
17
f7
f0
10
05
ed
e6
ed
ea
f9
f8
02
0f
0e
09
2f
ef
e4
24
ef
ea
0f
01
03
f0
06
0b
f5
04
00
ec
f2
f4
09
02
f8
01
f1
f1
0d
fd
e4
1b
f8
e0
16
f8
e9
10
0a
de
07
14
05
05
f8
00
f4
e6
e9
de
09
19
e9
05
1c
ee
fa
03
ec
f3
ec
08
05
05
eb
ec
fa
e8
f6
fc
f1
f9
05
f9
11
04
0d
1a
13
01
09
0d
05
04
f5
f4
f5
f3
e1
02
03
0c
fe
1b
fa
f9
00
e4
f7
f7
18
14
2a
02
fa
eb
02
f2
ee
1d
09
fa
e6
f9
09
e2
0f
0b
ee
07
01
11
1a
05
ed
08
f3
02
11
12
23
00
ef
11
fd
f1
19
fc
ee
0e
06
05
ff
ff
fb
ee
ef
ef
e6
ef
f0
f6
17
03
fc
1e
fe
fc
fd
f3
f5
ff
ff
f9
12
27
f4
fe
fc
dd
fb
fc
00
f5
16
ed
ee
fa
fe
f2
ed
08
11
0b
fa
fb
f8
f1
f1
f5
1a
23
0b
15
fc
14
0f
01
08
e6
e8
e6
f4
06
06
f0
f5
f9
f8
f3
f1
f9
ef
ef
14
15
15
f0
00
fa
fe
03
fc
0f
21
13
fb
02
fc
f4
f0
ef
fa
f9
f2
fd
1a
0a
ff
10
f4
f5
2b
05
e3
0e
f6
1f
f8
06
08
df
e2
ec
17
0d
10
07
fd
f2
f2
e8
f1
fe
00
fa
f0
f8
18
20
3e
f7
f6
e7
00
07
02
ee
f4
f7
ee
fb
f8
db
16
2d
ef
0b
01
01
06
f4
f5
19
de
ee
16
eb
ee
fb
f9
1b
fc
e5
18
01
e8
10
f7
f7
08
0a
0a
02
f3
f5
ff
e3
e6
01
fe
f4
0a
09
f6
24
27
06
0d
ec
f9
18
f2
ec
16
f3
e5
00
10
02
00
0e
fd
ec
ea
e6
f3
f7
f4
eb
f9
fd
02
03
07
08
04
ed
24
10
08
00
04
f9
ee
f3
f2
fc
03
f8
07
17
0b
ff
02
08
0a
04
02
dd
e7
e7
0f
1b
07
f5
f8
f8
05
0d
fc
05
17
0b
f5
05
f7
e8
ee
f2
ec
f3
f0
fc
02
fc
0e
14
0f
14
22
0a
fc
07
fd
e9
fd
01
13
0e
10
01
00
06
ed
ed
f6
0f
04
fe
00
f9
ed
f5
f4
f1
f3
f2
ed
ff
fe
f9
19
0c
27
0e
0c
11
ee
ee
f2
f2
f0
f6
f9
fb
f0
fc
ff
f7
10
17
10
0c
e8
04
04
e0
02
04
ea
0b
e8
e3
de
07
02
06
01
12
03
f3
ef
fd
f3
f0
fd
06
20
0f
07
04
11
07
06
0d
ec
f1
ec
11
f2
f7
e8
e7
f2
1d
1d
18
05
08
09
fc
fe
01
ee
eb
ec
16
f5
eb
15
f7
ed
0c
f8
e6
e5
f0
f2
05
fa
f8
14
13
15
03
02
fd
02
03
09
0e
16
10
fb
f4
f7
03
f2
ed
00
1b
26
e7
f1
04
ed
fb
10
fd
ee
15
f6
e8
e6
f8
04
fd
0d
10
0a
ea
f2
ed
01
06
fb
0b
17
03
e1
f0
f8
04
09
01
16
0b
22
ea
fc
21
e8
f2
13
03
fa
f4
0d
ff
f0
09
fa
f4
1b
fe
e1
02
fc
fe
e9
f2
eb
f4
f4
fd
17
17
1d
f6
ef
10
f4
f3
17
08
0e
f3
f4
fa
f0
eb
f8
f3
0b
0d
09
f9
01
05
f3
f2
e3
0e
1e
22
04
f9
fa
f0
f8
ef
e6
f4
ee
03
fb
0a
15
0b
16
f7
ec
0e
0d
fa
e6
1e
f6
e4
16
1a
1c
00
0c
01
fd
f8
f6
fe
fa
fb
0a
06
0a
04
0a
15
f1
f5
f5
f3
10
09
ec
10
18
08
00
ed
0f
01
ed
18
02
ed
e3
fa
e9
ff
1b
24
03
15
f6
fd
f0
f2
f4
fa
f2
f2
f8
f6
f4
f8
f0
f4
f9
f1
0c
1c
18
2c
02
f7
04
02
fc
e7
eb
f0
1a
12
0e
01
05
00
f2
f9
f9
ea
f1
ec
0c
12
0d
fa
06
06
07
0f
01
11
f8
f7
fe
e6
e8
e8
f5
ec
f6
03
07
fc
16
11
0f
11
00
f3
f6
ed
e9
ff
f3
ff
0f
02
05
01
f8
ed
ea
ed
0e
0f
0b
07
08
03
07
09
00
f1
f9
fc
f8
0a
06
fe
1f
10
ee
f8
ef
04
fb
fa
10
0d
10
10
f7
f1
14
01
e7
0b
ff
ed
04
14
0a
fa
fb
ed
fa
ef
e2
05
03
f7
f1
0e
e4
01
2e
f0
e9
f5
ec
f6
ff
f7
04
0c
07
f3
fb
ed
25
fb
f9
0d
fd
f5
f2
f9
fa
00
f6
f5
f0
ef
f3
fd
fc
fd
f4
f7
fa
f9
f8
f8
fe
f6
f2
ee
f9
f4
f7
0e
fa
1a
04
11
0b
03
0a
06
08
fe
12
14
0e
ec
f1
ef
f5
f3
ea
fd
ea
ef
09
01
fd
19
18
09
eb
fe
09
f3
fe
0e
e5
fc
18
ff
fc
03
0a
07
0c
f5
ed
ec
fc
fa
e0
13
f8
e8
11
04
f1
ec
fe
02
ef
05
12
ea
f1
1b
0b
0e
06
f4
ee
f5
f5
f4
eb
1a
01
eb
21
f6
f3
fe
fa
eb
ea
eb
ed
fd
fd
f9
15
0f
04
08
fc
db
04
11
e2
fb
21
e2
07
f9
08
09
01
17
14
fd
1b
e3
fa
16
e8
f6
18
f6
01
f7
0b
0f
06
04
fe
fe
ef
f3
e7
eb
f8
ed
ed
fc
0a
f9
01
ff
03
fc
f8
02
fb
fe
1b
24
23
fc
fd
0c
e7
f0
f2
fe
fa
fd
ee
ef
ef
f2
ed
ef
16
12
11
f2
ff
02
f4
03
1e
ea
ec
f8
f3
f3
e0
00
29
fb
e6
0c
f6
e6
05
fb
e5
0b
09
e5
08
09
eb
ef
f4
09
fc
f5
0a
09
08
ef
fe
03
ef
f6
f7
06
1b
1e
e5
ec
f0
01
03
ff
0c
09
14
04
17
0e
f0
f1
f4
f4
eb
e9
04
0a
15
f9
fa
01
ed
f2
f4
f1
ec
f0
10
16
12
fd
f0
e3
f2
07
05
ff
06
fb
df
f4
e5
12
00
ea
12
fc
ed
06
f4
eb
e8
f1
f2
f1
02
fe
0e
11
08
0c
08
22
f4
ef
0a
f0
f5
f5
ef
e8
ea
18
0a
f6
f7
f8
f1
f3
ea
ef
00
fd
f4
13
09
24
f4
f9
f7
ff
fe
f9
f7
f5
f3
f3
f7
f9
f1
f6
f3
08
02
f7
f7
01
f0
f2
fc
f7
ef
01
f7
31
05
ea
15
05
f0
1b
05
ff
04
0a
08
ef
f3
fb
25
0d
0f
18
0c
fd
00
05
ff
ed
e2
e4
04
f3
f2
03
f2
f6
04
f0
f2
f8
06
ff
0e
1d
10
00
0c
0c
13
0f
1c
fb
fd
07
dd
f8
05
1c
00
e6
13
06
e4
10
00
ed
f3
f8
f5
f4
fe
f8
11
17
0e
ee
fe
09
ef
05
14
eb
01
23
ee
f3
f0
10
01
08
13
12
22
eb
eb
eb
01
f9
00
14
03
10
ed
e7
ef
0f
04
fc
12
06
00
e4
ff
0b
e0
fc
07
e9
0c
0e
0a
02
e9
21
0e
04
fb
f4
e9
ed
ed
f0
ff
0e
0b
df
fb
ef
1b
12
11
f6
e6
f3
01
f4
f4
eb
08
11
e6
fe
04
f1
f4
05
0b
08
05
00
fd
05
ef
e9
f4
f7
f7
f3
ef
fe
05
ee
07
20
e6
00
12
fe
f9
01
eb
f2
f0
03
0a
0f
f8
f8
f3
fb
f9
e7
f6
f2
f0
fb
16
0f
e7
fa
ed
18
fe
e1
19
fe
e6
0c
04
ec
12
0d
15
0c
08
08
00
05
05
0a
0b
0c
fa
fb
fc
ef
f5
ef
eb
0a
1b
f1
fa
13
e9
fa
f9
f6
f2
09
ee
f4
17
ec
f5
09
e7
fd
1d
eb
fb
13
f1
fa
0a
0a
09
ff
09
06
01
f5
e7
e5
12
13
0c
07
03
f7
f1
f3
f5
eb
fa
f3
f6
f7
f4
04
fe
ef
f2
e9
f5
ef
ef
f8
04
0a
23
08
f9
ec
14
02
e5
0e
01
e7
18
03
11
fc
ff
fc
e4
ef
eb
ee
f0
ee
ef
f8
06
03
10
10
ef
ee
ee
f6
fa
05
0f
10
0d
fa
e2
ef
09
ff
00
07
23
14
f8
f3
f0
21
16
14
ee
eb
f1
f0
f2
e5
fa
0a
fa
04
15
12
08
17
19
f7
00
fe
fe
f7
f3
1a
03
0d
00
00
f8
ee
ee
f4
ea
ea
ea
fc
06
fa
0f
03
0a
14
0b
0b
fe
ff
04
f0
e7
ea
f8
e4
ee
fe
ea
fd
13
04
0c
fd
f7
f4
f4
f5
f7
f3
ef
f6
04
ff
fa
ee
fa
f1
0a
2f
15
05
0e
17
01
01
05
f3
f1
f3
11
0a
07
fb
f7
00
ef
e7
f6
06
1b
13
fb
01
f9
ed
ec
e4
f5
18
14
0b
1f
ff
f1
e5
f0
0c
07
ec
f5
00
e7
fc
fe
ed
19
09
f3
1b
fd
eb
0b
ff
eb
14
23
08
fd
05
f2
f9
f8
f8
03
0d
11
ef
06
11
f2
ec
f6
f7
f9
f8
f6
f2
f1
0a
15
06
ec
f4
eb
07
f3
fa
fd
06
0e
07
ef
1f
02
de
f4
1c
ed
0c
0f
f1
ee
f5
fe
eb
1f
08
fa
05
ff
ff
fe
fc
00
12
15
16
e8
f6
06
e9
07
08
e3
f7
fc
02
07
1a
03
fe
16
e9
f0
fe
ff
01
f6
11
08
0a
40
09
14
07
1a
09
06
00
0d
e8
ee
ef
eb
07
02
ea
fb
16
e1
fb
06
fb
04
13
02
03
01
eb
ee
e0
05
08
01
f7
f9
f8
f3
f4
ef
f2
f2
f2
fd
fd
fc
fe
f7
f0
0b
0e
0d
03
fe
f2
01
e8
ef
ed
ec
ee
fc
ff
fd
0c
06
00
00
fa
f4
ed
fd
ea
fc
03
04
f9
02
fd
f2
f5
f5
ef
f1
ef
fe
02
01
fb
0c
07
05
13
12
ea
ef
fe
e0
f2
fd
0a
17
02
eb
f7
fa
f0
15
29
fb
13
19
0a
0c
10
10
0a
05
ed
e4
e8
ed
ed
e8
f8
02
f2
0e
0f
07
f3
f8
f5
f5
fb
f5
0b
12
18
fe
f5
fe
02
09
ff
19
16
1b
09
11
07
f5
fa
eb
fd
f7
e7
dc
ff
12
e7
06
1e
f4
ff
0a
fe
f6
fc
06
01
08
01
0a
2f
fc
f0
fb
fb
f2
04
3b
09
33
f4
e6
f1
f5
fd
f0
0a
0c
09
f3
04
ef
f8
ff
f8
f6
fb
ee
e6
03
0e
f1
04
03
e9
fc
13
0f
f9
e9
1a
04
f0
0d
01
ed
fb
e9
f6
10
1b
11
08
03
02
ec
f7
f0
fa
06
f9
11
10
00
ed
fa
f5
f7
f3
fd
fd
fb
fe
fe
13
f8
e7
01
1b
e6
f8
20
f2
f2
f5
12
0e
f8
30
19
31
fe
f8
ee
ff
05
f3
13
12
de
18
21
11
04
fe
03
0e
f7
fd
12
ff
e6
1a
06
e9
03
0c
ec
fd
ff
f3
fc
06
09
08
1b
15
0a
16
09
08
11
0e
ea
f0
ee
f8
04
f2
ee
0d
ee
ea
2d
ec
23
02
d8
02
1e
e5
e8
01
fc
ec
ea
e8
0d
0c
0f
f2
02
f4
e1
0f
e6
ee
27
fd
ec
17
f1
ec
fa
10
ea
fd
10
ed
f4
12
ec
f7
ea
1f
1e
f4
d5
f5
15
ef
fe
f5
f6
03
fa
ee
fc
ef
06
00
03
f3
eb
ea
0b
fc
f4
fd
fa
e8
16
ff
f1
1f
04
ff
0b
0e
10
f4
f8
fc
eb
f6
ea
1f
f5
ee
09
f0
fa
14
03
e3
06
05
14
02
09
09
e5
e2
ec
07
fc
fd
f5
fb
f8
11
23
1e
e9
fa
ef
f2
f9
f0
02
0b
fd
ee
f0
eb
01
0b
fc
06
0a
0e
e6
f7
0d
f1
f6
18
e8
ff
19
e1
00
ed
09
18
04
ff
22
12
02
0f
02
f1
04
fc
e8
f7
e8
08
17
12
f2
e3
ed
04
ea
f2
f1
f4
f6
f8
fc
fd
08
0b
05
fa
f8
df
0a
0d
f9
fc
03
f0
f5
f0
f6
05
07
ff
17
1d
0d
18
16
00
04
04
fb
ee
f5
ea
f6
f3
f4
02
00
f3
13
1b
15
09
15
e5
18
02
e4
1a
12
f4
1f
00
e8
10
fb
e7
34
e6
e0
ef
f1
f4
f7
fa
f6
04
fe
02
f3
f3
f6
f8
ef
ef
15
0d
26
fe
00
0c
f4
f2
f4
ed
f2
05
13
10
06
fb
f5
fc
e7
f5
ee
f9
fb
fb
14
16
09
f5
fb
f1
f8
14
f9
fa
27
dc
f1
10
e1
fb
f7
eb
07
18
11
e0
fa
f1
f9
f7
01
04
03
08
0a
11
22
0d
18
02
02
0a
fa
e2
ee
ee
17
16
18
fd
f6
00
f3
ef
f6
05
fb
f2
19
0c
dc
0d
fb
ef
f2
fe
ef
f9
fd
ed
0d
14
07
f9
f9
f1
08
0e
12
e1
e8
ea
f4
ef
ed
07
f0
01
0e
0a
0a
f8
f7
f4
fb
fd
ff
f8
f6
f1
01
02
09
fd
fb
03
ee
ed
ec
f3
f6
ec
12
1a
1c
ea
f8
fc
f0
f7
1b
f1
07
20
f4
f7
03
12
f3
ec
17
ee
f3
0b
fb
f2
12
06
09
04
fc
fa
e5
ef
f1
ed
e8
f3
04
02
02
0e
03
08
e7
f0
ea
fa
0a
fd
0e
08
06
1e
05
ec
24
f3
f3
20
e2
fc
f4
f3
ee
fe
fb
03
15
11
16
ec
e7
eb
1d
11
03
f4
f7
ea
e7
fd
04
e9
00
09
ef
fb
13
1b
0d
1a
03
05
09
04
fd
fc
f2
e7
ed
f3
02
f7
05
0c
09
09
e5
ff
1a
eb
fc
05
f2
f9
ef
ef
00
ed
f8
09
ff
02
1e
1a
33
14
02
f5
f6
e5
f0
ef
00
01
03
f8
fd
01
ee
f0
eb
f9
f4
f3
f0
f2
f3
02
09
10
f0
f5
f8
f1
ea
f8
03
03
06
1e
18
1c
f5
f5
f6
f6
f5
f7
10
f7
ed
04
ff
ef
f6
f0
f2
e8
fc
ea
f5
f8
f4
08
0d
15
ef
ee
ee
f7
01
f3
03
0e
08
f5
f5
e3
00
06
f7
09
18
03
0f
1a
25
f7
fa
fc
f6
00
fa
f1
f0
ef
f4
f3
f8
06
fd
08
f2
ea
ee
0c
13
19
02
fd
f7
f6
e8
fb
fa
ea
06
09
e4
10
f5
f1
fa
f2
00
f5
08
15
14
0f
0a
0c
16
f6
fc
ee
ec
ec
f0
05
2b
f4
01
27
fe
fb
05
ec
fd
02
fd
fe
fd
f4
f4
f9
eb
eb
ee
f9
ff
fe
05
09
15
06
06
03
f9
f7
03
f8
e6
f0
fd
f5
e7
f9
ff
f3
fc
0a
08
21
1b
0b
08
fa
ec
eb
ea
01
0d
09
03
08
f4
f1
05
ea
e6
09
10
05
ff
f3
fe
f0
f0
f0
e5
ed
f6
fa
fa
f2
1a
16
f7
0c
03
0a
f2
f5
f3
ec
f1
ef
11
02
e2
15
05
db
1b
05
e2
f4
f2
db
17
15
ff
17
00
e2
08
07
06
09
09
0e
e7
e9
e6
f8
f7
f8
f2
00
fe
fb
03
34
06
06
0a
0c
f5
e4
08
e9
ef
14
12
0d
0e
09
03
fa
fa
f9
fc
f9
f4
00
04
fb
f4
ed
ec
f6
f1
f1
0c
10
14
f5
f9
fb
24
11
cf
15
10
e4
f7
05
f6
fa
f6
f7
f4
fa
ed
f9
fa
ff
27
fd
e0
14
02
ed
0c
f6
ea
f5
f0
01
f6
ee
f4
20
06
03
f9
ea
0d
04
e0
12
f8
ed
0b
fc
1a
11
fb
ff
f8
fb
eb
f3
ef
eb
fa
ee
05
09
fd
0c
16
f7
e8
f2
05
f7
f3
0c
10
12
fd
00
fe
0c
0c
09
0e
0a
0d
0e
10
05
04
07
04
e3
ec
ea
07
04
f6
f9
04
f2
f2
fc
e2
ee
fa
0d
ee
00
10
f1
f5
11
ee
f3
f6
02
fa
fd
03
12
1e
18
13
15
f8
f1
f4
ff
f1
ed
f5
f7
fb
f0
ee
f0
fd
11
1c
f5
db
00
03
07
f2
f0
19
19
15
05
1e
02
08
0d
11
06
10
fd
01
fc
ee
03
04
19
13
2c
f5
e5
e9
16
20
0f
03
f9
f3
e5
ff
f6
05
fb
f0
1a
14
04
f5
22
0f
fb
05
0d
e3
e9
f3
10
0f
0e
f0
ea
f7
fc
f5
ef
ef
f4
fc
f2
f9
f3
0d
18
15
e6
f2
ed
01
00
f9
09
01
0d
f5
f6
f2
f0
fa
fc
fe
16
05
f7
f1
fd
f1
f3
e8
14
05
0e
ea
02
fe
05
19
03
02
18
15
06
09
0a
09
09
02
eb
f2
e5
0b
fb
ec
11
f9
e6
14
08
e3
01
f1
ec
0d
f1
ef
12
fc
f7
13
0a
ec
04
fc
e9
1b
02
e8
fe
e5
f1
ec
f4
fc
0a
11
16
f7
01
0d
e1
fa
2c
e8
f6
19
f1
f6
f0
10
11
0e
ec
f0
f0
ff
15
0d
f3
fb
05
e5
ef
eb
0d
fa
e9
10
25
05
e9
f1
f8
e4
ef
e7
08
17
02
04
f9
e5
0e
05
e1
12
f7
ed
00
02
f3
f8
1a
0f
f3
fc
e4
f3
f7
f7
f4
1a
f5
ec
1f
f4
f6
ff
ea
fa
ec
e9
fe
fd
fe
16
12
0f
f6
17
1b
f3
0e
00
ea
ec
fe
f3
ef
ea
04
20
08
fe
07
01
16
03
e0
1a
02
e5
15
f9
f8
fc
09
f8
0d
26
04
0b
0d
f3
f0
16
02
fb
fe
00
f6
e0
e5
fc
00
f0
fd
eb
f9
f3
fe
fe
e7
ef
ea
fd
05
00
07
18
13
f6
ef
f2
ff
0a
f6
06
1b
15
fa
fe
f1
f6
f7
f8
10
18
0e
f6
f1
f0
1e
15
14
fc
09
00
fc
f1
f3
fe
f2
eb
0e
12
15
f5
02
0c
ed
e7
ec
04
08
fa
08
0c
05
f8
e4
f1
fc
f5
ff
ef
f6
eb
fc
f8
f9
07
04
07
0d
f5
f5
19
03
17
f6
d4
00
ea
fe
09
05
fc
25
e8
f4
0d
23
0d
0d
0f
06
05
04
00
fa
13
fe
fa
ff
09
ea
ea
f2
f0
05
0c
fc
f0
09
e9
ec
02
ee
e0
e9
e9
00
03
fd
15
0b
15
02
fe
02
f0
f1
f3
13
1a
21
04
08
04
02
08
0b
e9
e1
f2
03
09
06
fe
ff
00
ed
ea
f3
0d
18
11
f6
00
f5
f3
f4
e8
1a
12
1b
f4
f7
fd
00
00
f7
f9
e4
01
00
f2
17
ed
03
06
f7
fa
fc
ff
fe
01
12
0c
14
19
f2
e7
19
06
03
00
e4
f4
02
02
07
ea
f7
ee
13
12
15
ef
f0
ef
fe
f4
f8
0d
0f
16
fb
ee
f3
fc
fc
f4
0b
1f
0e
0e
0d
0d
fd
f9
f7
f4
ee
ed
e3
08
22
eb
f4
0b
f0
fa
0a
f9
f7
f5
fc
f2
f4
10
1b
21
f0
ea
fe
f3
f4
fa
03
14
0c
0a
09
06
f3
f2
fb
f0
ec
f4
08
15
00
f1
0a
f4
f0
ed
e7
f2
fa
f4
fc
fa
f5
ea
fb
fe
ef
ff
05
1b
ec
dd
04
0b
1c
04
05
07
0b
0e
05
10
0e
06
ed
f4
ec
0b
0c
07
ea
ef
e6
17
15
0e
fe
f8
fa
f1
ee
f1
f9
0c
e2
ed
0d
eb
ec
13
ed
0f
f9
e7
1d
04
ef
01
04
f3
0c
24
0b
0a
01
f7
0c
01
fb
04
09
e6
0a
0b
f2
1e
14
05
0e
18
10
ee
00
11
f5
e9
f1
e9
f5
f3
f1
02
fe
04
0d
0a
01
14
0b
f6
02
f5
e9
ee
ee
03
1b
fb
fd
17
f0
0a
1b
06
ec
fa
01
f4
fe
ff
f4
12
1f
e9
fb
e1
f3
02
eb
06
18
1f
ed
f5
07
ee
f2
0b
ed
f5
15
f5
f5
f6
f5
fa
f7
0b
1a
03
02
03
00
19
08
0c
04
0b
04
f8
10
05
0c
1f
07
02
11
fa
01
04
01
04
1f
0f
fd
08
00
f0
ee
fe
ef
f4
0f
f5
f1
ff
ed
f7
05
03
fe
ea
03
f2
f2
0d
fd
e7
0d
04
e6
11
14
e0
08
0f
0b
f2
07
ff
f4
e7
f3
0d
08
03
fb
fb
fc
ed
f0
ef
ea
e5
df
0a
0a
07
fe
11
08
00
04
01
fa
fc
fe
f5
ec
ed
01
00
26
f7
f9
12
f1
f6
06
f6
ef
f2
0d
0b
0c
10
0b
11
19
19
09
0b
0a
06
f6
fb
fa
ec
fe
06
ec
fa
15
e1
fe
19
08
ff
ea
0f
fd
eb
15
fa
e8
0c
10
06
02
fd
0b
f1
e9
f1
fb
0a
0c
f1
ed
f0
fc
f6
fc
06
12
0e
ef
f2
f5
f3
f1
f3
fc
fd
fc
09
10
08
f8
e5
e9
ff
f4
08
14
08
10
f4
ee
ef
ef
f0
ee
01
fe
ff
14
07
08
f2
f8
0b
ec
f6
14
e8
fa
11
fc
f1
f2
0b
13
1a
e7
f0
ea
0c
07
f2
05
fd
fa
3e
17
09
1f
f6
12
09
f4
08
17
e9
10
f7
fa
f2
f3
f6
ff
0d
1a
0a
10
f1
e0
1d
ff
e8
ff
fb
ef
07
07
0f
fb
02
04
e3
ef
e9
0b
06
09
07
06
10
0c
0e
10
eb
f6
ee
05
fc
04
07
12
11
ee
ec
f2
fc
fc
fb
09
05
04
e8
ed
ef
11
0e
19
04
03
f9
0e
02
0b
e7
fb
f1
09
24
17
db
fb
14
e9
fa
1e
e7
05
0e
fb
f3
f1
02
ff
0a
22
14
1a
11
16
15
10
13
04
05
06
02
10
0d
13
05
03
01
f4
f6
f2
f0
fc
f9
f4
f6
f3
11
16
23
fd
f7
05
f1
f0
0f
ca
0a
25
f7
f3
f8
f5
f9
f8
f8
fd
f7
f8
09
d8
fb
26
ff
e5
f8
e7
ed
f5
ee
02
07
01
f3
f6
e9
f1
f0
e9
02
00
f4
12
21
07
12
09
ef
13
02
f2
1f
02
f6
0b
0b
1a
0d
1d
06
f6
eb
f4
04
0a
14
0c
09
08
fd
f0
00
ed
1c
11
e6
f7
0e
f5
f9
f9
f0
03
11
e9
0f
0b
e5
0e
fb
f3
f0
e7
f8
f7
f8
01
01
05
f1
fb
f1
f9
06
ef
f9
01
ef
e9
03
13
f0
fb
11
e6
f9
fe
ee
e1
f1
0f
0b
0b
06
04
08
10
0b
fd
1b
0a
0d
03
eb
ff
1a
08
e2
05
14
e4
f8
0d
e3
fe
fb
fe
03
f9
00
16
1e
22
eb
f4
ec
16
16
0a
01
ef
ef
f4
fe
ec
02
fc
fe
f2
f5
f0
e7
1a
f2
f8
0f
f8
ef
04
e8
eb
fb
0f
ed
fd
16
e5
f9
13
f7
ea
ed
f1
fd
f6
f6
0f
0a
f1
fb
f1
f2
f4
f2
fe
fe
fc
10
f4
e5
fd
f9
f5
f9
f0
ff
fe
ec
ea
08
f8
f2
0b
04
fd
ed
f3
e8
12
0e
ff
0b
23
fd
e7
f4
13
ee
f1
29
e5
fd
1f
f4
ef
f1
f3
f6
01
09
0d
07
e3
04
f2
f3
05
f6
ee
f3
fa
e7
f9
f2
f9
0d
09
0b
15
10
fd
05
f6
ff
06
ff
ee
e4
eb
f5
f4
f0
18
0b
f9
19
00
f6
e8
f5
f3
fa
f7
f8
10
10
15
f5
f9
fe
0c
0c
13
0a
0b
0a
02
15
06
fc
07
f1
f1
e9
f2
09
10
0c
e1
ec
fb
22
02
0f
1b
0a
11
f8
00
02
f0
f2
ec
21
08
e5
0b
10
eb
04
0f
04
ef
09
01
f7
f8
fc
f5
f9
f3
f8
ee
f3
11
01
f5
1a
16
ff
f8
f2
f9
0d
02
0c
14
08
14
03
f7
f6
05
08
00
10
1e
10
04
0b
ff
0b
08
f7
f3
f1
e8
f0
ec
f7
ff
00
ff
10
16
19
fc
07
0e
f2
f0
f3
f3
f3
f3
ed
f0
1a
ea
00
18
ef
00
0d
f1
14
05
04
0c
02
05
20
10
e5
06
25
eb
fe
13
e4
fd
0a
ee
fc
f4
e3
f3
ec
08
0e
06
0e
09
0e
13
0c
0e
fc
fa
ff
f2
22
0b
f6
05
ed
ed
fe
e6
28
0c
d9
00
ec
f8
ed
ef
1a
f9
f8
f8
f9
02
f3
0c
16
11
dd
1e
30
e8
fe
32
03
dd
16
ec
ec
f7
f6
fb
04
0c
11
0a
df
ff
18
f4
0c
1e
fd
05
0a
f7
23
fc
eb
08
e0
e8
0b
e6
0a
09
00
02
fc
f0
f8
ed
ee
e3
f1
f0
03
02
00
01
10
08
ef
f4
f1
f7
01
fb
f3
00
fb
f4
f9
0a
ff
f7
fa
f2
ed
f8
1f
11
05
0c
ef
f4
f6
eb
f0
f6
f3
f5
f9
03
f5
08
1f
07
02
08
08
fe
fc
fe
ef
eb
ed
e4
14
1c
ed
ff
17
ed
ff
0d
fe
ee
f9
fc
fb
fd
e4
f8
ff
f7
ee
f7
f5
f0
f5
05
02
04
dd
11
1c
0f
02
03
07
da
e2
ee
ed
ec
f7
fb
fa
10
07
06
ef
f4
eb
f3
fe
03
f4
f6
01
e9
ed
f2
20
15
19
f8
eb
f3
e8
15
22
f2
f9
2a
04
f4
04
f3
ed
f7
f4
f2
fb
13
0f
f7
00
16
17
00
fb
08
ed
f0
f0
fe
ff
08
fe
03
0a
06
10
18
e9
f7
00
f8
14
22
e5
fe
0a
15
fc
ec
0b
05
ea
06
01
e9
f8
f5
01
fa
f7
00
19
18
1a
e9
f9
09
f0
09
10
ec
fd
24
0b
12
13
f6
fc
0d
02
0e
19
07
fd
e9
0f
04
e8
fc
fb
f6
12
0e
f7
fe
ed
db
1e
00
f3
01
f8
fa
fd
f9
ff
10
1b
12
f8
f6
f0
fa
07
ea
06
1a
0d
e3
f0
23
ee
f7
1c
e7
f2
12
11
0d
0a
06
07
05
10
16
19
2b
f6
da
32
01
d9
06
00
fb
07
fc
00
1c
fa
f8
21
0d
03
10
11
06
08
fe
fb
e0
eb
f1
ec
ee
f2
ea
f2
e8
ff
0a
fa
f4
f1
f0
fd
ff
03
f4
01
fb
e9
00
fb
05
f4
eb
10
f6
fa
1c
0a
0f
02
fa
08
f5
f5
f1
03
f9
02
fd
00
07
10
1a
12
f0
0b
1b
e9
f7
ff
ec
04
1e
fb
fe
f9
f9
f9
fc
e7
f0
f2
f3
f9
f9
08
23
0c
16
17
1a
0a
0f
12
fb
fc
fd
f1
ee
f5
ef
f2
f6
ff
fe
03
17
14
09
ef
12
24
eb
f9
11
06
f5
e9
0d
0b
09
f9
f5
f4
f2
f6
ec
f7
f3
f9
08
05
10
1f
0f
13
0a
fc
04
fc
f3
fc
e8
eb
f6
09
17
10
fa
04
f2
f2
fd
de
f8
00
f7
ff
0e
1f
dc
e0
fd
f2
f2
05
f8
f4
07
e8
fb
0a
0a
f6
f2
17
03
ed
10
01
e4
f5
10
f8
06
24
0a
f8
03
ff
fa
10
12
df
06
0a
f8
f6
ec
fb
02
fc
10
17
10
02
06
05
00
ff
fc
ea
f6
ee
f8
04
f6
05
17
0e
fc
07
f0
e4
f6
e9
0e
0d
06
f8
f2
f1
ed
f3
f0
13
fc
ed
13
09
e6
09
f8
e6
ea
f9
e1
05
16
fe
09
0d
08
01
0c
03
fd
07
f5
ee
f4
ec
11
17
13
fc
03
ea
fc
e4
eb
ec
ff
e3
f5
06
fa
07
0c
20
e9
fb
0c
f3
08
14
df
f2
07
f7
fc
f8
03
07
ff
13
1d
11
f5
13
ff
ee
22
f9
e1
05
e9
ed
fb
ec
03
ff
ef
0e
11
de
f4
eb
0c
f1
f4
12
ea
f3
03
f9
fc
00
f8
f6
fe
1f
0e
28
02
11
f0
0b
fc
e1
09
08
e4
f2
f6
f5
f5
fd
fb
f9
08
ef
ef
fe
09
e9
05
0e
e4
02
20
fb
f0
f6
02
01
05
0e
1a
0d
12
0c
08
12
09
0c
08
07
05
ef
03
0d
e7
01
0a
e2
07
1a
fb
e7
f2
ff
e8
ea
07
09
02
f0
fa
ff
0b
05
0d
10
11
1b
13
1b
e6
01
0a
e7
ed
03
ea
f6
f2
f9
fa
f7
09
10
18
15
18
1d
10
14
15
0b
ef
ee
f1
ef
f0
ef
fb
f6
f4
10
09
0d
f6
ed
eb
f5
fa
fa
0b
07
06
10
e8
fc
ff
24
da
f5
2e
d8
f2
fa
19
fd
ee
07
f4
f3
ed
f8
f6
f0
f1
f3
f9
f3
fb
f6
11
08
05
fa
00
fe
e7
f6
ea
18
10
18
0e
00
03
ed
f4
e4
10
10
11
fb
fb
fd
f0
f3
eb
f0
f3
f1
02
03
fb
10
15
10
06
06
03
f4
0b
0c
e2
f9
ea
1a
14
08
fa
f2
fa
f1
f6
f6
12
04
01
12
f6
ef
f6
f3
ec
04
fa
f7
0a
16
0d
09
0e
f6
f9
09
e9
f7
20
e7
fe
16
e3
fa
f1
fb
ec
f9
f3
14
11
09
08
41
16
f8
f7
ff
05
fd
ff
06
11
0e
04
08
ff
e7
ea
ed
e0
f5
1c
01
ef
00
1a
07
e1
f2
f6
f9
12
13
14
f6
ef
ff
fd
fb
ff
16
0a
0d
e8
ec
f2
e7
ec
f1
04
f8
03
09
03
07
f9
ec
f5
ea
ef
f8
18
15
11
f9
f5
fb
06
fd
06
19
17
0a
0b
fe
f3
14
01
e4
1d
f6
e8
fa
ee
e9
04
fa
fa
17
07
0f
fe
f0
f2
0c
f5
f9
17
01
e2
ef
f8
f2
f9
f9
fd
1d
12
12
f4
ed
eb
06
0a
fd
f5
f4
05
01
f8
ff
0e
11
0b
ee
f1
ed
ed
f1
ef
fe
01
fb
18
0f
06
eb
ef
f7
fe
04
f6
10
16
01
3b
02
04
0c
f9
f4
01
eb
dd
14
00
08
0c
ff
0d
12
0a
09
04
f2
de
0d
01
ea
13
0c
f7
06
0b
01
fb
fc
ec
ea
f7
ec
e5
03
0c
f1
05
0d
eb
f1
01
13
f4
f5
15
e9
f4
1e
f1
f2
f3
f3
ef
0b
23
1b
fa
f5
f7
f4
0a
fb
e7
0e
0b
e8
f3
06
ff
e9
02
fc
ed
f6
02
f5
01
e9
fb
fa
f5
f4
01
f3
05
1d
f7
e7
e9
06
23
15
f3
ff
f0
f2
ef
ef
11
13
12
fa
07
fb
fb
fe
f9
f7
fc
f9
fa
f6
f1
18
1f
13
0c
10
08
ea
ee
e4
01
0f
06
fa
00
03
ee
ea
ea
f3
f1
f5
09
07
01
16
0f
02
f2
f6
f4
f2
ff
f9
f6
fa
fa
fd
f6
f9
03
f3
f5
0a
fe
e4
fb
14
19
fe
fe
03
e4
fa
ed
13
0f
13
ea
f5
ef
e9
f3
f0
ea
e8
e8
fc
03
08
f7
0b
1d
ea
f8
10
ee
fa
18
ef
f6
f6
13
1b
17
f9
05
f8
f0
ef
e9
ff
01
ef
fb
f4
ed
0f
09
17
0b
0b
12
fe
08
11
fa
0e
0b
eb
ef
f2
f7
0b
f9
0f
10
13
01
f3
f1
0d
0e
de
0e
05
e9
f0
f3
ee
f4
03
f7
fd
1e
f9
16
fe
e8
0d
08
eb
07
04
e7
f4
0a
03
f0
02
f1
ea
f8
e7
ef
f8
f2
fa
fe
f8
f5
f5
f7
f1
f4
ef
f7
f5
f3
0d
09
05
0c
01
11
02
f4
01
f2
e5
fa
ff
f1
ef
0b
f7
f6
0e
f4
eb
f5
f8
fe
f6
ec
12
f1
f5
13
e8
eb
fa
f0
0a
fd
e9
1c
04
fa
03
0d
eb
e9
ea
0e
04
07
fe
f8
0d
f5
fe
01
1b
0b
1b
f2
f1
fe
fe
f2
e7
00
0a
05
0e
0d
f9
03
ff
ea
f4
f0
f0
05
0e
e6
13
02
eb
05
f6
dd
f7
f9
f9
f3
f7
f8
ee
f3
f7
f6
ff
f8
f4
f5
e9
06
fe
0a
17
01
ee
0b
07
e8
04
fd
e5
0b
00
0a
ed
f2
e8
f3
09
08
f1
f2
e8
fe
02
fa
12
11
15
f8
f3
eb
01
04
01
fc
0f
18
08
07
0a
f0
e8
ed
12
11
07
e8
f5
e9
06
fa
03
14
19
0e
06
10
01
01
fd
f0
f0
eb
e8
f6
fa
00
10
0d
18
0f
05
13
e4
f8
13
e9
f1
10
06
f8
f7
ed
de
eb
fe
08
06
e8
e6
e8
f2
f2
08
ea
f8
1c
f4
f1
12
ef
fc
f5
f8
ff
f4
e8
07
ee
ef
f6
02
f7
fa
0a
e7
f6
14
14
10
04
10
f5
fb
fd
f3
ee
05
2a
eb
01
07
ee
fb
fd
e0
f0
f6
d7
fb
25
f8
e5
12
fd
f5
e1
f0
06
07
ff
ec
f9
f9
f0
fd
f1
f7
03
fd
f6
fa
f2
ed
fe
ef
f6
f1
f1
0a
1a
0c
ed
f7
f0
03
ea
f8
12
16
0b
0f
0f
05
06
0e
0c
ed
f2
f5
f7
fd
f8
03
ff
fc
0f
1f
10
ed
fd
ee
f6
00
f7
f0
fc
fa
f4
ea
f4
ff
f3
f7
22
05
09
e2
e6
e7
f6
f1
f7
26
12
15
e5
f3
17
f2
ee
f7
ff
08
f1
f0
f3
e9
fe
07
05
0e
09
0b
eb
f0
f5
fc
f4
f6
0c
13
0a
fa
ff
fc
fc
fb
f8
f2
f1
f1
0f
06
fd
02
fa
f9
ed
f4
ef
fe
fa
06
09
ff
07
13
10
16
f1
08
fd
f6
27
18
e4
05
fe
02
05
01
fd
fa
f8
f1
f4
ed
fd
18
fb
ed
10
e6
e3
0b
eb
01
fb
f9
11
10
ff
0a
1d
02
0d
f3
fb
07
ed
f8
fe
f2
ed
f2
e8
fa
f9
fe
f8
15
1f
09
f3
f5
f6
f7
01
f3
f9
ed
ef
05
f2
f5
1d
05
dc
0b
05
f3
f9
ee
ea
f5
f6
f6
04
03
05
01
0b
21
03
08
22
0b
f5
03
db
fe
2a
e6
fe
12
e9
f8
15
0e
d8
13
ef
dd
27
ff
e2
04
e8
f2
01
f4
1c
2a
eb
0c
fe
04
f5
ed
e0
f3
f3
fa
06
19
f6
f5
f9
22
0e
17
ee
e8
e9
14
1b
0c
00
05
f9
f0
f8
ea
f9
fe
fc
0d
14
18
02
0e
05
ed
f0
f6
fb
fe
fb
0b
12
ff
23
18
0b
fd
f6
f5
ed
e9
f0
fa
f4
fc
06
12
18
f4
e5
f3
0a
14
0d
de
ea
f0
0b
ff
e8
01
08
0c
e8
f0
f2
06
21
0e
f4
f7
f3
ff
0c
03
ee
ea
e0
f4
ea
ee
f8
08
0d
03
05
04
0e
06
07
fc
fd
f8
ed
f2
ed
10
1b
f4
f3
fb
f2
f6
ef
f0
f3
ec
ef
08
eb
fe
16
0c
10
c4
10
31
e8
0d
35
10
f6
17
fb
f3
f3
f4
f3
f9
fa
f6
ef
04
0a
07
f6
08
fd
ed
f5
dc
ed
dd
f1
01
f4
fa
07
f9
02
f3
0c
01
0d
21
17
00
0b
07
06
f6
e5
29
04
01
f5
fa
ed
07
fc
fa
07
f5
f8
20
eb
eb
fe
fa
f4
00
04
fa
e7
ef
f3
10
17
25
f7
ec
00
0f
06
04
0d
0b
0a
00
05
00
e2
ef
e5
ef
f4
f4
fa
f6
fd
1a
0c
11
01
f6
fc
02
fc
02
12
1a
1c
fa
fb
f7
05
07
05
eb
e2
e1
15
f4
ea
0f
ff
ec
1b
f4
eb
26
01
f5
17
ef
e7
02
ea
fa
ef
f3
f2
0b
1c
0f
f0
ec
ea
ec
01
15
ea
01
1b
e4
05
0e
1e
0c
fb
fd
f4
ff
ee
f3
ed
