90 18 1 1
e7
35
0d
05
fd
09
fb
ee
f9
21
f0
2f
09
eb
34
e6
08
bb
e9
e6
13
8f
14
1c
fd
d0
fd
ad
26
c9
f2
16
cf
e1
2f
13
fd
17
07
f3
10
fa
10
ee
f8
e0
2d
22
ec
dd
e3
e3
f8
cc
22
15
d3
e3
0b
df
08
15
04
01
17
f0
14
ce
30
13
13
12
12
40
f1
0b
e5
2d
dc
e4
2a
3f
f9
0c
f5
dc
ca
20
eb
00
dd
cb
f7
e4
e5
ec
07
fb
24
e7
df
48
49
03
1f
24
d9
03
1c
05
18
0c
ed
f0
dc
d8
de
14
12
11
1e
11
ed
eb
03
55
24
2c
33
14
0e
00
f4
33
05
2a
f8
28
fc
30
f5
fc
09
f6
f4
02
10
2e
ff
2b
b7
6a
00
d6
fb
d0
f2
10
16
d0
04
98
a4
0a
44
04
20
0d
17
26
3d
df
00
e3
46
db
0d
fb
36
0c
12
e3
13
b5
e8
02
d5
f1
fa
0f
e1
cb
f6
d8
ca
e7
02
17
fb
e4
18
1f
2f
11
d7
14
e1
05
cf
ce
ff
f2
33
e0
eb
06
f8
37
e5
cd
02
08
16
0d
15
1a
de
ab
00
e9
05
0c
fa
ba
36
2f
f4
38
15
e6
eb
08
e6
dc
ee
f0
25
e1
e2
05
25
e0
f5
fd
f9
0a
1d
bc
da
1d
ee
e9
d0
d7
01
1f
e6
10
15
cd
e5
f4
e3
ef
f5
f6
38
ff
17
f5
e2
f1
14
10
28
17
1a
f1
27
09
fd
f3
f1
e3
fb
0e
ea
e6
f4
0c
03
ea
03
08
fc
fc
30
f7
0b
00
46
fe
08
40
00
f8
03
29
0d
f1
e3
f4
fe
ff
c9
03
ca
fe
0c
37
16
08
ce
1a
ee
1b
d8
2a
22
f7
28
15
00
22
56
f9
06
34
c8
46
f4
0c
39
07
08
f8
e8
d6
1b
fc
13
00
e3
dd
fb
ed
0b
44
13
f5
e6
d1
08
fe
f6
35
13
d6
08
d6
11
b1
18
e7
da
05
0c
d8
e6
0c
12
15
29
07
28
f4
3d
fc
07
11
e5
e1
0e
f7
e7
55
dd
0a
0b
1d
ea
03
e6
d8
00
14
14
0a
dc
31
c9
f2
ea
fb
32
12
df
19
3c
ca
19
d3
0a
ff
f9
ef
db
f3
e7
f1
14
e4
46
39
18
c6
0b
23
f3
01
ca
ed
44
0e
02
f9
26
53
23
e9
f4
e9
fe
0a
10
e6
0d
e1
11
d9
02
e3
16
e7
e2
d6
d9
f9
f9
f1
eb
d1
11
16
42
4a
1b
e3
1f
0d
e8
13
28
f3
d6
c8
e9
dc
1e
ee
14
2a
0b
0a
bd
0a
08
f8
1a
e5
22
f6
20
06
ef
f8
e5
f9
12
e8
cb
d5
d1
01
2f
e2
f8
1a
26
04
06
fd
24
0a
df
05
3c
fc
d8
00
fe
01
d5
cd
f9
0f
09
0a
27
db
f4
04
fc
f0
d0
12
11
05
06
ef
2b
17
37
0e
0d
fe
10
f1
f8
e3
d9
f8
d4
5f
fc
25
ff
d5
1b
f8
ce
0e
05
f5
47
f0
16
15
ec
03
01
ea
da
03
f6
19
30
e0
03
0b
ec
fc
d9
fe
f6
1c
fa
d0
13
ee
f3
bd
01
1c
05
0d
0e
e8
ea
ca
08
22
1e
0e
9e
e3
e0
25
2d
0a
e4
e4
08
d9
1a
06
f8
fc
01
f0
09
18
12
3a
f5
18
19
17
04
f0
ae
21
24
15
02
fe
00
20
06
f5
f0
fa
d7
3e
32
10
db
fd
1b
1f
d6
02
38
f6
1c
3e
37
17
04
0f
fa
f6
22
d9
ef
d7
d1
d3
30
f3
f7
fd
18
0f
0a
27
b4
d1
dc
0f
fe
02
b7
16
c1
18
f0
f0
eb
12
f2
f9
ff
fb
10
f5
db
f6
1b
df
f1
f0
00
bb
cc
e8
e9
d8
40
21
e3
fd
1e
e2
db
15
ec
de
09
d9
19
ef
ec
f5
08
1f
df
0c
21
f5
cb
cc
11
e0
24
fa
f7
04
ed
ef
32
11
1c
fd
e3
f5
20
e1
08
09
42
1b
d2
e6
0e
32
1a
ef
eb
08
11
db
04
fd
21
1d
31
f5
07
f1
18
0f
0b
c6
00
d8
38
e9
2e
b5
1e
ce
00
2a
1d
1b
d7
e8
ff
f9
f1
3d
17
dd
fa
20
13
2a
ec
f7
3d
f3
d5
f0
01
27
09
17
15
21
04
0e
f4
08
e1
ed
d5
42
0d
f1
46
31
d3
f3
f5
fe
13
25
fc
eb
19
00
15
18
06
eb
00
28
fe
09
d1
0b
07
0a
26
16
eb
16
20
f9
3a
3c
eb
e3
11
f5
cf
c0
20
01
11
f0
0b
f4
22
f3
32
e4
d0
de
ec
0e
1c
f1
ef
0a
ff
0a
00
f1
12
e9
27
02
f9
e8
13
06
0b
2c
00
fd
03
c0
39
fc
0d
e4
3a
ff
fa
02
31
d9
34
e6
d4
94
0b
09
1c
e8
36
f1
19
f5
d2
f6
06
ef
e8
fe
2a
04
e4
e8
fb
02
14
05
ff
3e
ec
d3
f8
ba
fa
ec
28
0a
df
41
d7
f0
c9
fb
e9
e0
f0
0e
20
f0
27
1d
17
05
ef
15
da
22
14
32
12
17
f7
15
f8
ff
f5
42
0e
c2
01
ea
cd
44
e5
f6
fe
e0
0a
30
02
0e
e5
de
05
19
2e
08
09
50
16
31
22
02
e7
db
fc
14
32
e3
c7
e4
da
ee
13
c7
00
24
23
fa
fd
e9
4e
f8
14
d2
14
dc
fb
0a
df
e8
08
e3
37
17
e4
15
1b
e1
e6
f9
10
c1
d5
10
e8
01
ce
05
f3
e0
0a
01
d9
ef
30
1e
3b
06
da
1b
d4
d2
dc
1d
fa
2f
d7
e8
39
30
24
ed
0f
37
f6
f8
c0
f5
16
f2
f9
f8
0f
04
fe
c5
01
0a
f6
da
29
e3
13
0f
ee
d6
f1
2d
26
ff
0d
d6
15
34
23
ed
d7
d4
eb
de
36
22
eb
2d
eb
fe
0f
b6
12
d2
27
03
07
34
f2
db
f0
03
ff
21
18
ef
ca
00
23
e4
f7
d0
03
36
ed
fe
f7
f6
f3
e5
14
18
b1
03
17
e9
1e
27
11
d4
f7
dc
fd
c7
09
dd
14
f9
31
1e
08
c9
fa
b5
df
08
1e
e8
f6
1e
43
29
dd
29
42
27
0a
05
f7
fd
0d
bf
11
02
06
d9
fb
d2
e3
36
05
ec
e0
f1
22
21
ba
fd
f6
f5
03
ff
e4
0f
30
f5
fb
b4
07
00
07
f3
c0
28
03
e6
0c
f4
db
19
40
0f
2e
04
03
42
50
2a
fd
0b
2d
c7
f1
f9
e9
13
eb
fd
11
33
ec
e6
fa
3f
02
0a
0e
f7
11
ed
0c
f4
44
e3
dd
fe
2e
15
4e
e6
05
de
01
e9
0a
de
06
49
02
10
ff
09
ec
2e
02
c6
d1
06
08
e0
2f
16
27
f4
f2
ce
f4
ce
e2
f1
19
24
f9
f6
e6
f8
f9
f1
df
f7
e3
17
08
f1
e2
ff
fa
0e
18
ff
3f
36
1d
01
05
0b
ed
bd
4f
49
ed
b6
de
10
c0
e9
ed
eb
1f
e7
ce
3f
e7
25
c3
39
be
fb
0b
10
f0
31
c8
3c
e0
21
19
ed
0c
c3
e3
fe
0b
1e
18
ff
13
a4
0d
b9
fd
09
df
2c
de
f8
de
12
d5
2f
0a
0f
2b
ee
fd
f1
1b
f7
e1
34
d4
ff
f8
17
eb
fa
1f
f8
3e
24
bc
15
0a
21
bc
00
07
eb
07
fd
47
cb
cd
64
0e
14
01
00
d7
b3
fa
39
35
ea
c4
f6
05
c7
13
0a
00
f7
f1
4f
15
b3
16
08
06
f9
03
2b
dc
02
ee
f7
fe
ea
08
11
30
d3
f9
f2
16
0f
37
f3
27
0b
08
0e
22
fc
dd
1f
cd
fe
1d
10
02
fb
14
1e
21
e9
f7
11
03
ee
06
ea
19
e6
ef
d7
f7
da
20
14
b7
1d
bc
cb
0e
de
e8
d1
30
f0
e7
13
16
1c
0b
48
05
ee
bc
f8
fe
34
fc
13
11
e7
0f
3a
de
dc
3e
1e
1d
03
a2
06
46
17
0b
f6
15
18
d4
16
d1
f8
3b
26
df
10
e3
1f
0a
f4
2f
19
f9
19
d2
fc
04
05
c4
1d
09
18
01
d7
07
24
35
0b
11
e5
e8
e9
00
16
eb
d4
f4
45
c1
0e
24
20
1f
11
e9
41
47
c5
e1
0a
ec
c7
f3
f9
1e
32
f8
14
f3
fc
ef
30
25
3b
2d
02
f8
1e
ec
ef
c3
1b
e6
df
01
f6
f2
e2
1f
fc
14
01
ec
0b
04
07
17
f5
d2
ed
d4
09
ee
1b
ee
f2
13
1a
da
0e
df
02
1d
2f
39
e3
f8
e0
06
29
21
09
0a
c6
1e
cc
12
f6
1b
db
1c
c0
10
22
e4
da
d4
3a
01
d7
0c
f4
ad
06
f5
52
50
1f
bb
09
02
c2
09
ee
e7
03
36
df
e3
d8
1b
20
e0
1f
07
0d
e9
da
f9
01
b7
14
ef
e9
fc
13
ff
f8
3e
f7
ca
0f
d7
e3
09
30
b9
ef
ef
33
39
f0
24
e0
dc
f7
df
c6
34
21
ff
e1
f6
e4
0d
1c
26
09
01
ef
ff
51
00
00
f6
0b
00
e0
e5
0c
27
eb
ea
1a
fb
d4
d8
d4
16
7f
1c
ed
d7
fe
e7
0f
02
fe
15
1b
db
fb
e1
11
d5
cd
2f
05
08
cf
0f
08
c7
f4
ff
d4
cf
b4
04
1e
14
1e
13
04
31
f2
14
1d
ed
23
0f
18
21
d8
ef
15
f5
e8
24
0c
07
11
e5
f2
10
e8
4a
f0
30
f5
f2
2c
2a
e1
db
f3
f7
19
26
12
07
eb
61
0a
a5
bf
04
27
eb
16
f5
11
13
34
00
04
11
19
27
f1
f2
e5
db
06
3a
f7
27
f2
12
f2
32
ee
f9
fe
23
1c
fd
ae
2e
02
e9
02
27
17
d1
fa
d6
0f
ed
03
24
f5
3d
eb
b7
14
cf
fe
25
25
e1
3a
e6
ef
c4
22
03
0b
1f
e7
d9
14
18
e1
05
f0
e7
02
fb
31
07
f9
d2
fd
ce
08
c5
ba
a3
07
ef
06
06
15
e2
16
00
f3
0f
ef
e7
2e
18
10
fb
12
e7
e0
1b
16
15
0f
ed
23
38
03
f4
09
e3
df
16
31
14
c4
fe
0f
af
f6
b8
0d
0f
f7
f6
08
d6
f4
10
e1
0c
02
0a
c6
2f
fb
11
e6
1d
0d
1e
11
ef
ea
0d
f9
2a
d8
08
08
f3
c8
0f
25
15
05
b5
d6
1f
e0
ef
f1
e8
fd
5d
08
ea
24
30
11
35
20
e5
35
31
45
e9
27
2b
38
bb
1d
ed
e8
3b
00
10
f6
09
02
f1
f4
f1
f3
d1
e8
e5
c9
ce
f4
06
fa
c9
e1
eb
35
d8
3a
22
e6
f1
d1
23
57
f4
0c
f6
12
c8
d7
0e
ff
d2
28
26
48
fe
11
eb
f0
ff
d2
c8
d8
c6
d6
37
d6
eb
18
05
ed
24
1d
1d
ee
f9
49
27
f8
3c
f5
0c
49
20
04
fe
00
31
cb
a9
c4
d2
d8
3b
04
c2
0e
e6
e4
fd
f9
f8
2e
07
12
ee
14
dd
16
15
28
f0
cf
00
30
01
dc
37
33
ce
3b
fb
35
de
0f
d7
bd
e1
37
e8
e0
fe
23
3d
c5
10
f2
20
f6
14
e6
f5
ff
f4
13
33
10
f2
c3
0d
00
1d
d0
e1
14
d6
1e
e6
d0
11
e2
f1
fb
e5
cd
f1
01
14
36
ed
f0
06
03
01
13
1c
0a
f8
df
6e
e1
12
27
f0
a6
16
fb
f6
e5
0b
1a
34
f4
15
f8
ef
fb
e3
13
3e
02
04
e1
03
f7
33
f2
eb
1e
24
f1
dc
16
f5
ea
f6
1d
05
da
1a
ff
1c
0b
06
f6
1b
f0
1e
02
d5
de
f6
2f
ca
f7
fc
e6
e0
ea
fa
e4
eb
f8
06
20
f2
10
e6
ea
04
26
f9
0d
fe
f9
da
d6
03
0a
02
e3
20
0e
13
ce
f2
00
ec
db
1e
ec
c2
e4
d3
df
ed
00
0e
e2
f3
28
d1
c5
20
11
e1
18
aa
b4
2e
fc
17
dc
17
1c
1b
31
17
08
00
f9
ff
e3
fe
ce
cd
f3
f3
ff
d5
fc
e6
e0
c4
0c
df
41
41
26
18
fe
b9
1c
13
30
4b
ee
dd
e7
cd
17
14
f9
3a
ec
ef
b9
d1
cf
ef
05
d0
f5
10
04
dd
fc
21
2b
2e
ec
03
f5
fa
02
3d
e5
16
06
eb
1a
d5
ff
18
f3
c9
26
2c
0e
ea
e5
fc
e8
f9
ca
16
d8
e5
f8
01
f4
ea
08
ed
e8
28
17
00
f2
fe
d2
0a
1b
eb
e8
2b
ce
43
fd
14
0a
00
d5
49
f4
17
f2
e1
1a
eb
0d
09
01
ea
ef
e4
05
c7
11
f1
05
11
20
15
19
18
13
e4
f9
31
ea
38
14
1b
09
f7
f2
f5
16
f8
c4
f9
21
d1
fe
1e
e9
0a
ec
04
1d
0d
f9
26
28
f5
f3
23
e2
f0
f6
17
f7
db
05
d4
fc
e1
10
dc
1a
1f
07
fa
0f
e0
30
ff
da
0d
d8
04
29
3b
12
e5
10
e0
02
f1
11
2b
e9
e7
ee
27
d8
d0
ff
db
00
2a
fa
ec
f3
16
0b
18
cd
be
1b
37
2f
cd
4a
1c
05
11
18
02
ee
ce
bf
f1
d1
1f
de
21
13
ec
03
fa
d2
1d
12
0e
e6
26
20
04
09
41
01
fc
fa
14
00
f8
01
2f
06
32
15
fb
1d
3d
fe
e9
f3
e5
e4
f2
f5
1d
e5
f7
09
f0
ed
e1
e0
28
15
e9
23
ce
fb
eb
e7
09
06
19
d9
ec
fd
df
16
fb
e2
f2
af
43
ce
ee
e2
fb
f9
19
29
fc
e6
14
e3
0e
ef
fd
08
f8
f5
f3
03
27
04
f8
c8
af
e8
2c
2b
b6
c4
ef
d6
03
2d
0b
f4
21
36
05
19
e9
ff
17
ec
02
1c
f5
fc
df
0d
f5
07
f8
07
db
e3
e5
10
f1
0b
e1
c0
04
f0
c9
0c
e2
ec
10
02
37
1e
24
f3
36
e6
fa
b2
fb
f1
15
f5
e3
00
e5
14
12
09
23
cd
0b
0e
ec
df
1a
f2
3b
14
05
fa
1f
1f
1f
f1
f0
2c
ed
e6
15
ff
19
e7
31
d7
fc
e3
9f
f6
ad
e8
1e
fb
ca
ff
3a
f9
f8
0d
36
e3
21
21
bb
22
38
f4
1a
c2
dc
28
f1
3d
34
ed
27
00
04
ad
23
0e
f6
d8
03
fb
51
31
db
e8
eb
16
1c
c4
f1
1b
ba
07
02
0b
f5
af
fe
cb
fd
fa
e3
ef
dd
ef
e7
d9
35
fe
ea
3b
11
f9
db
ee
02
1b
1c
e0
13
f2
da
cb
f9
19
20
38
1e
f1
24
0a
37
08
e6
f9
10
f8
dd
d2
3d
1e
b3
18
f2
cf
05
15
ff
2c
17
bc
ca
d5
f5
e7
df
e8
f1
12
fa
e6
0c
f4
cc
ec
2c
03
3e
0a
0d
f8
fa
f7
c8
fb
27
15
07
fb
1a
16
02
fd
ed
f9
02
f9
1f
1e
14
19
ec
05
a5
04
22
f5
f0
25
27
f7
db
fe
17
17
de
49
0a
2b
be
e2
0e
00
13
45
0b
34
ff
db
f8
30
27
df
1e
fe
fe
13
fd
fd
f5
fa
12
c6
cc
02
21
14
e0
4f
f6
49
fc
ee
06
fa
c9
05
fd
31
e8
4b
07
23
47
03
db
1d
0a
fc
e8
fb
2f
06
e6
ec
fb
41
df
08
0b
fb
15
03
1e
0e
1a
fe
31
2d
f9
00
08
dc
11
13
f7
20
b8
05
f1
1e
f7
df
f6
db
f6
02
f2
13
f3
f2
c6
20
25
ea
10
31
27
f3
fb
2b
e1
06
05
cf
ff
d6
ef
08
d1
dd
38
53
ef
0b
1f
f1
ec
d3
05
29
02
e5
00
07
f5
fb
04
2e
f1
fe
f2
f7
39
e3
3a
34
ed
f4
d9
d6
25
16
dc
ce
e1
ec
e9
13
00
06
01
e5
08
dd
e8
22
b3
1d
0c
0b
ba
f3
12
f6
ab
1f
0e
31
16
07
0f
16
35
11
12
0f
32
d2
09
ff
ec
0c
3b
27
07
fb
c5
08
3c
d7
d9
e9
e2
d6
da
fc
0d
0f
06
f2
e5
e0
17
0a
c8
ad
2e
1d
f3
c0
1a
0c
16
01
06
f1
0f
c7
28
09
f3
1b
f0
ed
c1
f8
12
04
09
e4
17
fd
ef
24
09
dc
13
5a
09
fe
30
d7
e1
02
34
ef
f0
f1
31
bf
1c
f7
23
06
f9
ef
13
37
e7
16
f6
09
e0
0c
28
0e
ec
f2
e7
f6
10
e7
fb
fd
c1
f5
e0
e0
ff
e9
27
1a
12
ce
ec
12
04
3b
3f
c0
f8
fb
cd
30
ed
ff
fb
fd
df
e4
0f
12
fc
09
0d
1e
f4
19
3c
f9
ef
ef
e6
fc
f9
ef
0c
f7
fe
ec
2a
f5
09
14
ec
11
0a
d5
0d
09
1c
05
e9
c4
2e
f1
ca
e6
f9
cc
0d
0d
c2
f5
36
22
e4
47
10
16
5f
03
f9
b7
f2
1d
ee
eb
23
e9
fc
62
b6
d3
13
d7
12
f5
1c
d4
00
25
cb
db
fb
05
ce
ed
f1
f0
f1
37
f9
f0
30
37
ec
2d
c6
fb
12
20
fe
f0
fa
f4
20
f7
06
1b
b8
09
0b
29
e3
ff
0d
0e
e8
01
f9
51
5b
0e
e7
0e
d3
08
cb
01
13
11
d4
ec
f6
db
1c
e5
0b
ef
e3
14
10
ea
0c
27
00
c3
ee
fa
c1
01
15
c0
32
f8
fc
d0
f7
ff
02
e3
db
e3
5e
c7
f0
cf
06
d2
d6
df
d2
fb
ee
40
c6
09
d3
ee
f3
36
f8
13
fb
ef
0d
e1
0c
13
e8
01
3c
cd
17
fe
f6
11
07
0e
e7
07
dd
07
fe
f1
31
d6
12
eb
f5
d4
14
fb
d6
1b
16
d8
e3
d0
f4
e9
0d
20
04
05
d4
d4
e7
19
0c
ef
b9
2f
0b
f6
2d
f5
c9
25
16
31
ec
d4
f8
1d
09
bd
0e
25
00
18
f6
1e
22
fa
0d
35
ff
1f
15
1d
04
08
22
d8
f0
21
f7
05
03
26
d9
03
e7
12
ef
43
