ff88
001b
0056
ffc0
0026
0054
ffd8
0047
0044
ffb1
ffbb
0051
0057
004b
ffe1
001c
0071
0063
0040
0010
0044
ffd0
ffe4
0043
ffd1
006d
0009
ff96
ffa1
fffe
0035
0045
0008
0012
0077
0029
ff96
ff92
0057
0071
0073
0048
ffc1
007e
ffc6
ff8a
001b
ffce
0062
ffb7
ffa6
ffa9
ff9b
ffe9
002c
0056
ffca
0021
0020
ffd7
000d
0090
fff3
0032
ffe6
0036
fff4
ff97
0053
0004
ffa6
ffea
0041
001e
ff9a
ffb1
0044
004d
0035
0017
006f
ff86
fff8
007d
fffd
ffdc
ffb4
0046
0057
ffa4
ffca
ffa8
0082
ffd8
ffe6
0020
ffd4
fffe
0034
0067
ffc6
0044
ff99
ff93
ffda
0057
ffd8
ffdf
0076
004f
006e
ff89
0005
007c
ffb6
0052
ffb7
ffe4
000e
0039
0058
ff96
ff9f
fffe
ffdd
ffa0
fffb
0089
0006
006d
0051
0064
ffce
003f
0065
0078
ffb6
ffe2
ffff
001b
009b
ffec
001b
ffe6
002a
0022
007a
ffe1
ffc8
005c
ffa1
ffea
ffe4
ffc7
00a2
0087
0074
ffcf
0048
0005
ffd5
0003
0023
0055
0013
0017
fff6
0082
ffdc
fff3
0036
0020
ff95
0034
0022
001d
ff99
ffa1
003d
ffe1
0059
000a
0010
005e
fff8
000a
ffb5
004d
007d
0074
ff94
ffd8
0027
ffea
002c
0009
ff95
0022
0065
ffe2
ffa7
ffb5
ffae
ffac
ffd7
006f
004e
0011
0018
0072
006c
0043
0016
001c
0004
ffe6
0055
0018
ff91
0067
0079
0015
fffa
002e
ff90
0019
003c
ffb2
003a
fff2
004c
0022
fffd
ffcd
007f
ff8a
ffc5
0015
ffbb
00a4
0050
0067
ffc9
0023
ff9f
006f
ffb2
0036
ffa3
0037
ffe9
0077
007f
ffdf
ffe2
004e
006b
ffab
0058
004e
ffe8
0019
ffab
003c
ff95
006f
fffb
ffba
0005
0032
ffb7
0042
003b
ff9b
fffd
ffa3
006e
004e
ff99
ff96
009e
0082
fff5
004b
ff9a
ffd9
ffe4
0075
ffb8
003c
ffe0
ff9e
0099
0032
ffab
0062
005d
ff86
007e
ffa9
ffe5
ffac
0075
003c
ffca
ffa6
fffa
ffb3
0019
004d
ffad
ffbf
005c
004c
0007
ffd6
ff9d
ffea
005e
0020
ffdc
ff92
ff97
0023
0010
ffc2
0074
00a2
004e
ffbf
000f
0094
ff8a
0076
002d
ffaa
005c
0068
0043
ffdb
ffe1
0074
005d
ffc8
0086
0062
000a
ffb3
fff4
ff94
ffa2
0018
0065
ffc4
ffd3
fff4
ffd9
ffef
0015
003b
ffef
fffd
0092
fff8
0031
ffcb
0065
fff8
0041
ffe0
ff9b
0088
0051
ffa9
0047
003c
0027
ff97
006e
ffd7
ff8f
ffba
ffc2
ffc8
