c0 20 1 1
01
09
05
ec
f6
29
e6
01
00
fb
1a
e9
03
f8
f0
07
f0
f9
f2
01
d0
13
18
1a
16
f9
f8
00
0d
1b
22
e6
ea
f9
06
14
f5
f3
0a
d6
e2
0f
0a
fe
f4
ff
f8
05
fd
03
02
1b
1d
ca
0e
25
e8
0f
06
13
fc
ea
1f
06
e3
f2
eb
08
f4
f2
f0
f9
34
03
fa
13
0f
08
e3
21
fa
10
10
22
03
00
f9
25
fa
18
f8
0f
ed
09
fb
06
f6
06
f1
07
f1
05
ec
0b
2b
1d
fc
ec
06
01
ea
e4
ff
ee
09
fd
05
f7
09
f5
04
fa
fa
f0
f1
f8
05
18
fc
21
19
ec
38
fc
0f
03
e6
0d
03
e5
f7
f9
11
21
0b
f4
f4
02
0b
ea
1c
16
f4
25
13
25
ec
0b
f5
07
f2
17
0a
0d
e3
29
e1
07
2b
0c
f9
ed
f5
14
f3
06
f0
e1
24
13
06
f6
fe
ea
11
f0
ee
19
1d
eb
f9
0a
e4
06
ff
05
ea
04
fc
29
f9
17
d9
f2
0c
06
08
f5
e2
ed
f3
0d
1d
e5
f6
f0
0d
03
f9
07
da
fb
1e
2c
0a
f5
fb
ee
ff
f3
22
f7
f6
f8
fb
14
22
fc
f4
fa
ed
1a
08
d9
1d
0c
df
f3
e5
f7
fc
f9
d6
14
05
e0
e4
ef
01
ff
17
0e
01
fa
03
fa
ee
f6
09
0d
fb
0e
f6
2c
09
07
01
2b
f5
fe
f1
06
1c
fd
f1
06
d4
fe
e6
e7
f4
07
f9
04
13
25
0b
0c
d4
1f
ea
f8
f9
f6
df
ee
ec
ec
ef
fa
dd
01
fc
1b
d4
1b
eb
ef
08
f0
f1
f6
0b
00
11
f6
fa
fd
18
e3
24
f4
e8
08
f9
0d
10
f6
07
eb
08
22
e0
07
e1
1d
cd
03
16
ef
fb
17
f5
ec
05
ef
fe
07
0a
26
24
ec
10
ff
f0
f9
10
1a
f0
0d
e2
0f
1a
f0
f3
3b
ff
f3
11
02
01
0c
d2
05
0e
0e
01
39
0d
e2
ef
17
03
04
25
e9
25
26
e1
07
01
e3
ed
20
04
f5
07
1e
fa
f4
29
17
f1
fc
f1
f5
00
14
ff
1c
d4
f3
23
18
f0
f7
1c
0d
f5
f4
f0
0c
fe
eb
07
00
11
f9
12
0e
f0
e3
18
f5
f9
f4
23
f1
f9
f2
fb
f6
d7
03
09
f9
15
fa
05
f9
f0
2e
0c
e3
13
ff
e8
14
fd
fd
f7
f0
00
ff
ff
1a
ff
ec
fd
ef
ea
00
25
ef
0a
f2
e1
d0
0b
ee
0c
ea
04
01
02
02
f9
f3
f6
f8
f5
de
ed
fa
f7
fc
06
2e
e9
fd
e6
ea
1e
ed
11
08
00
ee
00
ee
0f
ef
2b
df
f2
01
0e
fb
f4
08
14
e1
d3
06
0b
f5
cc
07
07
11
ff
f6
05
06
e8
0d
f8
d0
12
fd
e7
f4
fc
14
fe
f7
0e
1a
f3
25
09
01
d7
17
f8
0d
03
ed
0b
ec
06
0d
0d
00
14
0b
15
1c
08
0f
f0
0b
f2
fe
0e
14
12
1f
08
f9
f5
ef
f3
07
fd
1d
1a
07
17
1a
03
f7
ee
0d
fc
ed
fb
1b
11
26
f4
09
e7
fa
ea
20
e2
ef
22
fb
fc
e6
17
f9
09
00
ec
0b
e3
da
1c
fe
16
24
17
01
09
f3
06
e7
e3
1d
e6
0c
16
fa
17
05
04
18
e1
ed
e7
10
f0
f8
f7
f3
ec
0c
25
ff
f5
21
d5
03
fc
0d
ea
e3
18
f1
08
f6
0e
01
f1
ff
09
ff
21
f4
26
f1
f8
08
16
01
e7
fa
f3
fb
f2
f9
ea
10
ee
0e
f9
d9
ff
fc
f3
ed
04
20
22
12
06
e9
e0
e0
32
0d
11
ff
ed
f0
16
fa
ef
ff
f9
e8
02
25
1b
d7
0e
0d
f8
15
e5
fe
25
fe
f4
0d
ee
f9
03
0f
36
f4
15
1b
21
ed
1c
fd
0b
e2
34
e5
f8
1c
de
16
09
07
f0
04
fe
e1
16
fb
07
11
06
08
fb
fa
f8
18
fd
ec
1e
24
08
f9
14
f9
05
19
e5
eb
0e
de
f6
0d
ea
1e
02
fd
05
0b
f3
e7
38
f7
0f
da
04
05
f9
03
06
fe
09
26
27
05
00
11
ed
18
de
d6
f7
cf
f6
01
e5
fb
f7
04
f7
11
02
de
19
13
08
e4
02
09
f8
e9
fc
f6
ec
02
16
e0
ec
11
f5
f5
01
0f
0d
0c
02
0e
fa
0e
dc
01
21
0b
cb
14
fb
10
ef
18
03
2e
07
03
13
11
2c
f4
e2
e7
eb
05
f7
ee
f4
e6
07
1a
12
0b
02
27
01
12
fe
f7
f5
fe
05
f1
19
0b
ee
0d
ee
07
13
14
0e
ee
ea
ed
ee
ed
f7
11
f3
18
0f
1e
08
dc
22
1a
f8
15
ff
f7
0e
04
dc
15
f2
2d
09
35
0c
1d
1f
f8
ef
c9
ee
10
0d
09
f8
06
00
ef
0b
12
00
eb
f2
33
e9
e5
1a
04
08
20
f5
0f
0a
ed
e5
12
1c
ec
24
e1
09
1e
d4
13
09
1c
1c
f1
f8
c6
09
01
17
f2
bb
f0
03
ec
df
2b
12
1b
03
dc
0b
f8
08
17
fe
0e
f3
0d
f7
23
f6
0c
dc
fd
00
16
da
18
fb
24
0c
0f
e8
0b
d4
08
2b
ff
15
25
e2
13
f3
ef
05
ef
04
fc
25
12
f1
01
0e
f6
14
e7
0d
0c
f7
01
fd
fc
e2
01
05
f9
fe
f4
de
05
0c
1c
ef
0d
df
24
18
18
0a
26
e1
fe
15
16
02
18
04
1a
05
f0
04
fa
d5
fe
ec
15
e5
f5
fe
26
01
06
f1
fe
e6
0d
e9
22
eb
f9
17
17
e2
0c
ff
03
e3
e5
ea
f5
07
d7
f3
02
05
0b
1b
06
17
fd
03
f4
fc
04
dd
13
13
03
ed
0b
e3
f5
02
f8
07
04
17
f2
01
fc
0e
29
ee
fe
05
f4
0d
ee
f2
0f
04
fe
f8
03
dd
ec
04
1c
ee
1c
16
16
fc
f9
03
f7
f6
2f
07
0d
f1
10
15
06
16
1d
f4
f2
ee
0e
0f
f3
0d
0f
04
f5
0a
f8
fb
e7
04
23
f3
2a
f6
12
ff
e8
07
07
1d
22
fc
15
0c
09
d7
10
0b
e7
f4
03
06
db
fa
23
03
0e
09
f6
1b
0a
20
04
14
f1
f4
13
ec
25
ee
14
07
15
fc
f4
f7
10
f2
f9
0e
0c
0e
17
25
db
01
18
12
07
13
fd
13
cd
e5
fd
0b
fa
1b
16
25
02
fd
e5
21
e5
0a
fd
ec
ff
ed
15
06
16
0b
ff
fb
0d
07
0d
e4
0a
1b
eb
f2
03
0c
08
0a
04
04
f7
26
1b
09
e1
ea
21
ed
f4
2d
11
14
18
1a
f6
f3
11
10
06
d9
e6
f7
f3
0c
f8
1b
ff
04
0e
fe
f3
fc
0a
01
02
f4
11
f6
12
25
fc
01
2d
03
ea
10
ea
f2
f5
10
ed
0d
e1
05
00
f1
02
0d
0c
00
0a
17
f0
08
0f
0c
10
da
e7
0b
13
e5
e8
f1
fc
cb
dd
1a
0f
fa
18
13
07
e2
10
f5
0a
ef
e6
0d
e3
f2
14
06
f9
10
f9
da
fa
fe
00
f2
21
00
10
0b
ee
ea
fb
06
1b
f2
12
f4
0b
ec
d6
1a
0f
e6
2a
f5
e5
06
eb
15
05
f7
0b
04
ef
08
f8
0d
04
22
f7
09
f1
c9
00
f1
15
06
08
ec
10
04
dd
08
d4
ec
0c
f6
fe
ed
09
08
29
f4
e3
f9
ea
0b
07
f8
ff
f1
0e
f9
e5
04
f7
01
f4
e0
03
13
09
13
19
fc
11
0f
07
21
f5
ff
f6
da
dc
f9
ff
de
ff
d3
03
fb
ee
c2
10
16
f4
ed
14
0d
fc
e9
17
fe
03
fe
f3
11
e6
f9
15
ec
ea
f3
02
ec
11
06
f3
0a
17
fa
f2
f7
fe
23
e4
ea
0b
f3
f4
ef
d8
0e
f4
e4
fd
fd
22
f3
fb
dc
dc
e1
f4
f4
f1
05
f4
fc
0b
14
06
1d
e9
06
25
c6
00
ee
ee
0b
0b
fd
e8
0e
f1
f9
d9
0e
dc
ee
2c
ff
eb
04
06
cc
03
08
03
fa
fb
f2
f7
e6
10
f9
09
ef
0b
f0
06
f5
ea
f7
e9
e3
f6
01
0d
f5
02
0c
0a
0d
14
f9
fc
fb
17
10
f9
ee
13
14
de
0d
df
fb
f9
04
e9
d8
04
06
f0
ed
13
02
14
ff
e4
fc
30
10
14
ff
e4
f1
11
01
07
f9
f0
f4
23
ec
21
16
19
dc
05
f9
04
02
1c
f2
1b
03
05
06
fe
da
13
05
1d
e5
ee
0f
e9
11
f1
1b
0d
fa
0c
29
de
e7
f2
06
2a
f2
00
dd
ff
06
0e
f3
ef
fe
ed
39
23
01
02
17
ea
18
f7
f4
ec
18
15
eb
25
0b
23
0d
fc
11
28
f2
28
1e
07
02
fc
00
f6
05
f3
f3
06
16
eb
30
10
f2
f1
13
0a
04
06
fc
03
f8
f1
1f
15
f1
ee
10
05
06
0f
fb
f9
fd
07
f2
a9
e6
e6
e6
16
f6
16
ff
ec
fd
ea
f2
17
10
0c
0b
09
f4
fc
03
f0
d0
fd
eb
fd
12
fd
05
f2
fe
ff
1b
0d
08
fb
fb
ff
fe
06
27
e4
f8
06
fb
13
1f
fb
f6
ee
fc
0d
fd
fd
f9
f0
27
fd
f8
04
f5
f5
22
d7
2b
fe
02
00
fa
05
d3
ec
f4
ff
ff
e1
fe
2b
f6
1e
15
de
f8
07
d5
00
ec
ea
0d
12
f1
f6
13
e5
0d
04
f5
1e
08
f8
04
ef
e4
f0
df
f2
dc
f8
f9
09
ff
00
f6
f2
f8
15
05
10
f2
fa
27
04
ef
d1
0e
0c
05
ea
eb
fd
08
0c
0c
07
08
06
f8
0c
03
14
00
de
05
0f
ff
ee
fb
04
ff
17
f9
f9
2b
1b
0e
0e
07
00
24
01
d6
0c
18
fd
e0
fe
15
0c
f2
f2
12
fe
3e
05
e1
04
12
fa
21
0a
f2
2f
fa
23
06
e7
2f
01
0b
20
ff
12
fe
e2
f6
0b
18
0d
e6
e4
e3
03
d4
0a
e8
0d
fe
f9
c6
fc
fa
f6
01
e7
12
12
2d
f3
0c
1c
ea
0a
e6
0c
0d
fb
ed
22
f5
ff
f5
09
13
04
ef
f0
d1
17
f0
f8
06
fa
ff
ff
ec
04
0d
23
19
ed
1f
f7
df
f4
03
e9
1b
fb
ef
fd
dc
f0
17
0f
f9
f1
fe
f6
08
0b
08
17
f2
f2
e7
e9
f1
08
f4
e2
e4
16
f8
f7
01
04
18
f8
f2
0f
22
ea
fc
e3
fe
02
fa
07
02
dd
07
d9
ff
00
01
f9
f7
f3
06
02
05
12
eb
08
ee
f6
1e
02
f9
f4
0a
f6
ee
e1
1f
df
ec
f2
05
ed
f1
23
f5
f7
1d
ef
f7
0a
07
f2
13
e3
fe
02
f5
09
d1
0c
f5
c1
f8
fa
1a
fd
0d
10
ce
fb
02
0c
12
e0
10
02
cf
e9
eb
1f
05
e6
15
0a
fd
2e
f4
2c
ea
0a
0b
08
07
0f
f0
00
0d
25
fa
f4
25
01
ed
13
12
fc
f6
e0
ff
f3
09
e9
ec
0d
fc
17
00
0e
13
05
0a
ee
fd
07
1c
18
02
f2
f7
fa
20
12
e9
fd
0d
e6
e1
04
ee
e8
0c
fd
0b
f4
04
f0
19
f9
fd
fd
0b
e7
05
15
e6
10
f3
db
ff
16
1c
2d
0d
fc
fe
19
ee
ff
02
f4
f1
fd
f5
f4
f2
fd
f8
fc
0e
05
e8
15
17
ec
ed
05
05
01
fd
f4
24
06
e4
f8
03
06
1c
e1
16
09
08
01
2f
11
b8
ef
03
e9
f2
11
20
25
dd
f3
f7
16
e7
02
fe
f1
f0
f5
fb
fd
0e
05
f7
0f
04
04
0d
24
14
e4
00
fb
ff
02
03
01
02
03
02
f2
f9
11
da
0b
f8
12
ee
01
f9
f9
04
06
e1
f6
ec
02
0c
eb
12
ff
ec
05
f1
14
0d
05
03
f7
fb
df
fb
1e
e0
11
e4
05
00
ff
17
f7
fd
11
06
fb
f7
f1
03
fa
05
d9
f2
f3
0e
e7
01
fc
f1
0c
10
ed
0d
ed
15
02
f6
15
01
fa
0c
04
de
e6
06
11
1a
e8
f7
05
0b
f7
19
eb
f4
f4
df
12
fc
05
f7
fa
fa
0f
06
f7
02
ef
f1
fe
f0
08
f0
e7
ec
0b
05
08
fe
ed
16
46
ed
03
e1
e3
0b
0d
e9
01
01
f4
cb
03
0f
04
ed
f4
ec
f6
e8
fa
03
06
08
ed
12
eb
ff
1d
16
09
e4
fb
10
03
09
26
fd
fc
0d
23
eb
0c
d2
e7
03
f1
f3
03
f7
f8
e8
e9
ff
24
f5
19
ef
e8
ff
bf
f2
30
0b
29
f5
fe
11
0b
04
c3
10
15
1b
1d
fe
0e
20
f8
2b
02
18
14
03
fc
f3
11
08
06
1d
ef
f1
f9
fd
01
05
f5
e1
fa
fb
15
ef
1a
f8
00
13
14
ef
fb
e9
fd
e7
33
e8
f1
eb
f0
05
05
e8
ef
f1
f8
0a
0f
f9
fb
fc
18
d7
fc
04
20
0b
1e
2c
fa
e8
02
20
ef
f9
fc
eb
e4
f8
d3
1b
f1
eb
28
0f
16
0f
19
0f
07
1f
df
ff
e9
dc
03
ef
06
2e
ff
fb
06
02
14
19
fe
0b
e3
04
fd
eb
10
f8
1f
02
1a
de
fd
06
f7
ec
ff
ca
fa
eb
00
27
00
2c
cc
12
f8
05
2e
0e
1e
04
15
e3
d1
f6
1b
19
01
e9
f0
08
1f
fc
07
e9
20
00
00
ff
fe
ea
01
1f
19
d7
07
e4
2d
f0
de
ff
13
09
fd
de
de
f2
f9
f1
f3
0e
06
0d
fa
10
e9
f4
f3
23
fe
e8
fe
f7
e0
f6
f4
07
07
0e
00
21
18
ee
01
01
01
01
01
e6
eb
f4
10
ed
e3
1b
df
fb
21
e1
fb
14
08
f9
02
0e
11
ee
12
fd
f8
d9
00
02
07
d9
f5
f1
fd
d9
01
fa
fb
fa
09
25
1a
fa
1b
e5
e9
1e
1d
fa
08
21
10
f3
1d
fb
f1
03
f1
e4
1a
2a
03
03
f4
09
eb
f2
f5
fe
11
f5
08
05
34
12
01
0d
ee
eb
d6
0d
e2
14
df
f8
0f
f7
0c
1e
de
fe
fa
0d
05
eb
fc
1d
1d
ff
e8
e4
1b
ea
ff
02
09
ff
f7
13
ee
f8
e5
10
d1
fc
04
f8
ec
e7
e3
f9
fa
10
d9
0b
0d
f1
19
0c
01
08
f1
d6
f3
e5
ef
12
f6
20
1f
f4
db
05
01
0a
f8
0c
05
0e
ea
29
2d
fa
ce
15
00
15
17
e9
20
ea
12
01
e1
00
11
06
03
f6
1d
0b
fc
16
10
de
15
10
18
0b
fc
06
f1
1c
1c
13
f3
07
0b
00
f8
16
10
0b
e0
f8
1c
00
1d
f0
fb
24
fb
e8
03
02
f7
eb
de
f8
fc
0f
01
f4
0b
fe
08
13
f3
ed
e7
00
06
fd
16
08
df
fd
e0
0f
f5
0a
0a
ed
e9
f4
de
34
f3
04
16
05
03
eb
09
fe
e3
17
ef
f9
f4
06
ff
e5
09
fa
34
fd
f3
19
25
ef
04
f4
0b
e3
0e
cd
fb
0f
06
03
fc
1e
15
fe
05
03
02
f7
1d
ff
e9
ee
ec
06
15
02
08
fd
0a
fb
fc
02
11
03
1a
17
d2
1a
e9
04
07
22
13
1c
12
eb
dc
1f
da
f6
01
da
00
16
04
0d
2f
18
0c
0f
dc
e5
f9
f1
05
f4
08
ec
32
11
04
08
15
f6
fe
e2
17
e2
25
ec
e8
f2
df
06
f2
ee
fb
1d
0f
07
fd
f7
0d
13
f8
f4
0f
16
f7
fc
d5
cc
1a
f6
f8
07
dc
f9
fa
fb
ed
04
f9
f1
f7
eb
0f
04
0c
02
24
0a
16
05
12
e0
f2
f4
fa
fd
ed
f9
f7
f5
08
06
05
17
0e
ef
f6
e2
15
0a
f0
14
0e
05
0f
0c
15
ef
fe
fb
fc
eb
0b
03
02
fa
02
f1
e8
fa
eb
08
fc
fe
0d
0c
0f
fd
f2
00
df
02
1a
ee
ff
e7
1b
31
f9
e7
f4
e4
fc
0b
11
03
f9
08
ea
0e
f4
f8
04
2e
0b
0e
e6
19
fc
13
ed
06
0c
ff
ee
15
f7
08
01
21
f4
04
fb
09
1d
13
19
0c
e5
17
e6
cd
fd
ea
d8
0c
fe
f1
f1
0a
fa
14
fb
f6
e0
16
10
3b
e9
f3
07
0e
05
e8
00
f0
fd
12
e1
e5
0d
18
e5
ee
ea
f2
d9
e6
10
e1
0a
05
07
03
0c
ff
f5
27
0d
0d
e9
12
09
f8
e0
d2
06
ff
04
f9
ee
fa
12
10
ec
19
f5
08
19
ef
03
04
de
06
db
ed
12
ff
09
ed
09
e2
01
f3
0b
03
10
05
28
e7
08
25
0b
01
fd
ff
34
de
f3
f3
18
02
0b
e8
0a
10
0c
ff
f6
15
0b
12
fe
f3
02
00
f8
ff
fd
f5
10
05
18
f1
0a
0c
e1
17
2e
22
08
e6
f4
07
12
ff
d2
09
f0
fb
fc
f2
ea
1b
0f
ef
fd
ed
08
04
11
ed
19
04
f2
f6
f4
01
13
f1
02
05
ea
0e
f6
03
f8
07
02
09
39
fa
0f
01
de
07
e9
15
fe
0b
d3
f7
10
0d
14
e2
f7
f4
f5
02
fe
22
1d
41
fd
01
f9
01
19
18
01
1b
ec
3b
17
01
08
de
09
0b
f5
0f
fe
1b
07
ee
0f
f6
06
0a
f3
fc
03
df
0d
06
ec
1e
f9
db
14
09
ea
19
e5
f5
f2
f4
f9
f8
fa
fb
08
13
04
16
eb
05
ec
0d
05
1b
de
04
06
ee
ed
0e
fe
f6
e4
01
f1
0d
3b
ec
e9
16
fe
22
11
02
1b
e5
12
e6
e9
f9
fa
e4
f9
fd
fa
1d
f4
e9
03
ef
e5
10
fc
1e
09
0b
f7
fd
c4
07
01
e8
f6
fa
01
e9
1f
f8
05
fb
0c
fc
0a
cf
f3
fc
0d
19
03
34
09
ea
f0
e4
03
df
04
fe
fd
e8
17
16
03
e2
ef
0e
0f
f8
01
0f
f5
24
fd
e2
f3
f4
df
19
25
1c
f8
fd
0f
0d
49
d3
c7
da
20
04
cf
1c
20
0a
f2
21
f9
2f
08
e5
26
fa
e8
fc
f8
05
25
fb
f4
21
00
f1
08
e7
12
17
f5
e9
03
00
f2
ff
f0
05
16
fd
ff
f7
f5
03
04
1b
f5
06
15
f9
14
0d
f6
ee
05
f0
07
f3
0d
ec
fb
16
fe
ef
e5
fb
09
1c
0a
18
ed
08
e6
c6
21
14
15
ed
e5
dc
05
ff
0c
d4
03
f7
fa
17
14
0f
e5
1f
e7
f2
d4
12
07
eb
e7
f1
12
f8
f1
01
f9
f7
ec
dd
fa
f3
04
08
ed
ef
f3
f6
28
23
10
05
e8
f4
14
07
12
fd
f1
e5
19
f0
eb
ee
dc
f7
0b
07
07
02
fb
fd
11
05
f6
06
dc
06
20
17
e1
fa
e9
ba
08
ef
ed
f8
16
0a
06
ec
d1
02
06
09
0e
2f
0f
04
fc
fd
fe
e8
f9
27
13
da
05
fa
f3
07
17
fe
f2
06
fa
f9
f8
17
13
db
e6
de
0c
1a
f6
16
ec
f5
1c
fa
13
09
05
df
01
0a
0c
21
3c
06
fc
f2
04
de
10
ea
f7
12
1e
e2
10
08
e5
06
e9
e5
d3
04
1e
09
02
17
26
1c
ee
f9
ff
1b
ea
ed
1b
f4
06
1e
ed
fd
d1
24
07
0b
16
19
f2
eb
0a
0d
0a
04
f6
ef
f2
17
fe
c9
f1
fb
00
11
f4
f6
11
e5
fc
f7
02
02
f2
1e
01
f2
07
11
01
0e
06
f1
e1
ec
e7
04
ea
f2
11
eb
04
08
1f
eb
0c
ed
fc
06
f7
f5
05
e8
29
05
f0
0d
09
f3
00
00
ee
0b
f1
f6
f7
0a
f0
f5
05
0d
e9
f8
00
ee
d1
f0
d8
f4
0e
0c
ef
ed
0f
06
30
ea
0d
15
eb
0b
06
d1
f6
05
f5
f9
df
e1
2e
0c
14
e0
19
01
05
01
f1
10
f6
f8
f7
03
02
0c
ee
04
df
f7
f3
0f
f0
ec
f8
ed
17
f1
03
0e
f1
01
03
24
e5
ed
1a
f9
00
e8
ff
e0
fd
fb
14
d7
d2
ee
07
15
06
1e
20
ee
12
f3
f4
04
04
e3
fe
22
d1
0a
20
0e
09
23
28
2a
e8
ed
ec
e6
d1
19
1a
01
07
fe
e2
f3
c6
f3
03
17
11
ff
f1
d8
fa
28
0a
0b
d3
05
23
ee
fe
ef
f4
df
1d
11
f7
1b
02
1f
00
1c
e4
0b
fc
e2
06
f2
06
03
fd
ef
19
00
fd
ef
f5
cf
e6
0d
eb
03
e5
fd
06
db
e0
e9
04
f2
00
05
0e
28
27
16
ea
ff
f5
ef
fd
0a
e7
19
fc
05
10
1b
0b
05
0b
0a
eb
f4
06
17
03
d3
f8
22
18
15
0d
18
05
04
ed
15
f7
fa
f0
e7
1e
e2
09
d8
fb
2f
e7
01
fb
fd
1c
04
ed
e0
15
f8
ff
f3
0f
06
fa
fe
24
1b
10
0e
0e
e7
1b
ed
23
0f
de
e5
f8
16
d4
05
15
23
18
0e
10
12
03
e2
02
02
0f
0b
fc
f4
e5
d6
22
16
0d
14
d4
f9
fb
e6
09
ef
07
05
1f
01
dc
fe
17
fc
fc
02
10
05
f7
34
dd
13
e6
f0
ee
08
04
fc
17
f9
01
ef
ee
23
e6
ef
f1
0b
13
26
23
06
12
04
09
fc
00
22
e8
1c
1c
f2
fb
fe
26
d4
ee
08
00
0b
05
03
0e
d7
fb
e5
e7
f4
e1
13
06
0e
0d
27
e4
df
24
18
ff
2d
e3
fd
f8
00
e9
fa
f7
04
02
30
fe
0c
ee
e8
17
f4
09
ff
03
f3
17
f8
00
02
10
0b
0d
f7
2e
0e
0c
f4
13
e9
02
0e
18
fa
2e
0a
25
18
ff
08
0c
2c
f5
e3
10
2a
f2
0d
13
e0
2b
eb
03
23
17
1e
fc
f2
f3
f1
fc
19
e3
03
f7
33
e0
06
f9
da
f1
10
e6
03
ea
fc
fb
ee
e8
da
0d
dd
27
d7
fe
fc
19
f3
0a
ef
0b
1d
e2
ff
27
e9
0e
1f
17
f4
ff
f0
20
34
1e
f0
17
07
f1
d8
05
24
00
fe
0c
26
01
0a
15
ee
ec
d0
05
05
e3
e7
f0
f7
0a
fe
f2
17
fa
01
ee
24
f6
06
ee
16
34
13
f5
dd
f9
0c
13
e0
11
27
fd
ef
1b
19
0f
fb
fa
f2
e5
12
fc
ec
fe
f4
00
03
ef
15
f6
19
25
12
04
03
12
09
2a
f0
e3
ed
10
f8
12
f8
f2
2a
ff
e2
f7
15
18
f0
e4
fd
11
f2
fb
09
11
11
e5
ef
23
1a
18
10
0e
d6
ea
0e
fb
e2
09
06
0a
f4
fd
11
eb
0f
08
f1
08
e8
0d
1d
f2
02
16
0d
15
03
f9
07
ff
15
09
12
e5
ed
e6
fb
23
00
f7
c6
f4
f5
02
00
18
0a
1c
cf
14
0b
fb
10
1f
de
ea
ff
05
ec
08
0d
ee
15
f6
f9
0d
09
26
12
03
fb
0b
0d
fe
04
05
10
04
0d
00
07
07
e0
06
f5
38
ea
1e
cd
01
f7
f6
fb
11
ef
18
01
16
f1
37
03
1d
18
f8
fd
f1
fc
fb
e0
ee
05
ea
e4
04
da
1c
f0
ec
e3
f5
09
fe
ed
d4
00
dd
ff
0b
f2
ea
e6
05
ee
ea
e9
19
e7
0e
02
06
06
f8
c0
fd
0a
04
dc
0d
f4
04
f9
0f
e9
da
05
10
13
10
f7
07
04
06
0b
db
f9
f8
13
01
18
08
08
14
02
f4
02
e1
fc
26
07
15
f1
ec
f8
0f
ea
04
f2
e7
c7
19
07
fe
04
f2
08
fe
02
eb
0b
29
04
eb
36
f8
fe
0f
17
0c
1a
f3
03
12
fc
0d
ee
16
d4
01
05
09
f8
e3
0e
05
e4
ec
02
ea
e8
03
10
ff
13
eb
07
2c
0f
0b
0e
fb
f5
e3
ce
08
0e
f9
fb
0f
eb
ef
dd
fc
0c
fc
17
09
03
11
fa
fe
d9
ee
f5
09
d7
02
22
f7
0a
f3
f8
f3
11
03
11
f6
19
03
f4
df
06
06
dc
f8
f0
ea
f8
11
0f
f3
f0
00
fa
20
e4
0d
05
07
fb
0d
10
14
0a
01
10
f8
f5
fd
01
0a
f6
d1
07
02
fd
10
f7
e0
e2
03
0e
fe
29
0f
f9
01
06
15
fa
ec
fe
20
05
03
f0
03
04
e1
0e
0b
05
f5
f8
0f
db
fb
02
eb
fc
fe
f0
06
f2
0a
f1
f6
fa
e7
ec
f6
25
1a
23
d0
fc
13
0c
03
07
0c
f6
f9
09
16
00
19
e2
14
02
fd
2e
ed
f4
0e
05
15
14
fb
03
07
f3
05
e1
0d
04
e9
f4
fe
08
33
fc
1f
08
1a
22
f0
ef
f1
f2
29
ea
dc
e8
09
ef
07
e3
01
fe
02
18
fd
f7
cf
07
dd
e1
dd
f7
1a
21
f2
ee
1d
eb
d9
fb
17
ed
ef
10
00
f4
11
eb
06
f0
df
f6
09
d1
1b
e0
f5
03
0b
14
03
f8
03
06
0e
ee
f2
fb
fd
14
fa
0a
fa
0d
20
ea
08
13
f4
de
fd
15
e8
19
d7
1a
f3
f6
09
1b
02
ea
f1
e3
11
e7
f9
ed
01
04
24
f9
da
e0
00
f6
13
0d
f6
0f
ff
16
f0
02
05
f2
ec
05
f6
ed
ee
f9
ec
e1
09
eb
fc
fe
e0
03
0a
17
01
22
10
2a
0f
21
0b
07
28
f4
f4
ec
fe
d2
05
10
f4
f4
09
f0
30
1e
17
1e
0f
18
f3
11
05
fc
11
00
e6
07
ff
07
08
03
13
f3
fa
f1
0a
0b
04
0c
e6
d7
16
19
ff
04
07
d1
fe
0b
e9
fe
fa
d5
ed
f4
fb
1a
e9
f5
ec
e7
08
d9
f5
0c
08
e3
07
04
06
01
06
ff
ea
e7
07
19
0c
ed
e7
16
02
02
fc
f6
f0
0a
13
02
fe
00
f7
f2
04
f8
19
17
ef
29
f5
f0
fa
e1
ee
20
19
07
02
01
fe
e9
00
c4
1d
09
25
f8
25
d8
25
eb
06
d6
fe
f6
07
02
f7
0c
df
fd
06
f6
3b
dd
11
12
e4
11
f0
13
ec
f1
04
07
38
f5
02
eb
13
d0
f3
03
07
0d
0e
f9
ff
07
07
00
01
04
0a
eb
f9
fd
ff
0c
f2
0d
f2
f8
0c
10
04
0a
00
0c
fa
07
ff
01
f9
09
10
e7
17
0a
14
e2
03
da
07
fc
f9
f4
ee
0f
ff
25
09
0a
f3
e5
ee
f9
1b
df
fa
1b
0f
fc
0e
09
f8
1d
f0
fc
0b
27
25
17
f0
fc
df
13
1c
06
06
09
0e
ec
de
ef
f4
0e
e5
e0
ef
16
0b
fb
ed
ec
f4
0d
0d
01
20
f8
06
e2
2f
27
21
07
de
f1
08
f8
09
f4
1f
fe
03
f3
1c
22
03
f3
14
ff
01
fe
0a
0f
d1
e6
10
f4
e3
fd
f6
1e
1c
26
0d
01
e9
fd
22
1c
15
13
eb
0d
0d
fe
0c
0d
dd
01
1a
1e
f8
eb
03
03
04
ff
f3
09
18
f9
ea
ee
f5
06
ff
12
f3
f4
01
f7
f5
06
f4
08
18
ec
12
fa
21
fb
f7
0d
e9
e8
05
0b
08
1d
fc
fd
f4
1a
0e
02
fe
fb
e2
fc
09
08
f5
f5
f6
fd
02
13
f9
0b
e4
f7
f0
03
e8
02
10
18
03
0e
06
1c
04
f8
fb
04
13
ee
04
ef
d7
11
fb
f2
f9
00
18
07
fc
d8
12
14
ec
d4
15
10
21
10
17
19
22
00
f0
f3
10
ef
ff
dc
e2
f9
1c
f2
f6
04
f6
23
04
06
e1
fb
00
0a
07
f6
f3
f5
0a
df
e9
ee
f8
dc
f0
e2
03
13
11
e3
12
fe
08
ec
1b
18
18
11
fb
04
00
f2
0f
ee
fd
1d
00
ef
e1
16
11
f7
ce
06
e8
e8
f9
f9
09
24
fc
fd
13
10
15
ed
20
f7
04
24
12
eb
fd
0e
18
ec
e4
e8
d1
fa
20
10
f2
05
e0
24
1e
02
22
f8
10
18
06
ea
01
0d
f5
f5
2d
19
f8
20
02
f8
17
f8
fb
ec
fe
ed
01
f5
1d
2a
f1
f7
fd
e9
23
05
12
fa
0c
03
11
09
01
10
21
fe
01
13
f8
e2
ec
f2
e5
1f
27
ed
f4
d6
1b
07
f6
02
34
2a
17
2c
ee
e2
ee
fb
f2
0b
19
02
dd
1d
fd
0f
fa
d0
1a
ff
0d
12
fa
1b
ef
f9
12
25
0d
03
ed
f0
fd
0f
19
fb
19
1c
de
f0
eb
f7
fd
fc
f1
12
f9
05
27
26
fc
eb
18
16
f0
e2
1b
da
00
0b
ff
0e
1a
f6
fe
ff
1b
21
c1
08
2d
cd
23
0f
f0
e4
e2
02
d5
f3
17
03
ed
08
14
f1
0e
fd
cf
e9
dd
d1
0c
18
f7
2c
fc
fc
1b
12
0e
13
f9
13
09
0a
0e
f4
f8
02
14
04
1f
ff
e4
ff
09
20
0b
02
10
00
0e
d8
15
ee
2b
e8
05
07
03
18
20
ed
12
01
0e
01
fd
f7
0b
f7
f7
f0
ea
19
f3
20
20
1a
f8
18
04
ff
fc
d2
f8
d1
01
e3
02
23
ff
01
0b
04
17
e9
10
12
d1
02
26
13
ea
da
f2
06
0e
07
1a
13
e0
e8
fd
05
e5
00
29
2e
fe
21
1f
10
e8
0b
03
05
e8
15
12
fa
1b
e8
f9
1e
f6
fc
f9
ee
ea
0a
ec
f0
d5
f6
ee
12
08
01
0d
00
15
08
25
0d
f8
00
02
0f
f2
e7
f2
f7
0c
03
ef
f6
02
0a
f6
11
03
07
ef
f2
0b
ec
ea
f5
f6
0c
09
0c
17
0a
08
f2
02
fa
ea
ee
01
1a
e1
0e
f3
13
dc
f2
0c
f9
11
e0
08
15
17
2a
0f
fc
fb
21
f5
e1
17
fb
f6
12
04
18
f7
0a
0f
fc
1a
f6
15
fd
ee
02
17
1b
12
fd
27
13
03
13
d6
14
10
f9
f9
10
e9
01
14
de
f3
26
06
0b
e9
13
0b
13
07
13
ec
eb
00
01
03
eb
e0
1d
0e
12
f8
1e
eb
f9
f5
f3
09
04
0f
03
0c
0e
07
0a
22
0f
06
e1
0c
fa
00
1f
e0
ef
e8
f6
ef
02
27
03
08
f4
f6
d0
fb
0b
03
dd
f3
25
f4
17
f2
1b
e2
e3
fb
f6
04
06
fe
f3
02
de
12
ee
15
e6
dd
00
fa
43
26
f4
04
f4
e0
06
fb
e5
f9
da
f8
fd
cc
08
03
e5
39
e2
19
e4
22
0f
fa
0b
01
1d
c9
f5
f4
00
0c
02
ee
fe
f1
ff
fb
16
09
09
f6
01
fd
f7
fb
f8
f5
20
f0
1a
fc
0a
06
23
d5
29
f6
f6
00
fe
ed
04
f3
05
0c
1a
f5
f5
0f
14
09
19
08
05
e3
e5
00
0c
2e
f5
1a
1a
0d
15
11
da
f1
2b
0e
f2
f3
fb
02
18
0b
ec
ea
f5
dd
19
0e
29
07
ff
11
02
f9
f3
05
27
0a
01
04
f6
20
00
01
fa
ff
02
06
cf
03
06
07
05
03
d7
11
1b
d3
fd
ec
09
16
e7
ff
e3
dc
e7
15
0a
03
ee
f1
0f
ef
f8
05
01
ff
fe
1b
06
0d
f5
ff
15
f4
0e
de
11
0a
ce
0a
e4
f0
f9
f5
1a
01
e8
db
14
fd
fb
2c
11
26
10
f0
fc
fa
ff
08
09
0f
05
f4
ec
e0
ce
0e
e3
f9
10
01
0f
f4
04
1b
00
e1
fe
f5
ec
eb
f2
02
14
f6
fd
0b
01
04
f0
0f
13
ec
0c
06
00
11
fe
17
03
17
ef
ff
1e
e7
fb
24
09
09
ea
05
fa
01
f5
0e
17
35
16
24
f0
09
02
fb
f5
0b
da
f1
00
09
1e
02
f4
09
f4
eb
1d
0a
13
00
f7
08
07
02
d8
f9
fa
17
22
25
f4
01
cd
fa
ec
0e
11
26
dc
0b
