0035
ff63
ffb6
0014
00ac
ff70
ffbf
0006
ff4e
0107
008b
005f
0015
0080
fffe
ff5f
0118
ffa4
ff88
ff9b
ff52
006a
0073
0073
0014
0082
012b
ff83
002e
001d
0095
001e
0035
fff5
000f
fffb
000d
001c
002c
ffde
ff88
ff9b
00c3
ff6d
0004
00b7
ff96
0014
ffb8
00ec
ffc0
0087
00df
ff97
003c
007a
007d
0004
fea2
ffc3
ff7b
010e
0067
ffea
ff78
ffc9
ff8e
ffab
ff8e
008c
0011
00c3
0005
0088
fff8
ff4d
ffc4
00e7
0085
ff57
fff5
0032
fe9b
0122
ffb8
008b
0028
ffef
0078
ffed
007e
ffa0
003f
0088
ffd5
ffde
ff0a
00a7
0047
0057
ffe8
ff63
ff44
ff24
0142
00b0
ff9f
ffe0
ff36
00fb
0016
0084
ffe3
ff73
006b
fff2
ff75
ffe8
0084
00fe
0059
0064
0002
ff81
0046
00bf
0017
ffba
00ec
0001
ffd3
00be
006e
0097
006e
00e9
0041
ff8e
ffc4
ffc7
ff37
ffda
ff1c
0017
ffc4
0090
0132
ff90
ffda
0023
003b
ff68
000a
ff7f
003b
ff9d
ff73
ffe5
0104
ff2c
