3c0 a0 1 1
03
fd
08
03
0a
f9
01
00
fc
08
05
08
fb
fe
ff
09
05
fd
01
fd
fc
01
02
02
fd
fd
01
03
ff
01
fa
fa
07
fe
06
00
fb
03
00
fc
00
04
00
06
04
f9
02
fd
fc
08
00
ff
01
f9
fb
03
05
05
02
05
03
00
07
01
fb
f7
05
04
01
02
fd
fe
fe
fe
06
00
04
fc
02
07
fe
0e
01
01
01
f5
ff
fe
0a
02
0a
fa
f6
00
07
00
05
00
fe
ff
00
02
06
0a
07
00
f9
fb
ff
02
03
fc
03
07
01
02
01
ff
00
00
02
09
00
00
ff
05
fb
f9
fe
07
ff
06
fc
fe
fa
fb
fd
fd
04
04
06
03
fe
02
fa
09
05
02
00
ff
fc
f9
f7
05
fc
fd
04
01
08
fb
00
03
04
fe
fe
00
fe
02
00
ff
00
ff
00
01
ff
05
00
05
01
ff
04
04
04
00
fa
fd
fd
fd
02
fa
fb
03
02
02
fe
01
ff
04
03
00
05
fd
ff
fb
fe
fb
05
01
01
ff
fe
fe
fb
08
04
fe
fa
04
02
03
01
fe
ff
02
fc
03
03
01
01
ff
fc
ff
01
ff
fd
ff
05
02
00
01
02
f9
ff
02
00
fb
04
02
fc
f8
fe
fc
fc
02
ff
00
fe
01
02
fc
02
02
04
07
ff
03
fe
04
07
05
01
00
02
fd
ff
04
02
02
fe
fe
00
fd
fe
ff
f7
ff
01
fd
fc
00
fe
fe
ff
fe
05
00
00
02
02
fd
03
ff
04
04
02
fb
fa
00
02
05
01
00
00
00
0a
07
05
ff
01
05
ff
00
fa
06
07
ff
02
ff
04
fe
fc
fa
fd
04
07
0a
03
fb
04
f9
0d
f9
09
ff
f4
fe
01
03
02
fd
ff
02
ff
ff
ff
fe
03
01
fe
02
0b
05
fb
0b
f7
03
02
01
fa
04
05
f6
01
06
f9
00
fe
fb
ff
09
06
fc
05
00
04
00
01
fd
01
00
05
f9
01
00
07
02
02
02
01
ff
fe
05
08
f5
f9
fd
ff
00
05
03
00
ff
04
ff
02
06
06
04
fc
fd
fb
02
fc
05
fa
04
ff
fe
01
fa
05
fe
fa
ff
f8
fe
07
03
04
fd
fc
01
fb
01
01
04
02
07
04
03
04
00
f6
fd
ff
02
fc
06
fb
fe
01
00
0e
08
fa
0d
f7
06
ff
fb
fc
00
f4
05
fe
ff
03
01
fd
02
fd
f9
ff
01
fc
03
01
fc
09
03
fe
01
06
07
00
fe
fb
02
fe
fe
07
02
06
03
fe
06
fb
fc
06
00
06
03
01
fc
ff
06
fd
03
fa
02
00
fe
03
f8
00
00
01
fe
03
fd
ff
08
fe
05
01
ff
03
01
fd
02
fc
02
05
05
fd
02
fd
05
07
00
02
00
01
ff
f9
06
ff
02
00
ff
ff
05
02
ff
00
08
f8
fb
f8
01
03
03
03
f9
02
01
00
09
fe
01
01
ff
ff
00
05
02
fb
05
04
fd
00
00
00
fc
ff
03
fd
fa
03
fe
fb
fb
00
07
fd
01
02
09
02
05
03
00
07
05
01
00
00
0c
04
04
fd
fc
fb
00
03
fc
f9
fc
f8
00
08
ff
fb
ff
01
07
ff
fd
f8
00
05
0a
05
03
01
01
f9
02
f7
ff
04
05
fa
04
06
08
02
04
02
fd
fe
02
ff
f5
00
03
fa
02
ff
00
fb
03
fe
08
ff
00
fb
01
00
fd
09
01
03
02
f9
01
05
04
03
fd
01
fb
02
fa
02
06
f9
05
00
ff
01
02
fb
01
02
02
04
fe
fe
02
00
fc
01
00
02
00
01
04
07
f9
ff
01
fd
03
fa
f6
08
fd
01
00
ff
02
fc
fe
01
ff
fe
ff
02
f8
02
08
f9
04
00
01
02
02
ff
01
fe
03
02
f5
01
08
05
fb
02
fb
03
fd
02
02
fc
fe
fc
02
fb
fc
ff
08
00
fd
fd
02
fd
ff
04
fa
00
fd
06
02
04
01
f7
02
06
fe
fd
ff
00
05
0d
04
02
fc
ff
03
04
01
00
01
ff
06
fc
03
f9
fa
fd
06
fc
08
00
01
fe
06
06
fb
f6
f8
08
02
fc
ff
01
01
fd
fe
07
03
02
01
00
03
04
fb
03
00
ff
ff
02
03
02
fe
f9
fb
08
04
ff
06
ff
05
02
00
01
03
00
07
03
01
00
f8
07
fe
f6
fc
05
00
00
fd
00
05
fa
ff
07
02
03
01
f7
07
0a
01
03
03
f8
ff
fe
01
00
02
03
00
05
f9
01
02
03
fe
03
fc
f7
04
fe
01
03
fc
fd
05
ff
03
fe
02
ff
01
08
fe
05
05
06
00
fd
fa
05
f2
ff
fa
00
fd
f5
06
06
fc
07
f9
ff
fd
fe
fa
05
fc
05
ff
00
0c
f9
f7
02
fd
fe
ff
04
fa
03
00
05
08
05
fc
00
06
09
f5
00
05
ff
fa
02
07
05
f9
fd
04
05
fa
0a
fc
01
03
02
fe
03
00
04
0b
02
0a
ff
fa
05
02
fa
fe
06
01
00
f8
09
0c
f9
01
00
00
fb
02
f9
03
0b
06
09
fd
03
02
fe
02
ff
06
01
02
fe
fd
00
fd
fb
03
04
06
0a
05
05
00
00
00
03
01
fc
fb
ff
04
ff
fe
04
fb
fe
ff
05
04
02
00
fe
ff
04
05
05
f8
0b
f8
f9
fd
fc
08
fd
fc
01
ff
08
02
f5
fd
00
06
ff
04
fe
fb
08
fa
fe
04
00
f6
00
ff
ff
fb
07
01
04
f9
ff
f9
fe
02
02
00
f9
03
fb
04
06
06
07
04
09
00
08
04
01
f8
05
07
ff
ff
06
fa
fa
02
01
00
08
fe
ff
02
fa
fc
03
0b
fa
fb
01
ff
04
08
f8
04
fc
01
04
05
fa
00
05
ff
f8
fa
02
00
00
fe
fd
ff
00
04
ff
02
fc
05
07
ff
01
fe
01
fd
03
f9
fc
ff
05
02
fd
04
fb
06
fb
fc
fb
04
fb
fd
09
f9
fb
f8
00
00
03
02
00
02
01
fe
02
03
fd
02
01
05
fd
01
02
fd
fd
01
03
f9
ff
fd
ff
fe
03
03
fd
fc
05
02
01
02
00
fd
04
08
02
03
f9
01
ff
fe
fe
00
fe
02
fe
ff
03
fd
07
04
03
fe
fe
fa
00
01
fd
02
ff
01
01
fc
03
07
04
00
00
04
00
04
03
03
03
00
fd
01
01
05
f8
01
fb
fd
02
04
fc
fa
0b
0a
ff
ff
fa
06
02
04
fe
04
fe
06
f8
fd
05
fe
f6
fc
fc
fd
03
ff
04
02
fb
06
0a
ff
08
03
02
0b
00
ff
03
ff
fd
04
fe
fd
01
f5
05
f9
f0
ff
02
f9
01
04
fb
fa
08
03
fa
fd
f7
fe
ff
05
ee
fc
02
fe
00
07
fd
fc
02
f1
0c
03
06
06
01
fc
07
ff
f9
fc
01
fd
fe
f8
fc
0d
01
01
03
f5
09
00
fd
05
f8
0a
fc
fe
06
05
f8
01
02
02
f9
03
fe
04
05
08
05
03
01
07
06
06
06
03
00
07
fe
fd
01
02
fe
fc
ff
06
ee
fc
01
fd
00
07
00
03
01
f7
00
00
01
fe
04
fd
f8
07
fd
01
07
02
07
03
0a
0c
fd
01
fe
fe
04
0c
fb
fc
04
04
f6
01
07
ff
fb
ff
08
fb
04
00
02
03
ff
fe
05
07
f6
ff
06
fd
f8
09
02
f4
ff
08
02
09
05
04
01
fb
fc
00
f9
ff
01
fc
00
fe
ff
01
f7
02
fd
00
fe
09
fb
01
00
fe
00
fb
06
fd
fe
04
ff
02
fc
fa
04
fb
02
f5
fd
01
04
05
03
02
ff
ff
0c
01
00
ff
04
f9
fe
06
06
05
02
fd
02
07
02
f9
ff
03
fb
04
0c
fb
05
04
01
05
fd
03
01
fd
0c
fe
00
fe
fa
fe
fc
0b
02
00
fa
f7
fc
fe
06
f9
fb
00
fc
f7
06
fd
f5
06
ff
06
00
07
06
03
01
04
03
ff
fe
fc
f9
ff
fd
00
fd
02
04
08
00
01
fd
fb
fc
08
02
03
03
03
ff
f9
f7
fd
01
fe
07
ff
02
fc
f6
00
fd
fe
00
00
ff
ff
02
01
fd
fd
00
fd
fa
fd
01
03
04
01
fd
04
fa
00
f6
f7
04
07
ff
02
f6
0b
fd
00
03
03
ff
02
01
fc
04
01
03
01
07
fb
07
fe
03
fc
fe
06
0d
ff
06
fd
08
fd
05
02
02
01
fd
05
ff
ff
01
02
04
03
fd
02
04
03
00
02
ff
02
07
00
fe
ff
04
01
fd
ff
05
03
02
fa
05
00
fa
06
02
05
03
04
04
05
05
f8
01
04
03
f8
01
02
fd
00
ff
00
01
08
02
fe
04
01
04
01
fc
04
f4
09
01
f9
fa
09
ff
ff
fb
02
ff
f6
02
0c
fc
fe
fe
01
03
03
01
04
fc
f8
00
fc
01
fd
ff
01
02
fc
00
fe
06
04
02
09
06
0e
fc
f5
ff
00
02
fb
ff
f9
f9
fd
fe
0d
fb
f1
02
00
09
f7
04
fe
f4
04
04
05
02
03
05
fb
03
fc
fe
03
04
fe
f9
fe
05
0f
fb
00
ff
fd
ff
03
fd
fd
03
00
05
f8
fe
fd
0b
00
fd
02
03
01
fd
ff
f5
03
02
f8
01
03
fc
0b
fb
ff
fc
fe
f7
01
0c
ff
08
01
00
02
02
fb
04
0a
07
00
04
02
fc
01
09
fe
02
01
00
f7
ff
fb
08
ff
fb
fe
04
02
00
05
00
02
06
08
0b
01
04
fb
fa
f8
00
fa
fd
fe
02
fa
fd
00
fc
01
ff
fa
fc
fb
fc
fc
fe
05
fc
fc
04
fb
04
f9
09
00
fe
03
01
06
ff
03
ff
fe
fd
fc
02
ff
fc
fb
02
fe
fc
fc
04
01
fd
ff
01
03
fa
fb
06
f9
01
04
03
fa
06
03
fd
03
fb
01
fd
f6
f9
08
fc
fd
00
f9
03
fc
fc
02
fe
ff
02
03
fb
ff
03
08
02
04
01
fa
06
fd
ff
fd
00
fe
06
02
fd
00
08
00
02
02
fb
09
07
00
fe
00
05
04
fe
03
f8
fc
03
fb
03
05
08
ff
fc
03
00
fc
fd
00
fc
01
02
fd
ff
01
06
04
00
01
01
ff
00
00
fe
05
fd
02
ff
00
fe
ff
fe
fd
ff
fa
02
fe
ff
03
fc
fa
04
fd
fb
01
07
09
fe
00
01
00
08
f9
fb
fe
f5
03
01
fe
fe
fa
fd
01
fe
fb
ff
fd
00
ff
fe
06
02
fc
fe
00
01
00
fb
ff
09
ff
f7
fa
fa
fd
f7
f8
01
f9
00
f9
02
06
f8
05
ff
02
fe
ff
0c
08
fe
02
ff
04
fd
f9
00
fa
ff
fd
fe
04
fd
fe
fe
01
00
f8
04
fe
07
05
fa
fe
04
05
fb
fe
09
fc
07
f8
fe
f6
00
07
09
09
ff
fb
08
fd
00
fd
01
0d
f9
fe
fb
fd
04
fd
04
04
07
05
00
02
ff
fb
f9
02
00
fe
fc
01
01
01
fe
03
00
fc
02
05
01
fe
fb
fc
ff
00
02
0c
f9
01
07
01
06
06
ff
fb
ff
ff
fe
01
08
01
fc
04
fa
fc
05
fe
fb
06
00
05
fd
04
07
fd
01
00
fa
fd
00
07
fd
0a
fe
0a
03
ff
05
fd
03
04
fb
ff
fe
ff
fa
f9
02
01
fa
ff
fe
00
fc
02
fe
06
fa
ff
fd
02
00
00
fe
06
04
fd
fb
ff
04
fb
fd
04
04
00
05
fe
f9
ff
ff
01
fd
fa
03
00
fd
00
fd
fc
03
f9
ff
fd
ff
02
ff
07
f8
02
fd
fe
fe
02
fd
01
02
01
fc
ff
fc
00
00
01
07
f9
02
fa
fe
00
fc
f9
05
00
07
00
00
fe
fe
00
ff
f9
06
05
02
ff
03
ff
ff
ff
04
fa
04
01
00
01
04
05
ff
05
ff
05
01
ff
01
07
02
00
07
ff
f9
fe
fb
01
04
03
ff
01
03
fb
01
06
00
fa
fc
fd
05
fe
01
fa
ff
fe
03
fe
05
07
fb
03
fe
04
01
fd
fa
ff
fc
fa
fb
01
05
05
04
fc
00
fb
fd
03
05
07
01
fc
02
fb
00
05
01
02
f9
fc
ff
06
f6
04
ff
fe
fa
07
f9
02
f3
01
fe
09
08
f7
fe
fd
fe
f5
fd
04
08
fb
f8
06
05
01
fa
ff
f7
03
f9
ff
00
f5
fe
01
fd
02
05
fb
fb
fd
05
fa
f9
01
ff
fd
f5
0b
fe
0b
f8
03
fd
00
f4
06
03
00
03
f7
05
fe
08
01
f9
00
09
00
08
fe
02
08
fc
f8
ff
02
03
f8
f7
03
fe
f7
fa
01
03
fc
ff
0b
fe
fd
02
f7
08
07
07
09
fa
fc
ff
04
f5
01
ff
fb
fd
09
fa
0a
06
06
fd
ff
00
ff
01
fc
03
f8
ff
02
01
01
ff
01
f8
fc
02
fd
02
02
ff
fb
fe
10
fd
04
f5
09
03
fe
02
03
07
ff
fa
fc
ff
fe
06
00
01
11
fc
f9
02
fc
01
05
00
fe
01
fc
fc
03
ff
02
02
fa
03
03
fa
09
07
ff
04
05
f8
02
fc
fa
03
fc
05
06
fa
f8
02
05
07
f4
f6
06
0c
fb
03
00
f9
fa
00
02
f7
02
01
01
01
09
fb
00
ff
f9
06
ff
fd
02
04
01
04
03
fb
fc
04
fe
00
fb
01
fd
00
03
01
fa
fd
02
05
f9
08
fc
fe
0b
fe
07
01
fd
01
01
06
01
ff
00
f8
fb
fe
04
06
02
01
02
06
01
ff
08
09
ef
fd
fc
fa
ff
ff
f6
05
fc
04
fe
ff
02
f8
fb
02
f7
fc
06
04
06
fe
ff
0a
03
f9
05
fe
0b
03
fc
06
ff
06
04
03
fe
01
fc
ff
fe
ff
00
fc
00
fe
ff
ff
01
fc
04
f9
02
fc
ff
00
07
ff
fe
fb
04
05
ff
08
fc
04
fb
06
fc
fb
03
02
f8
fd
f9
01
04
fe
fb
fb
06
09
07
fe
fd
07
fc
02
fd
fa
fc
0e
fd
fd
0a
fa
02
ff
ff
fb
06
fe
f7
01
fb
05
04
03
01
08
fd
05
05
03
fe
08
0e
01
06
04
f7
fc
00
01
08
00
0e
ff
fd
00
f4
fc
fa
03
fd
06
fc
07
02
05
04
0c
fb
08
00
fa
ff
fe
03
03
04
fe
ff
f7
06
fc
fe
03
fd
08
06
fc
f6
09
0b
02
02
fa
00
03
fb
fc
11
f3
fc
fb
fb
ff
fd
07
fc
f9
fc
fa
fd
02
00
00
f9
fa
f7
01
09
0d
f5
00
fd
ff
f4
05
04
f7
f4
fd
0a
f8
fe
fd
01
05
fb
03
03
fa
02
fd
03
fc
07
f5
fe
fa
00
f3
0b
fe
04
f7
07
01
f6
06
00
fe
fe
00
fb
03
f7
f6
05
fc
ff
04
fe
f8
03
02
fb
02
fb
09
01
ff
fa
04
f5
03
f7
04
fe
03
03
fc
fd
02
07
01
00
ff
07
ff
04
f5
02
fc
02
fe
fe
f8
fe
f8
fe
06
02
fe
fd
05
00
fb
f7
f2
fb
03
03
00
f8
f7
0d
00
f5
fb
03
02
ff
fa
ff
01
00
fa
fe
04
01
03
05
02
03
08
03
f7
04
f6
fd
01
f7
08
0b
fe
fc
01
00
01
04
01
02
01
01
f8
fd
fe
fe
02
03
08
04
05
fc
04
fd
01
01
04
0b
f6
fd
00
03
fa
fc
06
00
fd
fc
00
f7
07
f8
05
02
03
08
00
fc
04
04
02
fc
04
00
fc
fe
01
05
fd
f9
04
fd
fe
02
f7
fb
07
05
03
06
ff
fb
04
00
ff
fc
f8
fb
fc
fb
fc
f8
07
02
00
fd
fe
01
06
05
04
f7
05
fe
ff
01
f8
02
06
fd
fa
00
fe
fd
00
ff
04
fb
04
ff
02
01
fc
f7
02
05
06
08
00
01
01
f9
fd
01
05
05
00
fb
00
fd
07
06
0a
02
06
fa
03
fe
00
07
fe
04
05
07
fe
01
fa
fe
01
ff
02
fc
01
f4
fe
fd
04
fe
02
08
02
03
09
01
04
ff
06
02
ff
03
fe
fc
fb
ff
00
0a
fc
fb
fe
fe
03
ff
06
00
f9
fd
fe
fe
fe
fe
04
fc
ff
00
00
fa
fe
00
fe
05
fc
fc
06
fc
fe
ff
ff
ff
ff
fd
01
03
f9
fb
03
01
00
fb
02
00
f8
00
fd
ff
fb
ff
00
05
ff
fc
05
01
01
fa
fc
01
ff
ff
01
fc
fd
03
fc
02
fb
ff
fd
01
01
00
00
02
01
04
04
05
fb
fc
0a
fc
ff
01
02
00
01
fb
f8
05
07
03
fc
ff
05
fd
fe
f9
ff
ff
fd
07
fb
fb
f9
05
03
fa
00
fc
fe
01
ff
07
fd
02
fd
07
fc
03
07
fb
fb
03
fc
00
00
03
01
05
06
01
05
07
fb
04
fe
01
fe
00
04
07
03
01
fa
fc
05
00
fb
02
fa
fc
f7
01
fb
05
01
fa
fe
04
05
01
fe
01
fe
02
05
01
f9
03
02
00
06
03
04
f9
fc
04
05
01
04
fe
fe
03
f6
06
fa
02
ff
ff
ff
fe
f6
f9
fc
f7
01
f4
fb
02
ff
02
ff
03
02
04
06
03
fe
ff
fa
f8
fa
ff
fe
04
fa
06
01
05
fe
fe
fe
00
fb
08
fe
01
03
f3
fa
01
ff
00
03
f9
06
01
02
fe
06
05
0b
fd
fd
f6
03
03
fe
fe
fd
04
f9
03
04
02
01
fe
fd
fd
fd
04
fd
08
04
06
03
ff
01
f9
05
05
ff
03
f8
fd
fe
fe
fd
02
07
f8
05
ff
07
fc
09
f9
fc
03
f9
fe
01
02
01
01
06
fb
fc
fc
fa
00
04
04
03
02
03
ff
f9
f6
07
fc
fb
07
03
fe
01
01
fc
fd
03
02
02
00
f9
01
06
fe
fc
01
00
ff
06
03
01
fe
07
05
00
fc
f9
00
01
01
ff
08
fc
0a
00
01
06
02
fe
f9
fb
02
fe
01
05
fd
ff
02
fa
fd
ff
fc
ff
01
02
ff
06
01
fa
fe
fc
01
00
fb
04
04
ff
02
00
fe
04
f9
00
f8
fa
fe
02
03
fc
03
fb
fc
02
05
fe
ff
04
00
fb
fa
fb
0a
f6
01
07
fb
fe
f9
02
f8
fc
fd
05
07
0b
06
03
ff
fd
fe
fd
fd
fe
07
fb
ff
03
04
02
00
02
f5
04
fd
01
fe
04
00
05
fd
fb
0d
ff
ff
fb
ff
07
03
05
fe
f4
00
00
06
04
05
f9
03
fd
02
00
0b
00
09
07
fb
05
fd
fe
f9
06
fc
04
01
01
09
00
fa
08
f8
f9
fa
fa
02
fe
fe
fc
00
ff
07
04
03
02
fc
05
ff
05
ff
02
01
00
f9
02
04
02
fe
05
fc
07
fe
f4
05
01
06
05
00
03
03
05
01
f9
04
f8
fd
01
00
fc
01
f9
fb
01
ff
05
03
fd
fd
08
05
01
01
04
05
fe
fb
02
fd
06
03
06
fb
05
fc
00
fc
01
fd
07
05
ff
05
fe
fe
04
02
05
04
02
02
fe
fb
08
fb
f8
01
01
04
06
00
ff
ff
01
00
08
fe
02
fe
fb
06
07
03
01
01
02
fe
fe
00
06
02
fc
04
fe
07
00
06
04
fd
03
00
fe
01
00
fd
05
fe
fe
fe
fc
05
00
01
fc
04
02
07
ff
03
03
fa
f8
02
f6
fe
02
ff
fe
f9
fd
07
07
01
02
01
fc
fc
00
07
fd
01
fe
fe
01
05
02
07
ff
f9
ff
06
fb
fb
00
ff
0c
04
fe
04
04
ff
00
fd
fe
00
04
01
04
03
fb
fc
fd
fe
00
f8
fc
05
00
04
01
f9
f5
f9
00
01
fc
f5
04
03
00
00
01
01
07
f7
01
02
05
06
ff
02
fe
ff
fd
fb
fb
0a
fb
fe
01
06
03
fd
fd
00
fc
ff
02
f9
ff
fc
00
00
f6
f6
04
fe
09
ff
01
fa
02
fd
fc
00
04
00
04
06
03
f3
fd
fa
09
ff
06
fc
00
ff
fc
05
05
02
03
0a
04
01
fe
02
0a
00
02
04
fa
fd
02
ff
06
05
03
02
fb
fe
00
00
fe
fd
fe
fa
04
ff
fb
fd
04
ff
05
fd
00
04
00
02
01
01
01
fc
fa
fe
03
f8
00
06
fe
05
fc
f9
fd
fc
00
00
06
03
06
fd
00
fc
fd
04
fb
01
06
fe
00
fb
00
07
05
f6
04
0a
ff
f5
fe
03
05
00
fe
03
fb
00
fc
fd
02
fd
ff
02
fc
07
01
00
fd
06
ee
00
00
05
fb
f7
00
fb
f6
ff
f9
09
01
01
0d
ff
06
04
02
f9
fc
00
04
03
fc
05
fd
02
fd
f8
09
fe
fa
fb
01
03
02
f8
02
fc
05
05
03
00
06
ff
f6
09
ff
02
f7
01
02
fd
fa
03
f1
fb
01
00
04
fc
f9
fd
04
ff
02
ff
fa
03
02
03
04
fa
05
04
03
01
ff
06
f8
0c
0b
08
06
09
07
03
02
fa
fe
08
13
ff
ff
fc
f4
fd
03
0c
04
fb
00
f7
fb
fd
01
00
fa
f9
07
0d
06
fc
08
02
f8
fb
fe
0b
fe
fd
01
fd
08
02
08
ff
ff
01
fa
00
02
09
00
f7
fe
00
fe
02
00
fe
00
00
fe
05
04
fa
03
fd
fd
01
f9
00
ff
fe
01
00
ff
ff
01
fd
ff
fd
03
01
04
ff
fe
00
05
ff
fc
03
01
fe
01
03
fa
08
fe
f9
fc
03
ff
05
00
f9
00
04
fd
03
fe
04
01
fd
01
f9
fd
02
02
ff
00
02
fa
03
01
02
03
00
02
02
ff
02
f9
02
fe
05
fd
00
00
ff
ff
fb
fe
fb
04
00
03
f8
00
fc
fe
01
06
fc
02
02
fd
00
ff
01
08
03
fc
fd
ff
fa
00
00
01
fb
02
fe
ff
ff
02
03
fd
02
fe
00
04
06
02
ff
fe
fd
03
00
fc
05
fd
00
00
fc
ff
03
f9
fe
05
00
02
00
fb
05
fb
ff
10
ff
03
07
fd
02
03
03
05
fb
01
03
fd
01
00
fc
fd
03
f7
02
0a
0a
ff
08
05
00
05
04
03
00
0b
fb
09
fe
fd
fa
ff
fc
07
05
07
fe
03
fc
f9
03
fc
00
f8
fe
f4
03
00
fb
00
00
00
f9
0a
05
03
ff
fc
fc
00
00
0a
ff
ff
00
ff
06
02
fe
fa
f3
01
fe
02
03
06
00
05
04
fb
fc
fa
02
01
01
01
06
01
fe
fb
08
f8
07
06
02
01
03
04
07
03
02
08
f3
f9
02
01
02
03
00
fd
f7
00
fb
fb
07
fe
ff
fe
fc
fb
05
06
fe
02
06
01
01
03
04
02
0a
08
f8
09
07
ff
07
03
06
fa
08
fa
fd
0a
fc
0a
00
02
01
f9
01
fc
fd
08
00
02
fb
fe
ff
fd
04
ff
04
06
06
00
01
06
fd
fb
00
07
fe
03
fb
00
00
ff
fc
fd
02
f9
02
04
fe
fc
07
04
01
00
fb
02
fe
02
00
00
fe
05
06
00
ff
ff
00
01
02
fd
fe
01
fb
fc
ff
00
07
04
02
fc
ff
ff
06
ff
02
fd
01
ff
04
fa
ff
04
04
02
ff
fe
ff
fe
fd
05
04
03
02
04
02
fc
fc
fb
ff
ff
03
03
ff
05
fd
01
00
03
fa
fb
fe
fc
fb
03
02
ff
ff
fe
fd
fa
00
01
02
05
02
02
02
0a
ff
fb
fe
05
fd
01
fa
fd
02
fa
fb
00
fe
04
00
03
fc
fb
fd
04
ff
fe
fc
02
01
ff
00
03
04
03
fe
00
fe
fc
03
05
fc
05
04
02
ff
01
02
02
01
fa
00
03
07
ff
00
0b
04
fe
fe
03
fd
08
03
01
ff
05
02
fc
04
fe
ff
fa
f6
fa
00
fd
ff
0a
fe
fb
01
04
01
01
fb
03
05
fc
fa
fd
fe
01
01
05
00
00
07
fc
fd
fa
01
05
05
02
fc
06
ff
f9
fc
fd
06
07
fb
ff
ff
03
fd
fc
00
01
fc
fb
fc
04
03
03
ff
06
01
00
fe
fc
04
03
01
06
00
07
01
00
04
f3
01
03
00
08
fc
f9
04
04
05
03
00
fc
fc
fd
ff
fd
fb
fe
f9
ff
fe
fe
fc
00
04
fc
ff
fe
ff
02
04
00
07
f8
ff
04
01
fe
06
01
fe
03
fe
02
02
fa
01
fb
03
fd
fe
03
01
fb
09
00
03
04
05
02
01
01
fc
02
05
fd
01
f8
01
00
09
02
fe
03
fd
00
fe
fa
01
01
02
ff
02
ff
05
f7
00
02
fb
03
fe
00
f6
08
fe
01
06
fe
fe
fc
00
fc
ff
00
fe
01
fb
00
fa
0b
fd
00
00
01
07
0a
f8
02
01
01
03
04
03
02
05
f1
fd
00
fa
fd
03
02
00
04
00
fd
f9
f7
fe
03
05
04
fe
01
fd
f7
fb
08
ff
00
f7
03
ff
01
02
01
03
01
06
04
04
ff
01
06
03
fc
08
fb
06
01
fc
fe
00
00
06
09
fd
ff
06
01
01
f9
01
02
fa
00
02
fb
fb
05
fd
ff
08
01
fe
fb
fb
01
fc
ff
00
05
ff
01
fb
02
fa
02
fd
f9
01
03
fb
08
01
01
fd
01
f7
f9
fe
fc
05
02
ff
01
fe
fd
0a
fd
03
07
05
01
fd
fe
06
00
0c
fa
fd
03
fd
fb
01
08
03
09
fa
f8
07
06
00
06
01
00
ff
01
f6
fd
fc
01
fd
01
01
00
fc
fc
f6
00
00
02
0c
03
fe
00
fc
00
0a
fe
03
fc
01
ee
00
05
03
02
fe
f5
00
fe
00
fd
06
00
04
05
03
ff
ff
f8
fd
fd
09
fd
01
00
fc
fd
fe
05
ff
01
02
04
01
ff
ff
04
fc
fe
fb
fd
03
0d
fb
04
f3
f6
09
fd
01
04
f8
01
08
03
03
0a
fe
09
fc
02
fb
07
fc
fc
fc
fc
fe
fb
00
ff
fe
05
05
02
f8
fc
f6
fb
04
f5
f9
fd
02
f9
ff
09
01
01
f8
01
fa
fa
02
01
07
fd
03
fc
fe
0d
ff
01
01
02
00
03
00
07
03
01
04
02
fb
00
05
07
07
fa
fc
ff
01
09
f9
fb
06
ff
09
01
fb
03
03
01
03
02
fe
01
01
fe
02
00
f9
01
03
fb
fe
ff
ff
05
09
ff
00
04
fd
fc
03
00
02
03
ff
fa
ff
fc
ff
fb
f9
03
04
02
00
01
01
02
01
fe
02
04
01
fc
05
fb
ff
05
01
fd
03
fd
ff
fe
07
fd
fd
01
01
07
ff
01
07
09
f6
00
f8
02
07
00
fb
fd
02
f9
05
02
fe
04
03
fb
fc
05
0a
00
fd
ff
04
08
fd
04
00
fd
00
f8
fb
08
02
ff
fb
01
f7
01
f4
fd
0b
f8
00
02
ff
f7
fd
05
fe
f7
02
ff
fc
04
00
01
06
03
fa
04
fe
fc
ff
06
fb
fc
fb
00
fd
03
09
05
fe
fe
02
f9
02
ff
06
fd
08
05
fc
02
fe
fc
fb
fb
01
fe
fe
fd
04
04
0a
fa
04
fd
ff
03
ff
02
01
ff
fc
08
01
03
04
07
f9
fb
fc
fd
06
fd
05
0b
04
01
fe
f9
f8
06
07
05
0c
fd
f8
fe
fe
f7
0a
fe
07
05
fb
ff
06
fe
02
fd
03
fc
ff
fe
fd
07
02
03
fb
06
fd
ff
07
0d
0a
05
01
fd
fc
03
0c
fa
04
00
fa
03
0e
fa
f9
01
03
fb
01
fd
09
03
08
fc
05
00
fd
02
fc
fc
03
ff
01
04
01
f9
fd
f9
f7
03
fe
03
fa
fe
08
0c
ff
fd
01
fb
02
ff
04
f9
fb
05
05
04
01
07
02
fc
00
f7
fc
04
01
08
fd
fc
02
06
04
05
02
ff
fb
fa
fe
01
f7
04
00
fb
fc
07
04
fc
08
01
00
04
01
0c
03
ff
fb
05
07
02
f9
01
f7
ff
fe
fd
07
04
f6
02
fd
0a
05
08
0a
fd
02
04
ff
ff
07
05
05
04
04
fc
00
f8
fc
02
02
02
fe
fc
fb
ff
02
f4
03
fd
fa
fd
04
ff
03
01
fb
06
fb
fb
fa
fe
01
05
01
07
03
03
f2
07
fe
fb
fd
01
02
03
03
03
05
04
03
00
fc
fa
05
ff
05
03
03
f8
ff
08
fe
fd
ff
03
f8
02
04
06
ff
05
ff
f7
01
08
04
03
fd
fb
01
fd
ff
f9
08
00
f8
fd
fb
02
02
05
04
03
00
0c
02
05
fb
f8
07
ff
ff
05
fe
02
04
fe
fe
02
0a
04
01
ff
01
08
0b
ff
02
f9
05
03
09
06
00
01
05
f4
02
fb
06
fb
fa
fb
01
02
fd
06
fe
f8
fd
fe
02
03
00
06
02
fd
f9
04
01
04
fb
05
01
fe
0b
fc
f8
fe
02
01
07
05
fc
02
04
fb
03
04
ff
fb
fe
06
f6
04
04
ff
08
06
fa
fe
f6
01
fe
03
fe
08
05
02
f6
00
05
03
0e
01
fd
05
08
04
f7
04
ff
01
fc
07
fd
00
05
ff
01
0a
fc
fc
ff
fb
fb
07
06
06
02
fc
03
02
ff
01
ff
00
fd
ff
08
fd
ff
fd
00
fb
09
fa
02
02
06
03
fb
02
01
04
03
04
03
fa
04
fd
02
03
fc
fa
fc
03
07
04
05
f9
05
04
fc
fb
fd
fe
05
00
01
02
ff
05
fc
f8
04
fb
ff
04
05
f9
fe
fd
01
00
05
fc
0a
fa
fe
fe
f7
ff
04
07
00
01
fc
fc
08
02
f4
00
fe
00
04
01
f8
f9
04
06
04
06
02
ff
fe
ff
fc
09
f7
06
02
ff
fe
04
00
fb
00
01
07
ff
fd
00
01
fa
00
ff
00
fc
fd
f6
fa
06
fc
fa
04
03
01
ff
fe
ff
0c
ff
00
01
fb
ff
02
05
fe
ff
05
fe
00
03
00
03
06
00
05
01
05
f7
02
fc
fc
02
fc
fd
f5
f4
01
03
ff
fd
fc
f2
fa
01
03
fe
0a
07
f9
01
02
fe
ff
fd
00
04
04
fe
fc
01
09
fe
02
01
06
f3
fe
09
02
f7
02
00
02
fb
02
f8
0d
02
fa
ff
fc
f3
f8
fa
f6
05
fc
06
fe
00
00
fb
09
fe
00
01
fb
fe
01
01
08
ff
03
0d
fb
03
04
fa
fd
00
fc
02
05
fd
0a
fc
06
f9
fb
fb
02
08
ff
02
00
f5
0c
09
fc
fa
fe
f2
07
ff
0f
05
fc
fc
05
09
01
07
03
05
04
02
f8
fd
03
03
06
08
f9
fd
0a
03
fc
fa
06
ff
0e
00
02
ff
fc
00
0d
04
fc
04
f8
ff
f4
fa
fe
ff
ff
04
fc
fe
fb
fd
03
01
f7
00
08
05
07
fc
06
01
02
03
02
05
fe
05
00
f8
ff
fe
00
00
04
f8
01
0a
fd
ff
f7
05
05
f6
fe
0b
06
01
04
00
0d
f8
05
05
02
06
03
07
fe
00
fd
fd
fd
f5
09
0b
f7
00
09
fa
00
fc
02
00
10
ff
fb
03
03
fe
ff
06
fd
fd
02
05
06
01
fb
fe
00
00
ff
03
00
fc
01
06
02
f8
0a
ff
00
fd
fd
01
fe
fa
f9
ff
f4
00
08
fd
f8
01
09
04
01
00
09
fa
03
00
00
eb
ff
01
00
fb
fe
03
04
fe
fe
fa
08
fe
01
ff
fa
03
05
03
02
ff
03
fa
fc
06
fd
f9
01
fa
02
03
fe
00
03
fb
fc
06
fc
04
fe
ff
f8
02
01
02
00
01
fe
04
fc
fe
01
09
ff
03
fc
fc
07
ff
05
ff
05
fe
fd
03
fe
05
fd
04
fb
04
04
00
ff
01
02
01
fc
07
fb
f7
ff
f6
fe
fa
fe
ff
02
08
f9
03
ff
02
02
05
00
fb
fd
04
fa
03
00
07
fa
f7
02
fc
04
01
0a
fa
f7
03
fd
fd
00
fe
fd
fb
07
fd
07
05
fa
04
fe
00
f9
06
f2
f8
f8
09
ff
fc
f8
00
07
ff
03
09
09
08
06
fb
fb
0b
00
02
fc
fc
fe
ff
00
00
04
00
fb
00
02
fe
fe
fe
06
fd
ff
fb
01
ff
01
f6
ff
02
04
00
01
00
01
01
fa
f6
03
fd
02
07
ff
fb
03
00
ff
fc
06
02
03
04
09
fe
04
02
06
06
fd
ff
04
01
fb
fe
04
07
fc
fc
07
ff
fb
08
03
01
fd
02
00
fd
06
fb
00
fb
04
fc
02
f9
fa
01
f9
fc
fd
fe
01
02
00
08
06
01
fc
00
03
02
fc
03
05
00
00
00
fd
ff
08
01
fd
00
ff
fe
fe
00
05
01
fc
fb
04
f6
f4
f8
fc
f9
04
03
fb
fe
08
fc
02
07
03
fb
07
ff
fd
fa
fd
fd
fd
fd
fc
06
fc
fc
04
fb
ff
00
fc
f5
04
05
04
fb
f8
ff
f7
00
f9
ff
00
00
00
f9
08
f6
02
fe
fb
f8
ff
f5
ff
ff
fe
fd
fa
01
02
fd
04
03
ff
ff
ff
00
00
fa
02
02
09
f7
00
01
03
01
0a
06
f8
fc
fd
f8
00
fe
03
01
fa
02
07
08
fd
07
fe
fe
03
02
0b
fb
fc
f7
02
03
ff
fc
fc
fb
f8
fe
04
02
03
fc
fa
f9
fb
02
f8
fc
fb
01
05
00
01
05
0c
00
fe
f6
00
ff
08
02
fc
07
fb
05
06
fa
04
fc
fa
fa
ff
fc
07
fe
00
06
0c
02
07
f9
01
f9
07
fe
fd
fb
06
01
05
fe
fe
05
01
f8
00
ff
f6
fb
00
05
04
f5
03
05
00
05
05
fb
03
fb
08
fe
01
01
01
fe
04
02
0a
09
ff
0b
ff
01
02
f8
02
00
f9
09
08
07
f8
07
0a
06
0a
00
fc
03
04
fe
f6
02
fe
03
fd
00
03
fc
0f
03
fe
03
02
06
fb
0b
fe
03
fb
fc
00
00
ff
00
04
01
fd
06
fa
f9
02
00
ff
02
fd
00
fc
ff
fb
02
ff
fc
03
04
0a
02
fb
fb
fc
04
f7
04
ff
01
fb
ff
06
fe
07
fd
f8
08
01
04
04
09
f5
fd
f9
f9
01
03
08
0c
fa
fe
02
02
f4
02
0b
fd
fc
fd
08
06
05
00
08
02
03
02
02
01
fc
02
ff
03
03
ff
06
05
02
ff
fd
01
fa
ff
ff
04
03
f9
04
00
fe
08
fd
00
01
f9
06
02
04
ff
04
03
fa
ff
fd
08
09
06
f7
0a
07
03
f9
02
00
f8
03
04
fe
ff
00
fa
fa
06
00
05
ff
fc
01
fd
fc
08
fc
ff
fe
00
04
ff
fc
02
fe
fc
05
ff
f8
00
fe
fb
05
06
01
f7
00
f7
05
fb
01
ff
fb
ff
f4
f7
fe
04
05
08
fd
01
01
fc
fd
fd
fc
02
04
07
07
fe
03
05
fe
03
09
09
fb
fe
08
05
03
fc
02
01
fe
05
f8
03
05
ff
f6
02
fa
09
fd
05
fd
f8
06
05
00
06
fc
00
03
ff
fa
04
00
01
fe
fc
04
05
fb
fe
fc
04
ff
09
02
03
01
f2
fd
05
fb
02
fa
fe
03
00
02
fb
05
fb
f8
01
00
00
00
00
ff
fa
ff
ff
04
ff
01
fe
05
fa
02
fc
f8
01
fc
05
fd
ff
fc
fe
02
f7
00
fc
fc
08
fe
f9
f9
02
04
01
f7
ff
f9
03
02
fa
08
03
ff
fd
00
fd
00
03
fc
02
ff
fe
04
fc
fd
fe
02
fe
fa
00
fc
fd
01
fe
fd
fc
06
fd
00
04
02
07
01
f7
01
fc
fe
ff
04
fa
01
04
01
07
06
03
fb
ff
01
fe
03
ff
fe
ff
01
02
00
fc
01
ff
06
01
05
fe
07
fe
fe
fb
fc
ff
03
02
fe
f7
01
08
05
fe
01
ff
03
00
02
03
06
01
fa
ff
0a
00
fc
fd
00
ff
fc
fd
03
ff
fd
fe
f9
01
00
01
ff
fc
01
06
fc
04
02
0b
f9
ff
04
fd
ff
03
fa
fd
04
02
11
03
fe
08
fd
01
fe
07
05
fb
00
f9
0a
fc
00
fc
fd
0c
03
fc
fb
00
fc
fb
02
06
06
01
02
06
ff
07
fc
fe
06
ff
f8
fb
f6
fb
01
00
08
03
00
fe
fb
07
ff
06
fe
08
01
ff
fe
04
02
03
fc
09
02
06
fb
01
0a
fc
0d
ff
03
04
f6
04
fd
08
05
ff
fb
fd
01
01
02
0a
f8
fa
02
01
ff
03
03
06
fe
fc
03
ff
01
06
fd
fe
ff
fb
fd
0b
03
fa
00
07
fd
01
06
03
00
ff
04
fa
08
fb
00
fd
fd
01
fe
04
f7
01
0a
03
04
07
02
fb
fe
02
09
05
fa
02
fd
fd
03
fa
fd
02
fd
fe
03
fe
f8
02
06
02
02
ff
08
f2
05
0a
fe
fc
0d
fe
ff
fe
05
f6
01
f7
00
03
fc
01
06
06
f4
04
f4
01
00
fc
f9
08
ff
06
fa
01
05
f7
ff
04
ff
01
ff
fc
ff
00
02
00
0a
02
fc
06
ff
ff
fd
02
fd
01
01
fd
02
ff
00
00
00
03
fe
f7
05
02
02
f5
fa
01
00
02
fe
00
04
02
01
fd
fc
02
fa
ff
fa
05
06
fc
04
06
03
f9
03
ff
00
ff
ff
fd
f9
fd
f9
01
fb
f9
04
01
05
03
ff
05
09
fd
07
00
fd
00
fb
03
00
fc
f7
f8
01
05
fc
09
04
fd
02
fe
fd
0b
08
fe
01
ff
06
f5
05
fd
ff
01
fd
00
02
ff
fa
fe
f8
f8
f7
08
03
fe
01
ff
03
07
00
fc
ff
01
0a
02
fd
01
02
00
04
04
01
f8
05
06
05
fc
03
04
04
fe
fe
fb
fb
02
0b
01
fe
00
04
02
ff
fe
01
05
ff
02
fb
ff
f7
06
03
00
fc
f4
03
02
0b
f6
01
05
02
fc
fe
fc
03
04
fe
f7
05
fb
02
00
fd
fd
04
03
ff
fc
fc
fe
06
ff
fe
fa
fb
f6
02
ff
06
07
00
ff
03
ff
fc
02
07
01
02
fb
01
02
00
00
00
04
fb
fd
ff
fd
04
00
fc
ff
04
fb
05
fa
01
02
05
ff
03
05
09
f9
00
fc
01
05
02
02
00
07
02
fb
fd
05
05
05
fe
fd
fc
fe
04
fc
01
fa
00
ff
f6
fd
fc
00
02
02
fe
00
fa
00
02
02
00
ff
00
fb
ff
fd
03
04
fd
fe
05
03
f9
01
fa
fb
fb
02
fe
fc
00
02
03
01
fa
03
fe
fe
fb
00
02
ff
fc
ff
fe
00
01
03
ff
00
00
02
01
04
03
ff
00
ff
03
03
ff
fa
fb
0a
fc
ff
04
fb
ff
fc
fc
01
0a
05
ff
02
03
03
03
04
fa
fc
07
02
f6
fb
fc
06
ff
03
fd
01
fc
fc
ff
03
fc
fe
fd
02
01
fc
fa
05
ff
ef
04
05
fb
00
02
fe
ff
05
fe
ff
ff
fc
fb
03
fa
02
fc
05
fe
fc
fe
02
01
07
05
03
03
fc
fc
00
fd
06
03
ff
fb
fd
03
01
f8
fa
ff
02
fe
06
04
fa
fb
01
05
05
f8
fe
fc
05
ff
00
01
00
f8
fe
06
02
f9
06
f4
02
01
04
00
03
02
01
ee
f8
01
0a
0c
01
02
04
fc
05
fe
ff
fd
f7
fd
03
f3
fd
07
07
fd
05
07
06
08
f7
00
ff
03
fa
f2
03
fd
fb
f9
f7
0a
00
fd
f5
09
f8
fc
04
ff
00
ff
09
01
07
03
f9
f9
fe
fd
06
fd
05
f3
04
fc
06
fd
01
01
f7
02
0a
fa
fe
f8
02
f5
06
03
00
fe
fe
fb
fd
07
fe
01
04
04
03
f8
04
02
00
04
06
fc
05
fd
f9
fe
04
fa
00
ff
08
fe
fe
04
02
fa
f6
fd
07
fe
01
09
f9
03
02
fb
07
02
ff
02
ff
fc
f6
0b
07
f9
f9
fc
04
03
f8
fb
f5
00
fb
f6
02
ff
06
00
fb
fe
fc
f8
f9
f9
09
04
ff
fd
05
fb
06
fa
fe
fe
f6
ff
fe
fd
04
03
f8
fe
01
06
fa
05
00
ff
02
02
05
04
01
01
07
01
ff
fa
00
00
fc
f5
00
fe
00
04
03
fe
06
f8
f9
fb
01
06
03
02
fe
fa
fd
f9
04
01
01
01
fe
fc
fe
fa
fe
09
fc
02
02
01
f9
01
01
ff
fb
ff
fe
fd
02
08
fe
fa
03
fb
06
02
ff
05
02
07
00
00
04
00
ff
ff
f8
fc
06
02
f9
01
03
02
04
02
fe
02
ff
fe
ff
05
05
fe
fe
01
04
ff
01
00
ff
fc
fc
04
04
05
fc
fe
05
07
06
01
05
fd
fd
fa
ff
03
fb
fe
fb
fa
01
fe
03
f9
fc
00
04
04
fb
00
01
fe
00
05
03
ff
fe
fa
02
fd
02
fe
08
fe
03
03
00
02
05
05
02
06
01
fc
fa
01
f9
00
ff
00
02
01
fc
03
f3
fc
01
05
00
f8
03
00
03
fc
02
03
fd
06
06
fb
01
fe
06
03
fb
fe
08
ff
03
05
fa
02
fc
03
02
f8
f6
f8
fa
f9
fc
05
fb
fe
fe
fb
01
fe
fb
fc
09
06
03
00
01
0b
01
fb
04
fe
00
fb
06
01
fd
01
01
f9
08
fb
00
03
fd
ff
fd
fa
03
fe
04
fd
08
04
f6
07
ff
07
fa
01
04
fd
02
fc
fd
fd
05
fe
04
fe
00
fe
06
00
fb
0a
03
f3
fa
01
01
00
fa
fc
fe
03
ff
02
03
05
04
fd
f4
06
04
06
fe
f9
f9
fb
02
04
00
05
fc
fc
ff
02
f8
01
00
06
02
ff
ff
fc
f7
02
ff
09
01
06
ff
fe
fd
ff
0b
02
ff
fb
f7
fd
fd
fb
04
f7
01
04
f9
02
fd
f9
04
0b
03
05
08
fd
ff
f8
f8
ff
01
00
ff
ff
ff
03
00
00
f9
f5
ff
05
05
07
fe
03
fd
01
06
f6
05
06
fe
fb
01
fc
06
02
fb
08
ff
00
0a
03
00
fd
ff
05
fe
02
fb
00
07
05
ff
06
06
00
02
03
f8
00
05
fe
04
fd
ff
03
f8
f8
fb
fd
0a
01
00
f4
03
00
fc
09
00
07
f3
fe
fa
02
01
05
05
f3
fb
00
f9
f8
03
03
03
fa
0a
05
fa
fe
0d
04
02
01
ff
fe
fa
01
03
01
f7
fd
00
09
00
f6
fe
03
0a
05
0a
f5
02
fb
fd
0a
ff
01
fa
06
01
fe
ff
00
f7
05
01
01
fb
00
04
fb
04
02
0a
f9
fe
01
01
fe
fe
05
fb
01
01
00
f7
ff
0e
0a
ff
02
05
08
01
03
05
f7
f6
01
00
fe
fe
fd
fc
01
04
fd
02
fb
02
01
04
fd
fc
06
02
f4
fb
00
04
ff
fc
fb
07
00
fe
fa
f9
ff
ff
fe
ff
08
fc
fa
0b
ff
fd
fb
03
ff
04
06
fc
fb
fa
fa
02
05
f9
fd
03
fc
fc
01
04
05
ff
fe
fd
ff
fc
02
02
ff
05
f0
08
f8
00
01
01
fc
04
07
03
05
08
05
03
fc
05
06
05
0c
00
fe
fc
f9
01
05
00
09
ff
f7
08
ff
01
06
01
01
04
07
fe
06
f8
f3
01
04
03
04
fc
fe
05
04
06
0b
fe
fd
f7
08
fe
f8
f9
08
f9
02
06
05
03
fb
00
01
fd
03
f9
fc
ff
02
03
fd
03
07
01
00
00
fe
01
fb
01
00
00
04
01
ff
05
fe
fc
03
03
fc
01
04
00
fe
02
01
08
01
fa
05
01
ff
fb
fe
fc
fc
07
03
05
fb
00
f6
01
fa
fd
07
f7
01
fc
ff
01
04
05
09
fd
fe
fe
02
fb
02
fb
f8
08
ff
ff
ff
f6
03
0a
04
fe
f5
01
00
f8
04
02
02
fe
fe
04
fe
fe
04
fe
fd
00
01
04
06
fc
fe
00
09
03
ff
03
01
02
fe
fd
02
ff
00
03
06
00
04
09
fe
03
fa
fb
07
ff
fb
fc
03
06
ff
06
07
05
fb
f5
03
fc
fa
03
03
00
fa
00
08
03
ff
ff
02
04
00
fd
00
fe
00
fd
07
03
0b
fd
01
fb
00
fe
fe
05
08
fc
03
01
04
f6
00
00
01
fe
fb
04
02
06
fb
fb
fe
0b
04
f9
ff
03
02
fa
01
fe
fb
02
01
ff
fd
fe
05
02
05
fe
fe
fc
fd
ff
02
02
02
fd
fc
fe
01
00
fa
01
fe
fe
04
03
06
ff
fe
fe
fd
06
03
ff
06
06
f9
01
ff
fb
fa
06
fe
02
fb
06
fa
f9
f8
fe
08
02
ff
f8
fc
fe
07
04
fa
05
03
06
02
fb
fe
04
fb
01
fd
fc
fd
01
01
f9
05
03
00
00
ee
00
02
fb
fb
f6
f4
f9
06
02
f9
05
fd
02
fc
ff
01
01
09
fa
f9
04
fd
05
ff
01
02
f8
03
03
01
fe
fe
01
01
05
fd
fe
03
fb
07
fd
03
03
03
03
fd
fc
05
0b
05
ff
08
02
ff
ff
ff
01
05
01
fe
08
ff
fc
02
ff
f7
01
fd
fa
00
fd
f9
02
0d
fd
00
01
08
fb
ff
fc
05
00
02
06
fa
00
05
00
fc
06
07
03
fe
05
ff
00
00
02
02
04
01
fe
00
00
fe
02
fe
fc
06
fe
08
fc
fc
ff
fc
fc
02
05
00
03
06
fc
04
f8
02
04
05
06
fb
fb
f7
fe
02
05
fe
ff
04
03
ff
fc
ff
00
fa
00
f9
06
f9
fe
00
03
fe
04
01
01
03
00
02
fb
01
06
02
fd
02
fb
07
01
f8
fa
05
fd
f8
f7
ff
03
05
01
fb
fa
fe
fe
fd
fd
fd
01
f9
ff
06
fe
06
04
fe
fa
01
fa
f9
03
fa
0d
fc
f9
03
08
0c
00
03
05
06
f8
fd
fd
02
08
02
f7
fd
fc
06
f5
01
0a
03
08
fb
00
06
fe
fc
fb
05
ff
04
03
fd
01
f6
06
fa
f4
fe
04
02
f9
03
fb
04
02
fc
f7
fa
fd
fb
03
fd
01
03
06
00
fe
04
05
01
fc
f5
0f
fd
fe
01
0a
fe
04
fb
ff
fb
fc
fc
02
fd
f2
fb
fd
ff
01
f5
fc
09
fd
fc
fd
fd
02
01
02
07
08
00
f5
04
fa
04
f7
fc
00
fe
01
f8
fe
f9
03
fd
03
fe
01
fa
03
05
fd
04
07
f8
f8
02
fa
00
f9
f7
f6
09
02
fc
0a
05
fb
f7
fd
08
01
07
f6
ff
fe
00
fd
fe
01
03
f8
01
f9
fd
ff
00
00
05
fc
09
00
03
fa
ff
02
fc
01
fb
04
fd
fe
02
fb
ff
02
0a
00
01
fe
02
06
02
fa
fb
03
f8
03
00
03
f7
ff
ff
ff
02
ff
02
04
06
00
08
fd
02
f8
04
fd
02
00
02
fd
00
05
ff
f5
fc
ff
f8
f9
fb
fb
ff
fd
fa
05
05
05
06
fa
fd
07
04
00
09
fe
fe
f9
fe
fa
06
05
06
fc
fe
fd
fc
ff
04
ff
01
05
03
0c
ff
02
fe
08
f6
fd
fc
ff
fe
02
06
ff
fe
05
fe
fc
ff
07
fb
05
fc
fb
06
f7
f4
05
02
f9
fe
05
03
01
f9
06
0b
fa
00
fd
fd
ff
fe
00
04
01
fe
02
fb
06
09
00
f9
f5
f8
01
03
04
02
fe
ff
02
00
05
05
06
fb
fb
06
fd
fb
fe
f8
ff
fd
ff
07
03
01
05
01
04
f9
01
fd
01
09
ff
00
fc
03
07
fb
09
06
ff
fd
fd
ff
05
02
02
08
02
ff
fa
02
fe
03
04
fb
fd
02
05
03
06
fc
02
fe
fa
05
00
04
f9
0d
03
fc
03
fe
07
08
fd
01
00
01
06
ff
f9
02
05
ff
01
00
00
07
03
ff
01
fd
00
fe
fc
08
02
f8
05
00
01
00
fd
01
02
fc
fb
f9
fc
fb
04
02
09
f8
fc
00
03
fd
fd
00
fa
fd
04
fe
02
fc
fe
02
00
fd
06
f2
fd
fc
ff
fc
f9
03
02
fa
04
00
fd
00
0c
05
fb
fd
ff
00
fd
ff
06
00
f5
f6
ff
fe
00
f6
f8
0a
02
03
06
02
05
05
02
03
02
01
04
fd
f7
03
01
fd
01
01
fe
01
fc
03
02
05
01
00
fe
01
fe
fc
fc
fe
00
f9
ff
08
fe
fe
fe
fd
08
01
09
ff
fe
fa
0b
00
fe
ff
04
0c
01
f6
00
fe
fb
f9
f5
fd
01
05
fe
fc
fd
0b
04
fd
0b
01
fd
fa
fd
fe
fe
fd
07
ff
fb
f7
fd
fb
fa
01
fb
00
fd
03
fd
08
fd
02
01
02
f9
08
f8
03
01
03
ff
ff
f6
f2
05
01
03
02
01
fe
05
ff
03
03
04
fe
fc
fe
fe
01
fd
02
05
ff
fc
07
00
00
07
09
ff
02
fc
00
fe
09
01
fd
06
f6
fd
f7
04
fd
06
f8
f9
04
01
06
04
fe
ff
f9
00
01
fd
02
f6
fc
fd
02
0a
f1
02
03
01
03
07
04
fd
fd
fe
06
04
01
00
05
fd
0a
03
05
05
07
ff
ff
02
03
0a
01
01
ff
fb
03
ff
04
06
02
02
fe
fe
04
fb
fb
f9
fe
fb
01
02
fb
ff
ff
07
fb
fc
07
04
06
03
03
00
03
ff
ff
fd
fd
f6
fd
fa
fd
ff
02
07
fe
fa
fe
07
05
f6
00
03
06
f8
f8
03
00
04
fe
01
01
00
fd
00
f8
fd
fd
06
01
03
f8
02
fc
ff
fc
03
03
04
04
01
01
ff
07
fa
04
03
00
fd
02
fc
fb
06
fc
03
fd
01
fc
00
00
01
00
06
ff
01
07
03
fc
f8
02
f8
00
01
fb
fd
00
fe
fd
fb
05
ff
fe
f5
03
08
fe
00
fe
04
ff
00
00
01
01
fb
fe
fd
04
01
fd
01
09
00
01
03
00
fc
ff
03
ff
02
fc
08
f7
fc
01
03
fd
03
09
fe
09
04
00
05
02
06
fb
fa
fe
ff
05
ff
00
fc
05
fe
04
fa
04
06
00
fa
fc
fe
04
ff
fa
05
02
00
06
fc
f7
ff
fc
fd
0a
ff
ff
04
ff
01
05
fb
05
09
ff
03
fe
fd
fe
f8
fb
05
05
00
fe
01
fa
06
ff
03
fd
09
f9
fe
ff
f9
02
fb
01
07
04
01
fd
00
00
03
07
06
06
01
fe
ff
00
fc
ff
00
fd
04
07
09
fe
06
00
0c
f8
fd
fb
fc
00
02
fc
03
01
00
01
05
fb
01
f6
ff
02
ff
06
f5
03
fd
fc
f7
03
ff
fb
fa
ff
fd
ff
04
07
02
04
fd
04
01
00
00
fe
05
fa
06
02
fb
06
fd
07
ff
fb
04
f6
07
ff
fe
01
f9
08
06
04
f9
fd
04
01
ff
fe
00
fc
fb
01
fe
fc
fd
02
fd
fb
fd
01
00
fc
00
f6
04
07
fa
fe
01
07
01
03
fe
fa
07
05
07
00
05
00
fa
01
ff
06
fe
fd
00
fb
06
01
00
ff
fe
01
04
f9
05
01
ff
03
f8
00
ff
01
fc
ff
fd
fd
fc
ff
01
00
ff
05
01
08
fe
06
03
01
05
01
03
fd
02
06
04
fe
ff
07
04
01
fe
fb
00
fa
01
01
fd
00
02
06
03
f6
06
03
08
00
fd
04
ff
04
fb
03
02
fd
fb
07
f9
fb
00
03
05
fc
fc
fb
05
07
ff
00
ff
05
02
09
00
ff
03
00
09
06
fd
03
f9
fa
fa
02
f5
fe
03
fa
05
fb
05
06
00
fa
fd
01
04
02
00
ff
fb
ee
02
03
04
ff
02
00
fa
01
02
f3
ff
01
01
09
fa
fa
06
04
01
08
f5
fd
05
fe
fe
f7
ff
03
fd
01
02
ff
fb
08
01
0a
07
fd
00
03
fb
02
02
ff
fb
f6
fd
fd
f8
01
ff
00
fc
01
08
00
04
ff
05
f9
07
fe
02
fc
04
00
fa
00
0a
00
fd
f9
02
00
01
06
f9
02
fe
01
fa
01
03
fd
04
01
01
fa
01
03
fc
f8
f7
00
fe
01
02
04
fd
03
fb
fa
fd
fd
03
ff
fe
ff
03
fe
ff
02
fe
ff
fc
06
07
fd
08
ff
01
00
fa
01
02
02
ff
07
fc
fe
ff
09
04
01
f9
00
00
fc
08
06
01
00
03
fd
fd
02
f9
04
00
ff
01
03
fe
05
02
fe
00
ff
fc
ff
ff
08
fc
00
00
02
fb
07
fd
fa
05
fc
01
06
00
04
f9
fe
09
04
00
f9
ff
fd
00
f8
ff
ff
03
ff
03
fd
f9
05
fe
05
f9
fe
ff
00
fc
01
01
ff
00
00
ff
02
02
fb
01
f8
03
09
fb
ff
00
fa
ff
f7
02
fd
01
03
00
fa
fd
02
ff
02
08
fc
03
00
fd
fd
ff
fd
fc
06
ff
02
08
fd
fc
02
01
fb
ff
02
ff
fe
01
f5
03
fb
00
03
ff
00
ff
04
05
fa
fc
fe
fd
fc
fa
fd
f8
fb
00
fb
fa
ff
05
fa
00
02
00
03
fa
ff
00
09
02
01
00
ff
fd
01
01
03
f8
01
03
fd
00
03
02
08
04
00
02
01
fe
08
fa
fd
07
ff
fe
ff
06
04
00
fe
06
03
f9
fc
fa
09
fd
f7
02
07
fe
f4
06
fc
02
fe
fe
04
01
00
ff
0a
f8
05
fa
09
05
04
00
04
02
fd
fd
fe
fb
01
07
fc
05
05
07
fb
08
07
00
fd
fe
00
07
00
02
03
fd
fb
03
0a
01
fa
00
ff
fa
02
04
0a
fe
04
ff
fb
04
fe
f9
04
06
02
fc
fd
f2
fa
ff
fc
fd
fb
fe
00
07
fb
fd
00
03
f5
05
fb
fc
05
fd
03
09
fb
0a
00
fa
ff
09
06
fc
ff
07
04
06
09
f6
06
fc
fe
03
02
fa
f6
04
ff
f0
01
04
00
0c
fc
06
fd
f8
f6
01
09
09
fb
02
05
01
ff
0b
03
fc
f7
07
fb
00
fc
06
fe
0b
fe
01
03
ff
07
00
02
ff
02
fe
02
00
01
07
06
fd
fb
ff
00
fb
fd
ff
ff
03
00
00
09
03
00
04
08
01
00
fd
fd
02
f9
01
f8
fd
fb
07
04
04
08
f9
04
fd
02
fa
fb
fd
01
ff
ff
fd
fd
fa
fc
fb
ff
01
fe
fe
fe
02
05
04
ff
02
00
02
fc
08
ff
00
fc
00
f9
00
03
01
02
fe
f6
05
03
03
fb
07
00
04
01
fa
00
03
03
fd
01
fe
09
fd
fc
01
ff
01
f9
fe
fa
01
fc
01
fc
02
ff
02
fd
fd
ff
02
f4
f6
02
f7
02
ff
fb
00
03
00
fe
05
02
01
fd
fc
fe
04
00
f6
fe
ff
fb
ff
ff
fe
ff
f5
00
f8
00
f8
07
05
04
f6
01
00
fc
fd
f9
fe
fa
fa
fd
00
04
09
05
03
f3
01
fe
fb
02
ff
fb
fc
02
07
02
f9
02
fe
fb
fa
fe
05
ff
fb
ff
04
08
00
06
08
01
ff
fd
06
03
0b
00
fc
09
f9
04
01
fe
04
0c
0c
ff
04
08
02
03
0a
00
fb
08
fe
fd
fa
fa
00
00
fe
ff
fd
01
01
ff
01
04
ff
01
02
02
05
fb
f8
00
03
00
00
06
fe
fe
01
fb
fe
ff
02
fd
13
fd
00
05
fe
fd
00
fb
fb
01
0a
04
03
fa
fe
07
fb
fc
fd
02
03
fd
00
04
06
04
fd
fe
fe
f0
02
04
04
f3
fe
fc
f7
00
03
01
00
05
04
01
04
f2
00
08
0a
fc
f8
08
04
fb
08
05
fd
fb
fe
fd
ff
ff
ff
fe
04
00
fa
06
00
00
06
ff
03
06
02
ff
04
06
fd
03
02
fa
fe
f3
04
fd
f5
ff
fe
00
04
f2
03
02
04
03
02
00
fd
02
fe
04
fa
04
08
fe
f9
ff
f8
f6
00
03
ff
00
01
09
05
0d
f9
ff
03
00
05
0b
fd
fd
fe
fb
01
00
fd
fb
00
03
ff
fd
f4
02
fd
08
f8
04
02
02
ff
06
f9
fe
fd
0a
01
fd
f7
f6
04
04
01
00
fe
02
ff
f7
08
fd
06
02
04
06
05
01
fe
05
02
00
fe
03
04
01
fd
04
02
03
ff
06
07
04
00
f7
04
fa
f7
06
00
01
06
fb
fe
01
fe
ff
0d
fc
03
00
fd
01
01
03
fb
ff
05
05
03
fc
03
01
f9
ff
01
01
02
01
fc
00
03
fe
fc
07
0c
fc
0d
fd
fa
fc
01
fc
05
01
f6
fb
04
00
05
04
01
04
f9
fc
0a
fd
fb
0a
06
06
08
02
02
02
02
03
fd
ff
f6
02
05
ff
02
04
04
ff
fc
01
fe
fa
f9
0f
fe
fc
08
04
06
03
fb
f9
03
ff
06
fa
fc
00
fe
fd
fc
00
fb
04
ff
04
fa
05
02
fe
02
fb
fa
f9
fb
f6
fd
01
02
02
00
01
01
f9
ff
0b
03
fc
05
fb
07
fa
ff
00
07
03
f9
03
02
01
03
04
01
fd
fd
00
ff
fa
03
fe
02
fd
fe
04
03
00
03
ff
04
ff
05
03
f9
02
f7
05
04
08
05
07
fc
ff
fb
00
05
fe
f6
01
ff
09
ff
02
01
01
07
03
ff
03
00
fe
01
fd
fc
00
03
fc
f8
02
00
f3
f9
01
01
08
03
fa
fd
02
00
01
01
fb
01
ef
00
ff
fd
ff
fb
ef
ff
02
02
fa
f8
fe
fe
06
02
04
0a
00
00
08
f6
00
fd
fe
f9
00
02
f6
fe
01
09
05
03
01
08
f8
ff
0c
fd
fd
04
f2
09
06
fa
f9
02
00
04
fd
03
09
00
f7
fd
f9
00
f9
07
07
02
05
f9
fd
04
fb
fc
fc
00
07
03
00
fa
00
03
07
08
00
03
fd
f9
02
0b
04
00
fc
02
01
07
00
01
fe
fc
0a
fc
fd
ff
02
fd
06
fe
fb
f9
05
ff
ff
00
fb
f9
07
fc
04
f8
ff
f9
fa
fc
01
f5
07
fc
09
0a
05
fd
00
0c
02
f8
03
fa
04
02
fd
ff
00
fd
fb
07
01
0b
04
fb
fe
fd
fa
fe
ff
f7
fe
08
05
fb
00
fe
00
fe
fd
00
00
02
02
fe
fa
ff
fb
00
fd
f1
fe
02
03
fd
0b
ff
fd
01
ff
00
fa
ff
04
01
fe
05
03
06
03
04
fd
02
fe
01
fb
ff
fc
04
04
ff
05
04
00
00
fd
0b
04
01
03
f9
01
0a
04
f9
fc
03
fc
00
fb
fe
fe
03
fc
00
01
fc
ff
09
09
fd
ff
01
fe
01
02
f7
07
00
ff
05
fc
fe
ff
03
09
00
fd
01
05
02
03
03
00
fe
00
fd
01
0e
02
ff
06
06
02
fe
fc
fe
04
f9
fd
ff
02
02
fd
03
02
01
02
0a
f7
00
f9
fc
08
03
fb
fb
fc
01
ff
06
04
02
00
ff
00
01
fb
07
03
00
06
08
f7
fb
05
04
02
f4
08
fc
fe
06
03
01
07
00
fd
f2
02
fa
04
05
f7
03
09
ff
fc
04
ff
03
fa
00
04
05
f9
fd
ff
fc
00
06
ff
fe
f6
ff
06
00
f8
06
fd
ff
ff
01
fe
fe
03
00
fc
05
00
05
06
06
fc
fd
fb
05
02
02
02
f7
ff
fe
fd
fd
03
ff
ff
fd
fc
01
0d
fd
00
fc
06
03
fe
ff
ff
00
f6
f9
04
fb
02
00
05
02
08
0a
00
07
f8
fe
01
fc
fe
fb
f6
03
01
fb
00
04
fd
03
03
01
03
03
02
01
01
ff
f7
01
fe
03
f9
03
fe
fd
ef
f8
fb
fd
05
02
07
fb
f8
fe
11
01
00
04
fc
03
fc
05
06
f2
fd
fd
fb
06
fb
03
fd
fc
09
f8
fe
06
07
06
00
02
03
08
02
00
02
fc
fb
ff
fa
00
ff
fb
01
00
07
05
03
fd
07
fe
f9
02
fb
07
f9
00
02
f7
05
08
fb
ff
fb
fb
03
ff
fe
04
fd
fb
00
04
07
fb
01
ff
fd
06
00
03
02
fe
ff
fe
fe
ff
ff
01
03
fe
f5
fc
08
05
04
01
fc
fe
f7
01
f9
01
03
04
fa
03
f4
fd
06
07
01
05
f9
01
01
00
06
f9
fd
fc
0c
ff
01
fb
01
01
02
00
02
f9
fa
01
fe
ff
05
06
01
09
02
fa
ff
fa
ff
fc
03
00
fe
fc
04
fe
02
01
fd
ff
ff
07
04
fb
fe
00
fe
fe
fd
01
02
f9
f9
02
fc
02
ff
fe
02
fb
02
02
02
08
04
0b
f5
03
fe
00
03
ff
01
02
06
fc
01
0b
02
fc
fd
f6
01
f9
05
02
f3
fd
fa
fc
00
02
04
f9
03
fc
00
fe
01
04
02
06
02
01
07
fb
fc
fb
fd
01
fe
f8
03
f6
ff
fd
fd
00
02
02
00
09
ff
00
01
fc
01
01
fc
04
ff
09
0b
fc
fd
07
02
08
fe
01
01
05
02
fd
00
fe
fc
08
00
02
02
ff
f9
fe
02
01
fb
02
00
07
00
09
00
03
03
05
07
fc
05
03
01
07
09
01
06
fd
07
0d
fc
00
00
ff
04
fd
02
fe
fb
f3
fd
fb
03
fd
01
fe
06
03
00
fd
03
fc
05
00
09
f9
f4
fc
fd
ff
08
01
ff
09
fb
fc
02
ff
fd
fc
02
08
fb
ff
05
00
02
00
fc
f6
02
08
02
fd
fd
ff
f5
fa
ff
04
fc
02
fd
fd
07
fe
04
fc
ff
00
f2
fb
fd
f7
04
f7
ff
03
fd
fd
fc
fb
f9
0b
00
ff
ff
02
04
01
fc
fc
00
fc
05
ff
f9
02
fc
f9
00
01
00
01
01
03
f8
00
09
03
03
04
fd
04
00
f3
f3
fb
ff
02
03
fb
01
05
02
fe
fd
fe
00
ff
0c
fd
05
fe
04
04
fd
01
ff
03
ff
01
01
01
ff
fd
07
06
06
02
fe
fb
02
06
05
fe
fe
fc
fc
07
03
02
fc
f9
f7
04
03
03
08
f6
01
ff
00
fe
fe
01
01
fb
02
fb
03
06
01
fa
ff
fe
f9
fd
fe
fe
09
05
08
06
01
fe
09
06
01
ff
01
ff
ff
01
fd
ff
06
04
01
05
01
fe
02
01
fe
02
06
f7
fe
ff
00
fb
01
fd
0b
fb
fe
fd
fb
02
fe
fb
02
fd
04
ff
fd
fb
ff
fa
00
00
01
02
01
04
01
fb
06
04
fe
ff
ff
fb
fa
fb
fb
02
fd
fb
02
03
ff
02
07
03
02
f9
fe
08
01
06
02
00
07
03
fb
02
06
06
f9
f7
fe
05
08
fa
06
03
04
02
f8
ff
01
00
04
fd
fb
ff
ff
01
00
f7
02
07
00
00
03
01
fe
04
00
00
01
fb
07
fc
06
fa
07
fe
03
f5
fd
01
01
fe
fd
fe
fe
05
03
fc
03
fe
fb
f9
02
02
04
fb
fe
01
04
ff
04
ff
00
fc
02
07
03
f9
fe
05
02
fe
02
ff
ff
00
04
02
ff
fc
00
ff
01
00
0d
ff
ff
fe
fe
f6
03
fd
fd
01
fb
f7
fd
ff
06
03
fb
fc
f9
01
ef
05
01
fe
08
02
04
fa
02
00
fc
f2
fb
08
09
07
ff
ff
0d
fc
06
00
fb
06
0a
fe
01
fe
ff
04
fe
fe
fe
ff
fd
fa
fd
f5
00
0e
f9
fe
fc
07
08
fe
f8
04
12
09
04
fd
ff
fb
03
f4
05
03
01
02
fe
fb
fe
0a
0e
06
08
fc
fc
00
05
02
05
07
f8
01
03
ff
01
f7
05
00
fe
fb
f9
02
04
02
05
0b
f9
ff
fb
02
ff
02
06
05
fc
04
02
06
fe
fa
0d
ec
fb
02
02
01
03
00
fa
fc
f8
f7
ff
ff
08
ff
f9
02
00
ff
fe
02
fe
02
fa
01
03
06
0b
ff
f3
fa
0f
fa
06
00
fd
fa
05
f6
06
03
02
0e
07
00
fe
00
00
fb
02
03
fe
02
fb
03
f9
06
ff
fe
00
01
03
08
06
ff
06
fc
03
02
03
02
00
00
01
ff
fd
fe
07
06
06
00
00
02
04
00
f9
f0
07
ff
fc
ff
fc
00
00
ff
fe
fe
ff
07
f8
ff
fc
02
fd
fd
ff
0a
04
fe
01
fe
fc
05
07
03
fe
fe
01
00
05
01
fa
01
fb
05
ff
fe
fe
00
fe
ff
f9
fe
fb
fd
fc
fc
00
01
0d
fd
fc
ff
fe
02
fb
ff
f9
00
03
07
fb
03
fc
fe
02
01
f3
fc
06
01
f9
fe
fd
03
00
fe
04
04
01
04
02
ff
05
00
05
fe
fa
02
fe
fd
fc
ff
02
fb
07
02
fd
02
05
fe
04
02
00
f7
03
fc
f9
f8
08
ff
04
01
fb
fb
02
fd
04
fb
02
00
f7
06
05
0a
fb
04
02
03
fa
05
01
fd
fa
00
05
01
fe
f6
f8
fe
00
fc
fa
f9
0c
fe
f4
09
02
fe
fa
f7
0a
08
00
03
00
fc
f9
fb
01
f5
0a
fa
07
fe
00
05
f9
03
fb
06
00
03
05
03
02
03
ff
fd
ff
03
07
0a
00
03
f6
fa
07
01
02
04
f3
06
ff
01
00
04
02
05
f4
04
05
0d
fb
f9
fd
06
04
ff
09
02
01
fa
07
ff
f9
04
f7
fe
f2
f2
ff
01
fa
fd
ff
05
01
02
04
fa
0e
09
04
f9
ff
fc
02
fb
02
f7
07
03
f8
08
fe
02
0c
fb
fd
03
f9
fa
fc
07
00
fa
00
ff
01
f4
ff
02
f9
fc
09
ff
f8
02
f9
00
fd
fd
fd
fa
fd
fd
fc
05
fe
fb
fe
ff
00
02
ff
fa
01
fe
00
05
05
fe
fb
fc
02
01
00
03
ff
fe
0a
fe
ff
04
00
01
ff
fc
02
fe
00
05
01
04
fe
08
02
02
06
07
06
ff
03
01
ff
01
0a
03
00
fd
fd
03
04
fc
fc
fa
fa
05
05
ff
01
ff
02
0a
02
fd
00
fe
08
04
03
fe
00
01
0b
ff
04
11
00
fe
00
05
fd
02
fb
06
04
02
05
00
07
05
00
04
ff
f5
00
00
00
01
fe
fa
fc
04
fe
fc
fe
01
ff
fe
fd
01
00
00
01
00
fe
04
00
05
ff
00
04
ff
fe
f9
fe
06
fd
00
ff
fe
f7
00
04
00
fc
01
fd
06
01
fa
05
fe
02
fd
fd
fd
fb
fe
00
ff
0a
ff
03
05
fa
06
07
fe
f6
fd
0f
f9
00
ff
01
04
04
fc
04
03
fc
04
fd
ff
00
f9
fb
00
08
04
f3
f7
01
00
00
fd
f9
02
fd
ff
02
04
ff
00
06
fd
f9
0d
07
00
09
f3
02
00
01
fa
fd
f3
09
f5
06
fe
f9
08
03
01
ff
fa
fa
fe
fa
fb
02
0e
01
fc
f9
04
fd
f6
ff
fb
f9
03
01
fe
02
03
ff
fb
06
05
04
04
03
02
fe
fa
07
fa
fe
f8
0a
fc
0b
f8
00
02
02
fa
fd
ff
02
02
fe
ff
09
f6
fa
04
0b
0a
fa
0e
fc
fc
fd
fa
04
00
f7
02
fd
ff
f9
ff
08
0a
ff
0b
04
00
02
04
07
ff
05
fe
01
02
01
08
fb
04
01
09
fa
fc
01
f5
02
02
ff
0c
02
fc
00
fd
fb
fa
05
ff
ff
01
ff
ff
02
fc
00
02
ff
fc
02
00
ff
04
02
ff
01
02
fc
ff
00
04
04
05
fb
03
fd
02
06
06
f5
f9
ff
ff
00
01
fe
01
ff
00
06
02
02
02
05
ff
04
f9
fe
fa
00
02
01
01
f6
fe
fc
fd
02
00
02
fc
02
00
fb
0c
05
fe
0c
fe
ff
02
05
02
0e
f9
02
02
02
03
02
00
f7
fd
01
ff
04
fe
ff
ff
fc
fe
04
ff
04
04
07
fe
00
00
05
06
05
fb
ff
01
02
fe
fd
ff
03
ff
fd
07
ff
fd
fc
01
00
fc
f8
01
fe
07
f8
03
fe
f8
fa
fe
03
fc
02
fe
fe
04
02
fb
fd
02
fe
fb
03
fc
04
03
06
00
00
03
fe
fb
fd
02
fd
05
01
f8
03
fe
00
ff
04
fa
06
f8
08
01
f8
ff
ff
02
fd
fc
fe
fd
07
fc
fe
00
f9
ff
fc
03
fa
03
02
f9
f5
02
fb
fc
ff
fa
fd
02
fa
fc
ff
00
fe
04
fc
0a
00
f9
03
fc
fd
fc
00
03
fb
02
03
fc
fd
01
fa
02
0c
fc
02
f8
00
fa
04
fd
fc
fd
fa
05
02
fe
03
ff
06
00
04
02
01
06
ff
08
04
04
05
fd
07
ff
01
fb
04
03
05
02
08
fa
fd
fe
fc
f4
ff
fc
fb
04
06
f9
f8
09
fa
ff
00
00
03
01
00
02
07
fe
f9
f9
04
05
fb
07
f7
04
fa
01
01
ff
00
04
fe
ff
01
02
fd
01
00
fd
07
fb
02
08
fd
fd
fc
00
fe
03
03
fc
ff
f5
fb
04
fb
0d
f6
fe
fa
05
fc
03
fd
ff
00
ff
f8
fa
0b
f5
fc
02
fd
01
f8
fb
06
05
fe
fd
fa
01
03
03
00
09
05
04
f9
00
02
0e
f9
02
00
01
0a
fd
0c
04
0a
08
01
ff
02
06
fd
01
03
01
fe
06
fa
fb
04
f8
fa
05
fe
01
f7
f1
f5
07
04
02
05
ff
07
00
00
03
fc
fb
00
01
f8
fe
07
05
08
fb
00
05
fe
fb
09
01
fe
07
04
fc
fc
03
07
00
00
f9
01
ff
03
02
06
09
f9
00
fd
ff
02
fa
f7
fb
fd
fa
ff
05
01
00
f9
07
01
fd
f6
05
08
ff
04
00
03
02
ff
00
fe
00
fe
00
03
03
fe
04
fe
fe
09
07
01
f9
fc
fb
03
02
00
09
01
03
ff
01
fe
fc
ff
01
fd
01
fd
fc
fa
08
02
fe
06
fa
fe
01
08
f7
02
ff
02
03
fd
00
fd
fe
02
07
02
03
01
ff
02
fd
01
fd
fe
f7
fd
fe
ff
ff
fd
fd
f9
04
07
09
04
05
07
f5
03
02
02
fd
04
0a
00
03
ff
ff
fd
fe
04
fd
f5
ff
fe
f8
ff
f5
07
01
00
fb
01
07
fd
04
f3
02
05
ff
00
fc
02
fe
06
0a
fd
ff
02
01
01
01
0a
fe
03
07
fc
01
ff
03
fe
ff
fb
fd
06
fd
f6
ff
04
04
fa
ff
06
ff
0a
02
03
fe
f9
02
ff
07
fe
fe
fe
00
ff
fa
01
fd
fd
05
01
00
05
ff
02
00
ff
f9
fb
01
05
ff
fe
fa
fe
fb
fc
fe
fe
fc
f8
03
ff
03
09
04
00
03
ff
f9
07
fb
02
fd
01
03
04
00
fd
fe
fa
fb
fe
03
fe
05
ff
fe
02
f8
02
ff
01
02
fc
fe
fc
05
02
fb
01
fe
ff
05
04
01
01
05
fc
01
02
ff
01
05
f9
ff
fd
00
00
04
06
fa
fe
fe
fa
04
fc
09
01
08
09
fe
08
f7
01
01
04
01
fd
00
fd
ff
fb
fd
00
02
fd
00
fe
06
fd
fe
08
00
00
ff
ff
f6
ff
ff
00
01
01
ff
fc
00
fc
ff
fd
fc
02
00
0d
ff
06
02
fd
01
fe
f8
fe
ff
03
09
01
04
fe
02
f8
fb
fc
f5
ff
02
03
06
04
01
fc
ff
00
00
04
fd
02
f9
0b
f7
ff
01
fe
0a
01
05
f2
04
01
fc
02
fd
03
01
03
08
fd
f8
01
07
fa
06
07
04
02
01
fb
01
fb
04
08
06
09
03
04
07
fd
02
07
fc
06
01
02
03
fc
fc
07
09
fd
0d
03
05
06
09
f5
0a
04
fe
fa
fa
fa
06
f7
f7
03
f2
fe
fc
ff
fd
04
fe
01
02
03
03
f7
fc
03
02
01
ff
02
ff
fe
ff
f8
01
ff
fe
fe
0b
fd
f4
04
0b
ff
fc
f9
f4
09
04
05
07
f8
ff
0a
fb
fe
03
fd
ff
06
fc
01
05
01
fd
f7
02
fc
02
07
fb
f9
04
04
f1
04
04
02
0c
03
01
06
fd
f9
00
09
04
02
f9
06
0a
fa
0e
0a
f9
02
ff
03
fc
fc
fe
fe
09
00
ff
03
ff
ff
fd
fe
ff
fe
03
f9
09
fa
00
02
04
03
ff
02
fa
f9
02
07
f4
ff
04
ff
fc
f4
08
04
f8
01
fe
fc
06
06
04
ff
03
05
fb
fb
00
fc
04
f8
06
ff
10
fc
02
00
f8
fc
00
00
00
fe
fb
fe
f7
06
01
07
fe
fb
0c
01
fb
fe
fa
08
04
fd
fd
07
fc
08
02
04
f8
00
fc
02
f8
04
fe
01
fe
08
02
02
fc
ff
04
fb
f7
ff
fe
03
fa
08
05
fb
02
07
04
ff
01
fb
fe
07
fe
fa
fb
04
ff
f8
04
fb
01
fc
fc
00
fe
03
fe
03
02
fb
08
fd
00
00
fe
03
fe
06
05
08
fd
01
03
03
05
fd
07
03
f9
04
fd
fd
02
fc
00
ff
02
01
f8
f9
05
0b
06
fe
03
07
02
07
04
03
07
00
06
03
01
f8
05
04
ff
fa
f9
02
f9
ff
04
04
fd
f8
04
f9
fb
08
fd
f9
09
0c
fc
00
05
fc
02
fc
03
01
fe
fa
f6
f7
ff
ff
f9
09
0a
fb
00
ff
02
09
03
fa
fa
fc
fb
0a
eb
fc
04
ff
fe
01
05
f8
00
08
f5
f7
07
fc
04
09
05
fb
fb
ff
fa
03
02
fe
00
fa
ff
fa
fe
fd
02
0d
fb
05
07
01
00
fb
fe
02
fe
01
f6
02
f8
03
01
ff
01
0b
03
ff
00
fa
05
03
02
fc
fa
03
f5
06
fe
fe
09
fd
01
02
f5
f6
f8
fe
06
05
02
fb
fc
07
fe
06
09
02
fc
01
fe
04
01
07
0a
f5
fe
f0
02
fb
03
00
00
02
fa
fc
00
06
07
fb
02
ff
03
08
fc
fb
ff
f7
fb
02
fc
fe
04
f9
ff
04
00
01
fe
f8
03
07
ff
fc
01
04
02
01
03
f7
f8
05
00
03
03
fe
03
0b
ff
02
f9
fc
fd
02
fe
02
02
03
03
01
fd
02
fc
07
f9
fc
01
ff
fd
ff
ff
04
01
06
f9
00
09
ff
fd
fb
f9
05
05
fa
07
fd
ff
fe
06
09
07
fc
fc
00
05
fe
ff
05
fd
f5
01
09
fe
05
f6
00
02
fe
06
ff
ff
fc
01
fb
fd
fc
01
ff
06
01
fc
01
03
05
00
00
05
fc
09
02
06
f7
00
02
02
fe
fe
0a
05
fd
f8
00
fb
fe
fc
fc
08
02
00
01
ff
fe
04
fe
00
00
fa
ff
fc
03
fe
f9
03
06
01
00
00
01
f9
02
04
ff
0a
03
ff
fc
01
01
fe
02
ff
fc
04
ff
fd
fa
03
fb
01
01
01
08
01
ff
04
ff
fc
06
fa
07
fe
fc
05
fa
fc
f9
03
fd
08
fe
ff
01
fc
ff
fe
fe
00
ff
f9
fe
01
00
06
04
01
02
01
00
06
03
fe
07
f8
f8
fa
07
fb
01
04
fb
ff
fc
fb
f4
fe
03
ff
f8
fd
ff
ff
fe
03
06
04
fb
f8
03
ff
fe
06
fd
0a
03
00
ff
02
02
fc
0b
05
01
fc
00
fe
ff
fc
05
f9
ff
05
02
fc
05
03
fb
fc
02
05
f9
02
fe
01
ff
05
02
08
02
00
02
00
f7
01
01
fb
fa
08
fa
fe
fa
03
00
ff
fd
ff
fc
09
04
fe
fe
00
03
fb
07
ff
05
fa
03
fd
08
05
00
01
fd
03
01
01
fb
fb
00
01
01
fb
03
f8
fe
fb
f8
04
f6
ff
02
fd
05
fb
01
03
0a
fd
fc
02
02
01
f7
f5
f5
02
f7
fb
f9
01
03
f9
07
f9
05
06
00
fc
ff
f9
ff
07
fc
fb
01
ff
fc
01
01
00
fe
fa
fb
fc
00
f7
07
05
f8
ff
04
fa
ff
fd
07
fa
fc
ff
f7
04
fd
04
06
ff
00
ff
04
01
03
06
ff
09
0b
00
fd
ff
00
fc
01
04
04
03
00
06
07
00
09
00
09
02
00
f9
ff
ff
fa
08
06
02
00
05
ff
f6
ff
fd
fe
08
fe
fc
ff
ff
fc
ff
03
fe
fc
fe
02
08
f6
fe
fe
f9
01
03
ff
ff
01
06
fe
fd
03
01
fe
03
fa
05
ff
01
02
ff
02
07
05
04
fa
06
00
f9
05
02
01
00
f9
fe
03
fe
fe
fa
08
fb
ff
ff
ff
04
01
ff
fd
04
02
06
fd
00
01
04
03
00
02
fc
fa
fa
ff
04
06
fc
fe
f8
01
01
f6
00
08
08
04
01
ff
fe
03
ff
03
f7
04
04
00
ff
fe
fa
06
01
fd
03
01
fa
05
fc
0b
fe
05
04
fe
ff
fb
00
ff
fb
ff
05
fe
02
fe
06
00
04
fb
fd
ff
fd
f8
03
fe
fe
ff
06
fe
fb
01
06
01
06
08
fc
08
07
fe
00
ff
03
04
fd
f7
ff
03
fd
f1
fd
fe
02
00
00
f4
fe
fa
06
03
fa
fa
fd
fe
00
03
02
00
04
fd
f8
00
f8
fd
ff
fe
06
fe
ff
f9
fa
fa
03
fc
fd
ff
00
01
fe
03
08
00
fe
fd
f8
03
f4
01
02
ff
fe
01
fe
fd
00
01
01
07
fd
fd
04
fe
fe
03
05
fe
f4
f6
ff
08
00
01
04
fc
fe
fd
0d
f9
fb
ff
0a
fe
ff
fb
04
0c
fd
fb
01
07
04
f7
00
01
04
04
fe
fe
00
fc
02
fd
03
f7
fb
fb
03
09
04
ff
fe
fc
02
01
fe
04
08
06
03
f7
09
07
07
03
00
0d
00
04
fb
ff
07
00
03
00
fc
03
fa
ff
fa
fb
fc
04
09
00
ff
01
fc
04
03
0a
02
02
fc
f6
fd
02
02
fe
fa
fe
01
05
04
02
05
03
f8
f9
f9
02
01
fe
05
00
08
f4
03
00
ff
f9
00
05
ff
ff
fb
ff
03
02
fd
02
03
03
04
02
0b
05
fb
02
fc
03
09
01
04
f8
00
fe
fe
01
02
00
03
04
06
00
05
fc
f7
00
02
02
00
02
03
03
06
03
03
04
07
04
03
02
fe
04
02
03
fc
01
fc
00
ff
01
01
04
ff
02
ff
fe
03
05
03
fd
02
02
fd
ff
fd
fd
fd
ff
01
f9
07
04
fc
07
f7
f8
06
00
06
fe
f9
f8
0b
ff
fe
fa
05
fa
f9
04
fb
01
fa
fe
04
fb
fe
fe
02
fe
fd
fb
03
fb
00
f8
05
fc
0c
f9
fe
fa
01
02
fc
fb
fe
02
fc
04
01
04
fd
f5
02
fe
ff
00
f7
f6
fb
07
04
03
fe
fc
02
ff
06
01
fc
01
fe
09
03
02
00
fe
fb
0a
fd
00
01
fb
01
ff
00
00
01
05
02
f6
03
03
04
02
00
07
00
f6
08
ff
fb
fa
f9
ff
03
02
04
fe
f9
ff
ff
03
03
fe
fe
fb
05
01
fd
fe
02
fe
00
f9
01
04
03
ff
06
fd
06
03
fa
fd
f9
01
06
fd
f8
fc
01
03
fe
fb
03
ff
01
07
fe
fc
06
fa
00
07
03
05
f9
fc
01
00
f6
01
04
fe
03
fd
02
fb
fd
fd
09
00
09
fc
03
fb
00
05
fa
01
02
07
fb
08
fb
01
03
02
07
03
03
fe
fe
fd
00
fe
06
00
01
02
04
06
fb
02
09
05
01
fb
03
fc
fd
fd
fe
01
fb
fb
f9
09
01
fd
fd
fc
fe
02
09
ff
01
fe
fe
08
01
07
ff
fe
00
f9
00
0a
07
fa
fe
fb
fe
01
0d
0c
fb
04
01
01
fe
06
fb
01
f9
f3
05
09
fe
01
03
ff
00
04
01
03
f4
00
f7
07
ff
fc
0a
02
05
04
01
ff
0c
f7
06
f8
08
fe
03
fd
01
06
00
fe
03
fe
f6
00
ff
0a
ff
fc
f6
fb
ff
08
fa
ff
03
ff
0a
fb
fb
01
02
08
00
fe
0a
fc
fd
01
08
ff
0d
fe
f3
09
fe
05
ff
fb
07
09
fe
fc
ff
0c
09
08
02
fe
06
f5
00
04
06
07
00
03
08
07
fe
00
fe
04
01
fc
00
02
fc
fe
f7
05
0c
fd
f9
01
ff
fe
fd
fc
fb
f6
04
05
fd
05
05
06
f3
08
02
0d
07
08
03
fb
00
f8
05
ff
fd
08
fe
05
00
04
06
f8
03
fd
f0
ff
02
01
f3
ff
fe
06
08
01
04
02
f7
06
04
fe
07
fc
fd
01
01
fd
03
f6
ff
02
f5
fc
02
fd
f7
02
08
06
ff
fa
04
06
02
fa
04
fe
f7
00
07
ff
ff
00
04
fc
00
01
fe
01
fe
11
04
fa
04
04
02
02
fb
fd
00
01
08
00
fc
fb
f9
fd
fa
0a
04
fe
fe
04
03
0a
08
ff
01
02
f6
f4
ff
fa
fd
07
01
02
01
fe
00
fd
fd
04
04
02
02
fe
04
fc
fb
05
04
04
fb
08
01
0c
05
ff
03
02
fb
fa
03
f8
08
00
fd
01
03
fd
02
02
02
fd
ff
00
06
fc
fe
ff
fd
05
0b
f9
0b
fc
03
f9
04
f6
05
fb
ff
fe
f7
ff
f9
02
01
00
06
fb
06
f7
09
fe
f9
04
01
00
fe
01
04
01
03
00
fc
03
ff
01
01
01
fd
01
00
05
03
fd
02
ff
03
00
03
f8
06
ff
03
ff
fb
fe
fe
01
fe
01
03
03
fe
03
01
f9
05
fc
02
05
f9
05
06
03
09
03
02
05
fe
fe
ff
fa
f5
0b
fd
02
fc
fc
07
f9
00
07
03
fd
fd
fd
00
ff
05
07
fe
02
01
05
00
01
fc
fc
03
02
fa
fa
02
00
00
04
fc
02
fd
f8
02
01
f8
08
04
f8
02
01
fc
0c
00
ff
02
fe
04
06
fc
01
05
01
fe
08
fe
ff
fd
fa
01
01
fc
02
ff
f7
f9
fe
fb
fa
ff
04
01
04
02
01
03
01
fe
fb
ff
01
06
fe
00
fb
00
fc
ff
08
f6
fc
03
02
05
fe
07
fa
05
05
fd
fd
04
01
fd
fb
fc
f7
01
07
fe
fb
00
02
03
fe
f5
02
fe
f6
ff
02
f8
07
fe
fc
00
04
04
07
f8
09
0b
01
0b
07
04
01
fe
fc
00
03
00
fe
f6
ff
fe
fa
05
04
fc
fb
06
02
02
fe
fd
03
09
fd
f9
01
08
fa
f5
00
03
06
07
00
fe
ff
09
ff
fc
ff
fa
f7
05
07
06
04
fd
03
06
05
01
fa
00
fd
fe
ff
06
f9
f5
05
04
00
f3
07
fd
06
02
ff
01
fb
01
f9
0a
fb
fc
00
02
fe
06
06
fe
01
00
ff
fc
05
03
08
fc
ff
ff
fe
03
05
06
fe
02
fc
f9
02
08
03
fa
02
fd
00
03
fe
02
fa
fc
ff
fe
05
fd
04
00
fe
00
05
fb
08
fe
fd
04
ff
05
01
05
03
02
03
ff
fe
04
f7
fd
fe
08
fe
07
00
f6
04
fc
01
04
03
fd
0a
fe
0e
08
fe
00
05
ff
01
fb
fe
fc
06
06
00
03
fa
09
02
fc
02
fe
02
04
03
00
f9
06
00
05
07
ff
ff
09
ff
0a
04
f6
00
05
fd
f9
08
01
0e
05
00
01
03
04
04
fd
00
fb
03
00
f8
ff
00
fd
05
fe
01
fe
fe
02
01
00
ff
16
f9
04
f2
00
02
01
00
03
f5
0c
05
09
02
07
fc
fc
f9
02
f9
09
fe
f9
fc
01
fc
fd
f8
09
f8
02
03
02
03
02
03
f6
02
12
05
08
03
ff
03
08
f8
fc
f8
f5
00
fa
ff
02
fd
ff
02
02
02
fd
f8
06
fe
fc
fe
05
fa
00
fc
06
08
fa
06
07
fe
01
fe
00
04
0c
fb
05
fd
fc
00
f8
00
06
05
fb
01
f5
fd
fc
01
06
04
02
04
01
02
ff
f4
01
04
00
01
ff
05
07
05
fd
01
fd
04
05
fd
fa
f7
01
00
fc
fa
04
fb
fd
ff
fe
fe
fe
01
ff
05
04
fe
00
01
fd
ff
01
fd
ff
00
fa
00
ff
03
06
04
fc
f9
fc
07
02
06
00
07
01
fa
02
05
fd
01
f9
fd
ff
0c
fa
fe
ff
f9
09
fc
06
02
02
fc
03
f8
02
00
fe
03
01
00
05
f9
04
03
fa
01
03
fd
09
fd
fc
00
00
fa
fc
ff
fb
01
06
04
f9
ff
01
f9
00
fe
08
ff
00
ff
fd
fd
fb
01
fb
02
05
fb
ff
fb
fe
f7
ff
fe
00
ff
fd
fb
01
fe
00
fc
06
05
00
03
02
ff
fb
fe
01
fe
01
f9
fc
fb
00
04
fe
fb
fd
02
fd
01
03
02
04
fb
06
fa
01
06
fa
05
fc
00
03
01
f9
02
fe
fa
ff
07
00
fe
fd
03
fd
03
ff
07
02
02
06
00
fb
fa
01
00
fe
fb
03
fe
fd
01
04
fa
fe
fd
04
ff
fb
0b
ff
f7
04
02
fe
05
fc
00
06
fe
f4
06
02
ff
04
f8
fd
ff
fe
08
fd
06
fa
fd
06
fe
f8
fe
04
09
fd
fc
00
01
05
0b
ff
ff
08
fe
fe
06
05
f4
03
fc
02
fe
fa
fa
f5
fd
01
fd
04
02
fc
04
06
00
02
fb
01
fd
01
fb
03
fb
ff
02
00
05
fe
f9
01
ff
0e
f6
fd
01
04
0a
03
fe
f9
00
ff
04
02
fd
ff
ff
03
01
fb
fc
fb
05
01
02
f9
ff
05
ff
02
00
03
05
fd
00
07
fd
fd
ff
fd
04
04
f9
03
01
01
00
02
ff
fd
fc
ff
06
00
03
03
fa
02
01
fb
fd
02
f8
0a
ff
ff
fa
ff
fe
fe
ff
ff
09
02
fd
02
f9
ff
fb
fe
fa
04
ff
fa
00
fd
03
fc
02
fa
f9
05
f9
01
ff
00
f8
03
fa
00
01
fe
ff
01
06
ff
00
fe
00
ff
00
ff
00
f8
02
04
05
02
04
f6
01
01
fd
fc
ff
ff
fb
03
06
01
ff
04
fd
fb
00
00
03
fe
fa
05
fc
02
fe
01
05
01
fa
fe
fc
03
fe
02
ff
fc
01
01
fe
fd
fd
f9
ff
07
fa
ff
fe
05
07
02
fe
fc
04
fa
00
fb
f7
07
0b
fb
06
04
fe
fd
f8
fe
00
02
03
03
04
05
03
01
02
fe
09
04
f9
fb
fe
fa
04
fe
f5
07
01
fe
02
ff
03
fd
fc
0a
fc
fc
01
04
04
f7
07
f8
fe
03
fc
03
fb
fe
fe
05
fc
08
02
05
09
fb
fa
06
fe
02
f4
03
00
04
f8
fc
00
ff
fd
fe
00
fa
fc
08
ff
fe
ff
05
fd
00
fd
fc
05
f6
00
04
05
04
00
ff
0a
06
01
fb
fe
fa
fb
09
04
08
00
01
0a
fe
f9
04
02
fd
fe
01
fc
f4
fd
05
f9
01
02
fe
0d
ff
09
08
04
ff
fe
05
06
06
f9
fb
06
fa
fe
fd
02
03
fc
01
fd
fe
02
fc
02
02
02
00
01
00
fd
05
00
ff
01
06
fe
fd
01
f7
02
ff
02
01
fe
0a
ff
06
f6
05
04
ff
04
ff
03
fb
fb
fc
fe
ff
07
00
00
03
fe
01
fa
04
06
fe
03
05
fa
fd
fe
ff
08
03
fa
05
ff
01
04
01
03
01
05
08
fd
05
00
fc
fa
01
fe
01
02
03
02
fd
00
04
02
01
f9
01
00
fe
09
08
fc
01
ff
ff
fe
00
00
00
02
01
fd
00
fc
06
01
fe
f9
05
fd
01
06
fe
01
03
fe
00
fb
00
fc
fb
00
fa
fe
0d
07
01
00
00
fd
03
01
05
fd
01
ff
fe
0a
fb
fc
f9
02
00
f6
fb
fd
fe
01
08
03
02
02
fc
02
fe
fe
02
ff
ff
fe
03
fe
00
fe
04
fe
03
01
01
06
03
02
04
fb
f8
03
00
04
07
fc
04
f8
04
00
fe
f5
04
00
01
ff
00
03
f6
fe
0a
ff
00
fe
fe
fc
08
f8
04
03
fd
f6
03
fd
08
04
fd
ff
fa
00
00
f6
fa
ff
01
03
f4
fd
fc
f4
05
0b
00
0b
09
f4
0a
fe
fc
00
fa
ff
0c
00
03
07
00
f9
04
01
fe
f8
f3
08
01
02
fe
fc
02
fc
02
00
fb
fb
0b
00
fc
ff
fb
f9
07
fd
fa
fd
03
02
08
0c
0e
f8
00
04
06
f9
02
00
ff
0b
01
05
ff
01
f7
f6
00
05
fb
01
f8
fc
fd
03
05
fa
fe
07
fd
01
09
fa
ff
05
00
fe
06
ff
00
f7
08
04
f4
ff
04
03
06
f9
05
08
00
fb
fc
ff
ff
04
03
06
04
07
05
fa
04
00
f6
09
fc
fd
0b
fb
03
0b
f9
00
fa
01
ff
fc
01
f9
02
fc
fc
00
00
fe
fe
00
03
03
08
fc
03
06
01
06
04
03
fc
01
f8
03
05
fe
f9
f6
fc
00
04
0a
08
00
fa
06
01
01
00
fb
fa
f5
02
01
ff
fe
fd
04
fc
fb
04
ff
03
f8
01
02
01
ff
00
ff
fa
fc
02
fc
05
fe
02
f6
fb
00
f6
fb
07
0b
fb
08
00
fd
01
06
03
00
00
fb
04
fe
ff
fc
07
fb
fc
f4
01
fe
01
06
02
f6
f9
fe
06
08
fb
fc
fe
01
fc
fc
06
07
fa
f7
ff
02
ff
00
ff
f6
00
fc
02
03
07
02
f7
07
fb
fd
fc
06
01
05
05
07
04
f8
fa
03
fc
04
fe
fa
f9
03
01
01
ff
01
04
0b
ff
02
0a
fd
f9
0b
01
fe
fa
ff
02
02
fb
00
06
f4
02
fd
fe
00
05
f9
02
02
01
fc
00
05
07
fa
fe
fe
ff
fd
02
ff
fc
f7
ff
06
f9
0b
fe
01
f8
00
01
08
00
09
00
00
02
07
04
04
09
fa
00
fc
fd
08
02
05
02
fd
00
02
ff
02
f8
ff
06
00
06
0d
fe
01
08
03
f7
ff
f4
04
02
fb
ff
01
06
f9
00
04
03
fc
f9
02
02
ff
fd
02
00
03
fe
09
04
fc
04
f4
02
09
f6
fc
06
fb
ff
f9
00
00
07
fc
07
03
04
01
05
06
fd
fc
ff
05
fc
f9
fc
fe
f2
ff
03
00
05
f7
00
fb
07
05
03
0c
f9
01
fc
04
01
fd
01
02
fb
06
02
04
00
06
00
0b
fa
fc
fe
f8
04
ff
fb
07
f7
03
f8
fe
f7
00
04
fa
02
02
ff
fa
f8
02
fe
f9
00
fa
fa
00
ff
ff
f6
fd
fd
fc
0a
04
ff
02
06
0b
09
fc
f4
04
fc
06
03
ff
03
02
f8
fd
fe
fd
08
fb
ff
07
05
ff
fd
00
fe
04
f5
f6
02
fd
05
fa
05
04
ff
02
00
fd
f9
09
06
00
fc
fd
02
00
fc
06
ff
09
04
0c
02
07
03
fb
01
01
02
00
01
f5
fb
fa
02
fe
ff
08
fe
01
00
03
fc
09
00
02
03
fc
f8
0a
03
01
02
f8
00
00
04
02
08
f9
04
01
fa
10
fc
07
f6
f8
08
03
08
06
06
05
ff
06
00
00
fd
fe
fd
01
fd
02
0a
03
00
f7
04
03
ff
01
00
00
03
09
fd
01
fe
ff
fc
f5
03
fd
05
f7
fa
ff
00
04
ff
01
fd
03
f6
07
fc
fb
08
02
00
00
03
03
ff
01
06
fc
fe
fb
fc
fb
f7
04
04
00
f6
05
f7
fd
ff
fa
fd
01
07
00
f9
01
fc
fa
05
02
02
04
05
00
02
fb
fe
00
03
ff
01
05
01
f8
fb
03
00
03
07
ff
01
fd
ff
05
06
f7
02
01
00
fe
0a
fb
04
fd
f8
0c
02
ff
05
fe
fe
07
01
01
03
f6
04
fd
07
05
fe
fe
f9
01
f9
f7
06
fb
ff
ff
00
01
02
fb
f7
fa
00
03
f3
fb
02
02
fd
03
fb
02
f9
fa
f8
04
04
f6
04
fe
04
09
06
02
fb
fc
ff
fb
ff
04
f8
fe
04
00
f9
03
04
04
fe
04
fe
fe
fb
01
02
00
01
f8
06
03
fb
03
01
03
fb
06
04
ff
00
04
02
ff
07
02
05
fc
fd
fe
f9
fe
08
ff
fe
01
00
01
02
fc
02
06
fa
ff
fd
03
ff
01
00
06
fc
03
fe
fd
01
02
fb
06
01
01
04
07
02
03
03
01
0a
ff
fe
fe
02
00
f9
00
00
fe
06
05
00
00
03
00
08
fa
ff
fb
fe
06
fe
ff
09
00
02
01
08
f8
00
fc
ff
0d
00
01
fd
11
06
02
01
08
0a
f8
fb
f9
fe
04
fe
ff
fb
01
ff
fb
07
03
f8
fc
04
fe
04
f8
fb
07
00
00
09
ff
02
fc
ff
03
ff
00
fb
fd
01
05
04
f9
fb
01
09
02
07
00
04
08
fe
06
02
05
03
ff
03
ff
fc
fa
06
ff
ff
08
f8
03
ff
04
02
ff
f8
fa
07
00
fe
f2
01
04
00
f5
fe
00
09
fe
ff
fb
01
02
00
fc
ff
fe
03
ff
f7
ff
08
03
06
09
f8
00
08
ff
07
01
f8
02
ff
03
01
08
ff
fb
06
00
fa
04
fd
fc
08
00
03
fe
ff
07
00
09
04
05
f8
f7
fa
fb
02
05
06
00
00
05
05
02
06
00
05
f8
ff
06
00
ff
04
f9
fc
02
fa
fd
04
01
f9
01
00
03
00
05
fc
05
ff
fe
fb
0a
08
ff
f0
03
05
09
f9
02
05
0d
ff
00
04
02
fa
02
02
0d
fe
01
01
ff
fe
03
fb
00
ff
f7
fd
fc
11
00
f9
02
fa
04
07
fe
01
f2
03
fe
f5
fa
02
03
04
0e
ff
04
0b
0d
f5
ff
03
05
02
f9
06
03
02
fa
fb
ff
fe
04
fe
ff
02
0a
05
fc
ff
fe
06
f4
fa
03
0f
fe
08
03
01
fc
08
0d
07
01
fc
07
f8
02
fa
0e
fe
fe
05
09
f8
02
00
f9
00
02
f8
07
f9
08
01
fe
01
f2
0b
01
f9
03
fe
01
00
06
fe
06
f9
fd
fa
02
01
f6
03
f8
02
fc
fe
f9
fc
01
04
0b
08
ff
f7
ff
03
04
06
fc
fb
02
fc
fe
09
03
00
06
01
08
02
06
07
01
fc
04
fc
06
fa
f9
fd
fb
03
fb
fc
ff
ff
04
05
fe
ff
fc
fc
01
ff
07
fb
fb
fd
f8
05
ff
f4
09
ff
fe
00
04
02
01
06
07
fa
ff
f5
0a
00
fb
ff
f2
07
00
fb
0b
05
01
03
06
f5
ff
fb
03
04
f6
03
fe
fb
f9
fa
00
04
fd
00
f6
08
02
ff
0a
f9
ff
f6
03
00
03
fd
fd
fa
fd
ff
fa
05
fc
02
f9
00
f6
f6
f6
07
07
f9
fe
fb
02
0b
07
f5
fe
01
00
f4
f9
f6
f9
f9
01
11
05
fc
05
03
f6
04
f9
05
00
01
01
08
02
f5
00
05
00
02
02
ff
01
07
fe
f9
f8
fe
02
fa
07
02
0a
03
fc
00
08
07
f7
f9
f5
01
03
07
fb
fd
06
0b
00
f6
03
fe
05
03
01
03
ff
0a
00
03
ff
fd
02
f6
07
06
07
06
02
08
fd
01
03
fb
ff
04
ee
02
f7
01
01
05
05
06
fe
01
04
00
03
fd
03
04
fe
ff
03
00
00
fe
fd
ff
fe
00
fd
08
02
01
fe
f9
fd
07
02
fb
fd
07
02
fe
f8
06
0a
03
05
04
00
fd
00
02
01
fc
fe
fe
fd
fd
06
fe
ff
00
03
00
01
fe
06
01
00
00
ff
01
01
00
fd
02
02
fc
01
05
fd
ff
02
fe
f8
02
07
fe
fe
fe
fc
0b
fe
fe
03
02
f7
fa
ff
03
fd
fb
fe
01
ff
00
ff
04
fd
ff
f7
06
f8
fa
00
03
fd
01
fc
01
fa
00
fe
f8
fc
01
07
ff
02
00
ff
fe
fe
fd
ff
06
04
fa
f7
ff
fe
04
02
ff
fe
03
f9
08
02
fe
00
fc
04
03
00
fe
01
01
02
01
ff
06
00
fd
03
02
04
00
fb
03
fb
07
fc
03
fd
ff
08
fc
01
04
f7
00
01
01
f8
01
f8
04
00
02
f9
fe
04
fd
02
fc
fb
fd
07
00
fe
02
ff
02
03
03
05
00
04
00
ff
03
03
ff
f0
f9
03
01
ff
fd
06
ff
00
fb
01
ff
fe
02
f7
01
01
fe
ff
fa
01
ff
08
f7
fa
04
05
03
09
fe
02
fd
02
03
01
00
00
04
08
01
f8
00
ff
01
fc
f3
01
06
fb
fa
05
fd
fb
fc
04
fa
f4
fd
ff
f9
fd
02
01
f8
01
fe
ff
07
08
ff
fe
07
03
fe
06
ff
fc
01
ff
fd
01
03
fb
01
fb
f7
00
05
fe
fe
00
fc
fc
fa
04
fc
fe
02
00
00
02
04
fe
fb
03
04
07
fe
02
fa
05
fd
02
fd
fe
fe
05
00
04
02
fc
00
02
ff
ff
01
f8
f8
0b
fd
fb
02
09
fe
ff
07
ff
ff
f3
fb
09
05
fd
fc
fe
f8
fd
fd
fe
fc
f8
03
fd
ff
fb
02
ff
fd
ff
01
f8
fd
01
f9
01
fb
03
06
00
fd
ff
03
fc
fb
fb
01
0a
02
fc
fe
06
03
fb
02
fd
fb
03
02
fb
07
fe
04
f9
fa
ff
ff
02
fe
04
05
fc
fd
03
05
fe
fd
ff
fc
ff
ff
fd
fe
00
0a
fe
04
fd
04
fd
fe
00
02
ff
06
fa
01
08
00
0b
01
01
fe
02
fd
04
fb
f6
fd
00
09
fc
fe
04
fe
ff
00
01
08
02
f7
fc
02
0b
f9
f8
09
00
fd
fe
02
04
fe
ff
02
fe
fb
00
07
03
fa
03
fe
05
fa
06
01
07
01
01
04
08
05
f7
02
04
06
04
05
fc
0a
f7
08
fa
fc
00
0d
f2
0a
00
fe
01
06
f9
fa
04
0a
ff
05
fb
05
fb
fd
04
f7
f9
04
05
00
fd
fe
06
00
00
fb
00
00
fb
fe
05
ff
01
03
fe
fa
fd
02
03
04
fc
ff
04
fe
06
04
fd
fb
fb
03
03
ff
05
f3
0e
01
02
0a
f1
01
fb
fb
01
f8
fa
02
f4
fc
04
00
05
f9
fb
fd
0a
fb
04
f8
f7
f9
fa
fb
fc
0c
00
03
0b
f9
00
05
06
fe
f9
fa
02
f9
04
0c
00
fc
01
05
ff
00
05
f8
03
04
f8
f9
fc
00
ff
04
07
f9
f8
fa
fe
05
fa
02
f7
f9
fd
04
00
fc
04
05
f9
04
fd
03
fb
fb
02
00
01
fe
04
fd
fd
03
00
fe
fd
fe
f8
ff
00
ff
03
ff
fb
03
04
fa
02
06
fb
f8
00
0c
04
00
f9
00
fd
02
f3
fd
fa
00
fa
01
04
00
ff
fd
fe
04
01
01
04
00
01
fe
ff
03
08
fb
00
03
01
06
f8
03
01
f8
fe
02
01
fe
ff
f8
06
00
fe
04
fb
fe
07
ff
07
03
fe
01
fe
fa
f6
07
03
06
fc
00
05
03
fc
fa
05
07
05
fd
fc
02
00
04
03
04
02
03
04
ff
00
fd
0c
01
05
fd
05
02
00
04
05
f9
fc
fe
fa
fb
fe
04
fc
fb
04
02
04
06
fb
00
fc
fb
fe
fd
03
05
fa
fe
05
02
ff
07
00
fd
01
0c
fe
ff
f8
04
01
04
ff
06
ff
fe
fe
f5
04
ff
06
ff
04
03
f8
04
04
05
fd
02
ff
0d
fe
fd
f9
01
05
08
fe
fe
00
fc
07
fc
ff
f8
07
09
ff
fd
f4
01
01
fc
00
03
01
01
05
f8
fc
08
01
04
03
fe
02
06
ff
fe
06
fd
03
02
fe
05
fb
f7
fe
fd
04
05
00
07
08
03
03
07
01
04
fe
f4
f9
ff
03
fd
02
ff
f9
03
04
f6
01
08
00
fe
fb
fe
05
06
fe
fa
fc
fd
fd
f9
00
fd
fa
06
f9
fe
03
01
07
fd
fa
06
04
06
02
00
fd
0d
fe
01
fd
06
f8
fc
fd
04
00
f3
fd
f5
fb
00
f8
ff
00
01
fd
fe
ff
fb
04
fe
f8
fd
fd
00
04
07
04
f7
fb
f9
fd
05
04
03
fe
ff
07
ff
03
02
ff
fd
ff
06
fa
fe
06
f8
f9
fb
01
02
fb
09
f9
03
fe
11
04
fb
00
00
02
04
fd
03
01
03
01
fe
fe
03
fc
fe
fb
04
03
01
09
f9
fb
fa
fe
ff
05
03
fe
00
03
ff
fb
07
05
02
02
08
f2
fa
05
fb
fd
00
fd
06
04
01
02
02
01
04
ff
f7
fd
07
01
01
fb
07
fd
00
f7
08
fa
ff
01
01
01
fb
fa
04
04
03
04
fc
f8
f9
03
05
08
f9
fc
00
fb
06
f9
06
fd
01
01
ff
00
06
0a
fe
fc
01
02
fd
fe
fe
f8
02
fc
ff
02
fc
03
00
fe
fc
f7
f6
ff
04
00
01
fc
0d
ff
fd
07
fe
04
fe
fe
fd
fb
fd
fc
01
fe
00
fd
f9
02
fb
02
ff
00
fb
fa
fd
04
fd
fd
02
06
02
f8
05
fd
fb
04
00
fc
00
00
05
fb
fd
f9
f6
0b
01
07
02
fb
ff
07
fb
fe
00
0b
05
02
02
00
05
fe
f4
04
05
04
01
07
07
fe
00
03
f8
03
05
fb
02
04
01
fd
f9
fb
0a
fe
04
03
ff
03
fb
ff
01
05
07
01
ff
05
04
fb
f7
03
00
01
03
03
f9
07
04
fc
fb
03
07
03
04
00
09
fc
00
fc
01
01
00
fe
03
fb
00
ff
03
00
fe
fd
03
fe
f8
00
04
07
05
09
03
ff
05
04
05
06
07
07
03
0d
f9
fd
ff
03
04
fe
01
fa
f7
fc
fd
0d
00
00
04
03
01
00
0a
fe
fe
fb
fe
02
02
fb
fd
06
05
02
0b
fe
fc
01
f8
ff
05
00
f9
fd
01
fa
00
fd
04
05
fb
04
00
02
02
ff
fe
02
00
02
ff
ff
ff
05
07
01
01
fd
fb
fe
fd
01
fb
00
01
01
fe
00
f5
03
07
fe
fc
fc
03
fd
08
01
f9
ff
f7
fc
00
ff
00
ff
07
f5
fd
01
06
ff
00
ff
fe
fd
02
08
00
f7
03
fc
05
09
fa
fd
fb
05
07
03
fa
03
fb
fd
f6
08
05
02
05
02
0d
03
ff
fa
ff
fb
09
01
fe
00
05
02
04
fb
fc
02
fb
03
fd
ff
fc
09
f8
01
00
fd
02
fa
06
03
fb
04
03
01
fd
01
02
07
06
ff
fe
05
fb
02
f9
05
02
ff
fc
fd
fb
ff
00
03
fe
fd
f9
fc
02
02
f9
03
fd
02
05
00
01
01
ff
f7
03
ff
00
03
06
09
fc
00
06
fb
fc
00
00
03
03
00
03
fd
fb
f8
fc
fa
03
00
03
03
05
07
03
fd
07
fe
ff
02
ff
00
01
fe
00
00
fc
02
03
fa
fb
05
fb
03
f7
02
fd
05
fa
03
01
01
00
f9
01
0d
f5
f7
05
f9
ff
fe
f4
fc
fd
02
03
fa
03
0b
04
01
08
ff
07
03
fc
06
01
05
03
04
f9
07
ff
04
f9
01
04
03
00
fc
ff
07
02
01
01
08
ff
ff
00
ff
04
04
f4
09
ff
04
03
02
03
03
01
03
f8
fb
fb
fb
03
02
03
04
06
fd
02
f9
01
01
02
fd
09
f2
04
fa
fd
04
f6
fd
08
00
fe
01
00
fe
05
fc
03
07
02
00
fb
01
ff
fb
fb
fd
01
08
f3
fc
f6
ff
02
02
00
04
06
fa
03
fc
f5
03
fd
fb
ff
03
03
0b
04
07
f9
fc
02
00
f9
ff
fb
0f
04
fe
05
fe
04
fb
09
01
ff
f7
fb
06
f9
f9
fd
01
f8
0a
fc
f8
09
fd
08
f8
ff
f9
07
01
ff
06
ff
0b
f7
fc
05
fd
08
fc
04
fe
04
f5
fc
05
07
fd
ff
fe
01
f8
fe
fb
f4
00
00
fb
fa
fc
ff
fe
fa
fd
00
05
fe
fa
06
02
ff
fc
ff
f9
01
fb
01
fd
fc
05
fe
03
07
03
f4
03
fc
fb
01
06
ff
00
06
ff
fe
ff
09
09
05
02
03
05
07
fd
09
02
f7
fe
f9
03
03
07
fd
02
03
03
fd
f9
fe
02
f1
01
05
03
f2
04
00
ff
05
ff
02
f7
08
fb
01
07
f7
f7
f6
fe
09
fa
fe
ff
fe
05
06
fa
05
01
fe
08
ff
fc
01
fb
fa
01
fa
01
ff
f7
00
00
01
01
05
00
ff
fd
fd
01
ff
09
06
fb
05
03
ff
09
01
ff
09
02
fe
02
fd
04
07
fa
fe
00
05
f9
05
0b
fd
fe
00
01
fd
01
01
fe
0e
05
06
fa
f8
f8
08
fe
ff
fd
fa
ff
fd
04
f8
fc
ff
01
00
fc
fb
ff
01
ff
03
04
01
04
fc
04
04
fb
06
05
fd
ff
fd
ff
04
05
05
fe
01
f5
05
03
00
02
ff
01
00
02
ff
05
ff
00
f7
fb
fc
02
0a
fe
ff
fb
fa
05
08
fc
07
fd
01
fe
03
fe
f9
fa
00
03
08
06
05
02
fc
fc
01
00
fe
fd
00
04
01
04
ff
01
06
03
00
fc
00
fe
03
fb
07
05
fc
04
01
ff
f9
fe
00
fc
fd
05
ff
00
ff
f9
00
01
04
00
fa
02
fb
fe
04
fd
ff
03
ff
ff
fb
07
fa
fd
ff
03
06
06
02
ff
02
08
fc
01
00
08
05
f7
05
fb
f9
ff
06
02
fa
fc
f5
fe
03
06
00
fe
ff
ff
03
02
02
05
03
01
f7
f7
05
00
04
02
fc
04
03
05
04
02
02
f7
00
fd
03
02
02
fe
fe
00
02
fb
fe
ff
f6
fc
05
f8
06
09
01
03
02
fd
fd
06
ff
ff
fa
06
00
fa
05
ff
00
04
03
05
02
03
fb
fd
f6
07
f6
05
05
00
fb
fd
ff
fe
05
00
fd
02
ff
f1
07
fb
0a
00
fb
fb
01
05
fe
fc
f8
00
02
05
03
ff
03
fe
02
00
04
fc
fc
01
ff
01
fd
01
02
00
0b
07
fd
fc
04
ff
fc
fc
02
05
ff
08
fc
f2
05
03
00
03
fd
fd
0c
fb
03
f6
06
10
fd
fe
02
00
fe
01
02
fd
03
02
03
fc
03
f8
fd
04
09
fa
fe
fe
0f
04
fc
fd
fd
07
fc
fa
01
fc
04
0f
09
06
02
01
04
fe
03
00
01
fd
ff
05
fe
03
0f
00
fc
f9
ff
ff
01
f9
01
01
00
fa
03
00
fa
05
02
04
fe
01
00
04
fe
00
f8
03
00
02
f9
02
fd
01
fc
fb
05
fd
0a
04
03
fb
fd
14
05
fa
fc
01
fb
04
fd
01
fa
f8
05
00
05
01
fa
00
ff
fd
04
fd
02
0b
f5
ff
03
02
fa
fa
03
fc
03
0a
02
04
04
03
fe
02
0c
fc
00
fb
f7
04
03
02
fc
06
fd
02
ff
06
f0
04
08
09
04
fe
06
07
ff
0b
06
ff
fd
fb
0a
05
02
0a
fe
fa
05
ff
fa
03
f8
01
04
01
07
f7
fe
07
fd
fe
02
02
02
07
01
01
fb
01
05
fe
05
f7
fc
fe
0d
08
fc
fa
f9
ff
01
00
02
fc
03
fd
fd
fc
f9
00
02
ff
f6
ff
0b
fe
fc
00
0a
01
ff
f6
fd
12
01
05
02
fe
02
05
03
f8
09
f9
02
f5
f9
fc
fe
fc
fd
01
fa
01
02
00
f9
fc
fe
ff
01
01
03
07
f9
05
06
fc
04
ff
fe
fc
04
f9
03
fe
fd
ff
f5
07
0c
05
01
00
08
fe
fe
fe
fc
01
02
fa
02
05
03
ff
0b
fe
fd
00
01
03
04
fc
fd
04
05
05
f9
00
02
02
fc
04
ff
fe
fc
03
03
02
00
f6
02
08
fd
fe
f4
05
03
0b
f7
fd
fd
05
01
f6
ff
01
0a
fe
fe
01
fd
fe
ff
fc
fe
05
06
fd
fd
02
02
00
01
ff
04
fd
fc
0a
01
f6
03
fb
03
0b
fc
fb
fe
fd
fa
fe
04
fc
fe
f8
fe
00
01
00
fc
05
04
01
fc
ff
f8
ff
04
ff
fe
05
fb
06
02
fa
08
08
07
fb
fa
07
0d
fa
07
fe
04
fe
f5
00
03
04
00
03
03
00
04
f9
07
fb
fb
04
fc
ff
02
fe
06
fa
06
03
fe
fc
04
05
fe
ff
fd
f8
fe
fd
fb
fb
fe
06
fa
fe
ff
00
fd
00
fe
04
fa
fa
00
06
fb
04
fe
06
fe
00
01
02
fb
00
01
fc
fc
fe
fc
03
05
03
fb
ff
09
03
f7
f2
03
fc
03
fd
00
fb
06
ff
06
ff
fd
0a
03
f2
02
03
01
fc
f6
00
03
ff
fa
00
f5
09
00
06
01
02
06
05
fb
02
01
02
fc
f7
05
fe
f6
07
fa
07
09
02
fa
00
fe
02
09
f7
06
fe
fe
fe
02
03
04
f7
fe
f6
04
02
f7
fa
ff
03
01
00
01
ff
08
fb
fa
f7
03
01
fc
ff
06
fe
f9
05
01
01
fb
fe
03
00
ff
05
ff
04
fe
09
fe
09
f0
00
fd
02
04
f5
ff
00
fa
01
05
ff
fc
f9
02
02
01
01
f9
04
fd
08
fd
fb
ff
fc
04
00
04
04
fb
fa
fb
03
f8
00
03
fb
09
fd
fc
fe
02
04
0a
fc
0a
05
07
fa
ff
01
fc
00
01
ff
08
08
06
00
fe
00
f7
ff
04
09
00
fa
f9
05
07
02
03
fe
01
04
fd
f9
fe
ff
06
fe
fd
06
04
f9
ff
ff
01
ff
fb
03
fb
f8
01
fb
fd
03
fe
fc
01
05
ff
06
f7
fd
00
00
fe
ff
fc
02
fc
fa
02
01
05
f8
fd
fa
02
08
ff
05
fe
04
00
fd
fc
fb
04
01
fc
fd
fd
f9
00
fb
fd
02
00
ff
fb
f8
01
04
03
fd
07
01
fd
fe
fc
fd
08
ff
ff
00
06
05
01
01
fc
03
fd
07
00
02
ff
03
00
01
fa
fd
fd
f5
fc
03
00
00
03
00
05
fb
00
00
fe
fe
02
ff
03
fe
fa
04
fe
ff
fa
03
f9
fd
02
fb
02
04
fc
01
00
ff
02
00
01
00
02
fb
fc
00
03
00
fc
ff
00
01
03
02
04
fa
ff
fb
01
fc
fb
00
06
02
00
fc
fb
00
02
00
04
00
03
ff
fb
ff
03
fc
02
02
04
fd
05
fc
01
fa
fc
fd
03
03
ff
00
ff
fe
03
04
fd
03
fd
00
fe
03
00
03
fd
fc
fb
01
ff
ff
fc
00
08
03
03
ff
fc
ff
00
fa
00
00
00
02
01
01
02
04
00
00
00
02
f9
fb
01
fc
fc
fd
04
03
03
fd
fe
01
ff
fb
01
03
fa
fc
01
01
04
fe
fb
06
02
fd
00
ff
ff
ff
00
ff
04
fc
00
fe
fe
02
00
f8
ff
00
01
01
fc
f4
03
01
07
05
02
fd
fc
01
05
fa
fb
fd
01
08
01
fe
fd
fc
fe
02
02
f9
02
01
fe
ff
07
0a
fe
03
01
02
fd
f6
fd
04
01
fd
08
02
07
08
05
ff
00
01
07
ff
fa
01
03
0a
f9
0d
07
03
01
fd
02
04
01
f6
fe
04
fd
06
f8
05
ff
05
ff
fb
00
ff
01
05
f5
f8
05
fd
ff
04
00
f9
01
fd
02
f9
fe
03
fe
05
09
fb
f9
01
00
00
04
02
0b
fd
fc
01
02
00
fc
fe
fe
fc
fa
02
02
fe
02
f5
ff
ff
01
00
01
ff
fd
06
fd
fd
06
fe
fe
02
06
03
fb
ff
09
05
fc
fc
0d
ff
02
09
fb
fb
01
03
fe
fa
fe
05
06
fd
fd
01
0c
fb
08
fc
f7
f9
06
fe
00
06
00
06
01
05
f5
02
02
f8
fc
f9
fb
03
0a
00
fc
01
05
02
fa
fe
07
02
08
03
fe
ff
01
fa
00
04
fc
fa
00
f9
03
fb
fb
fe
01
01
02
fb
06
fe
f8
fc
01
08
fe
f7
03
fe
fe
fd
00
ff
fc
03
fd
01
09
06
fc
03
fa
fd
03
01
00
03
f8
05
0c
03
fd
09
fd
02
fe
03
07
fd
fd
fd
00
fb
fc
01
ff
fc
02
ff
06
00
fe
fa
03
fd
fc
fa
f7
01
fe
07
03
03
fe
00
00
f7
01
02
07
fd
07
03
fa
09
ff
f9
02
fd
04
fb
03
fe
fd
04
00
02
f8
f6
03
fd
fb
fd
fc
fe
02
ff
02
ff
07
fe
fb
06
02
fd
03
fd
fd
01
fc
00
05
05
05
f8
f9
f9
fc
02
03
03
fe
00
01
ff
0a
fa
07
02
f9
fc
fe
03
fb
fd
08
00
0a
f7
05
00
00
fd
09
fa
fa
fc
02
fc
fd
f7
f9
fe
fc
fe
01
07
fe
03
fe
ff
02
ff
02
05
08
fd
0b
fa
fe
fb
00
fe
02
fe
0c
f1
fc
fd
ff
03
02
fb
fe
04
fd
04
06
fd
06
02
f8
fe
f9
01
ff
05
fb
02
0f
fb
fd
fd
01
fe
04
04
07
fc
03
00
02
01
04
fb
fb
01
02
03
fc
f8
02
fe
f8
fd
fd
f7
ff
fd
01
02
07
01
05
04
07
fc
f8
03
fc
01
01
0b
00
00
01
02
01
03
f6
00
00
07
f9
03
03
fd
f6
01
fd
fc
03
fe
fa
01
f8
04
04
fe
01
04
f9
00
09
03
fe
03
fb
00
f9
02
fa
06
0d
ff
ff
fb
fb
f8
05
09
fb
fb
06
00
fb
02
ff
fd
02
07
fd
03
03
fc
01
fc
00
00
0c
02
fa
00
f6
07
fb
03
01
fe
00
04
fc
fc
02
fc
02
05
fe
fe
03
fd
f6
03
fe
fb
ee
05
f5
09
02
01
fe
ff
fe
f8
05
fd
f9
ff
fc
fe
fe
00
fd
fc
f7
04
00
0e
fd
f4
04
f5
fd
fc
fc
04
09
03
ff
09
00
01
f4
03
f5
fc
09
ff
fe
03
01
03
09
09
07
fd
01
f6
09
00
06
fc
05
ef
fd
ff
05
fc
0c
04
02
f5
fa
00
00
fe
f2
fa
07
04
05
02
fd
06
09
06
0b
fd
02
f6
f9
01
fa
f8
f9
03
03
05
ff
01
0a
06
01
ff
02
04
fa
fc
01
fa
00
fd
02
02
fb
fd
00
04
fc
fa
02
00
ff
fb
06
fd
02
06
07
05
00
fa
02
05
03
04
fa
fa
ff
08
f8
fc
f4
07
04
05
f8
01
fc
02
fd
fd
fc
02
06
fe
fd
03
02
fa
f7
00
ff
ff
01
fb
f7
fe
f8
03
00
fa
fc
06
fc
01
fe
f9
01
f7
03
00
04
06
00
05
01
02
00
fa
03
fb
05
ff
04
02
fd
ff
ff
fb
ff
ff
f5
fd
05
08
fe
0a
00
fe
fd
fd
04
ff
f6
04
00
03
04
04
ff
05
0d
ff
fb
00
05
fb
07
fc
04
04
01
03
00
fd
f6
04
00
f5
fc
f8
01
fc
06
08
01
02
03
fe
00
00
ff
fc
01
fc
00
fd
fe
fd
f9
04
fb
03
03
ff
f7
f7
00
fa
00
02
02
03
fd
03
01
04
04
fe
05
fa
fd
f9
07
fc
fd
ff
01
09
02
f9
00
01
fc
fe
ff
ff
02
01
fb
00
06
03
04
01
05
02
fe
f8
04
00
01
fd
07
07
02
00
fa
02
fc
03
fc
f9
fe
fd
fc
04
fc
01
fe
fb
fd
06
fd
fe
05
ff
00
02
fe
fc
00
03
04
f7
02
0f
fd
01
ff
04
fd
00
07
fd
fd
06
fe
08
fe
02
fd
02
fc
05
02
12
03
03
f8
02
00
05
03
05
fc
03
07
fc
02
fd
09
fe
f5
02
02
fc
05
fb
02
00
03
01
00
fe
01
fc
03
fb
06
f9
06
03
fd
04
08
ff
fc
f9
02
fd
02
ff
fe
04
fd
fc
fa
01
06
06
ff
fb
fe
04
f6
f5
ff
00
04
fb
09
fe
fa
fb
01
fe
fd
f8
08
fe
03
fd
00
02
f5
fd
f9
02
f6
ff
01
fd
00
fa
fc
f6
ff
0e
fa
fd
04
01
01
fe
fe
04
f6
02
01
04
f6
fa
03
ff
fe
00
03
03
06
01
fb
03
fc
fe
00
02
fb
05
09
07
f9
04
fe
09
fd
03
fa
f9
fb
04
ff
04
fc
05
08
ff
02
ff
07
fb
0b
00
05
00
fb
fd
ff
08
03
05
fd
01
03
09
07
fe
ff
01
04
fb
01
ff
fe
f9
06
f7
01
05
09
fd
0e
ff
fa
0c
03
08
ff
04
04
01
fd
03
fc
fc
01
fc
03
ff
08
f2
0a
01
01
01
02
f9
01
00
fb
ff
ff
05
fd
05
05
f7
02
fe
04
02
ff
00
fa
03
ff
0c
fe
02
fe
00
04
fd
f4
fc
10
04
06
fb
ff
04
01
04
01
0c
fd
01
05
00
0a
fc
03
00
09
00
fe
fc
f9
fd
f7
f7
05
fb
07
fe
fb
08
fe
04
fd
08
04
01
07
ff
fd
fc
01
00
fc
06
03
01
f8
00
07
01
02
05
fc
fc
fe
fd
fa
03
07
fa
07
05
fd
ff
07
03
02
04
fe
08
00
02
fe
fe
fe
fc
fe
f8
fb
00
fa
fb
03
f9
f9
02
fe
02
fb
05
03
fc
07
05
03
ff
05
02
00
fb
04
f6
0b
fe
fc
06
fd
ff
07
fd
fe
f8
fb
fe
01
fd
05
fd
fd
08
07
08
fc
fb
09
06
fe
fb
05
fc
02
ff
06
0a
fb
f6
00
f6
0a
01
fe
04
03
fe
fd
f9
fd
04
00
f8
0f
02
f8
03
f4
fe
07
05
00
fe
04
ff
f5
01
00
05
f9
03
09
fb
01
01
02
08
ff
01
02
02
08
fe
fe
fa
01
00
01
fb
04
fd
03
fc
fc
03
fb
fd
05
02
01
06
fd
ff
00
02
fe
03
fe
fa
03
fd
fd
fe
fd
02
02
f4
08
04
00
fe
fc
fa
06
11
ff
07
05
fe
fe
00
fc
fd
01
03
01
01
00
04
fb
f7
08
03
02
01
00
ff
08
fc
00
fa
f8
06
fc
02
fb
06
06
01
ff
01
fb
01
06
04
f9
fd
fe
fe
00
fd
ff
00
fd
fe
09
fe
fd
05
ff
09
03
fc
06
fa
fa
07
03
05
fa
f8
ff
f9
00
fc
02
05
ff
fb
fe
fd
08
02
03
01
ff
f8
03
03
02
f8
fb
06
09
fe
04
05
fb
01
00
02
00
04
fe
09
fe
08
0b
04
01
f9
ff
fa
05
00
fe
fc
fb
02
fa
fd
fd
03
fc
04
01
04
00
f8
02
05
f6
fe
ff
04
04
f4
01
f8
fd
ff
ff
05
02
f8
ff
02
01
02
fb
07
07
fd
02
ff
00
fe
fe
00
fe
f5
fd
02
03
06
f5
05
fa
03
f5
03
04
fe
fd
fa
07
f8
f8
05
06
02
00
fe
03
00
02
0b
fd
f9
01
10
fd
ff
01
ff
f6
f5
01
06
fe
01
05
fe
04
04
09
03
ff
05
04
fb
07
03
05
00
00
00
fb
02
05
01
fe
06
ff
02
02
fc
fa
ff
08
06
01
02
fe
01
00
00
fe
fd
fb
0b
02
fe
06
fe
05
09
06
04
f2
06
f8
fc
fb
fc
02
03
0d
ff
02
fe
02
fd
f9
00
ff
06
fb
ff
00
02
ff
fe
fb
02
0e
fe
05
f7
03
fe
05
05
00
fd
fc
07
08
03
02
fb
06
05
fc
0b
0d
ff
fe
f6
01
02
f9
04
03
fc
fe
01
01
0b
06
06
05
07
0a
03
fe
fb
05
fc
fe
05
08
00
f9
05
02
02
00
04
05
f4
09
fe
04
fc
04
f1
02
0b
00
f7
fb
00
09
08
0c
f7
fd
08
ff
f3
05
fd
00
f8
f8
03
01
0c
05
ff
09
fe
03
07
04
fd
fa
01
f6
f7
08
02
05
f5
03
fd
02
f6
fb
01
f7
01
f9
fc
09
04
00
00
0f
fe
03
fd
fb
fd
00
07
06
fd
01
fd
07
00
fd
ff
fc
04
02
01
07
0c
fa
00
07
02
f8
06
01
01
01
ff
04
fe
fc
f6
02
f9
fe
ff
01
00
05
05
fe
fd
08
fd
fc
05
02
04
07
ff
fe
fd
02
fe
08
fd
fc
0a
02
01
02
fe
01
02
02
02
03
0a
ff
fc
ff
04
fa
fb
01
fd
02
00
f9
02
fb
fb
03
00
fd
03
fc
04
00
f9
fe
02
06
08
00
00
00
ff
f7
03
f5
fc
01
02
fc
01
fd
fa
04
05
01
06
ff
03
00
02
fe
fe
01
02
04
0b
01
fd
fd
05
01
0b
fb
fd
06
fa
04
f8
fe
00
01
00
08
fe
02
f9
00
fb
fb
fb
01
fe
01
ff
03
fc
f7
fe
04
02
fe
fd
ff
fd
04
00
07
fe
06
05
04
fe
00
01
00
ff
03
05
00
ff
fb
f6
04
09
01
01
01
fa
ff
00
fb
ff
06
04
fb
08
02
03
fd
fc
01
03
04
03
08
ff
03
01
06
01
03
01
fe
03
00
fe
01
02
f8
02
05
02
fe
09
00
ff
fc
01
01
0b
03
fe
04
fd
00
fc
02
0b
09
ff
06
00
fe
fe
ff
00
fe
f8
fd
fe
ff
06
03
00
04
04
fd
fe
ff
03
02
00
02
03
03
02
06
01
fe
02
00
fe
03
07
f9
03
04
00
08
02
fd
fe
fd
fd
fd
fe
01
03
fd
fb
ff
f4
08
05
fd
fa
00
01
ff
04
06
08
f8
fe
02
ff
02
08
00
02
02
01
00
03
fa
00
f6
05
f8
04
05
ff
ff
09
fc
09
00
04
fc
00
01
01
ff
fc
02
00
fe
01
09
03
ff
04
01
03
fe
f8
06
fc
fa
0b
ff
02
06
09
fd
07
fc
03
ff
f9
02
fe
fd
f8
04
01
04
fc
f5
03
08
01
05
02
fc
fd
fe
02
03
ff
02
fd
01
fe
fe
00
01
05
04
0b
fb
fe
03
f9
01
ff
00
0b
06
fc
01
01
05
fd
fe
fe
ff
02
01
fc
06
04
06
02
fb
06
fc
fa
ff
0a
fc
fd
06
fc
fe
fc
06
fe
04
04
05
fd
fb
01
03
00
f6
05
02
fd
fc
04
f7
ff
f8
f7
03
fe
ff
0b
f5
f9
01
fb
f8
00
0d
09
02
03
02
06
00
f9
03
fc
f4
06
fc
06
fe
fb
00
07
ff
fc
00
fd
ff
fa
04
00
ff
ff
fc
05
fe
05
f7
fd
ef
07
0e
07
07
ff
fe
03
fc
00
00
fd
fc
fb
06
fd
05
f9
fe
fd
fc
02
ff
05
01
03
0a
02
06
04
fe
00
01
03
03
06
fb
fb
00
00
03
02
fe
02
02
ff
03
f9
f8
05
f9
02
f9
fd
fe
03
03
04
ff
fe
0c
04
ff
07
fd
fd
fe
00
06
08
fd
05
fe
fe
02
fe
03
f9
01
fa
fe
02
ff
02
02
fc
02
00
01
fd
02
04
fa
f9
fb
f1
02
02
f9
05
ff
02
ff
fd
04
fc
03
05
00
fd
fb
ff
02
02
03
03
fe
f9
03
f7
fe
04
f6
fd
04
ff
fe
02
03
f8
f7
03
fa
00
05
02
fe
05
03
fb
0c
03
05
03
f8
fb
fd
fd
03
02
03
fd
06
00
ff
fb
fd
f9
fd
fd
f3
06
03
05
01
06
f6
07
fc
fc
01
08
05
09
fd
f8
fa
09
fc
fe
fa
07
05
02
00
f1
fc
f9
fb
07
03
04
f5
fa
00
04
00
f9
08
08
01
06
06
f4
07
00
fd
03
fd
fa
08
08
fe
01
fe
fc
fd
09
f9
fb
02
f9
ef
ff
f6
06
f9
ff
f8
04
01
fe
f9
fe
09
ff
fb
00
f7
f7
06
fc
f9
fe
fd
05
04
0a
ff
fa
03
03
fc
f9
fb
f4
fa
fc
00
fe
03
09
ff
f6
fa
fd
00
ff
fc
fb
fc
08
02
04
01
fe
05
0a
07
06
fd
00
f5
ff
01
fc
f6
fd
01
f9
fa
06
00
02
01
07
0c
07
01
f8
fc
04
01
01
ff
0c
f9
fe
fb
ea
07
04
06
fd
08
02
fe
f9
fc
04
fa
03
0b
03
01
07
06
0e
07
02
fe
ff
fc
01
02
f6
fe
fd
01
09
01
03
fe
03
fe
fe
fc
fd
f9
08
09
fe
09
ff
fe
01
01
01
0b
07
fe
f7
fe
fa
04
01
f4
fa
02
04
04
0e
02
04
06
fc
00
00
f7
fb
04
01
f5
04
f2
01
f8
fb
00
07
04
03
ff
ff
03
00
00
fd
f6
fd
fa
fb
fe
08
fa
00
03
00
05
fc
02
05
fe
fe
06
fd
02
00
04
08
fd
fd
f7
ff
f0
02
ff
f4
f8
03
fa
0b
fe
06
02
02
fb
fa
0a
05
f9
06
fe
00
03
fd
04
01
03
ff
f4
03
03
fb
04
fc
fd
f7
ff
fb
05
01
f5
01
02
00
f2
04
02
01
10
01
00
f6
01
0a
06
04
02
00
01
08
f8
05
00
0c
04
04
00
00
fd
03
fe
fa
03
f9
f6
04
06
04
fa
05
f5
fc
f2
fe
00
fa
04
fc
09
01
fd
00
00
07
ff
03
00
01
03
02
fd
fd
06
05
05
fa
fe
00
00
04
f9
ff
03
ff
08
00
fe
02
fb
04
fe
07
fe
0b
fc
00
fc
05
04
fc
fc
01
02
fb
00
f5
03
04
fb
05
fb
ff
fe
ff
ff
fe
fe
fa
04
06
00
fb
06
fd
01
03
09
07
01
f7
fa
00
fb
05
f7
03
01
02
f9
fc
0a
05
00
0b
f4
fc
01
01
00
fd
00
fe
01
fe
00
ff
07
fb
fe
fd
01
fe
08
06
01
06
fd
fb
f6
fe
fe
fb
01
f9
03
f6
fd
00
fb
ff
09
06
fb
01
00
01
04
02
f9
fe
07
03
09
00
f7
07
fe
0d
01
00
01
f8
06
0a
03
fb
ff
f7
ff
01
00
04
04
fd
03
02
01
02
fc
fb
04
03
02
fa
fb
f9
fd
ff
05
08
00
00
fb
fb
03
fc
01
00
ff
fa
fd
fc
02
f8
fa
04
04
fb
fe
ff
06
f9
02
fd
ff
01
07
fe
ff
0b
03
01
01
ff
fa
fd
00
02
05
05
03
fc
02
f9
06
fc
0b
03
03
04
02
fe
04
fb
04
08
f0
ff
f9
fc
ff
01
07
fc
01
fd
04
01
fc
04
ff
01
02
00
ff
03
fb
ff
ff
fd
09
03
fb
fa
fc
fe
fa
02
f7
01
00
02
fe
f7
04
02
06
03
05
fd
f8
fc
02
02
fb
07
ff
fe
01
fd
04
fd
04
ff
f9
fa
00
ff
01
fb
00
00
fe
fe
00
f9
08
03
00
01
01
04
04
fc
02
fb
f7
0a
03
11
ff
06
f4
06
02
01
fc
fb
fe
06
00
f5
05
ff
ff
04
00
fe
01
00
02
ff
fe
00
04
02
00
00
fe
fa
08
f8
fc
fc
fe
05
04
ff
fc
fb
08
03
fb
fe
03
00
06
ff
02
00
05
02
fb
fe
fa
fd
01
f9
02
02
00
00
fa
03
03
f8
ff
00
00
02
05
fe
00
05
05
07
06
05
ff
00
02
04
05
02
f2
07
03
04
fa
09
f7
00
ff
fe
fb
fb
ff
f8
00
fd
06
fe
f9
02
00
0e
01
03
03
03
01
06
fc
fb
ff
fc
01
01
fe
fc
fb
fe
f6
fc
fa
01
fc
fd
ff
01
03
00
fd
0d
08
ff
f7
fe
02
05
05
09
02
01
00
08
01
03
07
00
09
00
03
09
01
03
04
f7
f5
fd
f1
05
0e
06
08
f7
02
07
f4
01
00
fb
fc
02
fb
02
fb
00
00
03
00
ff
0b
fe
03
03
01
fe
fe
04
05
00
04
02
f6
01
fc
00
fa
02
fd
05
f7
fa
0b
01
00
06
f9
00
09
fa
fb
fe
f3
fc
07
00
03
07
fa
0a
fd
06
06
01
02
ff
ff
03
02
f6
fb
fd
fc
02
03
00
fd
0a
fe
09
fa
00
08
f9
fa
02
ff
04
fe
f7
00
07
ff
fe
06
ff
00
00
fd
04
04
06
fe
01
00
f8
01
09
fb
f9
fe
ff
00
09
04
02
ff
05
fc
00
06
fd
f6
00
04
04
01
01
03
f5
03
ff
f9
04
ff
fa
ff
02
00
fd
05
fd
09
02
05
fd
03
f9
01
fa
04
ff
07
fe
01
03
ff
00
ff
fd
ff
fd
f5
ff
fd
ff
f6
03
00
fe
06
fa
ff
08
03
ff
05
fd
0b
06
ed
0f
ff
06
0c
02
04
00
04
fd
fb
01
05
fc
03
07
05
fb
f6
fb
16
02
ff
0a
f1
0b
f9
f5
02
fe
fc
04
07
06
fe
01
f9
fb
fb
07
03
0e
fd
f5
00
0a
00
08
00
fe
0c
03
08
fc
07
06
01
ff
fa
01
08
fc
fe
00
03
00
04
01
00
f6
f8
05
06
00
03
02
06
fe
05
ff
08
0b
13
01
04
07
f7
f6
05
08
03
00
fa
fc
fe
ff
f6
f8
01
fb
0b
0d
07
06
02
09
f4
fc
fe
09
01
fd
01
00
01
02
fa
06
02
05
ff
00
02
02
fb
fe
03
07
ff
fc
fc
06
03
fd
fd
ff
04
00
02
fe
00
fd
00
01
fc
fb
02
0b
06
01
03
06
fc
01
f8
fd
08
00
fb
0a
fa
06
04
fc
04
fd
fb
f9
00
f8
fe
00
00
fa
04
05
02
03
f7
fb
06
05
09
02
f4
fc
fc
02
fd
0a
fe
0c
04
09
04
fc
04
fd
07
01
04
01
0d
00
00
f7
f9
00
fc
ff
f8
08
fc
09
00
fc
01
ff
fb
05
0a
fb
04
ff
ff
06
fd
f9
03
fc
02
00
05
01
03
fb
fb
0a
fe
fd
fe
fc
02
fd
01
fb
06
fe
ff
f8
01
03
05
fc
01
f3
07
05
04
fa
03
fd
ff
02
05
09
fa
f7
06
07
04
ff
03
01
fc
0a
09
04
f9
01
ff
05
fa
00
03
01
fb
01
02
02
ff
fd
06
fc
01
05
02
07
08
02
f9
05
01
08
fb
01
08
00
05
fb
01
ff
f9
00
ff
fb
05
fb
02
03
f6
fa
fc
04
08
fd
04
fe
02
06
03
02
ff
04
02
07
04
03
00
f9
fe
04
05
01
01
f6
05
fa
01
05
ff
00
04
00
05
fd
01
06
05
01
01
05
05
f8
fd
05
00
07
10
fb
08
06
0f
03
fb
fb
09
fa
02
03
02
04
0b
0b
04
07
fa
fd
f9
f9
03
fc
02
fc
fd
ff
00
fe
02
01
fd
02
00
04
fd
01
fe
00
04
03
05
f7
00
04
fd
ff
fe
02
06
02
fb
01
fa
00
00
fa
05
ff
02
06
ff
04
04
09
02
04
04
05
00
00
02
fc
0c
0a
fa
fe
01
03
fb
fd
00
fa
09
fe
0a
01
00
00
fe
00
08
08
04
04
f9
fa
02
00
f1
00
04
04
ff
fa
00
ff
f5
fb
fb
fc
00
09
06
00
fe
09
fc
06
02
f9
ff
03
fd
fa
fc
fd
00
00
f6
04
02
05
ff
fc
02
fc
01
01
fc
01
fd
fe
0c
09
fa
04
00
fc
01
00
fa
01
f6
00
01
05
02
07
02
03
fd
03
07
fa
01
fd
07
00
ff
00
f9
06
02
07
f7
03
05
06
fd
03
fb
07
fb
f8
02
09
fb
00
ff
00
04
04
fe
01
06
f1
04
fc
08
09
06
fb
ff
f5
f9
04
04
fd
fe
04
02
04
0c
f6
02
01
fd
08
fe
ff
02
02
fe
01
02
07
00
fe
02
f8
fe
00
fb
f9
05
ff
03
09
00
04
01
01
fa
00
00
04
02
fc
ff
03
04
fc
fa
02
fb
03
00
01
01
02
05
02
03
02
ff
fb
02
07
ff
02
fc
ff
fc
00
fe
fe
02
09
fe
ff
00
02
00
fe
00
02
05
03
fb
00
03
fe
f9
ff
ff
02
03
ff
01
ff
01
0b
fe
ff
07
02
fc
03
06
01
0b
fe
00
00
fc
ff
05
00
03
05
fe
fe
ff
ff
01
01
ff
f8
fd
00
f6
02
fd
fc
fe
00
fe
03
fc
06
00
02
06
fd
05
ff
02
02
fe
fe
03
02
06
fb
03
02
fa
f7
04
fe
03
ff
02
f8
02
fa
fb
05
01
ff
06
fe
fc
01
05
04
03
fe
01
fd
00
00
00
01
ff
01
00
fe
f8
fd
fa
02
fd
03
fc
01
f9
03
f7
ff
fb
03
fb
0f
01
f9
04
01
fa
fc
04
04
fe
f5
f9
09
07
02
01
02
fc
06
fc
fc
03
f6
03
fe
f7
f9
04
01
ff
ff
02
f4
ff
03
fb
04
fb
04
02
07
fb
01
fb
fe
f8
04
fb
02
ff
f7
fa
00
ff
01
02
05
ff
01
04
02
05
01
f9
f5
ff
03
00
04
ff
01
02
ff
fc
02
06
f6
fc
06
f7
01
f8
fa
04
05
09
03
fe
fd
00
00
f5
04
02
f8
ff
00
02
0b
08
fe
09
02
fd
04
00
fd
fb
01
fc
01
05
fd
04
02
01
fd
fe
04
00
fc
fe
fd
00
09
ff
fe
fd
03
fc
03
ff
00
08
03
00
fb
fd
fb
09
00
02
03
fa
03
02
02
ff
04
ff
0a
fd
fb
01
f9
03
ff
02
01
fe
05
fd
02
fe
01
00
00
fb
f8
05
f5
ff
fb
fb
00
fb
01
fe
f8
ff
0a
02
fe
05
fb
f9
f9
02
fa
0c
01
fd
ff
06
0a
01
fe
03
07
00
05
02
02
ff
00
f9
04
05
fa
05
02
f9
05
f4
fd
06
01
f5
fd
05
05
02
01
fb
ff
fd
fd
fa
06
f5
00
00
01
04
07
fe
0c
01
fc
fa
03
02
00
06
ff
fd
03
ff
06
01
02
00
08
fc
fb
03
03
05
05
fa
00
fd
fd
01
00
fe
fd
01
04
fe
fa
06
fd
0a
fe
00
fb
07
00
0e
09
01
f0
fa
03
02
fb
fe
05
fa
f8
01
fe
f8
fd
fa
f7
04
01
05
01
f9
07
04
01
07
fb
fe
fa
f9
04
02
ff
02
05
fd
fb
00
03
fc
01
00
ff
05
ff
f6
05
02
fe
02
02
fe
04
f6
f9
04
0e
04
00
01
05
fe
fd
fd
ff
fe
01
02
00
04
fb
f9
ff
01
01
02
fd
fb
fc
05
ff
00
f9
fc
00
02
fb
07
fd
01
04
f9
ff
03
00
fb
ff
03
ff
fc
01
05
06
fb
fb
f7
06
0a
01
08
0a
00
fd
00
00
ff
fd
fe
07
01
05
fa
ff
00
fc
04
fc
04
f6
f6
f9
02
fd
04
ff
00
fd
07
05
00
01
00
04
03
08
f7
01
fd
04
fd
fc
ff
09
fe
f8
fe
fe
fc
ff
fc
f9
f5
fc
f1
fc
f2
00
02
f9
07
03
fe
07
f9
fd
01
03
fe
fb
02
02
04
ff
04
01
ff
09
fe
04
01
08
fc
04
04
00
f6
03
fe
05
fe
01
fc
03
03
00
01
00
fb
f5
02
f0
fe
fc
07
fd
06
ff
fb
09
fc
fc
04
ff
01
fa
f8
fb
00
01
09
f8
07
fd
f9
00
f8
0a
03
06
fd
05
03
02
04
05
f9
fe
fa
04
fc
00
ff
fa
02
fa
ff
fc
f4
fb
02
fd
ff
04
fb
01
fe
fc
fb
02
f9
0c
fd
04
fd
09
06
03
fe
04
03
07
fc
fd
fb
05
09
01
04
fc
03
03
06
00
00
fa
05
ff
05
01
07
fb
f6
f9
04
fe
01
04
f8
f6
f5
fc
03
00
fe
fe
fc
05
06
f7
03
03
f7
ff
03
07
02
00
fe
02
f5
ff
08
00
fb
fc
ff
f8
0c
f7
00
06
00
06
00
00
02
04
03
01
fe
06
fb
fe
02
04
04
fd
fc
02
02
ff
fc
fe
02
fc
00
fb
09
f8
05
ff
f6
fe
01
ff
fd
02
03
01
00
ff
ff
02
05
05
04
fd
00
04
02
04
06
00
fb
fe
00
04
00
ff
01
04
00
fd
01
02
00
01
01
fd
f9
03
01
fc
02
05
00
ff
02
f9
fd
ff
fd
fa
03
fe
04
00
ff
fc
0e
01
04
00
00
ff
f8
fe
02
01
02
fe
fa
04
fd
fd
fe
02
ff
f9
0a
f5
fd
01
03
fe
06
fa
02
fe
04
03
ff
03
01
ff
01
05
ff
fb
ff
fe
f8
05
ff
04
fb
fe
00
ff
06
03
fe
02
00
03
06
fe
01
ff
ff
02
05
fd
fa
00
01
00
04
fd
03
ff
ff
fe
02
fd
fb
fb
f6
fa
04
f7
fd
f4
06
09
f9
01
02
fb
fb
fa
fd
05
01
fe
09
09
f8
02
f8
fe
f9
fb
fb
01
05
01
04
fd
05
ff
fd
01
f5
ff
00
13
fa
f7
00
01
05
fe
05
ff
00
02
fc
fa
fc
0c
02
0d
02
01
06
fa
fc
fb
f8
06
fc
f9
fc
04
02
00
03
00
fb
ff
f9
02
02
0b
07
06
04
fc
fe
04
f2
fc
00
02
ff
07
02
01
02
02
05
fa
07
fe
ff
09
04
fa
08
00
16
ff
ff
00
fd
fa
07
02
02
fc
f7
f5
0e
ff
fe
fb
02
00
00
0b
ff
00
f6
02
00
fb
0a
f8
fd
09
fc
fd
fd
fd
0a
03
fc
fc
01
03
05
ff
04
f8
f5
fa
05
fa
02
01
04
02
f9
02
00
fe
01
ff
02
00
05
fc
fc
02
fb
01
06
00
fb
01
04
ff
fd
f8
fe
01
fc
00
f9
02
01
05
01
fa
fe
0c
fd
01
01
0b
00
ff
04
02
04
00
06
00
01
f9
fd
05
06
fb
fe
fa
fd
01
03
fe
05
01
03
03
fa
f9
ff
fd
07
02
fe
06
03
03
fe
ff
09
06
fe
fc
00
ff
fa
02
00
01
05
03
fc
06
02
00
01
fb
00
fb
06
00
07
fc
f9
05
fe
ff
fd
ff
03
00
08
f9
fe
03
03
fe
fe
ff
00
00
05
05
fe
01
02
00
01
ff
08
01
03
fd
fd
07
f5
fd
f7
02
01
00
06
fa
00
fd
fd
06
fb
01
fc
fc
fc
02
fe
04
04
ff
f4
07
fd
02
02
02
04
03
02
01
00
07
fe
fd
06
00
fd
fa
fe
f9
ff
fe
04
04
fb
05
fd
05
01
03
fc
fe
06
ff
ff
03
ff
00
04
fc
ff
03
f7
00
00
08
fa
00
04
00
fd
fe
fa
04
09
ff
07
fb
00
06
03
ff
f9
04
fd
02
01
03
01
fa
fe
fc
15
04
11
fe
fe
fd
fb
f5
0c
02
fd
01
11
0b
05
03
f4
04
06
ff
02
00
00
01
fe
09
f9
05
fe
f5
02
04
09
02
03
fb
08
fd
fe
03
f9
01
00
01
04
fd
00
f9
f8
02
01
05
01
04
05
00
01
08
ff
01
fc
01
00
00
fa
03
ff
05
03
09
00
06
fc
fb
04
fa
fb
08
02
fa
03
fb
fe
02
03
04
f4
fd
f8
f6
08
08
ff
00
03
05
fd
fd
06
02
01
00
ff
fc
fe
03
04
fb
fd
ff
04
f9
fe
fe
fe
07
fc
08
00
04
fb
f8
fa
ff
fa
05
03
fd
fd
01
05
f2
02
fc
03
08
04
01
02
fd
08
0d
fb
f4
06
fa
00
06
fe
f5
09
06
0c
fd
04
01
08
f1
f9
00
ff
fe
fa
ff
0b
04
01
f9
fd
f8
f7
02
fe
f9
ff
f6
02
06
05
01
fe
02
06
0a
f9
f8
06
06
fe
03
09
fd
06
02
fd
fc
fe
f5
fa
fe
02
f7
02
fa
f7
ff
fb
07
02
ff
05
fe
01
02
04
ff
fc
04
f5
fc
06
02
fe
fd
00
06
f5
fa
02
fa
03
fc
02
ff
fb
03
ff
0c
f9
01
05
fc
f0
04
fc
fe
01
fc
fe
02
07
f6
06
fb
00
06
fc
fd
00
03
fa
ed
02
08
f8
fe
04
fd
02
0d
04
05
03
00
fd
fb
fb
fe
01
ff
ff
04
0b
ff
fd
fe
04
0a
fd
f6
05
f8
08
fe
04
fd
02
01
02
01
fc
f8
fa
fc
02
02
fb
04
fa
fb
fd
fc
ff
0e
fc
01
03
f7
05
f2
03
ff
fc
ff
fd
fb
02
fe
08
03
07
fe
fe
05
ff
00
fc
04
00
01
fe
ff
f5
fb
06
0a
04
00
00
0e
02
02
f9
06
ff
fc
01
fc
01
03
07
00
ff
04
02
01
0a
04
ff
06
fe
00
01
0b
f0
07
07
ff
03
04
04
00
05
fa
ff
04
05
07
f6
01
06
f8
fc
fd
fc
05
02
02
f6
f5
04
0b
02
00
03
03
00
04
09
08
fe
fc
ff
02
02
04
00
f9
fa
01
fd
06
04
f9
09
ff
00
fe
08
ff
fd
fc
ff
fc
05
f3
f5
02
01
fb
fc
03
fc
04
09
04
04
02
07
f8
f8
04
fc
fe
00
fa
03
ff
fc
00
fc
04
01
04
02
fe
00
ff
fc
ff
fa
08
03
00
03
02
f7
fb
fa
0e
ff
ff
03
02
07
04
fb
fe
09
02
00
02
0a
0a
03
01
fa
fd
fd
fa
0e
03
01
fd
04
08
03
fd
0a
f9
fa
05
03
ff
fa
03
04
02
00
05
01
02
fc
01
01
fc
04
fc
fc
03
fc
05
01
f7
02
00
fd
05
01
01
fd
fc
fe
02
05
06
05
02
03
ff
00
07
fa
03
04
03
fd
fe
01
03
00
09
ff
03
fb
01
00
02
00
0c
f7
06
fb
03
06
01
05
00
03
fe
01
f3
fc
08
fa
04
03
fc
fb
05
08
fc
fc
fd
06
06
f7
fb
0a
fe
fc
fa
ff
07
fc
fb
fe
05
08
07
00
03
fa
fd
04
02
ff
04
02
01
f6
fd
f9
02
00
04
00
00
05
fe
07
f9
01
09
fd
fa
04
f6
00
f5
fe
fd
05
ff
ff
04
fa
fe
ff
06
01
fc
01
f8
fc
02
fb
ff
04
00
00
03
ff
fa
ff
00
06
01
ff
03
04
ff
02
f9
fc
f9
05
ff
06
ff
ff
09
03
03
fe
01
fe
f7
05
f7
02
04
fe
0a
03
0a
05
ff
07
fd
00
03
06
fe
0a
06
fd
0b
01
04
03
f7
fa
ff
06
04
fc
06
02
fe
ff
0e
fd
fb
01
ff
fe
05
fa
f6
03
ff
f9
ff
03
fc
06
fd
07
00
ff
fc
07
03
ff
03
02
05
03
06
02
fd
03
fe
02
07
00
06
0b
04
fa
03
05
04
06
03
ff
03
04
f9
09
f9
03
f4
03
ff
05
03
07
06
f9
01
fe
fd
ff
03
fa
ff
fb
fb
f9
03
03
08
fd
01
02
03
02
f9
05
ff
fd
02
05
fd
05
03
f8
01
07
fb
02
00
fe
f9
04
09
07
fd
01
f9
ff
ff
05
05
01
ff
fc
02
ff
ff
fe
ff
01
01
fe
fd
ff
02
06
fe
02
04
04
02
03
01
03
ff
fd
02
04
05
02
f9
04
ff
00
fa
ff
f5
fb
00
01
fc
00
05
01
fd
ff
fe
00
fd
fc
f9
06
fa
00
fc
04
01
fc
ff
00
ff
02
fe
fe
02
05
fe
fe
02
fb
06
fb
00
fe
fb
fb
01
04
ff
fc
fe
ff
08
02
03
fc
f8
fb
02
01
05
03
fa
03
ff
fa
02
fa
00
ff
fa
07
fd
02
00
02
fd
00
fb
01
ff
fe
ff
00
fe
f9
0c
fc
02
f7
fb
01
02
fa
04
fb
ff
00
fc
f9
03
06
fa
00
f8
02
02
fa
fe
01
fc
03
fd
fa
fc
04
01
fd
00
fc
05
ff
02
01
fc
fc
03
ff
02
01
fb
02
01
00
05
ff
04
01
01
fe
07
fc
fd
00
03
04
f9
f6
00
fc
ff
06
07
03
03
ff
00
05
03
fd
ff
f9
03
fc
fb
03
fb
03
02
ff
fd
fb
03
00
02
02
fe
fe
fd
fd
f7
02
f8
02
07
ff
03
fd
fb
ff
fb
00
03
01
06
02
02
07
ff
04
03
04
03
fb
00
ff
fe
00
03
04
12
08
f5
07
0c
01
06
f2
0d
fb
00
fd
f9
fb
04
0d
04
ff
fa
08
12
fd
0c
01
fa
ff
02
00
fc
00
04
00
09
05
fc
0c
fb
fa
06
07
f7
0c
06
fa
f9
05
01
fc
fe
01
fe
ff
06
fa
0c
f6
f6
03
01
fc
05
f3
05
07
fa
fc
ff
01
fd
ff
01
fb
03
f8
0b
fd
08
fb
fe
fb
02
f7
04
fe
04
03
f5
0c
ff
fe
05
f9
01
f9
05
fc
06
13
fe
fb
00
00
06
07
fe
0c
03
fd
01
02
fd
05
01
03
02
04
f9
04
02
02
f5
06
fb
04
fe
02
f4
02
04
03
07
ff
02
f9
00
06
fd
f9
01
fd
ff
07
04
fd
f6
fb
f7
fb
0b
00
f6
f8
fc
fd
fd
02
fc
f9
f9
f8
02
08
01
fe
04
fd
ff
04
f9
01
ff
fe
fc
fa
08
03
fa
0a
04
04
f9
f9
fe
00
06
06
05
0c
ff
09
f9
00
fc
fd
05
01
02
fb
fe
f8
0a
05
f7
02
f8
03
fb
fd
09
fe
04
ff
01
fe
f5
fe
f7
fd
03
fd
02
00
fe
fd
0f
01
fa
03
02
fb
f4
ff
ff
fe
02
fe
f9
08
f3
f8
f7
f9
02
00
fb
04
f6
fb
fe
ff
fd
04
05
f4
08
02
02
07
fd
00
0a
f9
07
02
00
fc
03
fd
01
09
05
0a
00
09
f9
00
00
02
fb
fe
04
f7
01
07
ff
09
06
f8
fb
ff
fd
00
fe
fd
00
f6
ff
0b
ff
07
05
fe
f9
0a
02
03
f7
f2
fc
07
ff
fc
05
ff
05
0b
01
fd
01
02
fd
ff
01
fe
ff
01
ff
ff
f4
f9
fd
05
f7
02
03
06
04
fb
01
fb
00
02
05
ff
01
04
03
ff
fe
f9
fc
07
05
fc
02
04
07
ff
00
fe
fe
00
fb
fe
f9
01
04
02
fb
05
06
04
fd
04
ff
08
fd
03
06
ff
03
fb
01
fd
05
00
0a
ff
fb
fd
fb
fd
04
02
fe
04
00
08
01
03
00
05
00
fe
03
f8
fc
ff
07
00
04
03
02
fb
03
ff
01
06
fa
fb
00
f9
ff
0c
00
fd
fa
fb
00
fc
fd
fd
07
f1
fc
fc
fa
fc
01
fe
02
fb
fe
fe
01
04
00
fe
00
fd
fd
04
0a
03
03
fb
00
04
03
05
06
fd
f8
02
02
f8
fe
00
04
02
00
06
04
fe
02
ff
02
08
ff
f5
02
ff
f8
04
ff
09
f4
f9
01
f9
08
fc
f8
fb
fe
01
04
f7
00
00
03
0d
06
f7
00
0f
fc
01
04
02
0b
05
00
03
f7
01
11
fc
05
fd
01
04
03
fc
ff
02
02
04
00
ff
02
fc
02
05
fe
fd
03
fd
02
fd
04
00
fb
ff
02
04
05
02
fc
fa
08
03
04
fe
fe
03
05
02
01
fe
fb
01
04
f6
07
01
f9
07
00
0a
01
04
04
f9
03
f4
fc
0f
fc
ff
ff
00
04
07
f8
fa
04
fd
ff
fe
fd
fb
fd
ff
ff
04
f2
01
fa
04
f9
02
05
0c
fb
03
02
04
07
f6
00
fb
00
ff
f9
06
02
fe
03
02
05
f7
f9
03
f9
ff
f4
02
02
fe
f7
04
01
fe
fc
ff
00
01
02
ff
02
03
00
f5
02
07
04
00
00
fe
00
01
fa
04
fa
f8
fc
fe
05
fd
05
fa
fd
fb
06
fc
f2
fb
fd
ff
04
00
03
fe
f9
ff
02
00
fd
01
fe
04
05
fe
fe
ff
00
02
fa
01
fd
06
ff
ff
02
fe
fc
00
ff
f8
06
06
fe
00
f4
03
f9
ff
02
00
03
fe
00
00
fa
ff
ff
05
02
fc
fb
fc
02
fb
05
01
03
07
f8
fc
00
00
fe
05
02
ff
01
04
05
01
fc
09
03
01
09
06
05
05
ff
01
04
00
01
06
04
02
03
01
fe
00
08
fd
fb
f8
04
00
00
02
ff
f9
fc
05
01
01
f8
ff
fd
ff
00
01
f6
fb
07
03
fc
00
fe
06
fb
04
ff
06
fc
ff
04
01
00
00
04
00
fe
00
f6
09
0c
fd
03
01
02
00
08
fd
04
03
01
fb
03
fc
ff
fc
fd
06
fb
fd
02
06
fe
ff
fd
03
fc
00
02
01
fd
f2
03
02
fd
fe
f9
ff
fd
ff
0b
00
02
fb
00
fe
01
00
03
04
03
f8
01
09
fe
f9
ff
01
f5
06
01
03
fb
fe
fc
fa
ff
fb
04
09
01
07
08
ff
01
fe
01
01
00
06
02
0a
02
00
fc
fe
fd
fd
f8
06
00
fc
01
ff
fb
07
00
02
f9
ff
fc
f7
fa
03
01
fa
01
03
ff
fb
03
f7
f9
fe
09
fc
05
07
fe
fe
02
02
fc
f8
07
fe
fd
fe
ff
03
ff
fd
fa
fe
08
f7
00
07
01
fd
01
03
09
08
02
fc
02
03
11
ff
fd
00
01
fd
04
f5
fc
f2
fd
03
05
ff
01
ff
00
02
ff
01
00
04
f5
04
01
01
01
fd
f9
05
08
f3
03
fd
05
08
03
00
f4
01
00
01
04
fc
ff
fd
03
04
06
03
f6
13
fe
ff
0e
fd
02
fd
fd
08
ff
f2
fc
fd
06
06
fd
ff
ff
fd
fb
04
f9
fe
fd
01
01
01
00
04
02
04
f8
f8
01
08
fd
03
01
f6
03
06
fe
05
02
01
04
fc
fe
03
0a
03
02
00
08
00
fb
f8
fd
03
ff
fe
02
fb
09
0b
05
f6
05
00
07
00
06
00
00
02
f7
02
fe
02
0a
fb
ff
05
f7
fd
f6
fb
f8
00
fe
03
fc
ff
0c
ff
fa
03
00
08
01
fd
07
04
fd
04
ff
05
08
fd
00
01
01
05
00
f2
fc
06
05
03
ff
05
00
03
05
04
fc
09
fc
fd
01
fe
02
09
03
04
09
05
03
fd
f9
06
00
ff
00
fa
03
fb
f8
06
0a
04
03
fe
fe
02
ff
04
02
00
fc
fc
00
01
fe
ff
04
02
00
08
00
08
fe
04
fe
05
fa
ff
0b
05
01
07
00
02
fa
fa
fb
06
04
fa
05
00
02
04
fb
01
01
00
fe
01
fd
00
fd
fe
fd
04
ff
f8
00
fc
ff
fe
fe
f9
fe
05
02
03
01
fe
0b
00
02
03
ff
fc
03
ff
01
ff
ff
01
01
ff
02
02
03
fe
fe
01
ff
fc
08
03
ff
03
05
04
04
07
00
ff
f9
05
fb
fd
02
fb
f9
03
fb
00
fc
04
fc
fd
fe
fe
fd
05
fd
04
08
03
0c
05
fb
04
f9
fc
00
f9
fc
fb
03
fc
04
02
00
fa
fa
0e
06
f5
04
02
fd
00
f6
0b
03
01
f4
0b
fb
06
fc
fb
ff
fe
fe
01
01
04
06
04
fe
fe
fa
05
fb
00
fb
04
fb
f9
fb
04
ff
03
01
09
01
02
05
fd
0a
fc
fb
fb
f6
ff
ff
fc
ff
07
f7
fc
fb
04
06
fd
fd
05
03
f3
f7
ee
ff
00
08
f8
02
05
ff
fd
0a
07
00
ff
fd
fa
01
fe
fc
ff
fd
02
01
f9
00
fe
06
f9
f5
fa
f9
fe
f9
fb
04
f5
f3
07
fe
fb
04
08
00
fd
05
fd
06
03
00
02
00
04
f8
02
0d
0c
05
f2
04
fc
0c
08
fa
01
f9
03
01
01
00
fa
fe
fe
04
fd
07
fd
09
04
fe
04
03
01
01
01
00
fd
00
fc
fa
03
01
04
02
fa
02
00
03
ff
fd
04
02
05
fa
02
fe
f7
fe
02
02
fc
fb
03
05
fc
fb
ff
fe
00
04
fc
03
fc
08
02
03
ff
fd
fc
02
03
01
f7
ff
05
ff
f7
03
ff
02
fa
fe
00
01
05
01
ff
ff
02
fe
fe
09
fb
04
fe
fa
f8
02
f7
fc
02
fc
ff
fd
01
f9
fc
05
02
fc
00
02
05
fd
01
02
fc
01
05
01
02
01
f8
fb
05
03
04
fe
fc
06
fb
fc
fd
03
fe
00
03
03
01
04
07
04
05
01
fc
02
04
fd
06
fb
fd
fa
03
03
fd
fa
01
06
fb
00
05
fc
fe
fa
03
05
00
fe
00
03
fd
00
02
00
05
f9
fc
01
06
00
00
02
fb
ff
ff
03
ff
00
fb
fa
fd
fc
ff
05
03
fd
fd
02
02
fb
fe
00
fa
03
ff
fb
03
03
06
00
fb
04
00
fe
fc
00
fe
01
01
04
fe
fc
fe
01
01
02
01
01
05
ff
00
03
04
04
02
fd
00
fc
05
03
03
08
fc
fc
fe
ff
06
02
ff
07
04
fa
04
00
fe
01
00
05
ff
00
fc
f9
00
ff
04
fe
01
fe
08
fe
ff
04
09
ff
fe
f8
02
05
fd
00
06
fb
fb
0d
ff
fd
ff
03
ff
ff
fd
02
02
04
fa
04
fc
fa
f8
01
fc
fc
01
02
00
ff
fb
02
02
07
01
fe
fc
fb
fe
09
ff
fb
fb
fd
02
02
ff
10
fb
f7
08
00
fb
00
01
fc
03
01
03
fa
04
05
fc
ff
0b
04
fb
05
fd
fd
03
03
08
00
00
00
fc
00
fe
fd
fe
04
f9
fc
fc
fb
02
0b
f4
03
ff
03
05
fe
05
02
ff
00
01
01
ff
ff
01
01
f8
01
05
f9
fd
fb
fc
01
fe
fe
02
fc
fc
ff
fc
fe
ff
fe
ff
04
09
ff
fb
08
03
02
03
fa
01
02
fc
fd
fe
02
fe
03
f9
fb
ff
06
f9
01
02
fe
00
fd
fe
00
00
07
0a
f6
fe
06
fd
fe
01
fc
ff
fb
02
01
02
fa
00
08
fa
04
06
fd
00
fb
04
fd
fd
06
fc
06
08
03
ff
ff
0c
06
ff
f7
03
fd
02
01
0b
fe
fc
ff
04
00
fe
f8
05
01
fd
05
fd
fd
fe
01
04
02
00
01
01
00
ff
fc
f9
04
0e
00
03
03
fa
ff
08
09
fe
ff
00
fa
05
ff
fe
fa
02
00
fe
01
01
00
01
fb
05
03
02
03
ff
ff
04
03
fb
05
fc
fb
01
ff
03
04
04
ff
05
fd
fe
f6
fd
01
02
fd
fe
00
03
01
ff
f9
01
fb
04
fb
fc
08
03
fa
05
ff
03
08
fe
01
fe
01
ff
01
fd
fe
00
fd
f8
03
fd
01
02
fc
01
fc
fd
fe
00
04
04
fb
ff
f9
00
01
fc
fd
00
05
01
fd
05
04
03
06
03
fc
fc
08
03
01
05
05
fe
00
03
fc
fe
06
00
fe
05
02
03
fd
fd
fb
fb
00
03
08
02
fd
02
01
03
00
05
01
fb
fe
05
00
ff
02
00
fc
02
03
03
04
03
00
fb
01
fd
f6
09
01
fe
fd
f6
03
07
01
fb
02
fd
f8
fd
06
00
ff
04
00
00
ff
fd
03
f7
03
07
00
01
f8
01
06
02
08
f7
fb
08
fa
fe
fe
fc
02
fc
00
f4
f8
01
0a
fa
05
07
ff
0a
06
fe
02
02
00
fe
fe
fb
ff
00
ff
02
00
ff
05
ff
fb
02
fb
fe
fc
05
fe
fc
fe
0b
0b
f5
03
fd
05
fd
01
fe
f7
fc
00
f7
04
fa
04
f9
fe
06
02
fd
fa
02
fa
00
fc
fd
fe
fa
f8
02
08
fe
fe
07
04
fc
fc
fa
00
fb
f8
03
06
02
fc
02
ff
02
fd
fe
05
07
fb
02
04
00
fa
02
fe
ff
05
06
04
ff
fc
07
fc
01
01
fe
fd
ff
01
07
05
01
fa
fc
06
01
0c
ff
02
03
09
03
f9
06
ff
00
02
ff
03
f9
f3
04
04
08
02
01
fc
f9
fe
fd
03
f4
0c
06
0a
ff
03
05
f9
fc
08
f9
fd
0b
00
f7
fd
f3
f9
01
fc
ff
05
f9
fe
ff
06
05
00
04
fa
06
fc
fa
fd
f7
fe
01
02
00
01
07
fe
02
02
11
09
02
08
05
01
04
fc
05
fc
ff
ff
f9
10
01
fd
fb
fc
fc
02
07
fb
05
04
fc
fe
0b
fd
ff
00
ff
f9
fb
02
01
04
0a
01
f6
02
01
03
ff
fd
ff
05
fd
04
01
ff
03
0b
05
00
01
01
00
fb
00
00
06
06
04
fc
f8
01
fd
0c
f9
04
fc
08
fa
0b
f4
01
03
f9
04
02
07
ff
f9
ff
08
fd
ff
07
00
01
fd
ff
f7
01
05
02
fc
ff
fa
fb
ff
07
f9
02
04
ff
ff
05
02
fd
fc
09
07
04
03
ff
00
00
01
fa
08
fe
fe
fc
03
02
f8
04
fa
ff
03
02
08
07
01
f9
02
f6
03
ff
f7
04
f7
00
05
06
fd
00
fa
f9
01
ff
01
f9
00
fe
fc
fe
fe
07
00
f6
fc
01
fe
ff
02
fb
fe
fe
03
08
04
00
f9
f8
fb
fd
00
ff
00
fe
fc
03
fe
0a
04
04
fa
08
01
fa
04
f9
04
ff
04
fb
fe
00
01
fe
fa
fd
fb
03
f9
ff
fc
08
09
07
fe
10
03
fc
02
fd
07
00
04
f9
fe
fc
03
03
fe
fc
05
03
04
fd
fd
fd
ff
01
fd
ff
01
03
01
f5
09
03
ff
05
04
01
02
03
03
fe
02
03
02
06
03
02
03
03
fd
fe
01
fd
04
02
fd
fc
f7
fa
04
fd
00
05
fa
ff
04
04
02
00
0c
02
fb
fc
09
08
fa
fb
01
03
fa
fb
fe
ff
f7
ff
fb
07
fe
fa
04
fb
ff
08
07
ff
05
fd
fe
ff
fb
f8
01
02
03
09
00
fb
03
03
fa
fe
ff
01
fd
03
04
0a
fc
03
00
01
fa
01
02
04
01
07
00
f6
fb
f9
fa
fe
fd
02
02
05
f7
f5
fa
02
00
fb
0a
fa
ff
fe
02
03
09
01
01
fb
f8
04
02
03
09
fc
fb
ff
fc
02
f9
05
02
f7
00
01
02
09
06
fa
f8
f9
08
ff
15
00
fa
ff
fe
f8
01
fc
f7
f8
01
f6
07
ff
03
09
fc
f3
09
08
00
ff
f9
00
06
fd
f9
fb
04
05
06
03
fa
ff
08
08
02
fc
fc
fe
fe
f6
04
fb
f7
fd
ff
fa
fd
07
01
08
13
02
07
08
fe
03
03
f9
fc
fb
01
ff
04
fd
03
03
fe
04
07
f4
fb
ff
0d
04
fe
06
fb
f8
08
fe
fe
05
f9
fc
fa
00
05
12
f3
fb
00
f9
03
fe
02
06
01
02
fb
02
f9
fd
fc
f7
01
04
fc
fa
fb
00
04
fe
ff
fc
fd
00
02
06
fd
00
01
02
f6
07
03
08
01
05
03
04
01
ff
fd
03
fc
04
09
02
0e
00
fe
f7
fd
04
fe
07
fb
fc
fe
0b
f8
00
09
f6
f9
04
03
f9
02
07
04
fd
01
00
06
03
ff
ff
03
00
04
ff
03
f5
05
ff
03
f9
02
f3
01
fc
06
fe
01
f9
04
05
ff
ff
02
06
f9
01
ff
fd
ff
02
fe
f8
fd
07
fd
02
fc
02
f8
03
f9
04
ff
f2
02
fc
01
02
07
fc
02
01
01
fb
f9
fd
fe
02
06
02
03
ff
fe
fe
04
fd
fd
01
ff
00
00
fa
02
03
00
fc
02
ff
01
03
fb
ff
ff
fe
fb
ff
00
fd
fc
01
00
fe
fc
f9
fe
01
ff
02
04
f9
01
09
f8
00
08
01
06
fe
04
05
02
ff
fb
0b
04
0a
fb
fc
03
fc
ff
00
01
fd
02
01
fc
01
03
00
08
02
f7
fb
ff
01
f9
02
f9
04
fe
fd
f8
ff
05
fc
00
fd
fc
fd
f9
05
0a
fe
fc
01
05
05
05
fc
fc
01
ff
fb
fb
06
01
fe
02
fd
fc
fa
07
02
03
02
fd
03
ff
ff
fc
05
03
00
fc
02
01
11
f8
f8
ff
fb
fe
02
06
03
03
f9
00
f1
02
ff
06
ff
fb
f9
05
f8
f9
08
05
ff
02
02
00
04
01
f7
01
f9
00
02
f9
00
02
05
05
fc
02
02
0a
fb
fc
07
fd
00
03
fe
fe
fe
f2
0d
f5
01
f2
fc
fe
06
fd
03
04
05
02
fc
fc
03
ff
04
01
03
02
f3
01
fa
06
fc
04
04
0b
07
01
02
00
fe
0e
fc
08
03
fa
01
04
fd
fe
f9
01
01
fc
01
07
fe
ff
05
03
fb
01
ff
03
fe
06
fb
ff
fb
05
fe
01
f5
f9
06
f9
fc
00
04
fe
f5
fe
f9
fb
08
03
00
00
03
05
fc
09
04
fa
fa
06
ff
fe
fc
02
08
07
01
fb
fd
04
05
06
0d
fe
06
f9
01
ff
07
ff
0c
fc
02
fe
fc
fc
01
fc
01
00
01
02
0b
06
fc
fe
fb
0b
03
fb
f9
04
01
04
fc
01
ff
fe
00
03
00
fd
01
ff
fe
03
01
02
04
05
fd
09
02
05
fe
fa
04
05
fe
fa
09
f5
08
f8
fd
fe
00
ff
04
fd
05
f6
05
00
fa
fd
06
01
02
07
fb
fa
fd
fc
fc
00
fb
0b
05
ff
fd
01
ff
02
07
ff
fe
ff
fd
01
01
ff
f8
00
ff
fa
02
f8
01
03
02
0d
00
ff
fb
05
01
fb
06
fb
ff
ff
00
fa
fe
0a
ff
fd
01
04
fd
ff
03
06
fe
00
fc
01
08
fb
01
fe
fd
f4
f9
00
01
08
02
0a
05
fb
fc
04
04
01
01
03
07
01
fb
00
f8
01
01
08
ff
f9
01
f2
fa
fc
fe
ff
f5
0c
fe
fc
fc
07
f8
fe
09
fc
fe
04
ff
fe
00
f9
0b
f7
0a
01
04
fc
07
ff
03
01
fb
05
02
fb
00
00
01
01
fb
00
04
02
09
f8
fa
01
0a
fe
02
06
08
fd
fd
01
ff
ff
00
fb
00
01
fc
02
01
fc
04
f7
ff
03
fe
01
f9
f8
f9
01
0b
01
00
f5
02
00
05
ff
fc
0b
fb
00
fe
fe
05
07
02
f9
01
fb
fd
02
f8
03
01
fd
fe
01
f7
04
fc
02
fe
fc
fa
03
02
09
08
0c
05
fe
01
03
06
fb
00
00
fe
fa
fd
00
01
01
fd
04
03
ff
fd
ff
03
07
fd
fe
02
03
07
0b
fe
fe
ff
02
00
05
0e
05
05
fb
00
f2
f9
f6
fb
03
fa
fb
06
fa
fb
04
fe
01
f8
fd
00
fa
0b
00
00
06
fe
06
00
00
00
fe
01
fd
fd
f7
fe
ff
fb
03
fc
fa
ff
f8
fa
01
01
fa
ff
fd
0d
05
05
f6
01
fa
02
01
ff
07
fd
09
fd
05
02
09
00
01
00
00
00
fe
fc
08
08
09
00
fa
0c
04
f8
fc
fe
0a
06
fb
ff
ff
0a
04
fe
ff
05
f9
00
ff
00
fb
fe
04
fc
0b
08
fe
09
04
05
03
07
fe
03
f5
0b
ff
03
06
fe
00
01
01
00
f5
fa
fc
f7
09
01
fa
00
07
fb
01
08
01
06
fd
06
0f
06
00
f8
06
09
04
08
07
f8
03
02
02
03
06
03
00
00
00
01
fa
fe
04
09
00
02
ff
09
00
fc
02
ff
ff
02
03
f7
fc
01
06
f4
01
03
03
fd
ff
f7
04
fd
07
fb
05
00
00
03
f8
fd
00
02
01
ff
f9
05
f9
03
01
f6
fd
02
02
fe
fb
01
ff
fd
03
fd
fe
fe
04
f5
fc
fa
00
fa
04
02
08
01
03
ff
ff
03
05
00
fa
fb
02
ff
02
02
fc
05
01
04
00
fb
f8
f9
fd
05
07
06
00
fa
fb
ff
f4
fc
02
01
01
fd
05
09
01
f8
f8
05
fb
09
02
f9
07
08
02
0a
07
02
03
00
04
02
03
02
00
01
ff
05
08
ff
05
fb
01
fe
01
02
00
07
fb
01
ff
09
fe
f7
fd
fa
06
fc
0c
00
fc
f6
00
08
08
0a
04
fb
fe
fc
fb
fa
ff
fc
06
02
01
fc
ff
01
0b
fe
02
04
fe
00
00
01
fd
03
00
02
0c
ff
fa
06
03
f9
ff
04
ff
06
02
f9
05
09
f7
fd
02
fe
03
fc
01
04
03
f9
08
00
01
fd
fc
fd
03
03
fc
f9
03
01
00
01
f9
fa
fe
fd
fe
06
ff
ff
fe
ff
fc
0a
fd
01
02
fb
04
ff
fc
07
06
fd
fb
fb
f7
ff
02
04
04
04
fa
f6
01
fd
03
00
ff
01
03
01
fd
01
01
fb
fc
f6
00
f9
04
fe
f8
fe
02
fd
00
00
0a
fd
03
ff
ff
07
01
fc
04
fe
07
fe
ff
f6
fc
02
f6
f7
01
03
03
08
01
f7
fe
fe
fd
04
fa
fb
01
f6
03
00
00
fd
fe
02
03
05
00
03
09
fa
02
fe
ff
fc
fb
fe
01
ff
03
fd
0a
fe
fc
00
08
04
fa
fe
02
ff
fe
00
03
05
02
06
00
03
f9
fd
06
fb
ff
fc
fe
f9
02
00
01
ff
fe
06
fc
02
04
00
ff
ff
02
02
f9
04
03
fc
fd
08
06
00
fc
f9
01
02
ff
ff
07
01
02
00
fb
fe
06
02
03
01
06
01
fd
ff
f5
03
f9
fc
05
03
01
ff
fe
06
00
02
ff
02
01
fb
01
fd
05
01
fb
03
fa
03
fc
02
01
ff
fc
03
f9
fa
01
01
03
01
01
fd
fe
f3
fe
ff
02
fa
fd
fa
00
fe
f8
06
fb
0e
03
01
07
03
03
00
03
05
fd
08
00
ff
fc
ff
fd
09
01
fa
fe
05
f6
ff
01
ff
02
06
00
04
ff
ff
f7
f9
f6
08
f8
04
03
06
fe
06
fb
fa
f5
f3
f9
06
fe
06
fd
00
fa
00
05
02
01
f9
fa
0b
04
fb
fa
00
f8
f8
08
fb
f8
f8
f9
01
fe
fd
05
0e
fc
f6
04
0f
02
02
07
02
fb
fd
01
f7
fc
0c
09
f8
fc
00
0d
f5
05
00
01
0b
11
f7
04
0a
05
f6
05
04
fd
fd
02
08
f9
fb
f6
05
10
f9
fc
01
07
02
fd
f5
f9
03
07
fa
05
06
00
08
00
02
fb
05
08
05
01
f7
fc
f8
f8
fe
00
fe
04
00
fe
06
fe
0e
f9
fa
f0
07
fa
fc
fd
fd
f8
fd
f5
f9
04
f6
ff
fc
fb
fa
01
02
f9
ff
fc
08
07
fc
fd
02
fd
01
f7
03
fc
fa
f5
09
fd
04
07
ff
02
0a
05
fe
ff
ff
fb
00
02
0e
fe
00
ff
03
02
08
0a
04
fb
00
0c
01
fc
fb
06
f9
fe
ff
fe
00
06
f9
01
05
fc
06
09
00
fe
03
04
03
04
fa
fd
f7
05
00
04
00
ff
04
fe
06
03
0c
fe
fc
f8
08
01
00
07
f8
03
fe
fd
01
fe
03
04
02
02
ff
02
00
fd
02
03
04
00
fc
04
fe
01
fb
fe
f8
04
01
03
02
01
ff
fb
fe
ff
03
03
fe
06
f9
03
04
03
03
f8
02
fc
01
ff
fe
00
04
fa
00
fc
03
00
06
fc
02
fc
fe
02
f9
ff
03
04
f6
05
00
02
0b
00
f5
03
00
ff
03
04
fd
04
00
03
fc
fc
01
fc
01
fc
fd
00
05
fb
fc
0c
04
01
01
fb
03
fb
02
09
f5
fe
ff
06
03
ff
02
fe
0b
ff
09
07
ff
00
04
0b
02
02
fb
00
0b
ff
f6
f7
07
00
01
fb
01
03
04
04
01
02
f8
09
ff
08
02
01
07
fe
ff
f9
f9
08
fc
fd
03
ff
f7
fb
06
fc
ff
01
03
03
fb
fc
04
00
ff
fa
f7
fe
01
f9
01
ff
02
07
05
fd
02
fe
01
fa
01
04
f7
16
00
02
fc
01
05
fc
06
03
08
03
ff
fc
fe
07
fd
fa
fc
02
05
f6
fc
ff
00
02
03
fd
fd
f4
0a
00
06
03
0f
04
0b
04
02
fa
f7
00
fb
ff
f9
ff
fc
fb
01
05
fc
ff
fb
f8
f7
02
fd
09
00
06
fd
08
f9
fc
fb
01
01
05
fd
00
f9
ff
05
03
fd
06
00
fd
01
01
06
06
06
04
00
03
fc
fd
01
02
03
02
ff
fa
01
fc
0b
05
03
0e
00
fc
ff
01
fe
f5
fd
08
fd
fe
fc
03
fe
00
fa
01
07
06
ff
03
f9
fc
00
fd
04
f4
ff
01
03
fb
02
01
00
ff
00
fa
fd
04
01
fc
fa
02
09
f6
fa
03
fc
06
fb
fb
f7
02
04
00
01
fa
fe
0a
04
03
f7
02
03
fd
f8
01
fe
03
05
fe
00
08
fc
ff
ff
fd
03
fc
03
04
fc
fe
fb
f9
fd
fd
f5
ff
05
03
fd
00
ff
00
01
03
ff
fd
02
03
fd
fb
f2
fe
05
04
ff
05
03
06
03
f7
ff
08
00
fd
f8
fd
fa
06
01
05
01
f5
fe
f7
fc
fc
02
ff
01
03
01
01
ff
fd
ff
fa
00
00
fd
05
fe
fe
04
fb
fe
fe
02
01
ff
fe
06
fa
fe
00
03
fc
fa
fd
04
05
f7
fe
fc
fe
06
fa
00
00
06
01
02
fe
0a
00
fc
03
00
fe
ff
02
fd
02
00
f3
04
06
01
00
fa
fa
05
01
fb
07
09
0b
fc
01
fb
09
fc
02
02
f6
05
fc
02
fc
00
00
03
fe
ff
ff
fc
fa
09
07
00
00
fd
00
fc
fa
fa
00
fd
fb
fc
01
fe
fe
03
04
fe
01
01
00
01
01
fe
04
fe
04
fb
04
f9
02
fd
f9
fe
01
0d
05
ff
02
04
ff
fd
02
03
fc
f9
fc
03
01
f6
fa
fc
04
07
fd
fd
fc
f9
04
03
fd
02
fd
fb
06
07
04
03
fe
fc
f3
09
fe
ff
fc
01
fe
00
04
04
04
05
fe
fd
04
00
ff
fe
01
fd
06
06
00
fe
fd
03
fd
fe
00
fc
05
fd
fc
fc
ff
07
f7
04
fc
00
fa
03
00
fc
ff
09
05
02
02
00
00
06
f9
07
fc
f6
00
fd
fa
05
fe
06
fb
07
01
02
00
01
fe
f7
f6
f4
09
ff
ff
00
ff
fd
fe
05
00
05
0a
ff
07
02
04
fb
ff
fa
01
fd
08
fc
00
00
02
fa
00
f8
fc
ff
07
06
fd
01
fe
f9
fe
02
ff
fd
00
f6
fe
fd
01
06
05
fe
02
fe
02
f9
0a
09
05
fe
06
fb
03
00
01
fa
ff
02
fa
fd
f7
01
fb
fb
ff
04
02
fb
05
00
06
f9
fe
07
08
06
f5
03
fd
fe
fa
04
ff
02
07
06
03
ff
08
00
fb
ff
fe
00
04
fc
fb
f8
fb
07
06
fd
07
00
fa
03
fe
fc
ff
f6
f8
f9
fc
04
0c
02
07
00
fb
02
fe
07
fe
fe
09
0a
f8
f7
f7
fe
fd
fd
f6
fe
fc
02
07
fe
03
03
fd
fe
06
03
06
02
fa
03
00
fe
01
02
06
02
fa
ff
05
02
ff
f9
fa
03
fc
12
00
02
ff
04
fc
00
f8
02
fa
fc
09
fc
05
fe
fe
02
08
07
03
01
f7
f9
06
06
ff
01
fa
01
01
05
fc
00
04
08
fe
08
fb
f7
08
0a
03
04
03
00
02
fe
01
09
00
fc
f7
fd
01
02
03
fb
f8
01
04
02
07
f9
02
00
f1
00
fe
09
01
f5
02
fb
09
ff
06
0c
fb
00
08
ff
05
fe
02
05
02
07
09
00
05
00
01
f6
fb
03
fb
f8
08
07
f7
01
04
00
f3
06
fe
03
07
ff
fa
fc
01
f7
01
fa
fe
02
fb
f7
02
06
fa
fe
fe
00
05
04
fe
05
00
f2
02
fc
04
fe
00
