40 180 1 1
08
03
14
0e
1c
f6
fa
1c
09
0e
1b
ef
fb
fb
f9
fe
fa
01
f5
f2
01
02
0a
0c
24
00
0a
18
03
0c
22
f9
fa
00
e9
12
04
05
ec
f7
f2
fc
07
ef
f6
d8
27
f6
09
05
04
f6
10
0d
f4
ef
ec
0b
05
ee
10
04
0a
ee
04
08
06
fa
05
0a
02
f8
ec
f3
fe
f1
0c
04
fa
0a
0b
15
0d
18
f9
e5
db
19
fb
e6
0c
e2
0a
de
0d
ef
f9
08
0b
0f
13
ff
02
04
04
f4
f5
17
f9
16
fd
f1
fe
03
f8
12
0e
19
13
f8
ff
09
f4
0a
f8
fa
0b
0f
df
10
fb
03
f0
1d
fb
f6
ff
fd
fd
fa
fe
f1
e7
10
03
f0
f6
0d
04
05
0a
f0
10
fa
f9
02
f4
0b
08
0e
f9
f5
13
07
f1
00
ee
f3
e7
fe
0f
dc
03
05
f2
0a
f4
06
f4
00
10
ed
f8
06
10
ea
fc
05
07
01
0f
08
0a
03
eb
e8
fa
04
24
f3
01
0f
01
00
f6
06
0a
03
f1
fb
eb
00
10
11
23
fc
f5
ef
f1
09
10
11
f0
04
e0
04
04
06
15
ec
ec
f5
ea
02
e8
08
f3
07
19
fd
de
07
e9
f1
ea
0b
e7
e6
eb
fd
0c
e9
fb
fc
07
fd
fc
f2
01
ff
eb
0a
f9
f0
00
04
01
f4
17
ef
08
e5
01
f9
10
07
fa
f5
13
15
08
e6
01
f7
e6
12
fa
05
09
fa
f1
fe
fc
1d
ee
0d
f1
ff
f6
07
0b
11
f4
19
fc
10
fd
04
f2
fd
0d
f4
0c
19
07
1f
10
0d
08
04
ff
12
0f
fc
0f
14
ff
09
03
f1
e3
ff
0f
ea
f9
02
27
02
ef
dd
ec
01
12
f8
e6
f3
f2
0d
e2
fd
07
f0
ee
03
f1
e9
0a
ea
ff
f4
02
f6
04
16
d9
f2
0f
f8
f4
0e
ee
ec
01
eb
2a
17
1e
fd
f3
08
07
e6
f1
00
02
e7
01
dd
07
12
20
07
1b
fd
ec
e9
12
c3
fe
ec
05
f4
fa
f1
12
0c
fb
0d
0d
ee
f1
f2
02
f5
15
02
14
df
10
05
f3
f5
f0
eb
1d
07
15
ef
10
f7
f7
f8
11
f7
0c
05
1a
f1
0d
17
dd
f4
ef
f1
f8
16
1e
fa
e0
fc
f8
f0
f7
02
f2
0a
04
fc
f4
e5
e3
eb
e3
f9
f8
0b
f1
f4
0a
0e
ff
0c
09
0c
02
02
03
f5
f6
f7
fc
e1
01
e5
06
f6
f4
f0
ea
e6
00
dc
f2
fa
0f
d2
13
23
df
02
09
1a
ee
fa
13
05
f5
fa
0b
24
ee
00
09
f1
ed
eb
eb
1f
13
1c
14
0e
e1
00
f8
19
ee
f2
07
da
01
fe
f5
04
09
11
eb
18
02
1a
e4
03
fa
07
ff
21
0d
09
f4
e7
f1
0b
dc
04
f2
f9
07
fb
f1
f7
24
fa
f6
f9
05
f0
ec
14
05
fe
02
f0
23
f1
1b
ff
1f
2a
da
0d
fc
05
e3
16
ef
1f
03
14
06
f5
19
00
0a
fe
11
fb
20
e1
fa
05
f6
ff
13
f0
ff
03
f8
03
fa
01
0f
0a
11
01
03
fc
f5
13
f4
00
0a
01
08
fc
fe
16
0c
e1
12
fb
d7
07
d9
e9
07
19
06
20
e1
05
0f
fe
ff
f7
0e
f9
0d
f1
03
05
08
1a
02
f0
fa
11
14
f9
fb
07
f2
f9
08
fb
df
1f
01
ea
01
fb
f9
03
dc
0a
01
08
02
14
fc
fb
fd
0e
05
ec
26
08
fa
05
06
f0
d8
f7
09
0e
07
fd
0b
f7
e9
ee
db
04
ee
f0
f2
e5
17
02
eb
f9
e0
11
01
09
e9
23
1b
23
05
03
f0
f4
07
f2
01
f5
12
f4
fe
14
f6
11
0b
1d
08
e6
00
09
01
f4
fc
ff
f4
0c
fe
f1
0a
de
fd
0d
07
ec
df
01
fd
17
0d
06
f7
fb
e6
f6
05
13
06
02
08
ee
00
13
ec
ff
e0
06
f0
06
05
f0
fd
e0
e6
f4
17
0b
34
0a
f6
0d
00
03
34
0a
05
f5
e4
12
f1
06
ec
e4
0d
de
16
fc
e9
05
dc
fd
28
e5
0c
07
df
fb
e0
e0
0a
01
06
f2
0f
f1
00
13
f0
03
05
f0
f7
23
ee
f0
fe
fc
f2
18
0b
03
eb
0d
f9
25
01
1d
08
eb
12
03
fb
fd
04
01
21
fb
22
04
fd
d0
1b
f0
16
00
fc
0e
0a
fc
0a
2b
f2
e6
1b
12
e6
ff
16
08
05
f6
04
08
12
06
f8
05
1a
03
10
0a
0d
09
e9
ee
ed
fa
f5
f2
1c
09
e7
14
03
fd
fe
f0
0f
e5
0d
fd
fc
f5
08
fb
0a
ea
f2
f3
fa
f7
04
fe
19
16
e9
0d
e3
f1
16
fd
01
fa
fa
ff
f5
e9
09
e6
0e
04
e7
1b
07
df
fa
fa
0f
fb
0b
11
15
04
13
02
f4
ff
fd
f2
1c
f4
ed
f0
07
0f
0e
12
05
0f
f8
ed
f2
0e
1a
03
37
fd
fa
0d
36
e7
00
fb
f5
04
0e
12
17
f3
08
f2
01
f2
f4
03
05
f6
15
e5
0e
30
13
21
1c
15
2b
0d
0b
03
f6
eb
17
f7
0f
f0
fa
fd
f4
01
ec
f7
f8
17
04
e8
ea
f8
12
03
fc
e5
f0
03
1e
e4
17
e4
0d
22
f8
dc
06
06
f8
fa
08
0c
02
fb
e2
01
01
00
0f
13
ff
25
fd
f2
08
14
d0
13
09
0c
02
2e
11
05
0d
f8
f4
23
1a
ee
13
0d
e1
f7
df
f6
0b
14
ec
12
03
e6
ff
08
fa
e9
f0
02
03
f0
13
08
ed
f9
ed
23
06
d9
fe
ea
05
1e
f0
fb
03
0c
ef
f1
f8
08
06
2f
f0
f4
fd
f8
f3
09
e4
02
1b
03
07
fe
1c
ef
11
00
14
06
02
1e
01
fa
05
07
e8
0f
f9
06
16
e5
fd
01
06
ff
21
02
f9
e4
f8
04
05
fe
fb
fb
f7
e6
1e
eb
0d
fe
06
f7
f3
f1
f8
f4
fb
14
0f
e8
f7
ef
00
0a
0a
01
fe
f3
f8
fa
19
f9
01
05
02
0b
0d
fe
f4
15
07
ea
07
14
fc
fa
d4
12
ed
1b
10
0b
07
09
0c
15
0f
f9
08
e5
fb
f0
e9
fe
ee
1c
06
16
f3
f8
f3
ff
f8
e2
05
0b
fd
ef
0a
02
06
04
10
07
1f
0b
ee
ff
01
10
fa
0f
dd
15
10
fc
e7
02
2f
f4
14
e9
26
f8
06
06
f9
08
02
05
01
14
fe
fa
fc
0a
f6
f8
20
f6
07
ef
1e
fe
dd
15
f9
03
f2
04
10
07
14
f2
2b
ed
fc
07
fc
ff
0d
11
0d
ff
e7
f9
16
23
15
fd
09
dc
0b
2b
f2
18
0a
08
f8
01
17
01
f8
ea
05
08
0b
07
0f
21
ee
1f
1c
0d
e2
15
11
f3
ec
0c
06
fb
f4
0a
f4
0b
06
0c
ff
03
00
0f
f8
f2
fa
f2
0f
0f
ee
e7
ff
ed
17
11
02
f8
08
f3
ed
f8
08
fd
e9
28
01
07
f6
0d
eb
fd
dd
f4
10
12
ee
f4
19
0b
06
f0
ef
e3
f9
ea
25
fe
08
f0
f3
04
fe
02
fe
fe
07
16
00
1c
f6
fb
f3
16
0f
ea
00
fa
f3
fb
fc
f1
ff
fc
0c
1c
09
f3
02
e4
f2
0f
11
0f
24
f1
f0
f6
08
02
05
1f
03
ef
f6
fe
01
09
24
0c
e4
e3
04
f0
04
01
02
08
0e
01
0b
01
06
24
ed
0b
06
f7
f3
f5
14
f9
f6
01
0d
dc
f0
0f
fe
f0
f1
0c
0a
1a
fc
1a
fe
d8
fc
f7
14
06
0b
0c
f8
00
26
fd
ff
ef
ff
f5
f0
0d
ec
f7
fc
1d
01
11
f4
fb
e9
07
07
11
14
f4
02
12
f2
fe
04
f5
ed
f4
08
2c
02
f0
f0
12
10
f6
fd
0a
f9
0f
e9
16
22
fe
14
f7
ec
04
01
0f
02
1b
16
ee
ec
13
fb
e8
f9
f4
08
03
f2
0b
2a
1c
ce
02
11
23
12
f5
e7
05
f4
0d
03
28
0d
f7
20
0b
f9
fe
eb
0a
0a
0e
05
e8
d2
0b
ea
25
fa
06
fd
f2
f1
00
e1
f1
f1
0b
f1
05
e2
ff
04
e6
00
0e
18
fb
04
ff
18
ed
fc
ea
16
f5
12
f9
fb
cc
1d
03
01
00
fc
e1
fe
f4
f8
e7
07
ff
fa
fe
09
eb
f9
00
01
0a
16
01
1e
03
17
15
fd
f5
08
04
0b
e8
16
0e
ff
f3
ed
13
12
0c
0b
08
fe
09
fb
12
fa
f7
0a
d9
fe
2a
f5
0b
11
10
f6
fe
16
00
1b
e7
01
f8
05
e3
f1
fd
03
0c
e6
08
08
1b
10
fe
0b
0e
f4
0c
f9
0f
ee
0d
e0
0d
11
17
02
ee
15
33
0a
0a
ff
ef
f6
15
08
14
0b
fe
06
d7
02
16
0c
f5
00
03
21
ed
05
09
fa
f6
07
07
05
f8
2b
12
f1
0e
e6
17
07
1b
26
eb
12
ef
ee
0e
00
f4
f9
0e
f4
f1
1f
02
02
fa
de
f2
f9
04
21
09
fd
e2
fb
09
0c
0c
fb
fa
ef
1c
fe
f9
00
f2
e6
03
ff
1e
03
00
eb
fe
08
00
13
22
fc
13
01
06
ed
0d
ed
fd
f4
ec
02
f6
01
0f
1b
11
f4
0e
f1
e3
26
f2
1a
f5
f3
ee
02
05
f5
f0
02
03
09
0d
08
11
0a
f2
1a
1c
f7
1e
12
ee
06
0f
df
de
19
02
04
f4
11
16
f8
06
08
20
e8
07
d0
f9
eb
fd
f1
09
26
20
ee
fd
f4
10
f4
f2
15
0d
e4
ff
ed
0c
10
f0
fa
f4
04
37
ea
16
24
f8
1e
0c
07
13
19
e2
09
15
e8
d0
0c
e7
fc
e4
06
0a
f8
fc
e9
0f
05
ec
2e
0f
0d
18
fe
04
06
e5
fd
f3
fb
ee
ec
09
00
f4
04
eb
e8
02
18
fd
05
1f
0a
23
f8
07
e9
1f
f7
fe
f7
f0
f3
12
e9
15
0a
ef
05
fa
fd
e2
08
e1
f4
e9
f9
ef
f4
09
ef
00
f9
e7
f3
fc
24
14
fd
0b
f1
2d
2a
fc
f5
03
00
f8
ec
fe
06
f0
00
01
05
10
de
fd
f6
02
07
eb
0a
0b
e8
02
dd
f7
e2
fc
fd
0f
0f
09
04
ec
fd
00
e3
fc
08
02
ff
f9
f3
ff
08
10
22
f6
ef
0f
09
f1
f8
04
f1
fd
e4
06
15
f0
00
24
f4
f8
02
2b
fb
10
17
24
eb
16
ee
fc
eb
f2
e6
e6
c5
0a
f3
f8
12
0c
00
fe
02
fd
05
08
ff
f0
0c
01
01
05
e7
ff
08
f0
0b
00
d4
e5
0d
14
d1
f3
f0
ff
f2
1e
f7
12
fc
f7
01
00
12
ee
e6
03
fe
f3
f7
21
08
e6
f2
09
de
fe
09
ee
e4
08
f4
fe
13
03
1a
0b
e1
fe
f3
fd
ea
e2
d4
eb
0e
f6
04
f2
e9
06
ff
da
13
f7
08
f1
fd
0b
13
11
f3
e6
09
03
13
f7
fe
16
f0
f2
fc
0a
02
eb
1a
ee
f9
0c
e0
fa
e6
08
ea
06
f0
04
00
03
e8
10
06
1e
05
05
e7
1b
1a
fc
03
0c
e9
15
0d
09
e4
fc
05
15
0d
07
02
fa
ff
fc
31
19
0c
f8
e2
e1
01
12
19
f8
08
e0
f8
14
f7
fe
12
f5
de
11
f3
fe
11
01
14
ef
f4
0e
f1
00
ea
01
12
e2
f6
f8
03
0d
05
ff
19
fc
13
ff
0c
1c
f1
e1
d7
f7
fb
f5
05
ff
19
f9
10
ee
01
03
ff
02
ee
ff
02
09
f3
e3
fa
ee
f2
1a
e5
06
f7
ee
0c
f9
f3
18
0b
0a
e7
e9
f9
fd
03
1c
22
0c
1b
f3
11
e8
ed
f6
fa
e8
f5
ef
02
10
01
07
fc
09
ef
ef
1b
eb
02
07
eb
17
e7
fe
31
fb
09
e4
f4
18
f1
11
e5
04
0c
fe
05
fe
eb
20
0f
e7
d7
de
09
f4
21
00
09
fe
0b
fc
0b
e5
0b
ec
fe
0c
fb
fc
03
0e
0e
08
28
03
07
f2
f7
fe
f4
00
08
00
09
eb
15
02
28
f6
fd
01
fa
06
0c
fb
e5
df
fa
05
02
e5
00
06
ff
f1
fc
10
f7
0b
0c
00
c3
f4
07
05
f4
f6
f5
e4
0d
2b
02
e8
f6
f0
05
06
0d
15
ef
f5
fd
ed
f1
08
e5
02
3d
f8
e8
10
09
13
e9
34
0d
0f
fe
f7
0e
02
01
06
f5
f4
ea
fc
0c
fd
fb
20
f6
ff
12
f9
e4
fa
ff
e8
05
08
db
f5
ea
f0
f8
f5
f4
fc
00
fc
03
ed
0b
f2
05
e6
f7
0b
03
15
21
0b
01
ff
fd
14
ed
ef
fc
fa
00
f0
f8
fb
e8
e0
0e
25
22
e6
08
0e
f9
21
1d
f8
fe
ec
0a
fb
0b
e6
05
02
fe
f3
f0
10
0b
10
e3
de
07
ec
e5
ee
1e
2a
f9
ea
fc
f2
fc
13
10
06
f6
00
15
03
fb
f8
0f
0c
e1
e7
04
10
0a
e2
f1
08
10
10
f4
eb
0e
0a
f6
06
12
10
fe
00
e9
fe
09
ff
ea
f4
eb
11
06
0c
17
fa
13
03
fc
f6
ed
fe
10
fa
02
15
db
e5
ef
0f
e6
05
f9
09
16
0a
f4
fb
01
07
dc
1b
0e
06
f7
0e
fa
12
10
10
ef
00
02
fb
08
0a
09
0c
ec
13
eb
01
f2
fd
1c
01
e4
f6
0d
ef
f5
fc
ed
01
ee
05
fd
27
f3
0e
e0
f4
f9
04
f1
de
fa
da
f1
e5
db
ef
e6
ff
eb
f2
fe
f8
e8
f2
ff
f0
17
f8
0f
07
08
0d
df
13
ff
08
1f
f0
12
f5
04
06
f6
f0
ea
ee
f7
ea
09
00
ea
ee
e6
19
f3
ec
08
fc
fa
d5
e0
18
14
1b
f0
e8
f7
df
23
0b
0e
ed
10
fc
e3
19
09
10
05
f9
0a
cb
09
1c
0b
0c
08
03
fa
f5
02
f8
0d
fd
f8
0f
02
05
28
fd
02
fa
fd
fa
02
0d
1e
e9
fb
03
fc
1a
ff
01
02
ee
20
ee
f7
03
f4
1a
04
f7
1a
1e
fa
2f
04
f9
09
f9
e3
13
0a
dd
fd
00
fa
c9
08
f9
06
e8
f5
01
f5
01
0e
15
ff
ed
f7
df
05
ff
f2
ef
14
09
e9
ff
df
ea
1c
03
0d
0b
17
ff
f0
16
e7
fb
00
ea
f6
ef
f3
03
03
05
1d
ff
f7
13
0e
ec
fd
fb
06
f9
f8
02
ed
0e
24
0f
f4
0c
ea
00
fa
18
e9
f4
15
0e
0d
02
08
fb
f1
05
f5
0a
e3
0a
fe
f5
f1
ff
de
1a
09
f7
ff
fd
08
f5
09
ff
10
07
00
fa
06
ee
03
11
0a
03
07
f7
0f
fd
02
fc
28
fb
f1
f6
e6
f5
e2
1c
cd
f6
f1
02
00
1c
f5
f1
f9
f5
fd
fa
0b
fe
f3
0e
17
f3
f8
05
f9
ed
fd
e5
e3
0c
06
09
f1
04
ed
04
e5
f7
03
fa
14
f6
f4
f4
e4
fb
19
01
01
1a
ec
fa
22
f0
e9
fa
00
0e
07
00
28
f7
f8
f4
0e
08
fe
03
0b
fe
ef
fb
f2
fb
ef
11
09
f5
ec
22
fe
f2
0b
ff
02
ce
10
fb
07
01
08
e3
f2
1a
0a
e7
f2
0a
f6
e0
04
f7
02
ec
f1
14
03
02
06
f8
05
11
0a
fc
11
f7
03
ff
17
0f
0a
01
ee
ff
0c
f5
e7
f7
fe
18
0e
15
0e
e6
dc
e8
1f
fb
f2
fb
01
f4
fe
0a
25
0a
f0
fe
05
f1
19
02
06
ed
f3
08
09
05
e7
12
e6
14
22
f0
f5
ea
19
ff
1b
f5
fc
de
f4
09
01
10
09
fc
0d
13
15
02
ff
1b
f7
04
0b
fe
e7
fe
fa
30
07
f8
d9
07
07
e2
14
dc
10
f5
e8
1c
e2
00
fa
e7
ec
f2
ff
2e
f3
ff
f2
f5
ef
12
f1
0f
ee
e4
ec
01
f3
f9
0d
de
f8
0a
f7
f7
1c
eb
fd
fb
fb
f7
07
ea
1e
e6
08
1d
f1
00
05
02
06
06
00
f6
fa
f6
f8
fd
df
e0
09
0e
f7
05
1a
00
09
1b
00
fc
02
0a
fd
04
d7
f8
19
03
04
00
04
19
f6
f4
fd
01
1c
15
0b
ed
0d
0d
2c
d9
ec
07
05
08
fc
f4
f9
fb
11
15
e8
18
fe
1e
0c
05
f7
08
0e
04
01
f7
f3
10
f3
fa
07
ec
09
e0
09
ec
ef
fc
12
07
f4
1a
e3
e6
0d
f1
dd
07
13
f3
da
f3
de
c8
03
db
0e
e0
0e
f9
f5
f4
0f
f1
06
fb
ec
f6
02
1f
e9
23
19
01
13
fa
03
cf
1b
ef
0f
f0
f8
fe
0f
e6
3c
22
0a
ec
0b
ec
0a
18
25
11
fc
ea
d6
f2
01
07
f4
fb
f8
05
01
0f
16
00
08
e1
dc
03
06
0f
e8
f9
01
2c
f1
f4
f8
f0
f4
eb
fa
dd
07
ed
f5
0c
eb
0c
f2
0e
f3
fa
03
f6
01
ee
0d
22
f6
eb
06
fb
ed
fa
f6
f2
0e
f3
11
20
f3
17
03
f0
fd
02
08
0a
f7
01
fe
f4
03
fb
1c
eb
31
1d
ed
0c
0b
e2
17
fe
03
0a
f4
f9
1a
18
14
09
fb
1e
09
f4
f9
dc
fa
04
fa
09
14
04
ef
07
04
0f
ff
00
f3
0e
04
ea
f5
e6
05
f0
fd
00
02
00
05
0d
0d
08
02
0e
0e
f0
0c
fa
fc
0f
09
0f
f8
11
fd
0c
fd
18
07
21
fc
e7
ef
f1
0a
01
f9
08
f6
e9
fe
f2
f9
16
17
05
06
ff
ee
f8
1c
f7
16
fd
fd
01
f8
19
0a
f3
0b
0b
01
01
07
13
f7
03
e9
02
f5
e5
0b
01
0f
18
04
f1
e2
15
11
0c
fc
02
03
fd
fe
f3
11
03
f9
f4
fa
0e
00
fe
02
0e
18
fe
01
fd
0c
04
f7
0f
11
e4
ff
ef
23
06
02
2a
01
05
12
f8
f6
f9
e9
1a
df
1d
f6
ff
ed
f7
e3
ff
0c
e5
01
ff
0d
28
e5
f6
01
0a
de
fd
05
23
10
e0
12
e4
01
01
07
e7
e2
f6
18
08
13
08
ea
f2
1e
15
fe
0c
01
0f
00
0d
eb
0f
20
14
fa
06
15
fe
0b
07
15
f3
ee
fe
f3
00
06
14
17
f6
f7
12
e1
00
de
18
0a
fe
06
03
d0
f3
fe
1c
ef
36
ee
1d
e5
fa
ef
06
19
f8
fa
dc
f1
f5
20
00
fd
13
00
16
10
19
fc
08
0c
e4
fc
17
06
04
0a
23
0e
0f
22
0b
17
f2
e9
dc
0a
0a
f3
1b
24
02
0d
05
01
1a
00
02
ef
dd
0f
05
05
12
fd
e3
eb
09
ed
eb
f8
0f
0a
21
01
16
fe
13
f0
14
09
01
f8
fe
fe
fe
f4
02
f4
ed
16
ff
03
f2
0a
fb
21
00
00
f0
f5
f9
06
1e
01
19
0c
f7
09
05
0d
fd
f2
fc
f9
09
fe
f5
f7
e7
f9
f6
f8
ef
f6
ff
12
f1
f2
04
ca
f8
09
fb
f9
fd
ed
f9
dd
11
05
11
08
15
09
0a
ff
12
07
1d
12
03
fd
0e
fb
f7
06
05
fd
12
f5
ee
f2
ef
02
ef
f2
f8
10
ea
f0
1c
1b
07
0b
eb
f0
0b
02
fd
09
e3
ff
df
ec
00
e3
08
0f
04
f5
f0
0f
e8
fe
01
f6
18
ff
11
0c
17
03
00
e8
f7
08
03
11
06
02
00
fc
0b
08
1b
f6
06
fb
fa
fa
f0
13
f3
f8
fb
ef
0a
e2
11
f6
0c
fa
fb
03
13
0b
fc
fa
0f
11
0b
fc
f0
f6
06
0f
f2
f7
f9
e6
22
f3
eb
ee
eb
0d
e9
fb
fd
04
ff
0c
fe
f5
06
f8
f5
24
07
00
15
00
06
f2
18
f3
03
f8
08
ed
fc
08
0a
03
ed
01
01
2b
f9
fc
eb
ee
03
00
f0
07
16
03
15
ee
1c
07
e7
f8
ea
e3
13
08
04
f6
fd
ef
f7
02
fd
fa
14
00
15
f6
04
0f
1c
fb
0f
13
f7
fe
14
0f
f3
fa
08
fc
20
0a
0e
fc
fb
0d
f4
12
1e
09
fe
ed
fc
f9
fd
0a
06
f9
fd
03
05
f5
f8
0b
ed
f9
00
12
0d
f5
f3
0f
e4
ee
15
02
14
f0
1b
f8
fd
0b
14
f9
08
00
f6
ff
f8
f5
01
fa
fa
1d
0d
f3
f0
0a
0a
f8
08
f8
ed
f9
06
14
da
e4
22
13
f5
03
21
12
02
0b
d7
e6
f0
fa
0a
fa
07
ed
dc
f6
15
e9
0f
0a
f6
07
ed
ff
f7
f6
35
f1
f2
12
1e
fa
15
f4
06
f1
ee
ea
f8
09
00
07
05
25
13
0b
f4
ee
f8
09
ed
0b
f6
0c
14
e9
e9
00
09
fa
01
1b
1a
06
08
ef
fc
fb
12
0a
f8
eb
15
d7
04
eb
00
0a
f6
ea
03
05
f0
06
f7
01
0b
f1
dd
fc
04
04
e3
f4
00
f0
05
f4
e1
e2
ff
fd
06
03
e5
09
f4
f4
ef
02
fc
07
f5
f3
08
0e
03
04
05
02
1a
f7
10
e6
14
04
f0
0b
db
f2
f5
f7
0e
eb
04
08
f1
15
06
ee
f4
fe
f5
04
1b
04
24
f2
05
ec
12
01
f8
ef
fb
f9
15
fd
15
f7
16
20
01
e6
e8
f4
df
eb
fa
13
f5
f9
ee
fb
1c
fa
f3
0a
0e
0a
0f
1e
02
08
25
fd
f1
08
14
0c
fb
0e
fe
eb
fa
f3
08
16
f2
fd
11
09
f0
f3
fb
fa
f1
fc
0f
ff
1b
ff
0f
f2
01
e5
ed
0d
f9
f3
0f
06
0a
0b
02
e1
05
e5
ee
ed
0a
ed
fd
ed
05
09
0f
f8
eb
fe
06
06
04
01
10
ff
22
0e
d3
0d
f0
e5
0a
0c
06
18
0c
f1
eb
e2
d1
ed
e9
07
e7
ee
f7
f6
23
fe
f8
00
ee
dc
fe
f6
e5
f6
fd
fb
13
13
0f
02
10
05
0a
f5
27
fa
10
ff
e1
08
0c
f0
ea
17
ff
22
12
11
e1
11
0f
ed
02
f4
e8
e0
e7
f5
29
10
f0
f9
2a
ed
25
0a
e5
0b
0d
0d
f0
13
16
bd
ff
e0
10
0e
fb
ec
04
fd
f6
fc
e7
05
fd
fe
00
12
f2
05
f2
1a
dd
08
e0
10
25
21
0e
f5
0e
ee
16
f8
0d
1c
15
f7
ff
de
f4
0e
22
e7
0b
28
fe
e7
f9
f9
ed
21
ef
2e
05
1b
13
2c
0b
00
40
08
02
31
11
f9
0b
f9
e4
e2
11
e8
e8
f8
03
ff
e1
f5
0c
d9
06
da
fa
e9
fa
00
e5
0d
fe
12
03
e9
fe
12
06
0f
fc
fd
12
e8
15
25
1e
13
f9
f8
05
f5
05
df
f2
27
30
05
0b
e5
e7
0e
27
c3
1d
f5
fa
f8
fb
03
10
e5
05
f1
03
c7
ec
0f
e4
01
15
c5
ff
08
02
0f
f8
08
f7
09
09
28
f9
03
de
07
ee
03
e8
02
e3
0e
f4
cd
01
15
25
2e
1e
0b
ec
14
0b
f6
0c
0e
e8
17
16
01
04
09
e1
d6
0f
0a
26
fe
f2
fc
12
ee
ed
09
f7
0e
f9
04
fe
1a
0c
d1
f2
fa
1e
ed
12
3b
1f
fa
01
0e
ee
f7
d9
fe
11
e9
03
cd
f4
ea
ed
19
e8
f4
04
06
fa
20
00
ee
f6
14
f5
f4
17
fc
10
f1
05
f5
ed
f7
e9
08
11
ed
02
23
f3
e3
14
38
e8
fc
1c
0f
ea
e4
fd
18
05
f4
fa
20
e8
0d
ea
0c
f0
06
0d
fd
1c
f3
ef
02
fb
f8
13
10
04
fb
09
f7
12
05
de
05
02
f2
18
fb
fe
e5
12
0b
ed
02
fb
ff
be
08
0a
15
df
12
0e
f8
11
f5
08
f8
d6
03
04
0c
1b
f3
ee
e6
fe
07
f2
e5
ed
1a
11
fa
03
06
fe
ff
ff
eb
fd
06
fa
23
12
e8
10
ff
e8
07
00
ff
fb
fc
1d
ff
f1
f5
fb
f5
fe
05
0c
0c
fc
25
e9
eb
f5
02
06
0e
ee
10
f3
fa
0b
14
ec
e9
06
0a
ed
fa
f2
ff
f4
f1
0d
09
12
14
fb
fb
ef
04
08
f3
05
fa
23
23
ee
ef
08
00
05
02
0b
ee
07
de
0d
15
07
fa
00
04
ea
0d
09
16
fc
07
15
05
f3
fc
fe
06
ed
f6
f5
21
f7
1f
18
f2
14
12
e9
04
10
f3
f7
0a
11
06
08
0a
f1
ea
f0
08
05
03
f5
15
00
07
f8
05
f2
02
00
f4
fa
f7
f4
ef
0d
f7
02
00
ee
0b
f7
fa
1a
14
08
07
0c
0f
0d
0d
f6
09
f2
17
13
02
06
0a
f7
13
02
07
11
06
ff
06
07
f6
17
09
00
0e
1a
00
0f
fc
f6
f2
eb
f0
f6
f7
00
0d
f8
1d
ee
e2
0b
08
03
04
f5
01
05
01
f4
f2
0d
f5
fd
17
09
02
24
1e
f2
fa
fc
ee
02
01
0b
09
e6
fc
fd
14
12
fa
06
ff
fb
25
ff
00
f5
11
0c
02
01
12
07
00
01
29
ff
ff
ea
f4
ff
f8
ff
09
06
08
0d
0e
d8
0a
07
ec
1b
06
09
04
f5
fc
f1
fe
06
0e
ff
f3
fa
02
ff
06
fb
01
f4
09
26
02
0c
0e
e1
0e
11
e1
fc
09
17
00
0c
01
e5
03
f9
09
17
f8
05
fd
f5
df
07
fa
f3
09
12
fc
ff
0c
01
0a
e7
04
ec
e8
f6
0c
f0
04
05
fa
f3
ec
f4
fa
10
11
fe
0d
06
1b
ff
08
0e
0f
00
17
0f
12
04
f1
f3
f8
f1
fe
f5
08
fe
15
0b
0b
fc
06
f7
16
d6
0a
f8
19
07
00
fa
06
fd
01
08
ef
0a
fc
e0
f4
f8
de
04
ee
f2
e6
04
23
f0
fc
15
e5
18
09
f8
fb
fa
e8
16
fd
0e
eb
28
e1
f9
e8
db
e6
03
1d
ec
0c
fc
11
15
16
f8
06
0a
ff
0a
07
0b
00
f8
e5
fb
ea
f7
01
07
34
03
dd
1e
14
11
07
0d
ff
10
0a
11
e2
09
e3
f9
ed
2b
f5
fb
00
fe
0b
ec
f4
0b
ff
f5
c2
fc
ff
dd
f6
e9
02
f7
e6
f9
15
ed
06
eb
f5
ff
fe
f0
f6
00
0f
0d
fd
04
f7
fd
f7
12
e0
02
17
16
ed
dd
fb
0b
ff
13
0c
cf
0b
e9
f9
05
03
f8
07
0d
ee
12
0a
f8
13
f3
07
f5
fe
09
cb
06
01
f7
ef
f0
00
03
12
16
f7
13
10
f9
22
03
f2
fd
13
14
16
ec
ff
24
16
06
14
f2
10
0f
fe
05
03
08
03
18
e2
dd
02
fb
f9
03
fa
04
ed
fe
15
f6
16
e8
fc
0c
00
d6
1d
12
06
03
09
1e
f2
f6
25
0b
e6
14
06
0d
10
0f
f4
ec
ed
11
0e
ea
19
fd
0a
d4
df
f7
e7
07
0e
18
ea
14
08
f5
04
06
05
00
04
09
00
0d
f9
13
06
f5
f6
fb
15
f4
07
f5
eb
06
04
f2
f0
fd
07
09
fb
0c
fa
0d
06
f7
02
08
01
1a
fd
ec
13
0e
00
fe
13
0e
07
11
fa
fd
f4
fa
00
0a
1b
0b
fb
f9
0f
ea
14
0f
06
ff
f9
ff
00
f3
0c
fa
f6
ec
f5
17
e3
01
12
0a
f7
0e
04
0e
fc
f0
0f
0b
df
ee
00
ff
03
0b
ff
f7
e7
f3
0a
eb
09
07
13
fa
f9
eb
f3
f8
0c
14
05
ed
e5
fc
d8
ef
14
db
03
f6
fc
e9
01
07
08
f5
f6
03
01
f3
f5
0b
05
04
21
ec
f4
f8
10
0a
2c
02
02
06
fb
16
f2
04
12
f9
fa
fd
f8
1f
0d
13
f1
15
fd
04
0f
fb
16
05
ed
34
f4
00
01
f1
02
e4
f2
f3
ec
f6
fd
ea
05
08
0b
f9
e1
25
ee
08
fe
1a
00
f5
ed
0b
fa
02
d2
04
08
03
ee
04
05
11
05
08
04
ff
f3
03
16
e4
1a
fd
11
17
ed
04
fb
f6
27
13
00
03
ff
fb
01
e6
f8
13
19
20
d4
fd
08
11
e8
f2
fe
09
e5
eb
0e
0e
06
ff
f8
0d
01
0f
0f
14
27
f9
fe
0e
f5
00
17
0a
10
04
16
db
20
cf
fb
01
f9
e4
16
f4
19
f2
08
1f
09
f1
f9
f8
26
ee
fd
fd
fb
13
06
de
0e
0a
15
f9
e5
e5
03
f4
f1
1b
fd
f3
ee
fa
fa
ff
04
18
e9
f2
f9
15
0e
e2
24
ee
16
19
05
f4
07
fa
fd
ee
05
de
f4
29
15
f2
1d
fb
f3
f2
f2
f0
25
fe
03
1c
db
1a
01
02
f4
03
f4
0a
15
32
e9
13
ec
0d
fd
00
f2
fd
fb
f5
fd
07
17
26
08
f0
0c
f3
fc
21
df
fa
e9
ed
15
0c
ff
fc
00
1a
00
e4
f0
e1
f7
23
e4
fb
1a
fd
08
fa
f3
e2
01
e1
20
f8
ee
ff
01
f4
f5
1a
03
08
fa
01
ed
16
f0
02
ff
eb
fd
ea
ea
eb
1b
07
dc
14
f5
10
f0
0d
09
f9
f8
ef
f9
1d
ed
e7
ed
13
17
06
03
06
09
f2
df
0f
d2
ec
0b
2f
f1
ee
f7
03
fe
2f
f8
09
d9
11
ec
0a
0b
f9
f4
de
08
03
3b
f9
02
e4
e8
ed
f1
de
e8
f7
fa
fc
f8
f8
1a
f4
e2
ff
12
f8
f3
0a
0a
e0
f9
f7
e6
ff
0b
06
ef
0b
00
1c
e6
04
0d
1d
f6
fb
e8
fc
05
e0
f4
ee
ec
17
fa
de
04
14
00
ed
13
ff
0d
1f
fc
f6
11
01
1c
da
f1
e0
0e
ed
f7
fc
f2
ed
e1
07
d5
20
07
fd
00
0e
f1
e8
d8
f1
f5
07
f7
f7
fe
ed
09
06
f5
e3
04
09
e7
0b
1a
ff
f8
01
13
ff
fd
07
ee
f1
10
07
f3
0d
12
f5
19
0d
f6
17
14
e8
fd
fe
fc
01
eb
00
fb
f2
f0
df
08
f3
03
ee
12
04
fc
da
0a
03
f4
03
ef
ed
fb
fc
e6
08
fa
ff
0b
f1
0b
f4
e6
f8
11
13
fd
02
e2
0a
13
1a
ec
fb
1d
00
fd
f3
04
08
25
0b
0e
f9
fd
17
03
0e
04
09
11
fd
0f
f1
ff
fa
06
1f
db
06
f4
0e
ed
0c
02
fc
e5
ff
ee
05
08
03
18
0b
f1
07
12
f2
fa
f2
0c
f4
06
02
0a
0e
f7
01
11
ff
fd
02
0a
2b
10
d3
26
f5
ff
f2
fb
24
fd
fb
0a
13
11
14
05
15
01
10
ea
ff
03
fe
f3
0e
f7
02
fc
0d
1d
f6
1d
10
fb
fa
0e
e5
f6
f3
fe
0b
0f
1f
ee
f8
09
fb
f3
f4
06
fd
ec
05
f9
f7
f9
03
fc
04
fa
f2
19
fe
00
e9
f6
ea
fa
06
ff
d9
01
14
0a
ef
08
0e
ee
fa
f7
0a
ff
f7
ff
05
0a
04
f8
07
04
22
f1
06
07
fc
f5
32
02
10
0d
f2
fc
f6
00
eb
f3
0a
12
16
07
1b
db
04
f9
15
fe
07
f2
f9
0f
19
ed
03
e2
fb
09
0a
f8
ff
0f
0e
e7
0e
e3
f0
10
e5
f6
f4
15
09
1f
f8
00
ff
13
e9
00
09
fc
fb
0a
0e
f7
00
15
fb
08
eb
22
f1
02
21
ec
e3
10
f7
f9
03
0c
f8
02
e6
01
ff
f1
fb
e0
07
09
e7
ef
04
f6
13
0b
f2
f1
0c
fc
02
ff
ff
fc
f8
14
f7
ff
fb
22
01
11
f6
0c
fb
02
eb
21
fe
08
06
05
04
1d
f9
f7
0c
1f
fa
f9
17
f4
fb
09
f4
e1
31
0e
0b
f2
eb
ff
12
fc
eb
f8
f8
16
e2
0a
15
12
08
2e
0d
f8
fd
fb
ed
e7
f9
eb
f4
11
fb
fb
f5
00
e8
28
06
0c
fb
fa
e9
df
01
05
0c
fe
0b
e6
e2
f1
16
0a
05
10
0f
0c
27
0b
1b
1e
04
f5
e9
ef
fa
ee
09
0b
07
0b
05
f8
f4
01
02
06
09
02
fd
12
ff
1a
f3
ff
e4
06
0d
03
16
05
04
f5
0d
fd
f2
fe
11
08
05
fc
fc
f8
f4
06
03
e7
dd
e3
f2
e5
0c
0c
08
0b
ea
0a
06
0e
f5
ef
05
fc
01
f4
00
0e
ef
cf
03
f9
08
22
1d
0b
0c
11
1e
0b
06
02
d4
f9
0a
00
16
03
0b
1d
ea
12
fa
17
0a
21
11
1d
13
27
fb
f5
e2
12
17
09
fd
fb
00
07
18
f4
09
fa
0d
05
09
f9
fd
f6
06
0a
0f
ec
f0
f5
e0
07
0b
0e
f1
f5
0c
e4
0f
fb
14
ef
1b
22
17
e9
fc
08
ed
22
16
0e
17
13
00
09
00
08
1c
00
0b
20
06
e9
15
f8
20
20
f8
07
0c
ff
e9
08
fb
ea
f2
02
ea
f9
e6
12
f9
15
f4
f8
fd
19
09
f1
11
1a
e0
f0
fe
07
dd
fd
10
0b
0e
fb
0b
05
08
fa
02
fb
17
16
fb
03
e3
10
00
f0
07
f6
ff
04
ed
16
0c
08
fe
eb
ee
fc
05
18
f1
09
f1
12
0b
f5
ea
0f
10
08
0c
fc
fa
0a
f1
07
0c
ee
0d
f9
08
fd
f6
0d
08
12
f1
f7
f0
e9
1e
f6
0e
13
0f
fc
0d
0a
f6
f5
09
ed
e6
11
ed
fb
0c
04
e9
05
1d
d9
ee
21
fd
00
d8
e4
f5
1a
00
fa
0c
f8
ef
02
ff
ed
05
fe
f7
04
05
01
01
ef
13
fa
02
05
23
13
03
fd
ef
02
e2
14
f3
fd
04
ec
1a
e5
04
07
00
ea
ef
dc
f8
02
16
f1
e9
e8
f1
00
07
0b
07
02
ed
fc
ff
00
11
e1
f8
1d
fb
f2
ef
18
f4
0b
f9
0f
f1
fa
f4
08
13
00
f3
ee
11
fc
fc
e8
09
ff
0f
0a
0f
0e
f8
01
00
0d
07
fe
f2
f7
e2
ee
ec
04
06
ee
fd
f8
f8
f4
07
f7
01
fe
04
03
05
f7
17
14
13
eb
ff
fb
0c
ef
05
00
10
d1
22
06
fc
12
05
08
11
f9
ff
0c
06
11
06
08
f9
f5
fb
05
06
e4
13
05
15
09
f3
12
02
15
03
0f
09
e6
09
02
00
f8
fe
f8
ef
eb
f0
03
0d
0c
0a
0c
18
ef
04
fc
f7
cc
fe
13
0d
f0
03
08
05
08
f0
1e
ff
0a
00
00
26
e9
dc
09
fd
f2
ee
f5
00
f6
1a
eb
fb
0c
ff
fa
f1
0d
ee
03
0c
eb
fd
fa
0d
f0
0a
06
ed
de
0c
f1
f4
0d
22
ee
e0
04
fd
00
09
fd
07
f4
0d
fd
f0
ef
07
fd
f6
0d
1d
e2
ef
ff
e2
ff
03
09
ef
0b
e9
02
13
fd
f1
00
f9
d5
f8
fd
f2
eb
06
f2
06
03
03
1f
f4
fb
14
01
0b
f5
e4
05
01
ec
09
fe
f8
dd
ee
f1
f5
f7
ef
07
08
29
e4
18
0e
14
f8
f6
de
06
09
0d
f6
f4
f3
e9
f8
da
db
f7
0d
fe
ff
15
0c
06
09
07
0c
0e
fa
15
09
1a
1e
0e
dd
fe
f4
fc
03
15
07
e5
0a
0d
04
07
0f
f9
06
0a
f3
18
f6
e2
e9
27
12
1a
06
ef
fe
0c
fd
1e
f0
19
f1
fd
1c
20
0f
05
04
02
f4
fb
fb
12
0d
da
07
e8
f5
10
f2
1c
f9
ec
06
f6
e0
f2
04
f3
e1
ef
f0
07
1c
ec
f4
fe
12
0a
00
01
03
07
01
0e
fd
e2
f8
f5
13
0a
fe
fc
fe
0c
01
10
f3
0e
10
e8
06
02
0e
0f
fb
05
f7
0a
0f
e4
07
d1
06
f0
1b
f1
f1
f7
25
01
f4
01
ff
fd
d4
fa
25
19
f8
12
0c
00
04
ff
06
04
13
17
fb
13
16
f5
1d
1d
02
f6
0a
ff
12
02
fa
ff
04
05
ec
03
05
0d
f1
f0
fa
fa
f7
f2
fe
06
f4
00
f7
1f
02
1e
fd
23
02
fd
fb
fb
f5
02
fa
03
02
e9
fd
e9
eb
f2
29
fc
12
02
f0
e3
fb
08
fa
0a
0e
1a
1a
fc
f5
14
f0
fe
01
fc
e8
24
fd
02
03
e6
f5
19
f3
e2
02
f1
f7
04
16
11
ef
f8
f4
09
0d
03
fd
e8
04
ee
f6
f7
0a
f8
05
14
13
0d
f8
06
07
01
08
f7
0b
03
09
fb
fb
0c
eb
f2
0b
05
01
f6
f8
16
fa
fc
12
e8
fd
f1
f5
1b
e5
06
05
17
fe
18
00
fc
e1
07
04
e7
fa
f3
fc
f3
02
05
07
ff
e5
15
ee
fd
04
fe
16
05
0d
fb
f1
05
f6
06
06
05
09
f3
f3
f3
0a
0f
fa
fe
20
12
12
fe
0e
08
e8
08
ef
1e
f5
0a
fb
fc
f7
1c
f6
0c
1c
e4
d8
f1
f1
fe
16
fe
00
ea
08
f9
06
07
15
f2
f7
11
1d
0c
05
f9
f1
f4
09
04
fb
17
01
f7
1a
fc
f3
0c
fd
02
10
07
16
04
0e
ed
16
1f
0f
0c
f3
fc
fd
f3
15
04
0d
f3
0a
e9
f8
ef
ee
00
f6
f1
03
05
07
f8
02
14
21
11
1a
ea
f5
13
14
fa
f8
0d
e6
1f
fa
02
05
0a
04
07
00
0f
10
e5
11
f7
ec
d5
18
f7
ef
0b
0b
fc
13
11
01
fb
12
f8
f5
06
fd
fe
fc
0e
f0
08
01
07
02
fc
0a
11
f7
15
fc
e1
ff
1f
1a
06
09
0c
f7
f9
eb
fa
03
fd
11
e8
fe
0c
0d
e0
12
02
f6
02
04
01
ff
f1
fe
02
f7
fc
08
08
18
0c
e7
07
fd
14
f4
08
06
19
d1
01
15
06
01
f3
13
02
ee
01
06
fb
01
fd
de
fb
04
f3
0c
fd
07
eb
00
f6
1b
e6
db
15
09
13
fc
f9
04
00
ff
13
dd
fc
eb
f9
f0
e8
f6
1c
07
0d
ff
11
02
09
f3
25
07
fd
0e
fd
fd
1e
08
fc
e7
10
f5
02
11
11
20
fa
0a
1f
02
12
01
12
10
e1
fc
1b
06
f4
0d
eb
fe
1e
fd
04
11
23
09
1d
f5
f1
07
02
1c
05
fc
e5
e3
19
19
e1
fb
11
f0
0e
fd
fd
22
0f
04
0e
ed
17
ef
0a
1f
13
ef
e9
fc
0f
28
07
09
1c
07
f0
fa
28
f9
09
01
db
0b
f3
11
fc
07
1a
15
eb
15
ff
0c
11
18
02
f7
f0
09
00
02
ef
01
fa
ff
f7
ce
0f
08
29
25
27
e2
fd
02
03
03
f8
e4
03
10
f4
00
02
f0
06
e9
18
f9
eb
12
fa
09
e9
15
f0
ec
1e
04
ff
f8
f5
fc
ef
10
dd
1c
f4
e6
f4
fa
16
ee
22
0e
17
13
d8
08
fa
f6
13
02
ed
f1
14
14
fd
00
13
12
df
ff
e8
2f
e6
0f
f4
12
12
f1
f5
09
04
16
21
0d
e3
02
04
25
01
da
ed
f7
f8
12
f5
0d
fa
0d
02
03
0d
fe
13
fa
11
f1
0d
0a
12
fd
ed
09
f6
fc
19
f3
e3
0c
13
20
08
f8
ea
0d
f3
13
29
f4
06
02
12
ff
1c
03
0b
f4
e7
17
09
d7
f5
20
f7
05
fc
e6
ff
06
fa
fa
1b
de
fb
07
f0
ed
f9
05
1a
0b
0d
04
f8
03
f5
f9
f6
02
0e
ea
0a
05
0a
12
fe
fa
00
fc
f1
f0
22
e2
f6
0b
f9
ee
f9
f7
f8
09
f0
0a
fc
f4
e8
0a
06
03
e8
f8
f3
00
04
07
fb
09
07
19
f3
02
f0
e6
00
06
01
01
fd
0e
20
10
ec
f9
0b
0d
ee
0f
f9
0c
f6
fc
01
0f
f4
11
1f
ee
0a
ea
0f
f0
f6
e6
0b
e5
0b
03
19
fe
de
f3
f8
f4
fb
0d
df
0b
e4
fb
05
f4
01
f2
0d
28
f6
ef
01
eb
08
0e
cc
e8
fa
e7
08
12
f7
f8
f5
f6
1a
06
e0
ee
ff
f0
1a
0c
0c
0a
f8
23
03
d8
fb
07
fc
06
f6
15
00
0c
f9
00
f1
f1
0b
01
0c
2d
fd
03
15
fd
f0
17
fb
ee
e9
fd
fe
ee
27
0b
f1
03
16
f5
0c
23
08
1e
0d
06
19
11
f5
0a
e4
02
ff
1c
0e
05
ef
fb
10
0f
f5
f7
04
f2
19
00
29
ed
04
fe
f0
ff
0c
f8
f7
fc
0d
ed
01
f4
00
f2
0b
f8
0a
17
12
f4
f3
15
22
ee
18
f7
f6
0c
08
fc
03
0c
fc
fd
e8
f9
eb
40
f6
f5
0f
f2
ea
d0
0b
fb
00
dc
f2
df
0e
eb
0b
d7
20
1e
f9
eb
00
f6
03
fe
05
ff
09
fa
fb
f9
eb
0c
fa
16
ff
f3
27
fe
e6
ee
00
15
10
0e
e0
f5
ed
0d
01
d8
f9
02
03
16
e9
16
03
e4
ee
05
f3
fa
01
f8
13
da
f8
06
1b
e8
dc
16
fc
00
f1
0b
26
36
0b
0c
fc
f8
f7
ee
18
f0
11
fc
f7
fc
f8
ff
f0
03
15
e7
03
f2
08
fe
1e
f6
05
0d
18
06
db
ff
0b
fe
1e
1e
d2
04
d6
e8
e1
ef
11
0b
12
f8
18
19
f5
f8
0b
f6
fa
16
1b
f9
0e
11
09
0c
02
02
f3
0d
01
fb
19
f4
05
0b
07
01
01
01
17
f9
09
0f
05
04
ed
e7
f1
01
03
fc
0d
11
02
01
eb
fa
ff
ed
f2
fe
0b
fb
f8
01
15
e3
fa
11
f9
f8
01
0b
0b
ef
fc
ea
f9
f2
0e
fa
f4
0c
0f
12
eb
17
08
06
05
04
f2
f6
03
17
04
ef
fa
f0
03
0c
f7
e8
ef
0d
fe
03
0f
ff
cc
08
f2
00
03
f7
fd
ee
fd
e1
00
14
fe
17
f9
2a
f8
fc
ef
f8
fa
f2
f7
e2
f0
fa
f1
08
12
f8
0c
f6
0b
ed
e9
fd
12
15
0e
02
14
08
0e
f8
0d
21
06
00
0d
07
fd
1d
fa
f3
da
10
03
f3
11
1a
f9
10
e8
fb
ff
f8
fc
03
1a
07
f4
13
e4
fb
e2
f2
f7
09
f5
0b
05
1b
ee
0c
06
02
ef
0d
f7
0a
eb
15
f1
ef
ed
ec
19
f8
0f
11
13
05
19
ef
02
fc
06
06
f9
0b
0b
fb
ff
07
fa
0b
06
f6
fe
04
ff
f0
e9
0b
e8
f4
e5
12
ed
04
f4
fa
fd
f7
fe
00
fe
ec
02
01
f5
0b
06
05
f6
04
eb
fd
12
06
f8
01
f5
fb
fe
0e
04
fa
0b
08
f9
09
f8
e6
06
f3
18
ff
09
f9
f1
fe
05
e8
11
f7
f7
12
f9
12
f4
e5
01
11
fa
0f
01
18
01
fc
fe
fb
05
09
f7
09
0f
f6
f9
f4
18
ff
14
02
0e
0a
04
0e
dc
04
f1
ea
12
1a
02
dd
07
13
06
16
04
2a
df
14
1a
06
e8
fc
ea
03
0d
0c
f2
0b
eb
fc
1c
0b
ef
f3
0f
18
fd
fe
0a
ff
e8
fb
02
10
12
07
09
01
e8
f7
00
ff
03
13
f3
de
09
10
ec
f7
f6
f1
0e
fc
0e
05
fc
eb
0a
03
f0
23
06
04
07
f9
04
f5
0b
f7
ee
01
00
11
f9
ff
f0
04
f6
f7
0d
ee
f5
fc
09
ef
15
e4
ff
1f
ff
0c
0c
f7
02
ff
1d
ea
07
07
16
e2
08
14
f9
ec
fa
13
ed
01
1e
f4
fc
f1
29
f3
fb
f7
05
fb
03
ff
e6
ff
0b
e6
20
f8
e6
0d
e6
f0
27
09
0c
05
e8
ee
03
ea
20
fd
fb
e3
0e
24
08
25
e0
10
f5
10
01
0c
ff
f5
0b
fb
fc
14
13
02
f4
f2
10
04
16
fe
f0
fb
e6
fd
f8
fa
ea
f5
1a
e9
f5
fe
1a
f4
fe
f6
04
16
38
fd
0b
04
0c
f0
f4
05
0e
12
0d
f0
10
15
0b
fc
f3
13
e7
2c
fc
12
fc
fd
fb
00
23
fa
fb
fc
02
e3
07
db
f4
ef
f0
0b
ef
fc
f5
08
0c
e3
07
1a
1d
fd
e0
0a
01
1d
f9
fa
08
10
fd
04
06
07
0e
ef
ed
f6
27
e4
fe
25
f3
f5
f7
f9
0b
0f
06
eb
f9
05
e2
19
eb
fc
ed
ff
09
14
f8
ef
f7
f5
ff
15
fc
f4
15
f3
d7
f4
fe
fd
25
f0
07
05
0f
dd
e8
19
fa
e7
10
0b
0b
01
e6
1a
fb
2a
da
22
03
f0
07
07
e9
01
02
ef
ed
f3
ff
fb
0d
08
e8
fe
03
f8
18
ee
07
ee
09
0e
fa
ee
d9
ff
f9
ff
fc
fd
f9
eb
08
0b
fe
f4
14
03
d8
ee
f0
01
22
f7
04
09
f3
20
12
f3
f4
e3
ed
fc
fc
e7
fc
fb
09
0c
02
f1
04
05
f9
01
0b
fb
f5
f8
0c
d5
0c
e5
fa
fd
ef
e0
00
17
fe
0d
eb
0c
fb
0a
05
ed
08
fd
f4
15
0f
0b
fb
f2
f1
1e
ff
05
01
0a
1a
01
11
de
0c
f7
f8
21
0e
03
13
10
eb
f2
ed
df
12
f1
07
0d
fd
fc
08
24
fd
0b
0c
2a
17
f6
02
dc
0f
f8
f4
06
1c
08
08
04
fc
17
f7
ec
f9
0a
f6
05
0d
0d
14
fd
fa
f0
09
f7
f1
f6
20
fe
17
fc
02
02
14
14
de
fb
f4
f8
e5
14
e7
08
f9
fd
01
fd
13
0b
f3
10
f4
fb
04
03
f4
09
09
0e
f3
fc
fc
fe
ff
0d
05
09
28
ec
04
f0
fe
10
f6
17
fd
18
f8
f0
09
ee
ee
ef
f8
20
f5
14
1e
f8
fa
13
f7
12
02
e8
00
f7
03
0c
0e
0f
14
05
e7
02
fd
03
01
0b
03
fa
03
15
f1
ec
f1
03
00
fb
0d
19
f4
0a
fa
11
f1
00
e8
0a
0a
f6
ef
08
11
08
26
f2
fa
fc
12
eb
18
19
1a
fb
fc
0a
fa
f6
e4
0f
df
14
e6
ee
1e
e4
dd
d2
dc
0a
09
07
23
f6
1c
0d
08
f9
06
0e
f5
08
e8
1f
06
fa
fe
ec
f4
f8
08
f3
11
f6
09
20
0a
f4
11
f8
f7
16
f5
ec
15
e5
f2
f1
f3
fc
0b
e0
04
2c
1f
07
04
e9
fb
0d
02
fb
00
df
13
ef
0d
0d
fa
06
fe
f3
e5
eb
07
0b
fe
f8
e2
fe
fe
fe
f7
02
f5
0d
fc
ff
0b
ef
0a
11
00
f6
0c
04
08
0d
0b
fa
ed
11
0b
d8
e5
f1
11
ec
ee
ff
0e
02
10
ee
f2
dd
06
f6
19
0d
09
0a
08
20
05
0b
f8
07
1d
06
18
f7
00
1b
00
f9
ba
f3
08
ec
c5
0e
0a
01
14
f4
f2
22
0a
25
f7
fb
fb
f1
f9
08
16
ff
0f
de
05
01
06
00
fb
f0
13
18
0d
03
16
1b
ff
1e
fd
02
08
07
16
fc
03
dc
07
f0
1e
02
0c
0e
ff
ff
f0
06
13
0a
f0
15
eb
fb
f7
0f
0d
db
14
1b
0b
16
f8
1c
14
fc
0f
ff
fe
fe
ee
00
03
eb
15
ed
f6
13
fe
02
f9
e5
06
f8
0a
f2
f2
0a
f9
07
fd
f0
ef
f4
17
f6
f3
07
02
f1
e6
f0
f8
19
c5
f5
0d
f5
fa
fd
e5
0b
f3
00
13
04
f8
ed
f1
19
ec
df
ee
f8
0b
f7
05
e8
0a
0a
e1
fc
20
0f
ee
14
f2
fc
dc
ff
e7
fb
00
f0
ef
f7
e3
fc
de
04
f5
03
0b
03
f8
fc
e7
35
0a
05
eb
fe
0f
e5
e6
ec
20
04
1d
05
0a
e6
0f
fc
fe
c2
17
f1
ea
fd
ed
00
08
08
01
05
1b
0b
10
f0
fe
f9
fd
00
08
e7
f9
eb
0b
15
09
02
17
04
f1
0f
0d
f2
00
ee
22
1a
17
0d
dd
05
05
e0
1a
ef
02
1e
f4
eb
09
f3
f1
f6
00
01
f1
f9
02
fa
f1
ff
05
f2
f8
1f
fe
00
f9
0c
fb
0d
fe
06
04
03
19
05
0e
1c
06
ef
ec
e5
f7
1a
ec
0b
0e
f4
09
fa
15
ee
02
f6
fe
16
f8
f5
ff
fd
f8
ee
fe
03
ef
ed
fc
e7
f2
01
f0
09
e3
07
0b
02
f8
f5
00
f1
06
09
e5
03
14
01
e3
f0
02
10
14
03
fe
08
da
f2
f6
01
0b
11
ec
e7
08
fd
17
ff
01
06
fc
f1
0a
11
1a
ea
f5
fd
0b
f8
f4
f6
fc
01
f5
0a
19
04
02
fe
e4
ec
ec
18
ff
f3
05
fd
f9
11
fc
14
f2
fb
01
03
07
11
ee
08
01
fe
e9
f4
f3
0f
0c
f7
fe
ee
1b
11
04
05
f8
fa
06
01
0a
01
ef
15
e5
fc
e9
ee
fe
14
16
f6
0f
05
05
07
08
e6
04
02
fa
f5
08
ed
00
15
19
0f
fb
07
fe
06
df
06
0a
fa
1b
07
f9
fd
0a
f8
ff
f0
1f
ec
03
f5
0f
eb
fa
08
10
fa
13
f3
fc
ec
05
f4
0f
fd
fa
f4
f2
fb
fb
08
04
05
32
fc
0e
08
fd
10
0d
ef
03
fb
f4
23
0f
0b
10
fb
02
fe
ee
eb
00
fb
ff
01
f9
1c
02
ff
06
06
13
0f
01
21
08
f7
0a
16
17
ec
0b
24
14
fa
0a
04
fd
1e
12
05
04
fe
ff
17
eb
03
0d
09
16
fc
17
f9
13
d8
13
f2
07
1d
df
09
11
f7
f1
12
0a
fb
28
f6
ef
15
fc
fe
e9
f5
06
ec
d7
11
e8
0e
ed
05
e5
06
1e
16
02
eb
11
f1
16
00
ef
f1
0a
ef
00
0c
e1
f8
08
09
09
0a
ec
f5
0b
e8
f8
0a
fc
f0
0a
16
1b
f8
05
04
1a
18
11
01
1a
f6
08
02
ff
12
03
e5
fa
06
ef
f2
01
0a
06
13
02
f9
04
e8
f7
f8
fd
0c
1c
0e
e4
0c
ea
0a
f2
ff
0d
13
df
ea
02
05
09
0d
f5
05
fb
0d
01
0b
e9
e4
e8
03
08
08
dd
0f
10
22
f8
fc
e4
f5
02
f7
fd
df
19
02
f9
04
ee
f7
21
1e
11
33
ee
fc
fb
01
fb
ef
02
ea
03
ed
00
f5
fe
eb
fe
f8
0f
1d
dc
0a
0d
f3
01
e6
f5
ee
12
f3
00
e7
00
00
fb
eb
ff
dd
0c
08
ec
05
08
02
01
f4
00
05
c7
f8
08
fb
00
07
f5
fc
fb
09
e9
ec
09
f5
f6
0a
f3
ef
ff
f5
f4
f7
14
04
0a
ec
fd
df
02
f7
00
04
bf
07
06
fc
08
08
f5
fc
fe
00
f1
0e
f6
05
e9
f9
ee
17
ed
07
02
05
f5
19
f4
03
0f
ff
e5
1a
f1
f4
f2
ed
f8
03
f9
13
fb
dd
05
22
ee
f1
00
0f
19
24
f9
f4
04
06
f6
0e
00
f9
f6
ec
f9
03
04
f9
20
da
0c
18
fe
fc
ea
08
dc
da
18
f4
ec
04
15
23
fe
ee
fc
eb
05
0d
f9
03
04
00
02
08
ff
e2
04
ec
ed
09
0b
01
00
10
0e
f5
07
1b
16
f7
fc
0d
dc
fe
13
12
03
04
ff
03
0b
e2
fe
03
f5
ec
f3
fb
12
f5
0e
03
f7
15
ea
fd
13
0d
fc
0d
00
0f
ec
e7
d9
06
12
f5
f8
15
03
fb
15
00
1d
02
13
f4
04
fc
ec
fd
04
24
0e
fa
07
ee
02
f2
e4
09
ff
08
ef
21
f7
f8
fd
f9
fd
e5
f2
00
07
04
01
0f
01
e5
1a
06
e4
08
07
e4
01
04
10
0c
fe
0a
ff
fe
01
e2
ea
ee
0a
f7
05
f5
05
e3
fa
ff
f9
16
f4
09
0e
05
02
ec
1d
14
16
0a
0f
0b
ed
03
0b
f4
f7
fd
10
ef
03
f4
05
1b
0e
0c
f3
0b
02
ed
06
f7
f9
f2
04
09
f5
f8
ef
e7
f9
10
f5
fe
16
08
f6
f5
0e
f8
f6
0a
f2
ea
e5
fe
03
dc
1e
03
eb
07
f8
0e
e7
1a
ed
fa
f0
08
12
06
08
ec
fd
23
01
0e
f5
fa
ef
ef
ed
fa
09
fd
e4
08
0a
ca
0e
0a
f5
ef
fc
08
06
f9
00
14
06
1b
10
ea
f5
0b
fd
fa
fd
1c
f7
0c
f6
07
1c
02
fb
e5
0b
fd
02
00
1a
02
05
15
e7
f5
17
20
ec
fc
e8
fb
fb
f0
fd
f9
07
fe
09
f9
27
f1
e8
f5
0f
f5
0e
fb
fb
24
f1
04
fd
09
15
07
0d
09
f5
04
01
fc
f1
07
fd
09
fd
ee
06
f6
ff
04
23
1b
10
f1
fe
f6
ee
02
f1
17
f6
03
04
fb
f6
0e
14
06
11
ff
eb
fb
06
f3
0a
f2
f3
03
fd
fa
fd
ee
f7
f2
fc
0b
21
11
10
fd
fa
05
13
f9
0c
f5
22
15
10
17
f6
07
fe
08
0b
f0
0f
04
0c
fe
fe
ee
ec
f8
11
09
f0
17
05
f6
0f
f5
0b
0f
ff
07
02
13
f6
fd
fc
10
14
07
00
fb
f2
10
fb
15
09
04
0c
f8
ea
11
e4
e1
04
06
ff
ea
03
09
fd
02
00
02
f5
f9
04
f5
fe
11
f0
f8
f1
14
02
ec
fa
01
ff
f2
0a
1e
f5
07
00
ef
f3
f6
0a
f4
01
fe
0e
00
06
e6
1a
f9
fe
04
0c
17
05
f9
01
03
f8
18
06
fb
fa
f8
04
20
fc
04
f7
ed
0b
dc
fa
fb
08
f5
f0
fc
f4
f5
fe
ff
13
0d
01
0b
fb
10
fc
ef
02
15
07
04
f0
02
fd
fb
e9
ee
03
ff
1f
f3
f6
0b
e6
00
12
17
04
0c
15
10
f4
f8
f3
07
0b
04
fc
f8
fc
02
04
f5
01
07
00
ee
f6
03
ee
0d
f3
02
fd
ff
05
f6
03
03
ee
17
0f
00
fd
fc
1a
f3
14
08
31
f4
03
0a
fd
fd
fb
dc
e7
e9
e6
0e
09
11
d6
1c
f9
0b
05
0e
e5
0c
f8
02
ff
f1
1b
04
ed
03
f8
f6
02
ea
18
1b
10
f1
17
db
fd
fb
f6
1c
fe
26
f2
f3
f6
01
0c
0b
0e
fb
db
0f
ec
04
f1
f2
e0
ef
f3
fb
f8
ee
f8
fd
10
ee
11
0b
ed
fd
07
19
fc
00
01
e7
18
fd
05
fa
0c
ee
24
fe
fb
13
fa
f6
08
0a
e7
12
07
10
19
07
09
06
20
e8
11
f3
11
fb
ee
06
05
0d
2a
1e
fe
ff
f8
fb
f7
0f
02
f0
22
06
00
c8
1a
e6
f9
d8
fd
ef
03
23
fb
f0
ff
07
f4
fe
02
fc
f9
10
f2
fa
e4
09
db
26
05
ff
ea
ec
16
fb
fa
f8
0e
f9
05
08
e8
df
f0
0f
e4
03
07
18
17
fa
11
0e
ee
ff
fc
fc
08
f6
eb
f3
20
ff
eb
f0
e3
06
f2
fd
0a
ec
fb
e3
fa
11
0b
12
0f
f2
0e
02
fe
ee
12
fd
23
fd
f1
13
01
0d
04
e7
38
14
f6
fd
23
16
e7
1a
fb
f6
f3
ee
0b
08
e8
0d
fb
e8
06
01
1f
f2
19
1b
fd
03
0f
e8
fd
05
e7
04
fb
04
0c
dd
1d
0a
f4
0b
06
04
0d
f6
ff
06
15
f3
12
f4
0d
05
09
f3
ec
0e
01
fb
06
f7
07
18
0a
03
f2
09
f0
11
14
0a
13
11
fe
ee
19
10
f3
f9
11
f6
f4
16
f0
fd
10
0f
f6
fd
f3
00
fd
13
02
02
0e
ff
e9
ef
fd
05
fd
1f
30
f4
23
ec
11
11
01
f3
0a
08
0d
16
07
fe
e7
21
0d
fd
00
16
f2
01
fb
06
04
fd
10
ec
f3
f1
13
16
07
ef
ed
20
fa
ee
ed
ee
eb
1e
16
0c
12
17
08
08
fb
0e
eb
f3
1c
fe
fe
08
e0
eb
19
11
ed
e1
fd
05
f8
fc
05
01
e9
00
f6
ea
02
ef
f9
df
05
02
21
09
06
0b
e9
17
dd
fd
ed
00
f8
15
08
e1
f4
fe
cf
21
ee
f2
f5
ff
0b
23
f0
06
19
13
02
e3
24
04
09
fc
0d
f9
e2
12
fa
f9
1a
16
24
f3
e8
04
e9
0d
dd
10
ef
09
f4
f3
05
fa
ce
fa
1b
c9
16
01
25
ef
dd
07
f6
f1
17
0a
ff
fa
01
f5
02
0b
0d
11
10
06
eb
1f
20
f0
ef
0c
11
e0
19
2c
1c
16
10
10
16
14
ed
f0
f3
26
09
00
07
32
24
fe
d7
ff
ee
00
3b
fd
f8
08
ef
de
fb
e6
f8
f6
04
06
11
09
fa
06
fc
ff
f3
dc
ea
0f
e1
f4
f5
07
1b
f3
f2
0e
ee
e2
e3
f6
05
f4
f1
08
15
21
03
05
f3
e3
dd
00
06
f2
eb
ed
0d
ff
18
e5
0c
10
00
06
1c
11
16
f5
ff
06
01
f7
f7
e5
fd
37
08
f8
09
d2
13
13
d4
02
0d
20
ed
09
f8
00
02
ee
e2
05
01
0e
f0
1f
fc
da
f4
05
f0
f1
02
ec
ea
10
0e
0b
02
01
08
f2
f7
dd
07
17
11
f1
f4
01
ed
37
10
f8
11
2e
00
e8
fd
fb
ea
0b
eb
3a
01
fa
ff
e0
ef
ed
f9
dd
f5
02
f7
19
dc
fc
ef
0b
df
03
16
13
f3
fa
fb
12
2b
2b
e4
f0
0a
04
03
00
fe
ef
ef
ed
14
e0
f8
1e
f3
0a
12
f9
11
12
fc
df
02
e0
06
e3
12
13
f7
09
f1
08
20
0f
00
19
07
1a
f9
fe
03
de
27
f5
06
16
1e
f5
02
17
fa
27
09
ff
ff
f7
1d
e0
14
36
26
fd
f1
f9
11
f2
04
f6
ff
0e
06
16
eb
15
ef
fa
fa
19
0d
f7
02
fc
15
10
e8
ec
04
f2
0e
fa
dd
0d
27
ff
f1
f2
15
f5
1c
0f
04
fb
12
e9
02
0a
03
f7
f2
0f
ee
11
f3
fc
de
e6
0a
1a
dc
04
1d
10
f9
f5
ef
f7
06
02
fe
0e
19
09
ee
eb
04
0d
2c
08
12
ea
ed
09
e4
0e
f9
f3
05
06
f6
0c
ed
f5
18
12
fc
11
04
ee
21
ed
10
e5
02
e5
0f
d4
11
0c
fd
f6
01
ef
0a
f5
f7
06
f4
01
f9
1f
07
e0
0e
f2
05
f3
00
f5
02
f5
f6
e8
1b
0c
16
11
f6
ef
fa
02
e8
fb
00
f4
09
c9
09
f1
03
02
fa
e3
28
0f
f4
f6
de
00
0a
04
1f
fa
f6
e5
02
0f
11
f5
15
15
09
f3
04
05
f9
15
08
fc
ff
f1
f5
fd
fa
f4
19
07
02
f3
07
1e
11
f5
ff
13
ee
27
04
17
e9
ff
e8
0c
d8
f4
09
ea
2a
02
07
fe
ec
04
0d
f0
0f
03
20
13
12
e3
fd
ea
12
f6
05
e4
fd
0c
12
f0
ea
06
0e
df
ee
16
03
00
18
18
f9
ec
0b
fe
00
19
f6
01
f1
01
01
fe
e3
eb
21
10
e8
01
f9
f8
23
10
27
06
05
04
09
18
14
eb
f0
fb
28
fc
1b
0c
19
19
f5
06
f7
08
f0
e9
11
fe
eb
09
01
10
db
f7
fa
0c
1d
e1
ed
f4
f7
ed
09
e9
d5
fd
fb
e5
13
14
22
e0
06
e9
e5
05
e5
0f
1d
14
d3
16
09
f8
08
0a
ec
05
de
ef
0d
ec
04
23
ee
f0
eb
16
02
fe
ef
ee
03
27
fc
14
0b
07
01
fa
f3
1a
15
ee
de
0a
df
10
e8
ea
fa
20
e8
1d
fb
08
03
e1
fd
f4
f7
06
18
0a
e6
f2
f5
0b
fb
ff
fa
01
f0
f0
fe
00
05
00
19
1a
06
13
e9
12
fe
e7
10
02
1e
0b
16
e8
14
10
09
1a
0a
c8
ff
db
f5
fc
f0
08
f7
e6
f4
ef
f6
1b
e1
f8
12
08
ff
05
1a
fb
ee
fb
fa
06
f2
f1
06
fe
0c
0c
ff
0c
ea
e8
08
11
11
04
20
e2
ee
19
11
09
17
11
00
0a
02
10
e9
02
f9
f7
f5
06
02
fc
05
fa
fd
eb
e3
e6
09
0c
f2
02
fd
f5
f8
f9
1b
17
fb
0d
f6
f5
06
0d
e7
08
02
e6
04
fe
15
11
ec
10
25
f1
1b
0b
01
1a
f4
16
06
ff
f5
10
05
ff
fc
fa
13
fa
15
fa
10
04
14
ff
03
0a
fa
0b
00
08
fa
fc
05
e1
1a
16
e6
02
ff
ff
02
fe
f0
0c
0d
fa
f9
ec
16
fe
fc
0b
f3
f7
f8
ff
ff
03
f5
f0
05
05
0b
f0
ec
ed
f6
1d
07
03
f1
ea
f2
0e
e9
11
02
f9
13
11
11
0b
ee
03
fa
03
ff
0c
ff
01
ee
ee
f5
ef
08
0b
e9
05
0c
06
07
ec
f1
03
eb
f8
08
ff
e7
09
02
03
05
fe
ef
04
e6
03
0a
09
ed
fb
1a
e9
01
0b
f4
f8
21
11
04
15
fe
09
07
ec
05
ff
06
0b
f2
0c
f6
06
17
00
04
0b
f7
08
fd
f8
e5
13
04
ef
08
f5
0d
de
f8
f7
ef
04
f9
07
00
fb
f3
f4
ee
eb
ea
ed
f4
03
f9
f7
f3
05
0d
fa
f4
04
02
09
11
05
0f
fb
13
06
11
f5
fc
ea
08
e7
09
22
03
ec
f4
f9
e3
06
16
fe
e2
0b
0a
f5
f8
fd
1e
0b
00
01
09
f8
05
f2
fb
ec
07
ec
1f
09
0e
f3
0c
26
12
16
fc
f4
e0
fd
0e
e7
fd
fc
f3
ed
fb
05
20
00
ea
ff
f8
f8
0f
07
0b
04
06
f5
f3
05
ff
20
f9
0d
f9
f3
0f
fa
e9
fa
02
e6
f8
0d
16
f2
02
20
d7
16
0d
00
f8
fb
1a
00
fd
fd
09
28
f2
f1
15
04
03
03
21
f3
03
f6
f6
ec
08
0a
ff
e8
ec
08
fa
13
08
f5
0c
0f
fc
0d
03
f4
05
e3
07
fd
ed
fb
11
e4
05
fa
01
f5
fe
e4
0d
f7
d6
e1
e7
01
05
07
0c
08
fa
f3
08
f7
f0
07
ee
fc
10
f8
08
ef
13
f7
08
1a
f6
f7
0c
f1
fa
2c
ed
00
e8
fe
13
fe
ef
fc
ec
fd
18
d4
e7
fc
00
2c
f2
fa
e3
e5
11
f6
ff
f0
e4
f0
fe
13
f7
07
15
e6
cb
f3
22
f5
15
0e
df
f0
04
f2
e4
ed
eb
de
ee
10
07
07
ee
ea
fd
06
f7
e1
13
fd
fd
00
d7
f3
da
ec
fc
f8
ed
19
08
ee
22
2f
fc
1a
0f
fc
e6
02
fb
00
00
f4
f0
ff
0f
f3
0a
00
0d
fe
26
2f
09
12
10
ee
16
fb
fd
0b
e6
04
22
ea
ed
04
01
09
f9
fd
01
e6
fa
de
15
1b
f2
f4
e9
d2
10
f0
04
e9
ee
11
fa
fd
1e
f7
19
ef
13
05
15
0e
09
00
d3
fc
fa
32
00
df
08
fa
f6
14
2b
03
0c
d9
18
f3
f3
08
f4
10
ec
dd
08
03
06
f5
df
03
02
1e
e0
17
fc
fd
e4
e5
ff
13
03
06
fc
04
0a
22
01
ff
f7
09
12
fd
09
ef
fd
0c
f3
01
ea
15
f6
1a
e8
16
0c
07
f3
07
02
f8
20
f5
fe
16
15
19
15
f3
22
19
0c
f6
0c
00
f0
07
0c
f6
fc
10
f8
03
fd
e3
09
d3
f6
26
fa
0a
20
d5
0a
f2
f1
fa
0d
ef
e2
e2
f4
0c
13
06
f4
fb
fd
19
06
1e
e6
22
f0
08
14
09
1e
e5
f8
fc
e8
32
11
09
cd
1e
f0
f0
de
fa
fe
f3
f9
e5
11
f7
fc
e2
fa
d6
16
fc
1f
fc
f5
ff
09
06
15
10
1a
0d
1b
f9
fb
fe
19
eb
fb
0f
0f
01
0e
f6
e7
02
e6
01
0d
f7
ea
18
e1
0d
05
ef
fd
18
13
f9
f8
22
06
e0
00
fe
02
f6
f1
fa
04
de
fb
f3
11
04
fe
0f
16
ed
05
00
09
fa
0a
15
ee
1a
fb
d3
10
05
16
f7
02
12
0d
f0
f8
ef
1d
fe
1a
17
ed
13
05
0c
11
f0
02
00
e3
03
06
e9
fb
e3
0a
0a
06
07
de
f8
f4
03
19
0b
f4
f1
02
e5
09
05
e7
f9
02
fa
0b
19
fe
00
ff
09
1f
04
f3
fa
f0
eb
ff
ff
0c
fb
ea
14
fa
18
08
04
f4
0b
0f
28
fa
06
e1
01
ec
00
1f
07
f4
ee
e4
0e
02
fa
ee
03
00
08
03
ef
fb
16
f1
09
ff
e0
fe
ee
02
19
fc
f4
ef
18
0c
ed
f3
18
05
eb
1a
fd
f7
ec
0d
fd
f7
0d
0c
f3
fb
24
0f
0d
f0
fa
e4
02
08
fc
08
1f
17
04
f4
03
0f
19
fa
fe
19
07
05
f8
08
16
fe
e7
fb
f3
dc
f6
02
12
fe
07
f6
0a
04
08
08
e6
f5
0d
fe
19
19
f1
0e
0c
06
f1
f2
f1
ed
f5
09
f8
03
fe
02
34
f0
08
0b
0b
f9
fa
f0
16
02
f0
05
ef
1e
03
f3
00
f9
1c
de
fa
0a
06
db
08
fa
f4
f3
29
f4
da
eb
f1
15
fd
f2
fd
f2
dc
fe
ef
e2
eb
11
20
da
0e
fb
da
f4
e8
0f
f3
fd
1d
15
01
e7
f9
17
0d
06
05
22
f9
ea
18
14
f5
fc
f0
05
00
ff
06
fd
e6
f6
19
f9
f2
06
18
f7
f9
12
08
0a
f5
ee
fa
1b
11
fc
0a
0a
07
e7
0a
e7
22
05
0c
fe
fd
e3
10
09
41
03
05
fd
ea
12
24
09
f2
08
fb
04
f2
01
e4
0d
fc
dd
f2
05
f3
e3
08
0e
f5
fe
07
0f
1a
ef
f2
fc
ef
04
0b
11
e4
15
ff
16
e3
09
ec
ff
02
15
0c
17
04
00
dd
dd
0a
f8
fa
01
0f
14
fc
f8
04
eb
29
05
f4
de
fe
e0
fd
f4
07
f4
04
0e
09
0e
e8
05
08
01
02
f9
01
f3
02
e6
08
07
01
05
06
06
f6
29
09
08
ec
ef
00
0c
04
06
1a
fc
07
0f
01
e9
f5
07
fc
15
0f
05
00
0d
fc
f8
f5
13
07
0c
14
03
18
f8
fd
16
fb
f9
fc
f3
04
f3
1e
0a
fb
14
fa
fd
f5
11
e5
05
0e
0e
09
01
f7
fd
fa
f7
f9
f4
09
0f
09
07
13
10
10
05
f8
02
f2
02
fe
11
05
05
f2
ee
00
05
00
e8
0d
f1
f7
fb
f5
f0
0a
07
ea
03
12
00
ed
0d
eb
21
0f
fe
fb
fe
0a
f2
01
f4
ff
01
05
fe
00
fd
02
f1
0b
f7
22
0b
ff
f8
02
10
fe
12
f0
fd
f7
f6
00
fe
fd
fb
06
f7
f6
f4
05
f8
fc
1c
19
fb
06
e3
12
0b
e9
07
fb
08
fe
15
09
f2
f0
13
04
f8
02
f5
fc
e7
fb
ff
e8
08
f2
0c
0b
f6
15
06
fa
03
f3
0a
fd
01
ec
0b
f3
f8
02
fe
f1
01
fb
12
f6
00
fc
fe
11
f2
0b
03
0c
0a
f8
f6
fb
ff
db
e7
08
10
fc
f0
02
f1
fa
01
f5
07
02
f0
0d
1f
03
f2
fd
07
15
fc
0b
12
f7
fd
f6
f6
15
f6
fe
f9
ee
fb
f3
e9
00
04
1d
06
01
f4
00
f5
f6
fa
05
f8
08
f5
f3
08
ee
0d
f5
17
0c
02
08
ff
f4
37
14
f7
00
09
ee
f8
0c
0b
04
0f
fc
09
f7
03
11
00
10
02
09
04
f9
04
0c
00
03
f7
00
ff
10
1a
0b
09
f5
fa
02
0a
ff
fe
03
f1
fe
f2
fd
f3
ef
00
0e
09
06
00
ed
f6
f8
05
10
f3
0c
f9
fd
fa
22
fb
03
f7
fd
0a
f0
f3
08
06
1c
0d
0a
18
10
f4
1b
09
28
eb
f7
02
03
f5
f3
11
0c
05
eb
1b
05
ea
fa
eb
f9
f8
02
0b
03
fb
ee
f9
0a
02
ff
fd
03
f6
06
0c
ff
f3
e8
f6
e5
0a
fb
f0
07
ea
f1
00
fc
fe
0a
f8
06
02
f4
ec
ff
00
fc
0d
f9
11
0a
e5
0d
f3
f8
09
1e
ed
fc
05
0d
f0
01
eb
04
fc
02
03
01
0c
01
03
ee
16
10
00
14
f8
fb
f6
03
04
f8
17
0d
f6
01
e0
08
f1
05
07
00
04
08
f0
14
18
fc
ef
ec
ee
fc
0a
f9
fa
0d
07
ed
f8
00
f5
03
e6
f2
07
f3
02
fe
05
f3
01
f7
ff
0d
fd
fd
f7
ff
f7
0c
11
fe
0d
fc
16
0c
f7
f8
0c
f5
00
ee
0f
f7
00
f7
fe
fa
ff
08
12
03
0f
08
f6
ff
07
dd
e4
fe
f2
1f
eb
fa
e5
fe
0c
fa
0e
19
fb
f0
0a
fc
0c
06
f8
fd
f3
fc
f6
fb
17
1f
0b
01
f7
02
02
01
f6
19
03
07
14
10
0c
f3
15
1e
04
05
f5
04
ff
f9
e1
f8
e7
ef
1d
07
f8
07
e7
08
fd
ea
fa
19
ff
14
f6
0b
08
f4
f2
f5
04
03
f9
0a
fe
ee
f8
ff
00
03
07
e7
0c
fe
ef
f8
0e
ee
0d
ed
f8
f0
0c
ea
01
08
02
03
fb
07
15
f1
fe
00
09
09
09
ff
08
fa
ed
f7
0a
f5
f8
f0
0d
0a
fd
1e
0c
0e
fe
08
fe
ec
e7
00
ff
fb
f5
05
08
19
12
f8
08
09
0d
f6
04
04
03
08
f2
0b
02
0b
ff
00
ea
02
01
0a
df
17
eb
f9
1d
08
fd
10
f1
09
0f
f8
f7
0c
fc
ea
fc
19
13
16
0c
f9
0b
06
18
fa
05
f2
fd
ec
03
06
05
03
e6
fe
f5
05
fb
f3
13
ea
eb
f5
07
17
0a
08
fe
17
04
f2
f2
10
e9
f9
15
f9
15
f3
05
f4
f6
00
f0
1b
f0
f5
04
f9
04
15
00
09
f8
00
0e
ec
08
f9
01
f5
1c
04
12
0d
03
04
27
00
1e
ec
04
f8
e3
f4
ff
fd
fc
02
e4
00
18
f6
f3
fc
f5
02
0e
f3
00
09
ea
f4
06
f6
f6
0a
15
0e
0d
fe
e6
f5
05
f7
0d
fc
03
00
0d
05
05
08
31
f9
fd
f6
fe
05
df
0e
0c
01
ee
16
0e
fa
04
fd
06
0f
e2
ea
16
15
10
08
27
14
f0
fd
f6
1c
ef
f8
0d
ff
22
07
13
06
f0
e8
fd
f8
e2
e3
0d
fa
05
fe
06
f6
0e
19
18
13
1b
f1
06
e7
06
05
fc
e9
03
fa
f5
f0
07
df
10
08
04
14
0b
03
02
fb
08
25
05
1b
01
10
13
09
04
04
fc
f6
25
fa
12
02
08
06
09
f9
2a
1b
08
ee
fe
f5
f6
fd
fb
03
1a
f6
ef
db
f1
13
0e
ec
08
13
fd
fb
18
08
03
f9
08
26
ed
0e
ef
fe
0f
fc
03
fe
e9
0c
04
07
0e
fb
0b
f9
10
04
fb
01
1a
13
fd
f0
21
f7
f1
34
f8
ee
13
fd
02
33
fc
f1
08
ef
12
34
fa
00
0f
20
05
f3
1c
f3
fb
25
05
f2
ef
fc
fd
d3
18
0b
00
03
0a
09
fc
f6
e5
04
fc
07
eb
0e
f6
0d
0c
0a
05
da
f9
fe
f9
e7
e7
f5
25
14
f0
ea
fb
11
ed
01
21
0b
f1
e4
05
08
18
f2
eb
19
fc
f4
dc
fa
07
fd
05
15
01
f7
fc
f5
18
f3
01
e7
0b
fd
e5
f5
eb
04
0e
15
ed
08
08
01
d9
f8
00
16
0d
e9
04
fc
d8
23
e2
05
09
02
1b
fb
0f
09
0b
13
fb
1f
13
1d
0a
e5
10
fc
e9
f0
f5
06
16
f0
f5
0c
ff
f0
ec
00
f1
f5
09
ed
24
13
08
fc
06
f7
07
19
e6
0f
14
04
f3
f4
f6
1d
2b
00
f2
05
0a
f4
fe
ed
00
fb
ed
fe
2d
fb
07
d2
1c
e7
e7
f8
ff
0d
ee
e5
05
15
0c
e7
f2
00
09
04
0b
e8
01
dc
ec
fe
fe
e5
1a
19
0b
ea
00
05
f4
fd
09
04
ff
e3
f0
0e
f4
ee
05
0c
27
fb
eb
f8
f2
03
03
05
ff
22
fd
19
01
fa
ff
0a
f7
ff
0e
fa
f5
0c
f4
0e
f5
f2
04
f8
f1
f5
11
0e
fd
1d
f9
02
f7
fd
e4
ee
f6
0f
07
05
03
e7
0b
f3
fe
07
04
f5
f4
0b
ff
f7
da
02
f8
11
e8
16
08
0e
0e
09
0d
e6
f2
f1
06
12
da
02
ee
0b
0d
d2
0d
fc
0a
27
07
fc
00
0e
f5
db
03
f4
08
fb
ff
05
0d
f1
fc
22
1f
f1
01
08
1f
fa
f4
ed
ff
f5
10
f9
f4
0a
e5
19
04
0a
ee
fa
ff
fd
e5
06
fa
10
ef
01
ea
fc
08
0f
0a
f1
02
ef
08
fe
ee
02
f9
05
fb
19
14
02
0a
04
13
d5
00
0a
fe
08
1f
03
0c
ef
0d
eb
f3
18
e1
ed
03
1d
fa
00
e1
f2
0c
f6
f2
f4
dd
01
24
f0
0a
f9
28
ed
f0
eb
f6
fd
28
02
06
0b
06
f1
0b
ff
fa
eb
f8
f7
18
1c
05
15
0c
04
12
ed
00
15
24
ff
03
f8
00
ef
f7
1a
f0
f6
12
f1
ef
f0
06
02
06
f0
0a
ed
f0
f6
e1
f8
05
f3
e5
df
e4
0d
01
0b
01
fe
07
10
e5
15
03
16
0e
e5
ed
14
f3
f1
19
ea
e5
01
fd
0b
d7
eb
fb
08
24
04
ea
ff
f8
01
e9
ea
f8
f6
07
04
fc
01
0b
00
0d
ea
0a
f8
1b
03
09
03
f5
02
ee
f6
ef
fd
f4
1d
fa
11
f8
fb
f6
02
f3
fb
03
fa
e7
13
09
09
e6
12
06
f3
e1
f2
0c
06
f4
07
1c
ea
0e
fa
02
15
09
fb
13
04
02
19
f7
ed
f5
f8
1d
fb
12
0e
f5
0d
0c
00
fa
d9
f8
08
e6
05
07
06
f1
f6
f9
08
da
ed
ee
06
f9
f3
fe
e9
f4
f4
f9
06
fd
08
f3
ff
fd
03
04
f9
23
fd
ec
f1
ee
12
19
15
f8
08
de
12
0e
cd
10
f3
f4
30
00
d3
f6
06
e2
20
fb
d5
e7
f3
00
fd
13
f0
0a
d3
e4
04
e7
05
f7
04
fd
fd
fd
f5
fc
ed
19
e8
00
15
f8
00
db
f8
1c
fb
fd
03
09
dc
eb
1d
09
02
0a
f6
d1
da
08
00
03
07
39
17
dc
f0
f6
f0
0b
18
0c
fc
ff
eb
f3
f5
ed
e9
f3
ff
ff
ea
06
ec
09
fc
09
0e
15
03
ff
f7
e7
fe
16
02
00
0d
13
e2
e7
0e
e8
f0
fd
04
e3
14
fd
13
10
f0
f4
09
ff
ec
e8
fb
d2
1a
fe
ef
1a
dc
08
f8
07
f3
df
09
d5
f7
e6
1a
0a
15
f2
ef
fb
f4
f8
e8
f5
13
06
03
0b
fe
df
f7
f8
1f
14
25
11
f0
ef
ff
0a
14
27
0e
d8
ff
f5
10
0b
f6
f4
07
f7
12
ec
0e
f7
02
e5
0d
f3
1b
0d
02
fc
fa
fc
f5
0e
f3
0b
0c
04
dd
f0
e1
03
0c
f8
d7
df
09
e7
ec
e1
01
07
05
fe
ff
fc
0c
0d
fe
df
ff
15
f4
02
d9
ff
da
ed
fc
fa
f9
0a
fb
e6
fe
f3
fc
22
11
fd
f4
ef
ee
f8
ed
04
de
0d
05
0a
0c
06
06
1d
0f
ff
10
02
0e
04
08
fd
f4
14
f8
05
ee
02
0d
f3
04
ff
f3
ea
ff
01
07
0d
fe
ec
f3
17
0b
fe
01
0e
f7
23
18
09
e9
0b
26
1b
1b
00
fe
0c
fa
03
03
11
f7
13
00
f9
f8
ea
02
fd
27
ed
0d
f4
06
1e
11
0d
12
09
00
fa
18
fd
ff
e4
20
12
0e
f9
19
07
05
f5
ee
f9
1c
04
06
fa
17
0f
e5
01
1e
1d
05
05
fd
f2
dd
f3
12
f3
fa
00
12
2f
05
08
0f
0b
ef
f2
d9
14
19
1c
fb
15
05
07
11
01
19
11
01
f3
fc
15
fc
08
07
1d
18
f6
fa
f7
07
f9
01
ec
0a
f4
1b
05
16
f8
fa
0e
e6
13
f9
08
f7
0b
f3
ff
f5
e6
05
f8
0a
0f
f7
fb
11
f2
0f
2e
04
f1
02
ff
08
05
12
fc
07
13
22
0e
f1
f3
ea
e5
e7
10
02
f8
0c
e4
02
0c
19
fb
19
16
06
07
e2
10
12
f8
0a
df
17
fd
f0
ed
07
05
0d
17
e5
dd
03
f5
18
e2
f6
ec
38
18
1b
1b
ed
cd
02
03
f2
f5
0c
1c
16
fb
1c
f7
06
f3
f8
08
1a
f1
0f
ff
01
f6
e5
ff
f6
fd
13
0b
f4
02
0f
f2
00
fc
f8
09
19
fa
f5
13
f2
fe
1a
f2
cc
f6
02
f4
ff
0f
e5
1d
f2
f2
f4
e8
f6
fd
f2
1d
f5
fa
ed
0f
fc
f6
02
0c
ec
f2
15
05
e1
ff
04
05
05
18
fc
27
11
00
05
0c
0c
f8
0b
ef
fe
fd
e6
16
f7
fd
f2
0c
f3
0f
08
f4
f0
1e
e5
17
fe
00
15
f0
05
13
d7
16
18
f7
35
25
0b
ec
07
fd
0c
f9
e4
fe
15
fc
0e
12
23
2b
f9
0b
e7
ff
ea
e4
03
07
e7
fe
e3
01
14
11
1d
f5
22
14
1b
0b
03
17
f9
05
e5
f5
ff
03
18
1f
f9
0b
fc
05
f4
02
ef
04
e4
09
ff
fc
15
f2
09
f0
01
fc
fb
f9
e3
ec
f9
f5
0e
f4
ef
e9
17
0f
03
e7
f6
09
02
09
07
ec
ef
11
f1
ff
eb
e2
e2
0c
eb
17
e7
0f
ee
f7
ee
1a
f0
fa
00
f8
fd
1f
ff
f8
f7
03
fd
0a
db
f7
18
e4
07
09
f9
10
0f
07
04
fa
e5
f9
15
17
05
ff
1a
df
0d
f2
21
03
04
0e
ea
eb
0f
1a
f7
f1
07
11
11
f4
19
09
11
fe
fa
ee
f5
f0
19
01
fc
06
f7
eb
fc
00
e6
e0
12
e4
0b
f1
fb
09
ff
f4
0b
f9
eb
f2
fc
05
09
0c
05
0b
fc
f5
fe
09
0b
ff
e8
0a
0a
1e
fe
0c
e3
ed
0c
e8
f1
04
f2
ed
01
0b
ff
04
f4
21
ee
26
01
fc
03
e0
0e
13
01
fe
18
03
f6
08
ee
17
06
1c
01
f5
eb
fd
03
f6
ed
d2
1c
0c
26
1a
01
0e
ea
08
17
fa
ef
0b
df
05
0c
05
03
09
dc
f2
0f
fe
df
13
f8
08
0b
f3
ea
d8
1c
f6
fc
05
11
e5
0d
0d
ed
fe
f4
f3
16
fd
e8
f9
e7
ff
0a
fb
f4
08
f3
f0
09
08
05
f8
f8
0a
03
e5
02
f8
e1
02
f4
f0
2f
ea
f8
13
0f
e5
07
08
f6
11
e1
fd
de
12
12
ee
01
1c
e8
dc
d6
fa
01
06
10
0a
10
1a
0b
1e
fa
fc
f2
23
f3
03
fc
10
f8
0d
e9
fb
17
0f
2b
0b
00
02
fe
fa
fe
01
e7
16
ef
ee
00
f9
0d
f1
03
e3
e6
ff
e3
f9
ff
fa
fe
00
07
f0
f8
e2
e8
03
03
07
fd
05
15
f9
07
17
e9
e8
07
15
fc
cb
0b
f8
15
07
04
f9
ea
f2
fe
fe
e7
0e
ea
0e
e8
f6
0f
dd
ef
f7
fc
f8
09
09
0d
ef
15
0a
28
fa
07
05
fc
f4
07
f2
f3
ff
1e
e4
e8
f8
f5
f2
e3
ed
f8
0f
05
fd
0e
f5
01
f6
11
fe
e4
e6
00
f3
e4
0e
15
04
00
fc
fe
f4
f1
03
ff
0d
00
ec
ee
22
fe
0a
1d
02
f6
07
00
11
05
e0
07
f0
11
12
38
f9
f1
f2
05
f2
0f
07
1b
ee
0f
d9
1e
f1
15
ec
27
f8
fc
07
01
f9
fe
f9
fd
ed
ff
e2
00
02
1f
05
ef
f1
04
17
f7
04
ec
f9
0e
fa
fd
e2
fa
f8
12
01
19
fc
15
03
00
fb
14
01
f7
fe
ff
03
08
11
09
0f
e5
0e
f9
fd
00
06
f7
09
ee
fe
01
0d
f7
0a
0f
03
0f
fe
27
ef
0f
17
f9
13
0b
07
12
01
03
15
fe
00
0b
ec
f7
03
f5
ed
10
0d
06
1a
07
f8
f3
06
f6
f2
05
0a
eb
f4
2b
06
f9
fc
f0
0f
fe
fc
ff
fd
0f
14
f9
f7
f9
ff
1b
fd
02
0b
f3
fc
14
01
ff
ff
1f
13
f8
1e
2c
18
1b
e7
fc
18
dd
0e
ef
09
0f
09
07
08
f7
21
ee
15
00
f9
fe
f2
f9
13
07
10
ff
f3
02
f1
f5
0d
08
28
fc
08
04
16
ff
11
fa
0a
f1
20
01
01
09
f0
0b
03
ef
f7
f4
06
12
03
f6
fe
15
dd
fa
f8
fd
db
00
09
02
f7
0c
03
19
f8
0c
f6
fe
fa
06
14
df
07
00
ef
f7
16
00
28
f9
f9
05
0b
19
e4
f4
ff
01
fe
00
e9
fb
f9
01
03
10
12
fc
fc
0a
0e
1b
14
f5
09
07
15
e9
12
05
fd
10
fb
fd
07
f5
fc
f2
0e
10
1e
17
fc
26
02
e8
f6
0a
ea
e9
f1
e8
08
13
e9
f9
f4
01
f8
18
19
04
f8
fe
e8
ef
0b
e5
fc
f2
f9
f7
0b
25
e6
05
0a
f2
04
1a
00
0f
fc
e2
13
fc
f1
fd
19
fd
f4
0a
09
03
0d
fe
ec
01
f0
00
10
10
ff
fa
12
ec
f5
e6
13
f5
e3
07
05
f4
07
01
0d
14
0c
00
0e
f2
18
f1
12
f5
12
f2
f1
02
17
f8
ee
fa
0f
ed
fc
0f
f1
1c
fa
06
19
f6
fe
fc
07
fb
f6
0d
f2
ee
f9
fb
fc
09
ec
11
f7
f8
e5
e4
f0
e8
ff
1e
05
ed
e7
18
f2
fa
1c
f7
15
ff
ea
0b
f6
17
08
0c
e9
0c
01
03
11
f8
01
02
f8
00
f4
04
06
05
01
13
20
cd
00
1e
f2
26
fb
fb
1a
e1
07
07
f8
06
0e
24
11
e6
0a
07
eb
fa
ff
fa
08
f4
d1
0b
f6
09
f4
0c
f1
27
04
d9
38
0e
f7
f7
fc
f2
04
16
0b
ff
01
08
0c
02
06
fa
00
fc
f7
da
25
08
03
0f
07
0b
f2
19
fe
06
ef
fb
f4
e4
ed
08
e4
f6
0a
0e
f9
ff
1a
06
f9
ea
1b
04
ef
f9
18
07
ec
ea
ef
02
0a
ff
f6
f9
f9
10
0f
0c
f2
0e
06
10
ea
0d
e8
02
18
cb
da
11
ee
f5
d6
18
00
12
0a
e1
f2
fc
19
fd
e9
2e
ca
0b
05
00
f2
ea
01
11
fb
17
dc
ee
fb
fd
fb
fb
ec
f8
fd
06
0c
d5
06
f8
db
f5
04
d8
f2
16
1e
e7
17
f3
19
ec
f4
03
f5
15
cf
f6
03
05
fc
1a
1e
1a
f3
0f
11
f8
0a
fd
0e
09
ee
00
fd
0f
ec
0b
11
f2
f8
06
f5
f9
fb
18
08
0f
03
08
fd
ec
03
1d
f0
0c
10
15
fd
f2
1d
12
01
e3
f9
f7
fe
f7
05
fe
09
e6
df
08
0a
f3
e1
01
f3
05
03
e6
04
04
0f
1a
0c
fb
f3
e7
fc
fe
f1
07
f6
e7
14
03
09
06
04
18
f5
1d
1b
01
01
fa
04
eb
e2
fb
03
03
fb
0f
f6
1a
04
03
0d
ef
f2
10
fd
fc
16
0c
0e
14
1c
03
00
0c
f5
11
04
1b
1e
15
14
e5
e9
f6
f9
fb
e5
cf
f5
0d
d1
08
fc
fa
11
19
04
02
f4
0b
08
07
f9
f4
18
f3
f8
1c
17
05
1e
ed
0d
03
06
fe
19
09
03
fb
01
e8
e0
fd
06
df
eb
04
f8
15
fa
e4
ea
20
1b
ec
e8
f7
f5
14
02
f4
ff
f2
1e
11
f1
0a
09
00
f6
0f
e2
07
0c
08
1d
dd
f8
f2
f8
18
08
13
20
f0
d4
f9
01
03
15
07
0d
e0
ff
0c
04
06
f4
e7
13
0a
0e
07
ff
04
06
f7
ec
0b
f4
0d
fb
fd
04
ea
f5
17
e4
da
0e
e0
fa
12
ff
20
dc
03
0e
f7
ff
12
ff
09
02
0c
ee
00
06
e1
f8
f8
0c
f9
01
12
ff
fb
ee
03
fc
00
07
00
00
ff
fd
1c
f8
04
ed
ff
fd
fe
fc
fd
06
0e
03
f8
06
1e
0a
f5
02
fd
0d
e9
09
ff
07
08
f3
f5
ed
03
fb
0b
f5
f4
fb
d5
0c
eb
ff
fa
f6
f3
07
07
0a
06
eb
04
07
da
09
10
f2
ff
04
fd
eb
10
10
1c
ff
eb
08
08
f2
e8
f5
f4
f8
e5
f4
f2
0c
e5
1b
f5
19
01
f8
08
e5
03
e5
0d
07
0a
10
03
05
17
07
01
03
f6
13
f1
04
02
f7
0c
05
f1
ef
06
fe
fd
11
02
2d
e5
f2
07
06
1b
20
ec
0e
19
1c
eb
01
fd
fd
17
f6
15
28
05
f6
f3
03
0d
e9
10
03
1d
05
00
ed
f4
f3
0b
16
f2
f6
11
1b
1d
fb
30
e8
11
f4
f0
e3
11
0c
07
2e
06
f4
0d
e3
f3
02
11
f1
e8
f2
0c
f3
fd
06
05
f2
16
f0
00
e1
0a
f8
05
0b
0d
1d
fb
04
e0
0c
ef
fa
ea
01
f4
13
00
21
f2
d4
fb
02
01
02
00
f3
07
04
04
04
1e
02
07
fe
f4
fa
0a
f1
15
f9
f7
f5
ed
19
14
fa
f1
e7
0c
fd
10
12
ec
16
0c
01
f3
ea
f8
0a
fb
00
f7
f4
07
fc
17
ea
fc
11
ea
05
f9
fe
09
e7
0a
fa
fa
05
f4
16
07
fd
f4
03
fe
ef
11
18
21
01
e6
0f
e3
1a
07
ff
06
f0
f4
f3
0f
d9
ff
09
07
f0
08
e5
07
f0
15
e1
fe
03
09
ec
f4
f6
10
e3
ec
f3
0d
e8
ff
f3
f7
00
ee
e6
04
e7
06
ed
14
16
f3
03
f6
0b
0b
fa
e0
de
02
04
fc
f1
ff
ec
de
fe
07
f4
14
eb
10
06
f7
01
09
fc
de
ff
0d
06
09
f1
08
f9
f0
0a
f2
1a
f3
e8
d6
12
ef
14
fc
11
e9
09
10
f9
e1
f4
1d
e2
0a
03
dd
d3
0e
15
df
08
1a
00
f5
0f
bb
ff
d5
08
f6
11
06
19
09
19
cc
e7
ed
e0
13
03
fb
32
f8
14
fb
ef
f4
06
f1
d9
e6
f1
14
14
13
de
f8
11
f5
e7
0e
da
00
08
f8
fb
fc
e0
e6
16
03
06
02
08
07
fd
08
ee
e4
fe
f6
fb
f6
ea
09
ef
f7
f4
f2
08
11
f9
05
0e
fc
00
13
db
01
05
f6
f1
12
f3
0d
ee
fd
1b
12
0d
f0
f8
15
21
fd
00
ea
00
12
ff
eb
11
e4
fa
e1
11
d5
e0
f8
0c
01
ed
ed
16
0a
25
fc
fa
1a
ff
f7
09
d9
f9
f9
1c
1c
f8
0d
0e
ff
f6
06
dc
11
f8
f1
10
e9
06
ee
f4
04
05
0d
08
00
24
e9
ff
e0
de
f8
0e
f0
ea
02
3c
f9
f9
07
ff
0a
e1
12
ff
f6
01
f7
ff
fa
fb
10
ed
25
f4
eb
07
f4
14
0f
16
fe
06
dd
fe
f3
04
0e
06
fe
fa
17
11
f5
1b
13
df
eb
df
fb
06
04
25
13
0c
eb
e7
ff
f2
13
14
ee
f3
ff
0c
ec
17
e6
01
fa
f1
ff
00
18
fb
00
e4
ed
01
08
05
ee
f5
e5
e5
ee
27
01
2e
f0
22
ef
28
ea
0a
0f
f4
e8
f1
15
00
12
01
f7
ff
03
0d
16
e9
1b
fa
0d
1a
0c
f3
fb
f8
d7
19
1a
f5
db
06
15
13
fd
18
f8
17
1d
05
03
f9
0c
10
e4
15
f1
fd
dc
fc
ff
03
1b
ee
0c
27
db
f1
fa
00
fe
03
15
fb
e2
00
28
ff
f8
ff
ef
1b
f8
08
19
fd
07
f5
00
ee
09
dd
01
f9
e8
0b
ed
fc
f2
f5
e6
14
fc
fa
00
eb
f6
07
0d
00
f9
13
fd
1b
11
f5
16
fb
03
fd
f6
f6
06
25
f6
f4
0b
05
f2
f7
ff
ee
ff
f3
02
10
fc
e6
1a
0c
fa
ff
fb
f1
fb
ff
02
ef
10
11
16
0a
f3
0e
f3
fc
fc
f4
07
fc
ec
01
0d
02
ec
fe
ee
e8
0e
03
03
ea
26
f0
e4
01
e2
fb
f4
ff
04
03
23
14
f7
e5
f2
02
02
ed
f3
13
f2
00
f7
f8
dc
15
02
00
f6
17
01
fd
ea
06
12
ff
0c
fd
03
00
f8
f5
e6
08
f8
e6
11
09
11
02
07
f1
12
04
06
04
04
f3
f4
fe
0f
f7
0e
04
18
25
1f
ea
f9
fd
fa
fb
0e
d5
ea
fe
e4
f4
1e
fa
01
ef
f0
01
ed
1b
09
18
06
01
fc
04
25
10
19
fe
f1
07
05
f2
18
1c
0a
eb
e8
06
0b
24
1f
f5
fe
33
0c
e1
fc
f7
21
f8
12
09
11
fa
ef
fe
01
05
0b
17
d9
0f
0d
fc
06
11
f0
00
f6
f7
f8
f1
28
de
0d
0a
22
02
0e
07
0c
f2
08
07
dd
03
fc
e1
01
f8
05
fd
f6
f4
03
fe
0b
00
f8
fe
ff
e2
fa
0a
19
ff
e8
13
f1
0e
01
f0
17
05
0e
21
e3
fb
e7
f6
0f
0e
05
15
0a
0c
fd
e9
08
05
f0
eb
0a
fc
0f
10
ea
12
f1
01
15
f6
f5
0c
0b
0b
01
02
ff
ea
ed
03
0d
16
f7
0c
f4
00
fa
dd
e4
13
14
16
ef
19
f7
05
fb
02
f9
08
1d
0f
ed
05
0b
09
fb
f5
ea
ef
1c
fd
10
18
ed
02
08
09
ef
03
fd
0e
f9
14
ed
fb
0a
f1
f0
f7
0f
f7
fd
f4
07
20
e7
07
04
f8
f8
fe
fe
f7
0d
09
06
fc
18
fa
02
f2
f9
e9
03
13
13
09
01
fd
10
06
03
00
1d
f6
f1
f2
18
fa
06
1d
03
09
02
12
f7
07
ed
16
06
00
f4
f6
06
05
ee
0d
06
ef
1e
01
07
fa
fe
12
21
0b
02
ee
ff
00
0e
fa
e7
02
ff
f1
fb
08
ec
ff
f7
f6
07
14
ff
03
0e
fe
04
20
0b
fc
ee
fc
f9
1f
f8
25
0f
fb
fe
01
07
02
f1
fe
e1
07
01
08
e6
07
09
08
0a
fe
ea
e2
ea
fa
f4
fe
0e
05
0c
e9
f0
12
08
09
f3
f7
10
24
f5
f4
fa
f8
05
03
fd
23
fb
ec
04
f5
0b
05
02
fa
fb
f4
01
0c
e3
ea
f5
f7
f6
f2
00
ed
13
f2
fc
f5
07
ed
f2
24
15
f2
ef
ff
0d
06
f1
0a
ea
e4
ed
0a
12
ff
22
f9
ec
fb
f6
ff
e8
ec
13
f4
27
19
f8
00
02
13
f8
fa
0e
f9
ee
18
04
e2
db
e7
0e
ec
ff
f3
01
f3
12
eb
e4
f6
20
e3
02
01
ff
11
fd
02
f8
f1
07
17
09
0a
fa
00
21
fb
16
07
00
eb
fc
ee
02
00
00
f2
f4
10
f5
01
f8
fe
13
f0
e2
00
02
f2
fa
13
ff
f2
08
10
ff
06
0d
06
01
f9
06
f6
02
f4
08
fb
e4
f4
09
f8
f7
07
f4
ed
04
f8
f1
05
01
05
f4
02
e0
ea
f5
09
ff
d7
f7
17
e9
10
0c
ff
01
0c
00
15
0f
14
f6
00
0e
e2
04
19
02
f8
07
11
f6
f5
f3
08
f0
0c
f2
f3
e8
08
0f
f4
ed
fe
00
ec
ed
06
ed
f5
e9
20
e3
10
fe
f7
f3
f8
fd
14
00
f5
04
00
09
0a
e4
0d
04
03
fa
06
fa
ec
0e
e9
f7
0f
20
0a
f7
17
e7
08
0a
0a
ff
ea
00
15
06
f9
0f
f8
03
f2
de
13
03
f9
fb
f5
e9
09
ea
03
10
05
fe
00
0d
05
fe
ea
19
08
ea
f9
09
fc
0b
ff
ed
f6
f6
e8
f8
f2
0c
f9
1c
06
0a
08
27
03
fb
1c
fc
03
01
e4
f3
fd
17
f4
f6
0e
0b
ef
09
12
f9
fd
f5
f1
fc
07
f0
f3
fd
0c
08
01
00
fe
eb
fb
0e
00
0c
f3
f5
fd
ec
f1
09
e8
f3
ec
10
17
05
15
23
03
14
04
f8
fd
03
f5
fd
ea
11
01
13
fd
06
14
f4
fe
0f
03
e2
e9
ff
da
04
f1
21
10
13
fa
ea
e9
07
f3
0a
04
10
02
22
fe
fa
f1
f4
e5
07
ee
f1
01
14
08
02
ec
fc
f6
01
00
f7
15
f0
fc
11
f4
fa
fc
ed
fa
29
f0
18
0a
09
fa
05
eb
28
ed
19
06
22
fb
1a
24
00
00
de
fb
11
ff
f8
17
f3
fa
f7
06
11
09
f8
05
07
f5
f1
05
f4
0b
fa
ff
1c
02
fa
fe
08
0f
fc
ed
fb
08
ee
0c
0e
0b
fc
e4
05
f5
13
f1
fa
f7
f9
ff
f3
ef
00
f6
ff
f0
00
0c
fc
e0
f6
07
f1
e2
f9
10
fc
00
f6
e5
f0
0a
f2
f6
fa
fa
fb
fc
e7
e9
12
eb
f0
05
e2
07
06
f4
f7
02
f8
fc
01
f4
fa
02
19
06
1d
fb
fb
08
12
17
fb
02
fa
05
fb
19
15
f7
1a
eb
f5
18
ee
00
ee
ef
1f
ff
f7
ee
f9
f9
f5
e0
16
e8
0f
11
19
09
11
04
03
08
fa
f9
e3
f6
ee
15
07
fa
f4
01
dd
fc
f9
ef
fb
d4
fc
09
ef
06
ff
01
09
0e
fe
0c
03
09
f6
f5
05
01
15
03
ff
07
f0
dd
f3
f6
fb
00
f4
f3
df
f3
18
13
09
f3
fc
16
ec
01
e7
11
07
fa
02
07
fa
14
f5
08
ff
ff
00
f3
21
e5
09
05
1b
ec
ef
eb
06
e8
ef
fb
03
11
f3
f7
fc
ed
fd
e5
f8
08
0d
25
43
02
07
11
0e
0c
fe
fa
02
ea
0d
ee
f6
12
21
0b
06
11
f4
e1
fe
ec
15
09
f6
0f
ec
e7
03
0c
f9
fd
07
e9
eb
fa
ff
f0
19
fd
cf
0d
f7
10
14
05
14
e5
f2
e4
e8
06
16
04
04
09
0b
12
db
fe
0f
0b
f8
ff
11
f7
eb
fd
13
08
ed
04
fd
fe
1b
f2
02
16
f7
f1
de
04
fd
07
e4
04
ea
0c
fd
f6
09
1c
08
12
1c
dd
0d
04
17
fb
f9
eb
e9
1d
e8
1d
12
ef
fc
e1
03
2b
fa
fb
ee
09
ef
01
0b
ec
08
f8
05
09
00
f9
f8
ec
18
05
1e
f8
f2
ee
04
f6
03
ca
0f
fb
0d
03
11
ec
0e
07
ff
04
e5
04
fd
e6
1a
01
fa
f8
0a
14
06
e9
f9
de
27
06
02
20
f3
f9
18
13
06
01
f8
f7
f9
12
fd
f1
f9
0f
03
0f
fc
16
ff
f9
03
0f
fe
12
ed
fb
13
0a
ee
fa
f3
11
fa
04
fc
fc
0a
fd
e6
01
f5
01
f9
f4
f5
0b
08
f9
ff
fa
f8
fe
f4
11
14
e2
f6
06
15
fa
0d
fd
0b
0c
e0
ee
03
06
ec
0c
05
fc
fb
1a
14
11
ed
ea
12
f4
14
19
03
06
ff
14
26
0d
04
0d
eb
0d
25
1c
06
0b
ee
27
f4
e3
f1
0e
f7
e4
eb
1c
fa
47
0b
08
01
04
e5
1c
f1
0f
c8
f6
05
1d
1e
ee
11
1c
fb
f9
da
f9
ee
03
2c
01
0f
f7
fd
fa
e4
f2
f2
ee
03
f4
03
fe
ff
f7
fd
0d
f1
00
f0
16
f9
f6
0b
dd
09
f7
1d
03
f7
f6
ea
ef
f4
f9
ee
17
ff
0f
06
e4
f4
fe
f7
07
27
13
07
14
1b
17
e0
07
13
fe
0a
12
fa
19
fb
17
f5
fe
d7
11
19
f7
06
f8
08
01
02
f4
20
e7
03
1b
fd
12
ee
00
0f
f6
02
05
02
d3
13
08
f5
f1
f1
0b
0a
00
fb
1e
f3
14
05
18
fb
0f
0e
00
f9
fa
02
dd
fe
e0
04
06
06
12
f4
06
04
03
de
08
2a
fb
f4
26
fb
09
ec
ee
00
0f
e9
18
ca
0e
fe
0c
f9
fa
f2
10
f1
21
00
fd
ee
fc
ed
f4
f1
fa
02
0a
fd
ff
04
f1
17
f6
07
12
fa
0d
0b
10
08
fd
09
ec
11
09
24
0a
0f
fb
fd
11
e4
22
15
19
ed
ef
f6
ce
0e
10
f1
01
f5
f2
21
e6
07
f7
e4
ee
f0
ee
01
13
eb
11
01
fb
ee
11
00
eb
22
00
17
ff
10
07
fa
29
19
01
1d
f0
0f
11
06
04
00
ff
ff
0b
f2
13
fc
ff
1d
fd
f6
f9
18
fe
0f
03
04
02
2b
02
ef
fc
f5
0d
fc
fc
e9
f6
fa
15
f5
fb
1f
01
1c
06
f0
09
08
ee
e2
fa
fe
0a
f4
fc
fa
ed
f5
01
e9
10
00
f7
03
15
e3
03
ff
23
0a
f4
fb
0c
04
09
0d
fb
e9
ec
f9
0f
03
15
09
f7
e6
1b
09
0f
01
e9
ed
fb
f1
0d
fd
f9
fd
1a
03
05
17
d6
f3
17
fd
12
f4
03
0f
19
f8
00
f8
ed
ff
14
f3
fc
12
fd
ea
0c
07
fe
06
0c
fc
19
0f
d2
07
11
11
18
fe
1a
0b
0f
0e
02
09
0a
01
24
29
f8
1d
eb
e8
0d
fa
de
05
0b
15
0c
17
05
01
28
14
e6
14
f5
f9
08
f6
e9
0b
ee
02
ec
fe
05
f7
ea
06
e3
15
01
fd
1e
df
18
dd
10
15
18
f4
05
e9
06
09
fb
08
ff
e7
fc
07
f6
f2
ec
fc
fe
00
09
ec
e3
1c
19
fe
05
ef
ed
f1
fd
f8
fa
fd
16
08
ff
f6
04
16
f9
32
f6
01
e1
00
d8
ff
08
0c
15
f8
01
06
e9
02
05
02
f7
fe
f9
1d
fc
e7
fb
ef
eb
15
fd
02
0d
dd
16
1b
e1
f3
1b
07
15
09
ec
15
ea
e7
f3
10
da
fb
f5
0b
06
fe
ea
1b
0e
19
d4
fb
df
0c
fe
0c
06
11
18
f8
18
e7
22
fd
0d
ec
ed
0e
04
fa
0f
f7
f9
ec
03
0a
00
fb
f2
f0
11
18
08
0c
0b
fd
13
15
f3
e5
f1
13
31
01
f7
15
e6
e8
ed
f2
fd
12
f3
e5
e0
05
ef
e9
0f
1a
02
e3
00
17
f1
26
11
fc
00
12
e7
e5
1c
08
05
fa
fe
ec
00
db
f0
e4
08
fe
02
11
07
fb
10
11
f7
f4
f6
f7
ee
11
f1
15
2a
ec
de
f1
fd
fb
29
1a
f9
0b
f7
ff
ec
11
08
0a
d4
0c
e9
06
ec
12
38
14
05
ff
08
eb
fc
10
0c
ee
0e
ce
fd
08
03
2f
f5
ef
f2
fd
05
ee
05
ff
10
09
ee
0d
04
ed
df
f3
12
fb
02
fa
f1
02
13
ef
21
f6
1a
2c
0b
ff
0e
09
f4
0e
14
f2
05
0a
d8
e6
0a
f4
24
27
fb
f2
22
17
05
ff
ed
d9
14
ed
09
f0
07
ee
fb
f7
08
05
ef
1a
0f
09
0b
e6
f2
dd
f6
e9
0d
0d
ea
fe
0e
10
e8
03
0a
25
ef
18
ec
f3
0c
fd
db
04
e9
00
0f
f8
fd
db
10
0c
1f
03
fe
16
ee
03
01
db
d9
fb
fe
f3
f1
fe
fd
ed
fd
39
cf
2b
1d
fb
cc
11
eb
19
da
15
01
f2
f7
1c
13
04
1b
ec
ec
12
17
ee
13
08
06
eb
f9
fb
0c
e5
e3
f2
fb
12
f5
db
14
13
fd
2a
10
17
e0
20
0c
f7
0c
fd
ff
04
eb
1d
06
10
fe
1d
ff
f8
3d
ed
0b
06
d3
16
03
de
05
02
0a
0f
ea
0b
15
07
06
ea
02
e0
dc
01
0c
fe
fe
27
fb
f1
f9
f7
36
02
2d
0b
ff
0e
0f
f3
f5
fa
01
0b
0b
fd
04
f9
1c
05
03
fa
0d
f0
0a
ee
f2
01
09
e9
08
00
0a
0e
f6
e0
0b
fe
f2
fa
06
ea
eb
d7
f8
f8
fd
d9
10
f2
f9
f3
f7
f3
eb
02
e6
fb
0c
0d
f8
01
09
fa
f5
fd
eb
0c
e5
05
fd
eb
ee
08
f5
12
ff
06
13
15
07
02
d5
e5
e8
11
0c
fb
f6
27
0a
12
e6
f8
fd
05
f3
fe
f5
e4
fd
fa
05
f0
0b
0f
0b
ff
fd
03
de
06
f4
e5
d9
df
0c
2c
f8
02
e0
e0
09
ff
1c
f2
06
f7
f9
dc
ec
fd
0c
fe
09
e9
07
07
fc
ec
ff
ff
f7
05
fe
ff
12
0c
0d
18
18
e8
f4
07
28
f0
fd
17
04
f2
fc
fc
0b
21
00
09
00
12
0c
08
01
08
fa
0d
fe
13
00
eb
00
03
06
fe
08
f6
f7
18
08
02
f7
f4
de
0e
24
05
f7
f9
03
03
04
1f
ea
03
01
08
0b
16
fd
00
f5
ec
f3
0a
e4
0e
0a
0d
0f
fc
05
05
04
f8
0b
f5
0c
1c
f1
f5
0c
05
10
ff
fa
0c
04
1b
fd
0d
fc
12
fe
0a
0f
1f
fa
0c
09
20
f0
03
cd
2a
0c
d9
07
1c
f8
17
f4
f3
02
02
ec
05
fc
fc
f6
fe
13
1f
0b
f8
0a
07
0a
08
0d
f8
05
04
f8
f2
16
1d
e5
03
0e
05
33
e0
0f
13
06
1c
05
f9
fe
0e
1f
02
eb
f9
f7
f1
04
f8
e8
f5
f7
fc
16
e0
00
e6
f6
e6
f9
0c
0d
f0
f8
0d
07
09
fb
f8
f0
ff
05
01
11
fd
f2
f8
0b
ed
e2
02
1d
f3
00
eb
0b
06
f3
d2
fc
e6
21
2d
0c
11
f5
14
f8
f6
2e
01
0a
fc
f6
03
f7
eb
ee
07
ef
e5
11
09
f5
06
10
fb
f8
05
e7
02
24
ea
0d
06
02
fd
07
e4
fc
04
d6
0a
ed
fd
ec
de
e8
11
20
f9
07
0a
06
04
f9
17
ee
f6
fb
11
04
f2
0a
07
dd
e5
0f
e1
08
1b
f0
f2
0a
f0
f4
df
0e
26
05
0c
12
ef
1d
f1
f4
fc
01
fa
1c
f7
17
0f
12
00
0a
f9
00
f8
00
f5
e3
09
08
d9
03
e4
dc
1f
14
fb
fe
06
06
fb
1a
fc
f7
e3
15
fe
0c
f9
ec
07
20
06
dc
07
0f
01
07
ea
f8
e5
14
f5
fb
e9
f2
ee
e7
15
13
02
0e
f7
fe
14
2e
0a
f6
f6
fb
fa
f5
eb
0a
ff
0b
f2
f7
02
e5
f7
e7
0d
14
ff
fa
05
e4
13
0b
f7
15
0e
1f
ed
f6
e7
e6
03
16
05
ea
04
06
fb
03
07
06
00
e7
f4
00
12
fe
15
ea
11
02
07
03
fe
f5
e9
ef
09
12
05
f9
02
ed
08
f4
fb
f2
0c
00
fe
f7
29
09
09
f8
17
f9
dc
f7
ed
de
fe
0c
11
fc
e7
f4
11
0b
08
04
21
09
f6
25
f0
0c
0c
08
f7
e2
0c
f3
fe
e4
02
02
08
fb
0e
f8
eb
07
0a
18
0c
03
ff
fc
e8
07
12
02
fd
21
f3
f5
fa
e9
06
06
fc
0e
d3
ed
e1
fd
fe
24
fe
f5
df
f0
f5
ff
17
0f
1a
0b
f8
23
0b
de
f9
05
14
fe
f1
f3
24
fe
09
0f
02
05
f5
f3
fc
11
ec
05
f4
07
1c
04
08
0a
08
f5
ea
06
0c
0e
f8
f7
f6
fb
14
e0
ff
ff
fa
02
f9
06
12
04
f1
eb
f0
21
17
ee
0a
f3
21
0b
05
ee
0d
06
ee
d9
f2
0b
0e
f1
05
ea
00
09
08
fa
fd
18
fd
dd
15
eb
1d
f8
e3
ee
09
fc
12
29
0f
e0
fd
03
09
e9
11
14
e6
17
e4
12
26
ea
05
08
05
04
01
06
20
02
fc
07
f9
03
fe
02
e5
f8
17
e2
08
0b
f4
d8
02
fd
db
ef
03
11
ff
fb
06
f1
1f
09
15
1b
db
06
07
0c
24
f5
18
f4
0e
f6
da
19
07
29
05
f9
0b
ff
19
11
f4
08
f3
1b
fd
07
0b
f4
fb
ea
f3
f2
08
02
07
00
fb
eb
f0
f7
f4
f0
fc
17
02
e3
0b
0c
fe
f1
1c
fa
f3
07
f3
0a
f7
f8
05
f6
fc
fd
fa
11
1f
e8
ef
ef
f7
10
0a
0d
0c
f3
03
0c
18
fb
ed
0e
fd
06
20
f7
0b
17
0e
db
16
f8
e1
16
f8
f4
0a
ee
1c
e5
07
e7
0b
14
18
ee
eb
12
f1
ee
d8
f1
fa
0a
e1
19
0a
ec
eb
06
dc
07
de
fc
12
d9
01
06
fa
f3
e6
11
ed
f4
f7
05
0e
05
12
08
e2
06
07
13
04
27
17
ef
01
ee
fe
0b
15
f6
f5
0c
19
f9
f9
06
0a
f6
0e
08
f4
ff
0c
ea
16
05
20
f0
fb
06
1d
03
0a
01
fd
0d
eb
06
0d
32
fd
14
03
ff
15
08
ef
07
fb
0d
19
fd
d1
02
15
fc
26
db
0a
06
ff
fd
13
02
d9
13
0f
f9
e5
07
11
f4
09
2e
01
ff
04
d6
19
03
12
fe
02
06
0a
f9
f2
28
f2
2a
15
fb
06
fb
09
e2
0c
fc
19
09
03
fa
e7
1b
1b
f3
ed
1a
f6
04
fd
f1
11
2d
eb
ea
ff
1c
19
12
da
1e
00
f2
13
15
08
1a
00
ef
04
f0
1a
12
ea
ee
01
11
09
10
16
f2
fd
00
f8
30
f5
0e
17
f8
18
ef
f7
02
0b
00
e3
ff
f9
00
05
1e
0a
f6
04
f7
06
12
0e
12
ee
eb
f6
f0
0b
fc
02
1b
28
09
e1
04
29
10
1d
04
ef
f5
f6
fd
26
fa
f9
0a
e7
04
02
ff
fc
0c
e1
f6
f4
01
03
03
ec
fc
24
0e
10
f0
10
09
07
19
09
15
08
00
10
e4
fa
e4
35
00
e9
fb
fa
ff
ee
1e
f1
f7
fd
f3
f4
e1
fc
05
13
f9
13
16
ff
0c
23
16
ff
df
e2
f3
0b
02
0c
17
0d
eb
0d
07
ec
f7
f4
11
f6
e9
ff
0b
0e
03
11
1a
fa
0e
f5
10
ff
00
f1
00
21
f9
fd
e4
03
00
f4
26
13
02
ee
f9
02
0b
05
00
05
11
1a
02
25
06
f7
14
eb
06
ef
03
1a
25
fa
fa
1e
12
18
1b
15
01
e9
20
e5
f7
0d
01
13
00
d8
ff
f1
f3
0f
20
0d
f4
df
f3
21
03
1c
f2
f2
ea
e8
09
ff
ef
dd
0a
ea
06
01
06
1a
0a
30
12
f0
e3
12
e8
fa
31
01
eb
07
0e
fd
ec
eb
07
16
11
01
f7
0a
e6
01
0a
fb
05
f1
1d
f0
09
f3
fb
fe
05
08
0f
03
f9
03
f9
ed
03
0e
e0
02
fc
f4
00
10
f4
fd
16
f5
06
fe
07
03
f4
0d
df
04
15
24
f0
0e
eb
e8
f6
19
e9
ff
01
fc
f0
da
17
0f
ec
f0
12
04
05
ff
11
eb
03
fb
06
eb
17
f6
fb
fc
0d
18
03
f3
01
00
fd
10
0e
ed
fd
0f
03
1f
f6
1b
f1
fe
f8
03
ef
fb
fc
ed
fc
f3
15
0d
fb
02
ff
fa
13
ef
16
18
fb
0c
f9
fb
f9
13
ed
01
f6
ec
f8
f8
ec
0c
19
04
0b
0c
df
f4
f7
0b
dc
f2
fb
f2
d7
08
f4
ff
04
eb
04
08
04
0c
e9
06
23
01
fd
fa
fd
1e
fa
d2
0e
01
11
22
13
db
04
0b
f0
d7
ff
fe
fa
e2
02
1a
14
03
fd
ca
14
fa
fb
ec
03
11
0f
03
f8
05
e0
00
13
f7
04
f0
fc
f6
f4
11
1c
de
0e
ff
fe
f5
ff
04
f3
f3
df
07
00
e3
f7
e9
ea
09
0b
1f
fc
16
0e
ef
29
12
08
f1
e0
f5
fe
02
03
f2
03
e9
0b
fb
13
18
fe
fa
ee
0a
0a
fe
01
f1
f8
10
f6
0d
ed
07
fe
0a
0b
f4
fa
06
e1
03
ec
ff
1a
df
fb
00
0d
e3
e7
fd
ea
16
f0
13
f8
df
fc
fd
f7
22
ec
f3
fa
fa
08
05
01
20
d6
f7
ef
08
e0
f9
f7
f2
02
0c
0b
14
02
ee
10
fd
02
0e
17
fb
0b
e2
0d
f6
1a
02
0d
03
fa
16
ef
05
08
1d
f2
f0
0d
ff
fe
02
1a
20
14
00
1f
f9
eb
fa
ee
07
fa
10
15
10
0d
fa
fb
ef
0a
11
fc
1c
1b
0b
1b
08
f3
fe
07
e9
10
11
f8
fb
11
f5
f1
ea
29
f6
04
05
ec
f6
14
fc
fd
12
f4
03
c6
ff
07
f8
fc
ff
28
f5
ef
fc
e2
20
fe
0a
0e
d8
04
ed
f1
06
17
e1
f2
da
10
fe
08
e6
10
de
1a
ec
ec
1a
0a
09
0a
e4
20
06
e2
fc
17
e5
06
fe
17
00
19
fc
0e
0a
0b
0d
31
03
05
f7
f1
e4
f0
f9
f8
f3
fb
03
1a
02
14
21
f3
fe
ff
09
f1
c6
f6
fd
ed
f3
e6
03
ea
f0
f8
e0
11
0a
11
cd
f8
fc
01
1f
f4
0b
fe
f7
05
01
e1
de
da
e1
dc
0b
fd
04
19
1a
fe
01
e5
f5
f9
23
06
07
07
fa
f3
1a
f0
fa
0f
07
1c
ff
f2
f5
f9
ed
09
e6
15
f9
f9
d1
f5
15
fd
fc
f3
2b
13
ee
1b
09
2f
f4
04
ee
df
f3
06
f0
fd
fc
f1
08
fb
19
f9
09
1d
0e
f2
f9
ee
14
fa
02
05
0a
07
fc
f2
f7
19
17
0e
0c
f6
e8
f6
e7
11
f6
e3
f1
24
08
ea
f9
fd
f9
0d
f7
fa
01
fd
ee
07
23
eb
fc
0a
f8
0a
1c
f2
f1
04
fe
ef
ff
02
07
20
ff
e3
10
17
ee
02
fa
e7
04
1a
f9
0e
f8
e4
0b
12
fc
fb
fe
09
ec
07
30
1f
08
10
17
e7
ec
ec
05
25
02
ec
13
07
f2
1b
f7
ce
1b
f3
12
ff
08
ff
e9
02
f8
d9
00
f0
12
f1
f9
f1
ff
f0
ff
01
0c
21
f2
f8
03
0e
fa
f3
eb
f4
f5
f5
00
09
16
06
03
08
1d
e1
06
e6
f1
08
f4
ef
02
f2
f6
f9
09
f3
12
07
f6
f1
fb
f2
de
fc
0c
ee
02
f7
fd
fd
00
0f
03
fc
f7
0b
0b
15
ef
08
17
00
f2
ed
ff
f5
07
14
08
0b
fb
e5
08
0b
f0
05
12
01
ea
ef
e6
0a
ee
ff
ff
fc
f3
13
02
fc
00
f0
0b
ff
ec
13
02
17
02
f6
fc
14
02
f3
10
f5
01
0c
ea
0a
e6
1b
01
ec
e1
ed
fe
03
ff
1f
09
ff
ff
06
08
eb
f7
f4
db
08
00
12
2e
ee
fa
06
16
06
0b
0a
0c
fb
ff
ec
15
fa
00
ef
ed
ee
15
07
dc
fe
f3
ff
f8
f2
fa
0e
e9
02
ee
09
f5
07
e4
f2
f9
ef
13
ec
ed
10
03
f8
fa
0a
ff
07
07
0c
f6
ff
f7
12
0a
05
e9
ee
0d
0f
07
eb
ea
17
e8
f2
f5
0e
0d
10
f2
eb
df
fc
e8
df
01
19
13
f9
fa
08
f8
01
f8
fd
13
f4
f6
e4
04
17
0c
f2
e8
01
0c
0e
1a
f8
07
09
f7
14
f3
f9
f5
f7
0a
1a
04
11
fe
0a
f9
18
05
fb
fc
09
f7
03
08
0b
02
1d
06
0d
fe
15
12
15
dc
f3
f3
00
f6
f7
d8
fc
fd
20
f8
29
08
ef
fc
18
09
e5
11
00
f8
02
05
04
00
0e
04
f1
14
e5
df
e7
e8
f1
f2
fb
1d
06
ff
fe
08
0e
e9
fc
07
02
ee
05
0b
fb
ed
0e
ec
ff
fb
ed
0d
13
00
11
f3
f4
0d
e5
f9
fc
ef
0c
ff
15
fc
01
fe
02
1d
05
f8
df
05
02
f6
f2
01
02
0c
04
fa
f9
f6
ff
0d
02
0a
f7
e6
f4
f4
ee
0d
fa
f8
f5
ea
07
19
08
21
04
f3
09
fe
0e
f3
fd
fb
15
02
d8
df
f5
0f
12
fb
08
17
05
f7
06
0e
ec
02
0a
fd
03
09
0d
07
df
00
f4
e7
08
08
00
ea
e5
11
eb
06
12
fe
fb
0b
0e
13
ff
fc
00
0e
f9
12
04
02
0d
04
e2
f3
0d
f4
0c
df
0e
e8
18
03
06
f4
0c
ec
fa
f5
20
26
e5
0d
15
07
19
e8
fa
08
26
02
fa
f5
0a
fc
e2
0a
f4
02
12
12
0b
f4
07
2c
1b
02
f5
e9
ea
18
08
0c
2d
fe
ee
01
15
16
05
ff
01
f7
1a
ef
0b
08
ff
ff
04
03
f3
09
e1
16
1a
fe
f3
f1
05
f5
f3
1c
f9
fd
f4
ea
1d
11
1e
ed
f4
ef
15
14
fb
00
02
fb
09
05
24
1f
e6
f2
fb
10
fa
e9
ef
fb
f5
0b
07
f3
17
fb
e2
da
fb
df
13
fc
1c
e2
03
16
f7
f7
22
0e
0d
fa
f7
09
eb
ef
1e
03
19
f1
fd
16
e9
ec
f2
0d
01
ff
f9
f9
14
f0
00
2f
f9
ed
f9
dc
0f
fb
01
0b
ef
ef
f0
fc
07
01
07
ff
fb
eb
e3
03
07
18
e3
08
18
f6
08
f5
1b
0b
f4
2c
23
0d
09
0b
04
01
f4
e8
ea
fa
08
07
f1
27
ea
fb
ff
f6
0b
f8
0c
e7
23
09
f9
1b
f4
00
ef
cb
f4
0b
f2
01
f2
ec
fd
ff
d2
f3
09
fb
ea
eb
0c
fa
e8
06
01
e8
fd
ed
f1
f7
fd
07
42
29
e9
f1
de
fe
01
ef
f8
fb
f2
e5
02
f4
19
fb
11
ee
13
eb
3f
ef
fc
0f
04
03
e2
04
02
0d
00
0c
ff
ec
0e
0b
19
10
02
14
07
eb
df
03
f8
03
ec
18
f0
ff
09
09
f6
25
28
03
1b
07
f2
15
31
e5
fa
09
08
0a
ee
20
0d
e3
f6
03
fc
fa
0d
f1
14
03
0c
ee
16
26
f4
1c
f9
00
01
10
f9
10
ed
f5
08
1b
fe
0d
fe
f3
08
06
22
ec
1e
15
03
f0
fe
fd
04
0c
f7
07
f7
f1
e1
f9
0a
f9
12
04
f6
14
ec
fd
00
dc
12
13
fa
21
20
fe
ea
ff
f6
eb
ff
fa
0b
0b
f8
0d
f7
09
f8
e1
04
fd
ed
0e
ff
07
ee
fe
f5
00
f1
ee
14
10
09
e9
07
f9
fe
06
05
f8
01
02
04
fd
09
f2
00
04
00
14
f2
05
01
01
0e
f9
f7
fb
04
f4
00
f8
f7
0f
07
10
0f
05
fe
0d
fd
14
10
00
1a
f1
0e
0e
fe
ee
ff
fe
f8
fe
f0
09
05
0d
16
f5
ea
f3
00
ff
02
08
04
1c
19
fa
ed
ed
00
03
ff
f6
14
f9
17
11
01
f8
06
e0
13
f3
19
07
05
f0
00
ff
ee
ff
05
fc
f4
08
19
f5
0e
00
10
14
db
11
06
05
ee
fb
05
f4
11
ff
f4
f5
f7
f9
ff
09
fa
00
f7
0b
fe
05
fb
01
16
0d
08
02
ec
07
01
ef
fd
04
0c
f5
0a
14
09
fd
08
eb
fd
00
fd
09
08
1a
f0
07
f6
0d
f5
fe
e4
0c
02
fc
04
f5
0b
02
f6
0d
f0
12
ee
0d
03
eb
fc
13
02
fe
05
0a
f9
00
00
00
0a
fe
13
09
13
0e
f9
ef
f6
f1
fe
11
f0
ff
ee
0d
01
04
21
16
16
e4
f2
04
00
ff
f6
f1
fb
0d
13
f3
f1
f8
01
f5
e2
0a
19
09
fe
02
0a
01
e9
0a
f2
ea
f9
07
e6
11
14
fa
0b
ed
0f
e6
04
0b
03
04
00
f0
f9
f5
fb
fe
13
ff
14
ef
08
ff
0d
f9
ee
04
fc
02
03
02
e5
ee
f8
fe
e3
cf
f9
00
fb
00
f6
10
0b
0c
fe
12
f7
06
0b
f1
f5
f2
0a
fb
03
1c
ec
dd
05
f3
17
f9
1c
f1
10
f3
e3
f7
0d
12
0a
f0
0e
e0
ec
02
e8
fc
01
df
ea
1a
0a
0d
05
fa
05
09
e7
fa
fd
f3
05
f9
01
13
e8
09
fc
f1
e8
0a
0e
00
f7
04
e6
da
05
0c
08
ff
ec
fc
06
0a
e9
f6
07
07
00
f3
1d
00
1d
f5
ec
07
ff
f1
0b
0c
f8
ec
0e
0d
f5
1d
fd
ff
fc
fa
15
f5
fe
04
fa
ee
04
06
f8
10
0f
fe
02
fd
11
18
f5
12
0b
0f
ff
f1
f2
e4
fa
f6
07
fb
f6
19
0a
f5
09
ff
02
f5
04
fa
f5
f3
ff
16
f1
f8
13
f8
0f
f2
0b
03
01
f5
ff
fb
0a
01
01
03
fa
e3
fc
ff
fe
06
f3
e9
f5
ff
00
0f
fb
ef
e8
11
fa
13
fd
fe
1a
07
0e
fd
f0
fa
f7
07
ff
f5
f5
ea
08
03
f2
fe
1c
f7
fb
f8
01
ee
00
08
11
f0
02
f9
f6
17
f6
01
16
fb
e9
08
0a
fe
0f
f8
f1
10
06
17
fb
0b
f2
f7
0e
ed
ed
12
ff
eb
04
09
10
ea
04
05
eb
0e
0b
fa
f9
07
03
f5
08
0e
fb
01
ee
f7
f6
14
fe
16
01
f3
f8
ef
0f
f2
08
fc
0f
f5
f4
01
09
07
0a
10
09
02
14
05
eb
f9
18
16
00
06
09
db
e9
fb
0c
2a
07
0a
e8
fc
ef
0b
e6
05
01
0e
13
14
f4
05
00
f9
25
fe
01
06
08
fb
09
1a
f8
fa
06
f8
f8
12
fc
f9
0d
fe
02
02
fd
f8
0b
02
fe
0d
e7
09
f3
0e
fd
fe
07
0d
f1
f4
f4
0f
fd
fa
11
1a
12
f5
e8
02
e2
fb
00
03
f0
ce
ef
f3
0c
17
e6
fe
f3
fe
f5
ee
03
f0
18
f7
1c
ff
ee
1b
ea
f6
02
04
fe
f5
0b
f4
08
fc
0a
f7
f9
fb
0a
0b
ef
12
18
05
f9
0d
fb
11
07
02
05
0b
14
f5
13
ea
ea
e2
f7
eb
fd
f7
02
f3
04
e9
f1
ee
11
f3
14
0d
f7
f4
fa
1b
f6
0a
10
02
ea
f0
e9
f8
f1
00
17
fa
f9
ff
0f
f9
00
17
00
13
06
16
09
fa
f1
21
fa
01
fa
f8
11
ff
f1
fb
e3
f4
ff
ef
f8
fd
26
ec
ea
f9
ed
00
0c
0f
09
f9
f4
ef
ea
e2
07
ee
e7
09
12
03
f7
ef
ee
10
fd
fc
0a
f4
de
f8
2d
f4
e3
02
fc
01
0a
09
08
fc
f0
f5
f9
f3
11
21
26
ed
16
16
09
16
08
1c
f5
f7
16
da
fd
04
1b
09
11
05
0c
fa
11
dd
00
de
fe
f5
ed
04
0a
fd
0c
fc
1e
05
f6
f0
fc
ef
06
08
eb
10
ed
fd
f8
10
10
f3
1f
ec
fe
f7
16
dc
12
17
fe
12
f8
fe
0e
0c
ed
f2
09
fb
12
fe
fd
02
ff
ff
d6
f1
dc
0b
fd
00
2a
fc
10
00
04
f9
00
08
eb
e2
f4
01
1f
08
e9
ff
02
04
e8
0b
04
08
30
fa
0d
e3
22
fe
f9
ff
0f
03
0d
11
e0
0b
ff
02
0f
de
06
1e
0f
05
0d
f3
f1
f6
d7
24
0d
ff
ed
07
0c
00
0c
02
0b
ff
e9
01
02
f9
0f
e6
05
ff
f0
25
0c
f3
05
d8
08
0f
f9
03
21
ef
f1
f4
12
ed
e6
f9
01
f2
f8
0e
e3
14
ea
de
f9
ff
e8
dc
29
05
20
10
0d
f4
03
fa
0d
09
13
17
02
f5
03
c8
f8
1b
17
fd
fc
11
17
e0
ed
04
f3
f0
ef
08
f4
d3
fa
17
fd
05
fc
03
19
f8
0a
02
f5
fa
fb
d8
1d
d3
22
ea
04
09
1d
f8
e9
21
05
fd
0b
06
f9
05
f6
f6
0c
f8
00
12
03
07
11
ff
08
fa
09
ec
fa
d8
11
f3
07
2e
14
fe
0a
0c
ff
20
ef
e1
fb
fa
f0
f7
09
11
0e
16
f7
dd
fa
e8
df
f5
19
16
16
f6
e0
e5
ea
23
13
ef
0f
f9
ed
fd
01
09
07
02
10
f6
ef
f2
f3
25
ea
03
17
21
fc
1b
0c
f0
1f
18
00
ed
07
05
02
fc
17
12
fb
09
03
0a
ee
f8
16
09
10
10
f5
0f
e4
00
fa
04
05
f2
f1
e1
00
d3
0b
09
13
0f
09
06
ee
1b
f6
01
fa
04
e4
f5
f2
e3
f2
f4
e2
13
f5
00
f6
fa
e5
09
05
0d
e2
15
e8
e3
03
10
f0
00
10
e2
f2
0d
fa
ff
0d
03
08
01
11
f8
fc
ef
11
fb
15
fb
fe
f7
1f
f6
f4
f9
ea
17
02
e8
0b
06
f6
32
18
f1
fb
01
0c
f9
ed
ff
16
e6
02
01
10
fd
07
0d
14
0c
f9
f2
00
14
fe
d5
04
f9
e5
eb
f7
14
fa
13
15
0e
1b
f3
05
0b
04
09
0e
04
f1
f9
09
02
11
fd
f8
18
fc
24
00
f5
13
11
0f
ed
f4
01
27
fb
0d
d7
fa
10
ec
f9
fe
ff
02
11
16
f5
10
04
0e
19
02
f7
09
00
f3
f9
f9
03
05
f4
0a
13
07
05
f5
0e
05
fa
ff
1b
0f
eb
e8
00
ff
fb
fa
fa
14
f9
0e
f2
05
05
10
06
ec
e1
00
e9
ff
08
f7
fb
07
e8
0f
fd
e5
14
ed
07
fe
1e
f7
01
06
fc
fa
1a
f7
f7
03
0c
f8
ff
f8
ff
12
0e
11
ff
c8
0a
ef
04
e3
20
ef
0c
fb
ff
f7
f5
03
09
09
ec
06
00
11
02
0e
fb
16
15
f5
f4
00
fe
13
0c
10
f7
ed
01
fb
e3
fc
06
f1
fc
ff
e7
0c
ff
fe
fe
fa
f3
04
03
f2
2b
09
f8
0c
ff
1b
ee
01
05
ef
0b
09
15
07
ee
00
ea
17
d6
16
f4
f3
13
05
f9
ed
fc
f7
fb
e6
1a
f6
17
fc
fa
ef
0c
e3
01
f6
01
16
dc
0c
fc
f9
14
fb
06
0d
fd
ee
ee
ea
fb
02
04
fa
f6
f1
e2
dd
fc
f0
f3
05
fa
14
f2
e7
08
fc
1a
f1
0b
f4
ee
e7
fa
03
00
fa
ed
0d
fc
12
03
04
f3
01
e6
02
f1
13
02
06
f6
ed
0b
01
06
0b
fc
f5
05
f4
fc
f1
ed
06
f8
03
09
0c
ec
00
00
12
f9
e9
0f
02
0a
0b
07
fc
02
0a
28
e1
f8
23
02
02
0e
08
07
e5
06
02
f4
0c
11
f5
02
16
fe
06
f6
e7
e8
fc
ea
08
fc
12
13
fb
0f
0c
fd
01
16
00
f1
0a
fa
19
10
ec
e6
fb
fa
07
01
0c
15
09
ea
02
f3
e9
fb
08
e9
ff
02
0c
ed
0b
ff
fe
fb
04
05
11
06
08
f9
0e
ed
15
02
08
11
ea
04
07
0c
0d
01
16
09
02
02
02
f8
0e
e6
16
12
0b
02
f2
01
dd
e4
fa
f8
fa
0a
fc
00
fa
0c
f4
15
05
fb
fc
0b
06
11
f1
0b
f5
fd
e8
f5
05
0c
23
0e
f5
f5
f1
f3
fc
02
f4
10
fa
12
fd
0a
fe
0f
0b
08
0e
09
ec
10
2e
ea
f5
f4
07
04
03
f4
fa
04
0e
0a
e1
f7
f7
10
0e
ed
fe
0c
f2
ff
f4
f8
05
13
0f
0e
04
fa
f1
f7
f3
eb
08
f8
0a
01
f4
0b
fd
0d
f2
1e
df
0e
e4
f8
0e
ff
01
f5
f3
05
09
07
0c
07
01
f7
03
06
fe
05
02
fd
f3
08
f1
fc
f0
17
f8
f9
00
14
18
0f
01
f6
fd
f6
05
0c
fa
09
eb
06
11
00
f3
e9
04
f7
31
12
16
09
f2
f3
01
e1
12
03
f8
00
ff
f8
ee
f5
fc
e8
01
1f
01
06
01
00
f8
1a
f7
f6
f5
0d
f7
fc
fa
0a
07
fe
fd
02
fd
fa
ef
f6
fa
f4
0a
0b
11
df
fa
0c
19
fb
d5
02
01
04
f4
0f
20
02
ff
02
0e
f1
f5
f6
f3
f5
17
03
06
03
07
f1
04
e9
07
f4
f8
ee
fe
ff
0d
fb
f2
0a
fe
04
fc
f4
0f
f3
f2
e3
07
fb
07
07
32
fa
02
ef
fa
03
f0
01
00
f6
eb
fa
0c
f5
18
0d
10
00
e2
12
de
f7
08
06
db
e4
1a
15
f5
e1
fa
f8
f9
e9
01
f3
13
f4
dc
0a
ee
ff
00
ee
24
05
e7
05
ea
05
fc
1c
07
e6
eb
05
03
fe
ed
00
f5
05
11
02
1b
f2
e2
09
04
13
07
05
f7
f7
e3
04
f7
fa
fa
e9
f9
f1
0c
00
04
fb
16
f5
f9
02
f1
fd
fd
2d
07
0b
13
f2
0e
f8
f6
0c
f3
f7
0d
f1
01
0b
1a
01
ff
f7
f5
0f
f7
08
01
fc
14
fe
f8
01
e1
05
02
f1
14
fb
0b
08
fe
fa
f8
18
0f
1f
02
14
e9
d5
f5
ff
fb
f9
0f
f6
08
18
fb
ef
fe
06
dc
07
fb
08
02
fa
0d
0d
10
ee
0a
26
01
0c
0d
f6
00
00
f2
ec
0a
fd
02
08
df
f9
ee
0c
20
05
fa
06
e5
11
fc
fe
0c
02
04
09
02
f3
f8
d2
0b
1a
f4
fd
04
fe
fd
0c
f4
f0
fe
f8
15
d6
f7
26
f0
0c
0b
f8
00
20
0d
0b
f5
e5
05
0d
ff
f5
e8
fb
fd
00
0c
17
07
1a
0c
ef
06
fa
ed
06
d6
0f
0f
08
ea
12
00
03
09
05
e7
fd
e7
e1
1a
f5
f3
00
04
00
e1
0d
12
f7
fe
fa
0e
e9
02
0e
ea
02
14
0b
05
fc
de
17
0c
07
15
09
f4
1a
1b
fd
fd
0c
fc
0c
fe
f9
1c
03
f9
00
06
fa
00
02
06
eb
fa
f4
f3
07
21
e7
1f
1d
11
da
e1
f1
f9
08
f0
dc
02
22
10
f5
0b
ed
f0
fc
17
17
0f
21
dc
e1
0b
08
ef
e5
0b
11
21
f3
0d
fb
fd
08
de
e8
0a
00
0f
04
f6
10
19
0b
08
22
f2
f4
f1
04
1d
0f
01
d9
ff
da
06
01
f9
f9
0b
07
1d
00
f8
21
1b
0c
01
f1
0a
f6
f6
0f
17
ff
0f
14
e8
00
13
01
18
07
17
e4
07
03
18
1d
fd
16
e7
16
01
06
fa
16
03
ff
e0
f6
1b
fa
fb
f7
01
0f
02
0a
03
ff
14
e8
fb
11
01
14
ed
e9
1e
dd
04
fd
f7
04
11
01
e5
d8
06
03
fa
f8
e1
ff
08
fe
f6
17
f7
11
15
15
11
ee
f3
f9
fd
0a
22
02
21
00
f6
03
f8
f1
09
f8
26
0a
12
07
f8
f1
01
01
f4
0b
22
19
09
10
ed
ff
0a
ff
e2
f9
0f
04
18
01
fb
05
02
06
12
06
01
e4
08
f9
11
0a
f8
f9
f8
f2
04
f2
03
fb
08
fa
e8
fb
18
00
ff
fd
03
0c
0d
04
09
21
f3
07
05
f5
04
11
1e
f9
06
f7
03
15
fd
14
e5
01
12
04
16
f1
01
f1
00
f9
f6
f7
f1
de
f9
0a
e1
02
14
f7
0c
ef
02
fc
e9
f5
ea
fc
0a
0b
07
06
01
20
fa
fd
09
03
f3
ef
00
05
e8
0c
11
e5
ff
01
16
f6
e5
0b
03
fc
18
f6
02
ec
f3
f7
e9
e0
15
12
0f
07
11
f9
f3
fe
f8
0d
18
ed
14
f7
0a
09
e7
04
00
1f
16
ed
15
fd
05
db
11
05
ef
12
fc
fa
f8
08
02
03
fd
ee
f1
f3
0c
06
01
ff
09
05
ed
1d
e9
e6
06
fb
1d
0b
0a
fb
f8
f8
14
0e
0d
17
fc
e6
02
f6
fe
f5
fd
0e
e9
0c
09
27
0d
fd
f9
fd
fe
08
0a
09
00
03
07
19
ee
0d
00
fd
fc
0e
fe
10
f9
f8
fc
f9
07
fa
06
f2
ec
1d
e3
ef
09
08
06
01
0a
ef
04
05
13
08
f1
ee
ec
0b
fb
e1
f0
02
01
f8
12
ff
f3
fd
f0
30
13
0b
01
d8
04
f5
1c
09
e2
fc
e6
0e
0d
13
08
d2
0a
08
01
04
0c
01
05
07
fc
09
07
15
f4
fb
