240 1 3 3
28
16
08
20
0c
eb
d5
c8
ce
f8
df
cc
e4
ef
08
f3
fd
f4
e6
db
d6
01
0a
f8
06
23
3b
e1
fb
de
f4
f4
fa
f7
e9
e1
07
1e
23
0c
0f
21
01
ef
ed
ed
fe
ea
05
f8
dc
08
e5
db
fc
07
11
07
16
15
08
1c
0e
10
e2
c9
05
f8
ce
d9
fd
07
05
06
f9
05
15
03
03
38
09
d3
e8
d6
16
fa
05
18
10
15
fe
02
fc
e7
ef
e9
f6
e0
f1
dd
d4
d9
10
29
05
20
12
1b
e9
02
1b
f4
20
28
ee
0e
1a
d1
f3
fc
ff
d3
06
22
d1
f7
01
f0
12
fc
c2
09
e2
ea
03
c5
ea
1d
f8
e9
2a
e4
d5
28
02
0a
e6
fb
14
19
08
23
33
09
15
09
21
eb
da
d3
d3
02
f4
fb
20
e1
e9
2d
d9
de
27
f4
da
e5
04
ff
00
2b
1c
0f
fe
09
ff
19
12
0a
0d
1c
18
2f
07
f3
3f
04
e5
36
09
e6
f8
ea
d9
34
0b
cc
0e
ff
ea
01
ee
ff
de
f4
fe
e4
ef
f8
2c
34
2d
14
f0
04
f2
01
ee
18
05
fc
0e
13
d6
27
f8
c8
fb
39
f5
d8
01
da
c3
1c
e3
f5
e4
fa
1e
35
27
0a
fa
f2
dc
e1
f0
f5
f5
ff
f3
ef
04
f1
db
df
e9
10
1a
08
09
31
e9
ec
e1
21
27
39
df
f2
e1
12
15
04
1b
0f
09
0e
12
09
fa
d9
01
f9
f5
03
d9
e5
dd
25
09
3b
03
10
0d
c6
db
b8
cc
ff
fe
00
11
d4
57
46
ce
02
f7
14
14
10
0e
0a
08
34
e4
e5
0d
bc
1c
33
dc
fb
20
de
12
1c
d1
08
ea
f2
ea
e8
ee
d9
f1
05
12
f7
14
29
25
e0
05
fe
d8
16
e5
de
fa
cd
fb
23
40
dc
13
fd
f2
d1
f3
e8
10
09
e3
19
2e
d0
04
2f
14
1c
28
12
35
1d
e7
ff
05
fa
ce
ef
d8
e5
0c
f4
ce
1f
04
f8
02
e8
ea
d4
e4
f7
e5
f1
f0
e7
f1
f7
ef
f9
ef
f0
07
01
03
f3
f2
bd
06
eb
ea
3e
ef
0c
23
01
e3
13
f8
bf
0d
12
06
0b
12
16
f8
1f
10
fe
18
0f
1a
1b
17
06
05
03
f9
f8
02
0a
0a
07
29
13
1f
f7
dd
ec
00
0a
12
12
22
2c
d5
e5
1a
d0
cf
1c
e6
1f
3e
04
1b
1a
02
10
11
0b
0b
15
0f
0a
08
fc
12
1c
06
0c
0d
fd
0c
08
09
1b
1d
05
2b
10
18
0c
18
ed
f5
fa
e0
d1
e5
0b
1b
20
e7
1d
e9
e9
df
d8
f6
eb
f9
ee
e9
eb
eb
e1
f7
dc
ce
db
f6
14
f5
ff
15
12
f3
ed
fd
f0
f7
fe
e7
e5
f9
0a
e0
f4
f2
f5
d2
12
15
e7
21
2f
1c
e9
fd
0a
ff
0e
f0
02
ed
ec
f3
e9
e1
f7
d7
fd
24
08
33
0d
0d
09
f7
c8
ea
f3
07
0c
e5
ef
f9
d2
ed
e7
cf
e0
0b
f5
11
0a
b7
da
06
12
08
e9
00
d8
f2
fc
e8
e4
10
07
0e
1f
15
20
1c
04
13
de
fc
f7
ee
ea
05
f2
e3
dc
e5
ec
dd
fe
06
f6
f0
e6
02
30
08
dd
09
e6
d3
18
fd
d0
d7
f0
e2
15
20
1b
d7
e5
e3
ec
f1
05
e7
f0
05
f9
f4
d9
04
f6
08
05
eb
c5
15
e6
eb
f5
e6
ff
01
07
01
1b
33
25
06
36
1b
e2
1c
e7
cb
3f
07
03
13
27
ef
2f
31
dd
f3
f7
e8
f2
dc
df
e4
ee
fe
02
fd
14
09
11
01
fd
51
16
04
18
fd
fa
d2
f9
ed
e3
12
fd
cc
f8
d6
de
0d
02
e2
1a
12
20
e0
fa
01
12
0c
17
fa
33
10
11
09
e5
29
1c
fd
0b
1a
10
f4
07
11
f6
25
1f
fb
04
1b
0c
24
32
0d
0c
1e
ef
f2
df
05
13
f1
c7
f2
e1
f2
f5
f1
da
d1
02
ed
f1
df
42
2b
06
10
09
0c
02
0b
26
1a
20
08
fd
f7
04
dc
d4
ed
02
f6
03
0c
e8
ec
0a
e1
09
08
c9
e8
07
ea
f2
13
f9
f2
04
e5
d2
e3
d9
b7
f0
18
0c
06
12
15
e9
ef
d6
f9
05
fc
da
f7
e3
02
09
00
0c
0c
08
12
22
18
e3
e1
e4
ee
f5
e6
03
05
fd
2b
16
e4
1a
10
d7
1c
ed
d2
24
01
d2
0b
ef
f3
1d
f9
c8
ec
f3
ef
06
16
0c
d8
c5
db
08
09
ef
2d
13
f0
0c
21
f9
ed
00
fe
d5
ed
ed
f5
f8
e2
eb
07
0a
f2
1a
31
04
1a
15
f6
f4
f8
0e
04
18
0e
1b
21
ed
dd
d8
08
0e
08
e5
e7
db
f4
18
f0
e9
e6
df
e6
02
ec
f3
47
d1
ed
2d
c2
fa
07
e1
e7
fb
db
f7
eb
fa
12
32
18
ff
19
fb
fa
e2
e9
ea
e4
e0
fc
e7
ec
17
1e
2c
11
0f
0f
0c
2f
20
02
13
fb
b1
d5
e5
fa
10
20
fe
09
20
0e
fe
1c
08
1e
0e
00
18
48
f9
18
cf
f9
0f
10
07
37
0f
07
21
0e
0c
2b
19
0a
1c
00
07
03
f6
ed
12
01
ce
12
2b
df
17
42
0b
f1
fe
f3
e8
fa
e9
ec
e7
28
b0
c0
1c
14
fb
f8
0e
04
bb
f3
da
e6
23
04
cb
14
00
fe
e7
f0
ec
f8
e1
02
de
ec
fe
f8
0b
16
29
20
fe
04
fe
0d
15
19
0c
09
0b
1a
06
12
ea
0d
d4
fc
1d
45
f5
13
27
e9
e2
f0
d7
0a
e4
f4
fa
de
f0
e6
d4
0a
f1
e1
f5
f6
fd
f5
07
ea
de
e3
de
e9
04
f1
09
d5
f5
ff
d8
f3
07
ef
f4
f2
f4
ce
e9
f6
e9
04
03
fc
e8
dc
0b
f4
f0
0a
ea
df
fa
34
d4
ec
2f
d1
d4
0f
09
e9
d7
e5
ed
fd
00
ed
f5
0e
06
30
ff
06
0b
f8
bb
2e
d5
c1
ef
ff
e4
16
2a
19
c9
d4
cf
db
dd
ff
08
fc
ef
f7
ee
db
06
f8
d0
2d
ff
dd
2d
06
e7
06
23
1b
dc
f8
e1
f9
ee
ee
12
1a
12
0f
1b
17
f6
11
02
d1
f3
dd
f4
00
f9
1c
1a
0f
ea
02
10
f3
ef
d8
fb
dc
03
d4
d8
ff
e0
02
e7
fd
4a
17
fe
0e
f8
f9
23
0f
02
2c
09
ea
ee
de
f4
e1
00
ff
08
18
2f
0b
ba
1a
1a
c0
07
16
30
f9
e5
e2
fd
e2
f3
f7
f6
03
e5
eb
ff
e3
f1
d9
09
06
0b
ce
1c
c6
cb
ff
ef
12
f9
10
ed
fe
fc
1a
20
28
17
12
15
fe
f5
f5
fe
f2
e8
05
e1
e2
10
db
d2
13
e6
f4
13
05
f1
2e
0e
ed
30
11
0b
19
f3
e3
df
15
e9
e4
46
01
d5
4d
06
f5
e4
e2
fa
fa
f4
ef
f8
e5
05
e4
d4
03
e1
09
ff
ec
f4
1b
04
0f
14
ff
09
13
24
1b
e4
ef
eb
ed
04
f1
ed
ee
fe
f4
04
fc
2a
fb
15
10
18
1c
d5
d7
e9
e7
09
2c
0e
1e
23
d4
e2
e8
de
e9
e7
03
06
16
0d
13
08
f8
0d
f3
16
3f
14
d9
e0
da
11
0b
04
1e
32
20
1a
00
e4
1d
12
ca
27
09
d4
22
12
f3
f8
e0
d9
04
fc
db
0a
e4
f3
f8
df
fe
fa
d3
e7
ef
37
cc
fa
f2
d6
dd
13
dc
fd
e8
fd
e1
f7
ec
11
02
cb
25
e9
a9
f7
1b
c4
20
21
fa
f3
ef
e9
ee
ea
f2
f6
ea
f5
f5
01
fb
f8
29
40
f2
13
10
30
3e
21
09
e2
00
02
01
07
09
26
35
05
04
27
ef
e8
05
02
00
06
06
12
10
0c
35
2b
15
0e
0b
11
1b
03
03
23
10
06
12
f6
21
ed
db
31
fa
d4
0a
02
02
13
0e
16
14
08
18
f9
08
16
1f
26
0c
19
12
fc
f7
0e
04
1c
1a
19
0a
20
1b
0c
14
ff
02
2e
ff
0f
02
13
ed
f4
ff
eb
fa
ef
f2
cb
f9
1b
1e
2c
04
07
03
0a
0e
02
f8
fa
f5
06
23
0b
10
26
1b
f9
f0
e9
e6
f7
08
2b
38
1e
1b
0d
03
e9
d9
ef
f5
d6
dc
1f
fc
d7
26
fb
e9
2e
01
e3
f3
ef
0e
fd
f2
fd
de
de
ec
fe
ff
f3
11
e4
f3
ec
d5
eb
05
3d
33
eb
01
0d
f5
0f
01
e3
e1
ef
ec
03
e6
0f
2e
28
18
33
1b
fb
1e
eb
d3
f2
f2
1a
20
32
0f
0d
ed
df
d8
d2
0b
35
1a
ef
25
12
e6
07
09
eb
de
e5
ec
e7
ef
01
f4
fc
fb
f6
08
09
0a
14
11
13
37
14
12
f4
08
29
05
f5
19
26
f8
0f
ff
08
34
2e
df
fe
e3
0d
0d
16
0e
18
1e
ff
04
14
04
20
25
ef
0a
32
ea
e8
ed
f9
0c
34
dd
07
30
f1
ea
23
18
06
e2
0c
ff
e2
2b
16
cf
e8
ec
e4
e4
fa
e4
09
fb
ff
fc
10
04
fa
26
14
1b
0f
fb
e7
e3
e8
14
28
25
fe
1e
f6
0d
fa
fb
ff
f3
f0
db
e3
e8
f2
03
fe
e8
ea
e8
ee
ed
eb
ff
fc
fb
e3
db
e5
fd
ef
e8
fd
05
ed
18
28
02
15
1a
0a
15
0e
0d
07
08
16
0a
0c
13
e1
e9
f6
07
2b
20
e6
11
22
d8
f1
e3
12
01
0e
16
21
24
0c
0a
e1
07
f1
f4
f4
f2
c4
ed
f9
fe
cf
03
f3
e7
03
c7
13
f8
e3
27
39
31
10
de
f7
e8
d2
d2
05
f5
f7
0e
42
0b
17
10
2e
09
09
12
01
fc
07
ea
03
d5
de
03
ec
de
e4
f5
fc
f2
f6
06
ec
f4
fc
e7
e0
2c
14
35
fb
f9
f6
e2
e2
d1
0f
00
d8
00
e0
e3
12
f6
e3
d8
ee
fa
e0
04
0e
ee
f6
f2
0d
3f
2a
14
20
21
0a
f1
ff
08
18
0e
03
17
2f
ff
ff
0a
e9
09
17
e7
1e
12
de
10
0e
fc
1f
03
e5
16
f0
de
01
bb
fa
fd
fa
ff
09
e1
f3
df
c9
fd
0e
f2
bd
ce
cb
25
1f
25
e6
e3
eb
ef
03
08
14
23
12
fa
ff
02
e3
e6
ec
16
2d
11
f0
0b
dc
f1
f7
e9
e2
d9
f2
e3
fa
14
bd
15
1d
c2
fc
12
15
11
15
06
1b
15
08
08
0a
fb
fe
06
d7
de
fe
ee
db
00
d7
d2
f9
18
17
f3
14
1f
25
f0
f8
e7
f5
e4
0e
ec
ea
e1
11
08
15
ef
fe
19
05
0d
3c
02
24
e8
1a
14
06
1b
2b
ec
f8
fe
f5
18
0c
16
19
13
10
13
15
09
fb
0a
e7
f0
dd
cf
ff
07
07
0d
1f
20
06
0e
01
05
e2
e3
0d
ea
e1
fa
df
1b
0f
10
0e
15
0e
18
0f
0c
f0
38
de
bf
23
f9
e3
be
2b
5b
e6
cf
dc
f0
04
1a
04
1d
30
01
ff
fb
1c
3f
2d
e6
f5
06
0f
0d
0f
11
0a
dc
30
24
f3
14
12
0a
12
0a
1f
12
08
f6
eb
f9
f4
01
e7
df
fe
e9
e3
d2
e0
d8
ec
05
0a
19
0b
06
fd
fe
f3
f3
f7
e2
f3
dc
e1
e6
dc
d7
e8
00
06
18
19
31
fb
fa
09
f8
ea
e8
e8
e0
fb
d4
f4
03
1f
3f
04
00
ff
09
04
f9
0c
ed
e8
05
ef
ce
ed
df
fb
02
e2
1d
36
dd
27
0d
f8
0b
11
d9
d7
f4
f2
eb
03
ee
f7
e1
ec
e8
e7
40
1e
10
e0
dc
d0
0d
09
04
0f
25
1e
1f
3e
20
f5
19
00
e9
28
02
3d
3e
0f
00
0b
e6
0e
14
fb
d6
54
ea
ff
0d
4b
dd
c9
f5
f1
0a
1d
af
13
f9
eb
00
c7
ff
08
f2
15
33
0c
07
12
06
16
05
06
07
1e
43
ff
e8
ef
2a
0c
00
e6
df
e6
ee
d9
03
ec
cf
02
f4
e2
ec
11
0a
f4
01
17
2c
d5
28
e4
c9
ed
d1
f2
d1
d6
f8
e7
fc
1d
26
1d
ff
e7
fc
f9
ec
03
fa
e0
e3
f2
eb
01
e0
fc
dc
de
fa
ed
ed
f2
f4
fe
04
01
24
1f
29
e8
47
4b
f1
fb
e0
da
fb
de
e3
ff
01
0b
0b
20
e6
24
33
24
10
1b
e2
f3
f9
03
c5
ea
ca
08
10
bc
03
0e
dd
11
12
f1
ff
f0
f8
eb
dc
e4
db
fc
07
de
0e
f9
ed
eb
00
d0
e4
f5
e2
fb
e8
f1
e5
da
1a
e3
f7
4c
08
dc
29
f2
06
13
ff
0d
0a
ed
05
0d
fa
2f
2a
24
ea
ec
f2
f2
f4
ef
e5
ff
07
ef
f4
08
fd
0d
1b
05
2e
17
ec
fa
e0
12
fc
d1
26
35
1b
ec
00
d9
fc
fe
f0
eb
ec
e9
09
1c
0b
06
24
10
04
04
09
ed
23
24
de
02
25
dd
d3
e3
2b
e6
bd
20
f1
d7
01
0c
ed
e5
13
10
f2
1e
44
d8
f9
08
d6
04
f2
dc
ff
ee
f7
0a
ec
1a
12
f5
06
fd
04
c8
c9
fb
e4
df
fa
f1
f1
f9
fb
ef
f9
04
20
50
06
f6
0b
07
fb
0f
e9
fa
09
ee
e8
fc
f7
ed
ec
02
ff
01
f8
24
23
e2
19
1d
20
1e
d9
2e
1d
aa
17
1d
cd
ed
f2
e3
e4
f1
e0
d8
fa
f3
00
2f
14
10
0e
1d
04
f1
09
c9
fd
d5
03
fb
ee
ff
f4
fe
24
f0
04
21
16
fa
1e
fc
04
11
ea
eb
f4
e2
ed
ff
f1
f4
0e
06
0d
0f
1c
17
04
09
0a
01
f0
00
e7
e5
ec
f5
f4
f3
f4
f6
ff
12
1d
12
1d
14
15
0a
da
c3
21
29
38
cc
cc
f3
02
23
30
e7
13
29
0a
23
06
fb
09
00
f1
e4
f7
eb
eb
df
dc
ef
d0
21
0e
1a
15
07
0c
04
1b
12
12
06
06
13
10
ff
05
01
0b
1c
07
26
14
08
12
e2
e1
bd
04
f9
05
00
02
06
d7
05
f8
ee
ea
f1
fa
51
26
d9
f1
f5
fa
05
07
d3
e6
ec
fb
e9
d9
02
f6
d5
fa
19
09
07
1b
09
f9
f2
eb
dc
dd
dc
fd
01
08
e0
d4
ee
0b
da
fa
09
21
2e
f1
f7
d4
fe
23
1c
e3
e8
d9
06
f9
f0
13
1a
21
04
12
26
25
0e
2c
06
0c
fe
00
f7
01
e0
dd
de
21
17
2a
f2
11
12
f8
0b
32
e1
1d
1b
0a
15
13
0b
1b
0a
07
12
0a
09
3c
f7
e3
2a
eb
f2
26
e4
13
11
04
0c
1c
14
1a
13
f1
07
fa
eb
10
37
fd
11
0e
16
1e
17
12
f1
ec
e8
ec
c7
d9
fa
f7
04
0a
1e
0b
0d
1d
12
da
06
d7
de
ee
f9
22
1f
26
1c
ee
14
0d
f5
05
27
1e
0d
f7
df
de
f5
fb
00
02
e6
e7
ed
f1
e9
f9
02
ee
05
d5
d5
f4
f8
00
10
1a
21
f8
28
0d
01
ed
0f
01
c8
0e
de
e1
01
f8
f9
e0
02
f7
f9
d8
eb
e9
ec
e1
fd
ee
fa
f1
f9
f7
ef
fb
05
fb
fa
ed
df
e0
f5
ed
f1
f2
00
f1
f1
02
e3
e0
ee
eb
f8
f1
12
13
14
f6
1c
2a
ea
08
e0
ed
fe
02
0b
2e
2e
ef
f0
e8
f7
eb
ef
eb
f3
f9
ec
f5
e3
f6
f1
f5
e9
f5
ec
15
2a
45
c4
08
fe
fe
00
e1
d8
fa
16
cb
16
3b
f8
10
0b
f8
ff
30
e2
f7
24
db
e8
fc
f7
10
ef
ff
0d
c1
e7
51
e5
18
18
02
12
07
29
f2
08
04
e6
b2
f2
f7
00
0a
23
f1
1e
fd
f1
f9
d8
de
2a
e9
e5
f1
dc
fe
db
f2
f4
ec
e1
05
e7
f6
dd
ee
e6
e6
f3
fe
f4
09
04
d1
e7
05
ea
eb
40
c7
fb
25
24
35
11
10
08
f8
02
03
f1
e3
c9
fe
fb
e6
16
20
0b
f8
02
06
01
39
24
f2
14
ff
ef
d1
e1
f8
1c
06
13
19
27
fd
f9
00
18
1a
11
12
0d
1c
03
f5
08
0c
07
32
0d
13
26
25
2c
fb
19
03
24
06
f9
00
11
f1
e3
e9
c6
e1
03
fb
1f
ee
18
fd
05
22
3c
f6
16
18
f8
0a
0d
e2
e9
e3
e9
fc
ee
2b
ef
dc
18
00
d6
2b
f6
c7
13
f7
e3
01
fb
ed
15
e9
d2
2b
1b
da
2d
05
e4
fc
2d
d5
f6
d3
3e
dc
12
2a
d6
35
05
e7
ed
bf
f5
04
f6
e4
0b
0a
d5
14
ea
d3
f9
f5
d9
50
05
fb
08
00
07
0d
30
10
12
17
df
ed
04
e8
19
10
06
0b
4b
13
06
03
07
e2
dc
e7
e3
e1
03
db
ff
f7
e3
16
f2
d1
04
f4
ea
e4
19
15
23
0d
0c
05
09
1a
13
f6
26
0d
fd
1d
0d
fd
e8
f7
1e
23
05
23
11
1c
dd
e9
0d
fc
0e
fd
06
2d
30
fe
09
11
f9
03
30
e6
04
29
e8
f4
f8
f1
ed
d2
f9
e4
fb
f4
e7
ed
f3
fb
ff
00
ef
d8
e6
ea
ed
f3
0b
02
14
15
27
e5
fe
fa
0f
03
0f
16
1b
34
0f
15
11
09
0e
0e
08
01
12
0f
12
fe
ec
f7
02
cf
de
e2
07
fb
fc
f6
e0
e4
f1
f6
f7
ee
d1
e8
d7
fc
fa
e9
e3
ee
e7
fd
ef
f7
07
07
e0
ee
d8
25
12
1b
17
04
13
fd
ff
fc
da
d0
f8
1d
f2
e7
11
f1
ee
21
17
2d
17
13
15
0a
15
f2
14
0e
1c
1c
26
0d
05
dc
bc
fe
18
fb
0b
1a
19
ff
25
28
fc
10
f5
da
04
eb
d2
04
dc
38
ff
fd
29
00
ce
30
09
02
df
e9
d9
f5
ff
fc
f9
1f
3a
e7
de
e5
f5
f8
ff
f4
e0
e0
ed
d1
05
da
d3
ff
0f
fe
17
1d
43
25
0e
03
fc
e9
06
e1
0e
19
14
07
13
28
06
fc
00
03
1f
31
df
ee
d7
10
0e
08
15
00
0d
f0
e7
d9
e8
f2
e7
f3
ed
fa
ea
f3
ff
03
df
e1
f7
f2
0f
d9
f1
e5
f3
f0
da
00
fc
02
0b
12
0a
12
18
14
09
1a
19
09
43
ef
c6
f8
cf
24
15
2d
0a
02
10
fa
c7
ea
05
08
02
0a
12
00
0f
21
1c
f7
2c
05
e4
04
11
13
08
41
20
2a
26
d1
d9
03
11
11
1b
00
e9
e8
e4
e6
e0
fd
f4
ee
fe
0b
01
de
fa
e3
ee
e9
dc
d4
e7
e5
e8
f5
fa
f3
24
1b
ea
ee
ef
f8
eb
ee
ef
f8
ee
d6
e1
ee
fa
04
0e
22
1b
1d
06
06
f6
05
13
07
0e
25
20
f0
02
f2
ec
e5
f1
e8
ee
f4
10
0c
24
1d
10
2d
0e
1a
1a
e7
e9
de
01
f0
ff
03
e5
d8
09
0d
dd
fe
03
05
40
15
51
16
f7
e8
22
1e
d1
1c
f1
be
eb
e7
ed
16
30
20
07
f1
f7
1f
1b
28
ff
f8
02
e7
c2
d7
14
3b
fe
02
25
07
ec
16
12
e2
f0
03
01
1f
05
0e
1e
1c
dd
ff
f0
ca
f8
2d
23
d3
d2
2a
15
24
de
00
e7
f2
f5
ef
f1
ed
d8
fc
09
ea
e4
f9
e0
12
f5
d2
21
fa
dc
20
f6
df
fe
0c
17
09
0c
12
14
0a
0a
be
fb
18
d7
1a
1b
f7
e4
38
01
fd
05
e3
cb
ee
4f
27
f9
e5
e5
ea
f3
f4
f7
e9
e3
e5
2a
3b
e9
fa
13
df
27
d4
cf
05
00
f2
f3
e2
cf
f0
e5
16
f0
e7
fa
dd
de
dc
11
f9
24
e8
e3
f5
10
fa
ec
fd
fa
d1
fa
e7
d1
14
e1
ed
0f
ee
de
15
04
2c
1d
f0
0e
f4
d7
c8
2b
13
0d
36
23
dd
ef
1d
d6
12
29
d8
17
2d
d3
10
2e
e7
df
e1
f7
03
f6
cf
25
11
1a
e0
d8
d1
fa
16
16
11
22
1b
1b
23
0d
06
43
1d
ed
05
ff
0d
f8
fb
e2
e1
ee
14
30
2b
fc
03
0c
19
24
1d
18
13
fd
2f
11
20
18
03
1f
ec
ec
de
0a
05
05
e9
e2
19
dd
f0
df
18
31
27
f0
f4
14
03
02
0d
e7
f7
32
ee
03
41
de
00
08
f6
00
ed
f9
18
35
11
12
0e
00
f6
f3
18
1a
0d
24
07
15
f0
e8
ef
f3
e7
d5
04
fc
04
04
fb
ff
1d
28
29
fd
fb
0c
e8
53
32
09
13
00
ed
f9
e0
0e
13
35
10
1d
1e
0c
d3
05
e5
da
d6
f3
c2
13
23
45
48
f8
0d
fd
0b
1b
02
14
26
2e
f8
e5
e7
03
e3
02
ea
e7
f0
fb
0d
08
08
33
12
fd
16
10
05
12
0b
ea
ef
e8
1a
32
21
e9
f0
fc
ed
f9
ee
f8
f3
fe
fc
f1
d3
e6
f5
ec
f9
0a
e1
05
f7
f3
f5
df
dc
ef
f1
ed
0d
f8
e8
f3
eb
d3
0d
00
f9
03
09
0e
0f
1e
11
07
02
15
ef
ee
0a
e5
0a
28
bd
13
3b
fd
0e
08
fd
d5
db
e2
f2
f5
da
02
00
e1
f6
fc
d7
ed
0e
0a
e0
cf
09
09
d1
13
07
c3
0e
15
0a
19
25
08
0d
0a
0d
f5
f9
df
12
f9
d1
09
f6
ed
0b
31
17
f8
16
ff
08
10
03
e7
f5
e5
db
02
05
14
33
23
f4
11
00
0d
21
1f
ff
1c
24
dd
1c
02
c5
45
ea
dc
2d
05
0d
00
f5
07
d1
ee
0e
bb
e5
dd
e5
de
15
14
ff
04
21
0b
e3
e5
ee
fa
0f
fc
e7
e1
d6
0b
1a
0e
20
18
1c
05
08
10
fa
21
dc
48
0c
e4
3f
e1
e0
e5
f0
e1
fa
09
02
01
28
27
10
0e
0d
0d
0a
1a
09
11
08
e4
13
07
ec
1c
1d
c3
17
1c
08
01
19
14
16
3a
0e
05
18
14
10
09
1a
35
c9
11
1b
e3
f5
f4
df
fd
e5
f2
05
e8
e8
fd
0d
0c
0a
13
1d
11
0d
04
ca
1d
1c
d5
14
16
d8
fd
24
da
e4
e7
fc
07
14
ff
0a
45
f1
fb
e2
00
df
e1
00
05
ef
f3
e6
05
f6
f2
ee
eb
d6
ef
ef
f0
e8
fd
f3
e7
14
28
28
f9
0c
10
07
27
0a
06
17
13
df
e1
d1
10
21
2f
e0
ff
cc
e4
e4
e7
ec
d9
f4
19
10
0d
fa
02
fc
2a
1a
15
02
09
09
fb
d1
fd
f7
e5
ee
db
e7
01
06
fe
02
20
1a
31
06
0d
02
f3
e3
d6
fb
17
0f
08
2c
1d
e2
fa
e8
04
f1
ea
ec
e4
dc
ed
ed
cf
0c
3c
29
f7
fe
f9
f6
dc
f5
fd
0c
04
f5
33
36
f3
04
ff
29
1c
2f
e4
ed
fc
e6
d6
de
fe
24
3a
f1
de
cd
f9
fa
0d
db
e6
f1
f2
e6
03
fb
1f
10
0a
f4
03
1f
22
1c
e7
08
2e
fa
02
2a
d9
0e
23
fc
e2
ce
f1
ef
02
1e
df
04
fc
e0
ec
ee
ff
fe
ef
ee
e7
e1
f5
ef
f5
00
05
00
bf
e2
ec
ec
ec
f3
fd
f4
fa
ee
df
fc
0d
06
fe
17
22
fa
15
17
03
0a
fc
0a
41
18
0c
18
0d
d2
f0
eb
fb
f1
e1
10
07
03
ec
ed
d9
e5
ed
df
f5
0c
f8
ef
ca
f6
21
1c
2a
f1
d8
db
e3
ea
cf
f5
fb
f2
06
02
04
d0
ee
d3
1a
f5
07
1d
00
2b
02
09
ff
fa
0c
f4
1f
51
20
0a
da
0a
02
dc
07
f5
d0
07
17
0e
1d
1a
03
15
00
11
05
e0
ed
f6
f3
f7
f8
e8
f5
e8
b9
0a
12
b5
f1
01
ed
33
1b
12
0d
00
10
12
12
35
ee
08
ed
ec
f5
ef
e2
f8
de
00
f6
fb
f6
d2
02
05
04
f4
da
eb
e5
d8
e8
04
00
0a
27
20
21
f0
e0
e0
08
f8
fb
f2
e2
fb
e9
e6
fb
ea
ee
ff
ec
ed
fb
f6
f6
e1
ef
f9
e6
f8
01
f9
18
0b
25
27
0d
02
08
13
06
17
0c
1b
1c
04
0f
11
21
08
12
03
08
ec
c6
0f
ef
d1
ff
0c
1e
22
f5
e9
e0
de
e5
f3
05
1f
15
04
18
21
fa
12
1d
f0
0b
ef
db
e7
df
01
ef
ff
d9
e7
ec
f1
ec
11
0d
01
1a
ce
e3
03
e4
0a
f3
e0
ff
ee
d2
e2
e5
e1
dd
ff
19
1b
08
f5
06
f3
fa
3d
0f
08
16
fe
1f
26
09
07
1b
04
f6
0e
08
04
eb
de
0a
06
16
ff
23
28
e4
f3
2a
c8
05
23
df
e8
43
04
e9
06
fa
15
17
19
20
2a
fd
0c
fd
09
30
03
10
1e
fd
e9
ee
e7
0f
e3
02
21
32
07
eb
20
ef
e1
ff
1c
be
ea
fc
14
32
15
d9
2c
0c
dd
ef
e6
ca
df
1b
08
19
48
07
08
20
fd
15
1a
db
ec
da
10
28
3e
fa
fe
ef
10
22
05
14
1b
0e
51
fa
d7
17
f6
f4
0a
f7
e7
06
0f
05
0e
23
1b
00
1f
0b
fd
06
fb
d1
d9
f3
01
f2
f9
f9
06
d2
f5
f2
e1
f7
f1
f8
0d
1f
11
f7
07
00
11
1d
2a
ec
e6
f1
17
13
07
bd
e4
cc
f5
05
fc
09
16
1c
0a
13
1f
c5
0d
e0
eb
23
06
c2
14
da
0d
23
eb
e5
3c
df
dd
01
cc
fd
24
cd
f2
40
dc
f6
18
dd
14
0c
ff
09
1e
32
01
07
0a
15
eb
df
fd
fd
fd
e6
ce
f5
09
e8
f8
03
e1
e7
03
f2
f0
f9
01
f6
08
1a
f7
12
41
05
1d
54
23
07
f6
fb
fc
fc
f6
10
04
ed
08
e3
de
03
e5
d5
09
0c
fe
0e
27
1b
00
21
05
d4
e7
df
23
0a
10
22
1c
1a
fe
39
00
08
15
15
0d
11
15
fb
f6
fb
f0
e3
dd
e4
fb
f8
de
f8
ec
ef
20
20
04
1d
1b
00
17
20
0c
07
16
0c
12
0f
40
04
f3
27
f9
10
f0
bc
e2
d6
ee
b8
09
3b
15
f9
1f
11
e3
19
10
cc
13
33
d1
16
0c
f5
fb
e9
e5
e6
f2
e8
fe
f3
ef
05
01
02
20
11
fe
20
2f
14
e9
f5
05
00
fd
e3
e6
d4
2a
f9
08
17
1d
28
00
10
1b
ed
2d
1c
01
18
1f
e5
04
fe
e3
d9
e6
f2
ec
01
19
04
18
55
25
e3
3d
11
da
fc
05
ff
