fffe
0001
0000
0000
0007
0000
ffff
000b
fffa
0010
0002
0005
fffc
0010
ffff
fffa
0004
0001
fffb
0005
0002
fffb
fffb
0006
0001
0008
0007
0001
0006
0000
0004
0002
0005
fffd
fff5
fff7
fff9
0006
fffe
0001
0005
0006
fffb
0000
0004
fff4
0008
fffe
0000
fffb
0003
0010
0004
fffb
0005
0007
0008
0011
0005
0001
0006
0006
fff3
0002
fffb
0004
fffe
0007
0001
0001
fff6
0001
0000
fffd
ffff
0006
fffe
ffff
0002
000b
0005
fff8
fffe
fffd
ffff
0005
0017
fffa
fff8
ffff
fff5
fff8
0001
0007
0004
fff4
fff1
ffff
0007
0005
000f
0000
000e
fffb
fff9
0000
fffe
000a
fffe
ffff
fffd
fffd
ffff
0002
0008
000d
0003
0001
fffe
fffe
fffe
0003
fffd
000f
0002
fff3
ffff
fffe
0005
fff9
000c
ffff
fffb
0002
ffff
fff6
ffff
fffd
000a
000a
0003
fffc
fff8
000a
0005
0006
0009
fff8
fff7
0002
0004
0006
0004
0002
fffb
0004
fffe
0009
ffff
fffd
ffff
0002
fffb
fffc
ffff
fffa
0008
0005
0009
000b
fffe
0010
fffa
fff4
0006
fff6
fffc
0006
000a
0001
0002
000f
0008
fff0
0016
fff7
fffa
0004
fff4
fffd
0002
0007
