ffe3
003e
002e
0035
ffce
0009
0010
fffa
fff8
fff9
0036
000f
0007
ffca
0053
fffb
fffd
ffd8
0026
ffd3
0005
0000
fffb
002d
0027
0024
fff9
fff9
ffd1
0001
fff5
fff3
ffee
ffff
001e
ffe5
ffd9
0031
fffc
0021
ffe2
ffe7
0013
fffb
ffcb
fff1
0017
0005
ffd4
ffe4
fffc
ffff
fff8
fff3
fff2
fff5
fff7
fff2
0025
ffef
002c
0025
ffe2
0028
001f
ffee
fff6
0014
ffd1
ffe7
ffd3
fff9
ffda
0047
ffd1
001e
002f
0001
002d
000c
0023
0003
ffbe
001d
fff9
fffe
fff7
ffd6
ffe3
002f
ffe8
ffdd
fff8
fffb
ffdb
fffe
ffe0
002e
003b
0008
ffeb
fff4
ffef
0006
ffc9
001d
000c
0021
fffc
000e
ffdc
001e
0022
fff3
fffd
0000
fffc
ffea
ffd1
ffb3
0027
ffdd
fffc
0023
fffd
ffe6
0028
ffe1
0003
0009
fffc
ffd5
ffeb
fff0
0030
ffd1
fff1
ffe6
ffe6
fffa
fff7
fffd
fff9
0039
