000a
ffdc
fffe
fff8
fff2
000c
fffa
ffec
0000
0008
fff3
0005
fff6
fff9
ffe3
000b
fff8
fffd
0007
0002
0005
0000
ffeb
fffa
fff4
0006
ffeb
fffe
ffef
fff5
fff5
0000
fff6
fffc
ffff
fff8
0003
0000
0007
fff5
fffd
0007
fff6
fff1
fffa
0011
fff3
fff2
0002
0003
fffc
0000
fffd
fff2
fff9
fffa
fffe
fff9
fffc
0004
fff4
fff4
ffee
fff9
ffed
0005
fff1
0010
0003
fffa
fff8
0008
0001
ffef
fffe
fff1
ffff
ffff
fff4
0005
0001
0005
fff6
fffe
fff9
fffa
fff0
0006
fffc
fff7
000e
fffa
fffd
fff9
0003
fffa
fffb
fffe
0003
ffeb
fff7
0004
fffa
fffc
ffec
0004
fff4
fffe
0001
fff8
fffc
000f
000c
fffe
fffb
0000
ffef
fff6
0010
0010
0008
fff6
000e
0005
ffe8
0007
fffe
0008
fff6
fff0
fffb
0000
fffc
000e
ffd7
fffc
fff5
fff9
fffb
ffff
fff5
0001
fffd
fff7
0007
ffff
0003
fffc
ffff
fff8
fffd
fffc
0003
fff4
fffd
0000
0009
fffd
fffb
0003
ffe6
0010
0000
ffff
fff2
ffe8
fffe
fff5
0002
fffb
0003
000e
fffd
fff7
fff4
ffff
fffe
ffed
0002
fff6
fff3
0007
ffe8
fffb
0016
ffed
0012
fff7
0004
fffc
fffe
0002
0005
fffb
fffb
fff2
fffd
fffc
fff6
ffff
fffd
0001
fff8
0000
ffff
fff8
0004
fff7
fffd
fffc
ffef
0008
fff3
fff4
ffea
0000
0004
000f
0006
0007
0000
0007
fff2
fffc
fff0
fff8
000b
fffe
fffa
fff3
fffd
0002
ffee
ffe6
000b
ffff
ffff
fff5
fff7
0003
0002
ffe9
fff7
ffff
fff6
fff7
fff9
0001
fff0
0002
fffa
fff9
fffd
fffa
fffb
ffee
fffd
fffd
0006
fff3
fff7
fff6
fffc
fff3
ffff
fff5
fff4
0009
fff6
ffef
fffc
fffb
ffec
ffef
fff8
ffee
fff8
0006
0000
0007
0002
fff9
fffa
0005
fffe
fff9
0002
fffc
fff8
0001
0000
000b
0005
ffec
0010
ffff
000c
fff3
0000
0006
fff8
fff0
000c
fff3
ffe6
ffee
fff7
fff6
fffe
fff4
ffff
fff9
0008
fff5
fffc
ffed
000e
fffe
fff1
fff4
fff9
fffa
ffea
fff8
fffa
fff5
0000
ffeb
fff7
000b
0003
ffe8
ffff
fff5
0006
fff7
fff5
fff8
fff8
ffdf
0004
0003
fff4
ffee
000a
fff8
0006
fff6
fff0
0002
0006
fff8
0006
fffa
ffff
fffa
ffef
ffff
fffd
fff4
0004
ffec
ffef
ffff
fffa
0001
fff3
0000
fffb
0002
0000
ffff
0008
fff3
fffa
0003
fff7
0005
fff9
0009
0007
0006
fffa
fffc
0000
fffa
ffea
0017
0006
fffb
ffff
0005
0001
0000
fffc
0007
fff4
0000
0014
000a
fff9
0002
fff0
0004
ffff
ffe9
0004
fffe
fffc
fff8
fff6
fffe
0002
000b
fffb
0013
0000
fffe
0004
fff0
ffea
fff5
fff1
0007
0003
fffb
fff1
0000
fffd
fff7
fffb
fffc
fff5
fffb
ffe9
0006
000a
fff8
ffff
fffc
0005
fffa
0004
fff6
fff9
0002
fff6
0001
0001
fff2
ffec
fffb
ffff
fff6
fffa
fffa
fffd
fffc
fff3
fff1
fffd
fff9
0007
fff4
fff8
ffff
000b
fffa
fff7
fff1
fff5
fffd
fff8
ffff
000f
fffa
fffd
fff2
0006
ffff
ffe6
fff6
fffc
fff9
0002
ffea
0001
fffb
fff0
0009
fffb
0004
fff8
fffc
ffe7
fffa
fffe
ffff
fff8
fffd
0002
fffc
0000
0002
fffa
000b
0002
fffa
0001
0003
0009
ffec
000e
0003
0007
fffb
fff7
0001
0003
0009
ffee
fff9
0007
fff4
ffff
fff2
000b
fff3
fff3
fffb
ffec
0004
0002
fffb
fff8
0005
fff5
fffe
0001
fffe
ffff
fffe
fffc
fff6
fffd
fffe
fffb
fffa
ffeb
fff6
0005
ffec
fff1
fff5
fff7
0004
0008
fff6
fff6
fff8
0002
0007
ffeb
fff5
fff8
fffb
0001
0004
fff0
fff9
ffe5
fff6
fff3
fffd
fff2
fffd
fff7
fffe
fff8
fff8
fffc
0003
fff8
ffec
fffb
fffb
fffe
0000
0000
0006
0007
fffa
ffed
0000
fff6
fff4
fffa
0002
fff9
fffb
0000
fff5
fff2
0001
000b
ffff
fffe
0008
ffe1
fff0
0008
fffa
fffe
fff8
0008
0004
ffff
fff5
fffd
fff3
0000
fffe
fff9
ffea
0006
fff5
0008
ffef
fffd
ffe3
fff1
fff7
fffa
fffc
ffef
0007
fff2
0000
fff0
0000
fffd
fff3
0003
fffa
0000
ffee
fffa
fffd
fff1
0001
0006
0000
fffb
0001
0005
fffb
fff4
fff0
ffe7
0003
ffff
ffef
fff4
fff2
fff4
0000
fff5
fffc
0000
0001
fff4
ffff
0007
fff6
0007
000a
0000
fffc
fff5
ffff
ffec
fff8
fffa
0004
ffe7
ffee
0013
fff3
0006
0009
fff3
0005
0008
fff0
ffe8
fff5
fff8
0001
fff8
0006
0002
fff5
fffe
0000
0000
fff1
0000
0005
fffa
ffe9
fffb
fff1
fff2
0000
0003
000d
fffe
fffe
fff6
ffff
ffee
fffb
fff5
fffa
0004
0004
0000
ffff
fff6
fff8
000e
fffd
fffb
fff6
fffc
ffef
fffc
ffeb
fff3
0004
000a
fffb
fff4
fff9
fff6
fffc
ffff
ffff
fff2
fffb
0013
fff6
fffb
fffd
fffa
fffd
ffff
fff2
fff2
fff0
ffff
fff0
0001
fffb
fff2
fff1
fffc
fffe
fff9
fffa
fff5
fff9
0000
0000
fff1
0009
fff1
0001
0005
0005
fff4
0000
fff9
fff5
fff3
0003
fff6
fff4
0005
fff2
fff5
0003
0000
ffff
000a
0006
fff2
fffd
fffb
ffff
fff7
0004
0006
fffc
0000
fff7
0008
fff7
fff8
0000
0001
fff9
fff2
fffb
ffef
fffa
0003
0002
fff5
0001
fff5
fff6
0006
fffb
fff1
fffe
fffa
fffd
fff0
fffa
ffeb
fff6
fff9
fff6
000c
000f
fffe
fffb
fff9
fffe
fffd
0009
fff3
fffd
fffb
fffd
ffff
fff8
fff7
0005
fff8
fff9
fff2
fff9
ffff
fffc
ffed
0009
0000
fff3
0008
fffe
ffee
fff9
fffc
fff5
fff5
fff4
fffe
fff8
fffc
fffe
fff6
0000
fffd
fff8
fff2
0009
000a
fff3
ffef
fff4
fff7
fff6
ffed
fff8
fff7
ffff
fff2
0005
fffd
ffff
fffe
fff2
0003
fff4
0002
fffc
ffee
fff8
0002
0006
fff2
0001
fffd
000d
0004
ffee
fffe
fff3
0006
fff9
fff2
0003
0001
fff3
fff9
fffd
fff5
0000
fffe
fff8
fffb
ffeb
fffb
fff9
ffef
fff8
0003
0009
0004
0007
fff5
000a
fffc
0004
fffb
fff0
0000
ffe2
0008
fffd
0002
fff8
fff7
fff4
fffd
fff9
ffef
fff5
0009
000a
fffe
fffd
ffe9
fff5
0007
fffd
0006
fff6
