a0 240 1 1
fb
f6
f9
fa
ed
12
fd
f1
fc
08
f7
05
f9
01
05
01
00
07
fd
f8
0b
f0
f7
04
02
f9
fb
f4
0e
01
0b
00
fe
ef
00
fb
18
14
05
0d
fe
ff
0f
ea
fc
00
0d
f7
ff
01
fc
fa
ef
f1
07
0f
07
03
01
f9
0a
fd
fe
0a
0b
01
04
01
02
fd
f9
f8
01
03
01
fe
00
fd
08
f8
f8
f9
05
fc
09
00
03
0d
fb
f9
01
f6
03
01
f6
09
02
0b
fc
f4
0a
f7
fd
fa
06
02
f8
06
ee
0a
03
fa
f4
02
f7
03
f9
06
04
fa
f8
fc
f1
fb
ff
04
06
05
04
ff
f3
14
0b
06
03
07
02
f9
01
fe
f6
f8
ff
01
01
f9
f4
fa
f3
04
0e
f7
06
09
fc
03
18
f9
fa
f6
02
f2
f8
ff
0a
06
06
ed
ef
09
f2
fb
04
ef
f1
09
fd
f7
f7
e4
fa
fb
fe
f7
0b
00
0a
03
05
07
0a
0f
05
01
f3
f6
f8
0b
ff
01
04
05
f9
02
f8
02
ff
03
f8
01
06
10
0f
06
fb
10
09
01
f2
03
0e
fa
0b
0a
05
02
03
06
f7
ef
0a
ff
fa
fc
f0
f2
f8
01
fc
fb
08
0f
08
0f
0b
f3
11
fb
fa
07
fc
00
ff
f6
09
01
f9
f7
f8
06
f4
fc
fe
1a
fc
fc
f4
01
02
06
03
f7
f9
08
02
00
09
13
f5
0e
f6
04
f6
06
f8
04
f5
ff
0b
f6
f8
f3
fd
0e
03
00
03
fe
02
05
ff
02
07
05
f3
07
ee
fe
ff
fe
ff
05
f9
0d
0b
05
f6
02
08
0c
fc
f1
f8
04
05
fe
0b
05
ed
fe
fe
11
00
05
07
06
01
04
01
00
fe
0f
fe
01
08
fa
05
fe
01
f7
00
f7
fa
0f
04
06
02
0b
f6
fb
fa
03
05
03
08
01
fa
00
00
fc
06
01
00
02
06
fd
07
08
fc
03
0e
fd
06
01
01
09
fc
fe
fd
f7
f5
fb
0b
04
09
02
15
02
f8
04
f8
f8
fa
07
08
05
0b
fb
0e
fc
05
05
04
fb
fd
fc
00
fc
f7
fd
04
f6
f5
fb
03
01
0a
fb
00
eb
f8
fa
fd
fe
f5
fa
00
f3
05
0b
0a
0f
00
04
0b
14
06
fe
06
06
0c
f8
0b
fb
f8
08
fd
04
f6
0d
10
0b
10
02
05
f9
f7
f9
f2
f6
fc
ff
06
f1
06
0b
00
f6
00
08
f8
08
ff
f4
00
0d
02
f0
ec
fb
f6
00
01
f8
0d
f5
05
02
08
05
0d
0b
02
fe
05
ff
f5
06
fc
0a
fc
fe
fa
05
09
f4
fd
08
0e
fd
10
04
04
14
07
f9
f9
0d
07
fb
fc
04
f2
10
04
fe
fa
06
f6
02
f5
f7
14
f5
ed
f1
05
f9
0b
0d
04
f9
11
f8
08
f0
00
f2
03
f5
06
fa
03
ff
15
fc
f7
f5
fe
fc
f0
0a
fd
05
06
f9
05
fe
f2
03
0d
15
fe
fe
07
03
04
f5
00
0d
05
05
f0
fa
ee
13
ff
fd
f8
0b
0e
0e
fa
09
09
02
00
f8
01
0a
f6
f4
01
ff
0d
fb
f1
06
ed
00
05
07
ea
f8
01
04
05
fd
14
ff
fa
f0
f6
00
f1
05
0a
03
03
00
01
13
fa
fe
fb
0e
00
00
0b
02
0a
f4
01
00
08
07
10
0e
fc
f2
00
fc
fe
ff
fc
07
f1
fc
09
f0
02
06
fb
fd
fa
01
f9
01
06
04
00
fc
ff
08
10
02
f9
f9
02
f7
f3
14
f9
17
07
f5
f6
fe
fd
08
03
06
0f
f6
02
fc
f0
0c
19
f2
09
f8
fb
05
0c
fa
05
05
01
fa
fc
fb
00
01
ff
ff
f6
fe
fb
08
01
09
02
f2
12
fd
f2
0a
0e
fb
ff
01
0a
fc
0b
f9
06
fa
fe
0a
02
f5
fd
05
eb
fd
f9
ed
0a
f6
09
07
00
ff
0c
f5
f2
00
07
0e
01
f5
f6
fa
f3
fc
01
f6
f8
fd
05
f1
f5
fe
08
00
10
fb
fc
03
fe
08
02
fd
ff
05
f6
00
f7
01
06
fe
03
06
f7
02
fc
02
f9
12
ef
00
f0
f7
f8
f9
03
01
f4
02
f6
e9
01
0d
00
ee
ff
06
07
fc
0b
f6
01
05
07
0e
ec
06
f9
0e
0c
f7
06
06
01
01
f2
fb
f3
01
f8
f4
02
fa
02
06
f2
11
07
f1
f5
f3
16
0c
05
f9
01
0f
05
0b
05
f9
f9
00
09
02
fb
04
08
f5
03
f5
f5
fd
fb
03
fe
0a
01
08
fe
ef
0e
0e
0a
08
14
ef
07
06
f2
00
06
01
02
ff
fe
f5
fe
03
f9
f9
01
04
f7
01
fd
04
02
06
04
f9
f8
03
fa
04
04
08
f2
f9
02
0b
eb
0e
07
11
14
fe
ef
0e
00
04
f3
fb
f9
00
ff
f9
f2
08
fa
f2
ff
f7
ed
01
fd
fa
17
0b
ff
f9
01
ff
04
f7
f8
ed
07
f4
05
f8
ff
04
01
ff
06
f1
0d
08
fb
fc
08
e5
fd
ff
fc
fe
0e
12
0a
fd
03
10
f6
fe
02
ff
fd
fc
06
05
ff
fe
fc
0a
ff
0c
13
f1
05
16
0c
f5
f9
04
00
fc
03
f5
06
14
fc
00
0d
0c
07
07
fc
07
0e
01
0a
f1
ff
04
fd
04
05
03
fc
fe
14
11
fc
f9
f1
0b
f8
00
fd
0a
00
fc
f6
f5
0e
06
fe
fe
02
11
08
09
ff
fc
0b
02
0f
09
16
08
f6
04
f1
02
0c
fc
fe
10
ea
ff
02
f9
f2
ff
f7
07
04
fc
12
06
f8
04
fa
fd
04
04
ec
05
fd
07
15
fd
fc
ee
ff
0d
04
ff
f5
12
fb
0d
04
0b
f9
06
01
09
04
01
04
07
05
f9
ee
06
08
ed
fe
0d
f8
f8
00
0a
f8
00
07
0c
0d
07
05
fc
fb
01
fc
07
f6
f9
0d
08
fd
08
fb
f5
01
03
fd
05
fd
07
fd
00
ee
fb
f1
f5
f8
05
06
0a
10
07
04
f8
01
02
fb
08
f7
f6
05
03
f8
09
07
fc
fd
f8
01
09
f3
13
13
01
09
fd
ff
ff
08
05
13
fd
fa
0e
f8
02
0d
04
fd
02
ed
fb
03
f2
08
f1
03
f8
ee
e8
f9
fe
fd
f4
0c
f9
0e
f1
10
17
fa
09
f5
f1
09
fc
ff
0d
03
fc
fc
f9
ef
03
f2
04
fb
fb
fa
fe
0d
00
ee
f3
f2
fa
09
0d
fb
fa
0f
07
fe
03
06
f5
01
f2
05
f2
02
0a
f4
01
fb
fa
f9
f9
fb
02
04
06
fc
00
f6
07
0e
04
04
07
fc
02
eb
fd
f7
f9
fb
e7
00
f2
03
06
08
07
09
02
fa
fa
f5
f7
f5
fc
f3
06
f9
01
f6
00
08
f9
0d
00
fb
0a
18
fc
ff
10
f3
09
fe
08
ee
01
0a
fd
0b
02
fb
ea
00
fa
ff
05
f5
05
ed
f9
07
ff
fd
f4
ee
f1
fb
06
fa
fe
00
03
fc
f9
07
ef
f9
02
02
0d
04
ff
f9
11
ff
0a
fc
0c
ff
0f
fd
04
0c
f9
08
0b
0b
ff
fb
07
f1
f6
0e
0f
06
00
fb
07
03
00
f9
01
ff
01
f7
fa
07
06
02
01
fd
fe
10
01
fe
f8
f7
f8
06
f7
0e
f4
fa
10
ef
05
f7
ee
ff
07
fe
00
05
ff
fa
fb
f9
f9
fe
fb
ff
f5
00
09
02
f3
f5
f3
05
fc
05
04
00
05
f9
f7
f3
07
ff
06
0c
0d
fa
fe
f9
f2
01
02
fa
fc
01
07
f1
0f
f4
fb
fb
f2
04
0a
0c
02
fc
09
fc
f9
fb
f0
fe
ff
0b
0b
fe
fe
f4
f9
ea
fc
19
fa
f7
09
04
ff
10
fb
0a
00
04
fa
ff
fe
f1
01
fd
00
02
05
03
03
05
0d
11
f4
f8
07
09
00
fe
fc
fa
03
fe
01
0d
f1
07
09
fc
05
fa
ff
02
f1
00
f7
01
ff
f3
f8
03
00
00
f4
fd
02
0c
0c
04
04
01
f7
06
01
fc
ff
fa
fc
1a
0a
0a
06
03
13
f8
fb
f9
04
f8
f9
fc
fc
f9
0a
fe
f3
04
f9
fa
01
09
ee
00
05
fa
04
05
f6
f2
25
12
01
f6
f8
ff
f8
fa
e9
ff
06
0c
f5
f2
fb
02
f9
ee
13
f4
f9
fe
fe
fe
07
fa
12
17
09
ff
f6
f6
f5
0e
01
fd
01
fc
02
fd
e3
01
fd
0c
13
0e
01
f6
f4
05
04
ff
0b
0e
02
04
f4
07
f9
fa
fb
f9
fc
09
05
f0
f6
06
f0
08
f2
ff
0f
fc
0a
ef
04
04
fe
02
02
02
09
0b
0b
0c
ee
0a
f7
03
fe
05
03
08
15
f7
0f
02
fe
f5
05
fc
fb
04
fb
07
f7
fd
ff
ef
09
eb
fa
fc
18
03
02
f9
ff
fe
fa
05
f5
05
fb
fe
fd
fd
f6
f1
f3
f6
fd
f3
0b
fd
f7
fa
f9
0c
0c
ff
03
04
f4
01
00
fa
f4
f7
06
ff
f9
fc
fc
08
fc
f5
f9
ea
fe
14
fe
ff
e9
05
fd
00
0a
f7
f0
f9
0f
04
12
01
0d
ee
fc
fb
07
01
ed
14
fd
14
0a
0b
ef
ec
05
03
f8
fa
06
12
06
fe
f9
08
f4
02
fc
0e
f9
09
07
f7
f3
ff
04
fa
fd
0b
ee
06
08
00
0a
0c
fc
f3
04
09
0a
0c
f0
08
fe
fd
09
ed
fa
08
10
09
06
02
fd
04
fe
00
05
09
f5
fa
f5
f1
0b
08
05
0f
f8
fb
fc
f9
f7
0c
0c
00
10
06
f7
fd
01
ee
14
f4
f7
09
fb
00
f5
fb
ff
06
15
ff
07
f4
07
0b
00
0c
f5
03
fb
0b
0b
09
fc
04
05
05
ff
0b
02
f6
f4
0a
f3
08
01
ee
01
ec
ed
ec
06
02
03
f4
07
ff
fe
04
fb
fe
f9
01
02
07
ff
01
08
00
f0
e8
ee
fe
02
10
fe
ff
f7
0a
f4
0a
f9
f6
01
00
fc
07
11
ed
01
07
09
f1
fd
0f
02
ef
0d
f1
03
f0
f2
06
02
f8
02
08
11
fd
01
01
f8
fd
f0
06
f5
fb
08
fa
f8
0c
eb
0e
f7
f2
08
f7
02
0b
fd
0c
10
02
fa
ec
00
f3
fc
0b
fa
01
04
fc
f1
f5
fa
ef
03
fc
08
02
ff
05
fe
f7
ef
f9
f5
fe
f9
f2
04
fe
f8
f8
03
10
0d
f7
05
04
fc
ff
05
fc
fb
f5
fc
08
0b
ef
ff
02
00
f7
0c
0a
fc
f6
07
ff
ff
fc
04
0d
fc
fd
02
06
02
0b
fe
ee
fd
07
f7
f6
07
f8
f8
fa
f3
f8
0a
13
02
fa
00
07
04
0e
0d
f7
ff
0c
fa
f2
01
05
04
0e
ff
f5
03
f8
0e
0a
fe
f4
05
02
fd
06
09
fe
f6
04
ef
f1
0c
08
f3
f8
06
f9
fd
02
ff
00
ff
fd
0a
01
f9
ff
03
fe
f7
09
fe
0c
03
f5
0c
fd
09
07
0b
03
eb
06
00
04
06
01
f3
08
df
06
ff
09
01
0a
0b
fd
02
01
fe
02
04
ff
f6
00
e9
f8
f7
05
00
09
e9
e7
ec
ef
f4
05
ec
09
01
ef
fb
06
fd
fc
0a
03
f0
fe
00
ff
f3
fa
05
f9
f4
0e
00
f7
09
06
f7
0c
10
f1
fa
13
08
f9
fd
00
01
e6
f7
02
02
fe
05
08
fb
fc
f8
ff
02
03
fc
08
06
fa
04
fa
05
fb
03
00
05
06
fb
ee
04
06
fb
03
04
0b
f9
17
03
f8
f2
f9
10
0a
0b
fe
10
0d
00
f5
02
0a
fc
f9
0d
f7
0a
05
f6
fd
06
01
f5
01
fe
06
f2
f0
01
f5
f6
09
f7
04
09
05
03
fb
06
09
fb
fa
05
f4
03
06
0d
01
fb
eb
00
ed
ff
f0
07
ed
0d
fe
06
fb
0a
03
f4
fb
fa
06
f9
00
03
f9
03
0b
11
08
fb
f8
fc
00
08
fb
ee
eb
0c
01
ec
fb
fc
0b
f8
0f
05
05
07
07
fc
0a
fe
fe
01
fd
0a
fd
fb
fc
ff
0a
f7
01
06
08
05
07
0b
0d
0f
08
f8
f9
01
09
f6
f5
f8
fa
f7
f2
fe
fa
0d
f6
f6
f8
06
01
07
00
ff
fc
02
fc
0f
03
0d
11
0d
02
fc
03
f7
11
05
0a
ff
06
fe
06
fb
0e
01
fd
01
03
f8
05
05
02
0e
01
06
0a
f7
06
06
0d
f7
fe
f4
f3
08
f8
f7
03
01
00
f9
02
f8
01
fe
02
f7
03
04
04
01
fb
ff
07
f7
00
f6
fc
ff
f8
12
fc
0b
fa
04
0e
ff
04
ee
f7
f7
ff
0b
fa
00
0a
f9
f5
04
f0
f9
fa
02
00
03
f1
f8
fc
00
06
03
f0
f3
05
f8
06
fa
03
ff
0a
06
ee
07
12
fa
ef
04
05
0b
f8
ee
06
f5
f5
ff
04
fc
fd
ff
04
0b
09
fe
09
fc
03
f6
08
02
f7
f2
10
00
fc
05
f9
fc
fc
0d
08
fe
fc
05
ff
08
fb
fc
08
07
0d
f6
02
0f
06
fc
fc
07
01
06
04
04
f8
0e
ef
f9
03
03
1c
fe
00
00
05
05
0d
f9
0c
04
f9
07
05
08
fd
fc
ef
01
05
05
fb
f9
00
f4
f3
03
00
03
00
f5
0d
fa
01
f7
0e
09
04
fa
09
03
00
f7
fb
07
f6
09
0d
09
f5
fc
02
ff
02
0b
01
f3
fd
f5
f8
0e
09
fa
0a
0a
fa
07
02
ff
04
f4
06
fc
03
01
ee
00
0d
01
f9
fb
03
02
0a
fe
fb
01
ff
fd
f9
18
00
fd
05
f5
00
fc
09
0b
f6
fb
0f
02
06
fd
09
06
04
f7
fa
fb
fe
f3
ff
08
fa
02
ef
04
03
fe
04
09
fa
06
00
08
f6
f5
f8
fd
f8
f6
fd
fb
01
07
05
00
fd
fc
ff
06
07
04
f9
fe
04
f4
04
00
ff
07
f5
f7
06
fb
fa
fe
0c
10
f1
f5
0b
f6
fc
0a
15
03
05
06
01
07
09
fc
f4
07
01
f4
fb
15
04
f0
f1
06
fc
08
ff
f9
05
fb
1b
f9
05
05
ee
08
10
07
05
f8
f4
f7
0b
f0
fa
f6
04
ff
fd
01
04
ff
f7
04
01
09
ff
f7
08
fe
02
fa
02
08
f8
06
06
fb
ff
0d
03
03
0a
05
01
00
fd
fb
fe
05
01
02
f2
04
01
fe
18
03
04
01
fc
f4
ec
09
fa
00
09
03
01
03
fd
08
fd
07
f7
06
08
f8
09
0c
f3
fc
f8
03
01
ed
03
0f
f0
fc
fa
f6
0a
01
01
08
fe
fb
fc
ff
01
fc
09
0d
f3
fe
04
fd
fd
f8
ff
12
fb
00
01
0f
fb
02
fa
03
04
f8
0d
02
f6
fa
01
07
fb
ff
fb
0c
01
0a
08
04
fa
00
f1
08
00
fc
02
12
0a
05
06
f8
ff
f4
ec
03
04
f4
05
f7
f0
fb
fa
07
00
f4
14
0a
06
07
21
f1
02
0f
10
f0
ff
ee
12
09
06
0b
f9
ff
f6
08
f4
ff
f9
f4
f6
06
08
06
01
14
00
fa
f0
04
fe
04
fb
0c
f9
fe
02
0c
0a
f3
00
f9
fc
f8
f6
fd
fc
f8
01
f8
f7
01
0d
05
fa
02
f9
f6
f0
05
eb
04
0e
fb
00
09
13
0f
0e
0d
fb
ee
08
03
09
00
ff
f8
fb
06
f8
12
09
02
f7
0a
0c
fd
f7
11
05
f4
02
f7
02
f8
06
02
1b
03
f6
05
03
f7
01
06
06
f5
02
f7
09
0a
09
05
04
05
f9
ff
04
0b
fd
0e
05
06
0d
fb
09
fe
f8
01
09
fe
fa
06
0e
01
05
02
07
fb
04
05
0c
f8
ea
0a
03
f7
0c
f3
fe
03
fc
ef
03
10
0c
fa
fe
02
01
07
e5
04
ff
06
02
f9
15
f6
08
04
ef
0a
fb
0b
fe
f0
fb
08
05
00
f9
0c
15
fe
1b
13
08
03
00
fb
e6
02
f9
07
0f
f5
03
ff
fc
19
f4
f3
05
19
00
f5
05
fc
08
00
02
0a
00
01
02
04
f7
f0
f2
14
0d
ef
06
0b
06
f6
f9
1a
e2
e6
fe
07
13
01
fa
0a
fe
f9
06
e4
f1
fa
f3
fd
02
fc
1d
00
0d
07
0a
fd
ea
f8
1e
f3
fe
05
10
fa
0f
05
f3
03
ff
0a
06
11
00
ef
fc
ff
f9
06
0a
f7
fa
f9
03
fb
12
e9
f5
ff
0c
0a
ed
01
f9
07
15
06
04
02
ff
0b
f4
06
02
09
f2
03
16
fd
fd
04
ed
06
fc
12
08
11
fb
00
01
07
fc
0d
11
0f
06
f7
fe
02
01
ff
06
14
09
fe
09
00
f7
07
0c
ee
ff
f2
fe
06
03
03
09
01
f3
fc
fd
00
f6
f9
fe
f3
fd
f9
fc
f2
01
12
0a
f9
f4
06
f4
f9
01
0e
17
fc
f7
11
00
f8
ec
fc
09
f5
13
fd
f9
01
e5
00
02
fb
0b
08
f4
13
08
08
eb
fe
0e
fb
f0
fd
00
06
05
f6
f7
06
f9
f2
fe
f9
17
13
eb
fc
f6
00
f7
ec
18
fa
0f
00
04
fc
f1
f2
04
f0
0d
f7
02
f7
fb
05
0d
f7
f6
f9
f2
04
12
0f
07
fb
08
f7
03
fb
07
06
fd
0d
fd
fb
0e
06
10
03
f8
0f
01
f2
df
0c
ee
f3
f5
06
04
16
ed
06
fa
f8
0d
f9
ea
01
fe
14
02
01
f4
1c
09
f7
04
16
08
05
0f
05
f0
f6
f8
f6
06
01
fc
14
08
f2
fc
05
10
f3
03
ec
27
06
f8
fe
e2
0c
22
09
00
f3
fe
1c
10
f1
00
02
f8
ff
06
00
f8
00
0f
fd
09
06
f9
fe
f4
f3
00
01
fa
07
0f
f6
07
14
10
f9
f4
f9
ff
1d
06
12
09
ec
03
fc
f2
ff
07
18
fe
0c
11
f1
0e
19
11
0e
00
fe
fc
fc
fe
e8
f7
f0
e4
12
ed
f8
ef
f8
fe
06
0c
fd
0a
04
ff
ef
ea
0d
f2
f2
15
fe
11
0e
0e
ef
03
11
10
0c
ee
f6
05
15
03
f5
f3
12
07
03
0f
f2
0e
f2
fe
fb
fb
f4
11
04
f6
f4
f9
08
ef
f3
fc
fd
fc
0f
eb
05
f8
fd
03
ee
fa
10
0b
ec
04
fb
21
0d
15
0d
fe
f8
ef
ec
fe
04
0f
0f
ff
07
e9
dd
02
f4
0c
01
07
fb
f3
f3
0e
f9
eb
fc
fe
0f
0b
fb
14
08
01
13
0e
e9
fb
06
f6
e7
09
08
00
e9
fd
07
f1
03
0d
0d
16
18
11
e8
f9
0a
ea
01
02
05
0b
f3
03
f8
fb
08
f7
22
14
fd
01
1b
e4
0f
02
f6
ef
da
ec
fd
03
f2
f7
19
0a
f2
0a
f0
0a
0a
f8
11
f8
08
19
03
f0
01
0a
f8
fc
03
fe
fa
f7
fc
00
01
f0
fa
25
08
fb
06
f9
06
00
0b
0a
f5
f3
13
07
0e
01
ed
01
10
e5
ff
10
fe
01
0b
12
0f
f5
0f
0c
0c
fa
ff
f7
02
1d
f3
fc
02
f9
02
0b
03
fd
19
f7
09
f7
f8
f1
fd
13
04
07
00
fa
07
f5
f3
08
0e
f7
02
02
fc
fa
fb
01
0c
16
01
f8
13
f1
01
ff
fb
fe
11
1a
fd
eb
13
f1
e4
01
ff
0f
eb
f2
0e
0a
fb
fd
09
0d
02
fc
ff
e6
f9
15
fc
10
f2
1d
fd
06
f9
02
18
04
03
11
e3
06
0a
e0
f1
ee
09
04
0c
fc
f9
fa
06
0e
ee
fa
04
fb
0c
f3
0f
ff
fa
f7
0d
07
f5
13
df
e6
f3
f4
f8
fb
09
10
fa
f3
fe
fa
0a
f0
05
27
f2
ff
07
f8
f8
fd
0c
08
f6
fd
f9
fb
04
20
12
0f
03
fc
fd
03
0d
f4
fd
02
ea
fb
fc
f8
0b
10
f6
ed
fb
01
08
0b
07
0c
08
06
fd
08
15
f4
08
e4
f5
10
02
05
fd
f7
06
0c
fc
00
f4
12
e7
00
02
0a
f1
f1
0e
0c
f3
06
15
0b
04
f0
fb
fe
11
f5
fd
04
0c
0c
01
0a
06
fe
0d
05
08
00
fc
00
08
f3
04
08
ff
02
f0
f1
0f
18
fd
14
0e
df
03
10
f3
01
06
e5
ff
f9
0d
f8
fe
ff
05
ee
07
fa
04
05
1f
ef
e8
f7
11
f1
f9
13
0c
f8
fa
f8
13
f2
f6
f9
f7
0f
f4
f7
04
11
08
f2
0f
fe
0e
0d
09
02
f4
fd
03
00
fe
1f
ee
13
fb
10
00
04
0d
fd
f5
00
f2
08
0d
15
ec
fe
0e
02
e5
09
f1
02
0a
11
11
ef
f5
ed
dc
0b
05
f3
0d
07
f2
fa
21
01
ec
f7
03
10
f6
05
1c
f0
07
fc
11
11
05
f4
f5
03
f6
e7
fa
ef
e8
f8
08
f2
ea
05
09
f9
02
fa
08
f1
f5
13
08
f3
f5
03
dc
f4
fe
07
0f
05
03
f9
ff
13
01
02
08
f4
fc
04
ff
09
f8
f0
0a
08
e7
f4
06
0e
ff
00
01
f7
0c
05
06
ef
f3
ff
fd
fd
0f
fe
0a
e9
f1
17
ef
fb
02
03
05
06
0c
fa
f4
f2
f7
04
0c
04
ff
07
06
0b
fb
f9
10
08
00
04
09
e6
fe
eb
0a
f1
f9
f4
12
f1
f7
ff
f5
15
f6
fb
0f
f8
1d
0b
01
fb
12
fa
02
05
f4
ec
f2
0b
08
f2
05
f7
00
06
01
0b
fe
05
10
06
fc
13
17
0c
f6
01
24
14
f5
0a
0c
12
fd
0b
f6
08
f5
17
00
06
f2
0e
f2
fe
17
0d
0a
f6
ef
13
f3
02
f3
eb
01
f8
f0
f4
fb
0d
ed
ed
f4
15
ee
08
f1
fc
02
01
f3
fc
e8
04
f1
fa
07
13
f8
fd
0d
03
03
02
ec
f1
ff
f5
ee
fb
03
fb
05
f2
0b
fe
f1
01
02
ff
f5
02
da
fd
ff
21
fd
f3
18
fc
f0
06
18
ee
f7
05
0b
f3
fe
fb
07
12
0d
11
ed
01
08
00
08
fc
ff
08
02
fb
f5
f0
f9
fa
f9
00
0f
fe
19
07
00
02
eb
06
13
f9
04
ee
06
ff
f0
02
18
f7
fb
09
f8
f9
e6
06
07
ff
ee
08
f9
03
e5
07
f5
fd
00
00
fb
f8
f5
f0
10
02
0e
01
0c
ff
02
fe
f7
fc
0a
0d
09
16
ef
fa
14
fa
08
fe
ed
01
fd
15
09
f5
00
fb
04
fb
08
00
03
0b
e7
01
ed
01
f5
0f
00
13
01
00
f8
0e
0f
ee
fe
f5
ed
00
07
fd
04
11
fc
ff
07
10
f3
03
16
f6
f0
f1
06
0a
fa
f7
fd
f0
fd
05
05
f5
fa
00
f8
fd
03
0a
fc
03
21
00
01
0e
02
05
17
0d
07
0c
15
e6
fb
03
f6
e2
01
00
f2
06
f7
ea
f2
f2
eb
fb
0b
fb
ff
f7
03
e9
f6
03
02
fd
f1
e5
fe
08
ff
ff
0e
08
01
02
07
02
00
fc
03
ff
fd
fd
ee
f3
eb
fa
00
fd
f7
07
f1
ff
f8
12
01
10
08
04
07
fa
12
04
05
0a
f1
f5
06
f7
09
ee
fa
ff
03
03
11
ef
1f
f8
f6
f8
15
07
13
02
03
07
0d
ec
f6
14
04
10
0e
fc
0c
f3
fe
09
ef
f4
0b
11
f6
e3
06
17
09
19
0f
ec
08
f9
e6
05
08
e9
f7
f7
01
00
ed
13
11
0a
fe
08
fb
f7
15
ee
fd
f7
12
01
01
ff
f8
fc
ef
fb
f7
0e
06
0c
fb
07
f1
ef
f9
f1
0f
f8
03
0e
05
01
01
f7
09
f4
01
08
0c
09
06
f0
06
06
ee
ff
1f
fc
03
f2
05
19
05
07
10
f7
01
18
fd
05
f7
0c
17
0c
f9
f9
15
f4
03
08
f3
e2
02
01
02
f9
07
09
0a
00
0e
06
0f
05
fb
f2
fa
03
f8
f3
0f
0e
f6
08
f8
fa
fc
f5
14
03
f9
fe
f3
fe
f7
11
ff
e8
03
fe
0d
f6
02
fd
02
06
00
09
fd
14
07
f1
e9
fa
06
00
04
06
11
f9
fa
fd
f4
01
00
f5
01
ff
11
fb
08
0b
07
03
02
f5
06
f4
06
f7
ff
f5
08
f3
ef
fa
f2
04
07
f1
f8
fd
fb
f7
19
fb
06
f9
0d
f8
05
f5
f4
fb
fd
08
05
0a
09
fb
fd
13
05
fd
09
f8
f7
fa
10
f9
05
01
06
03
ff
17
f2
05
ff
1a
f4
04
f5
fd
fe
10
fa
f2
fc
fd
f4
f3
06
f8
f6
fd
f9
f4
04
f2
02
00
09
09
0c
05
fc
fc
07
f4
02
09
01
0a
ff
07
08
12
fd
03
fd
0b
00
fc
00
f8
0a
fc
03
10
e4
05
fe
fc
0b
06
fb
07
fe
05
01
03
12
e4
03
15
fa
0e
14
fb
fd
19
02
fe
0b
0d
f4
0c
02
f2
f8
fc
fb
02
ec
f8
03
00
05
02
f6
02
0f
00
04
04
f9
01
03
00
09
12
09
fd
05
f5
f9
f1
f8
09
fa
ee
0a
03
07
f1
07
01
11
ea
11
05
0b
08
00
ee
08
01
11
f9
02
f5
08
f7
fc
0c
0f
f5
fb
f5
f5
08
1f
f5
05
0b
01
0b
f9
ff
01
04
04
03
00
f2
ff
0b
f7
15
00
08
02
01
fc
0e
10
09
f7
fd
02
fe
0e
f6
18
13
02
07
00
05
13
01
f3
fe
f9
05
fc
0b
e4
fb
02
00
08
fc
fc
09
f3
f8
07
10
03
fd
f1
fa
f8
ed
f3
fe
03
08
01
fc
13
04
05
f9
05
f1
06
ff
03
fc
05
05
12
fb
04
09
fe
15
09
10
04
f4
f8
01
02
fb
09
ee
f8
05
0e
f9
10
f8
03
19
f4
06
fc
10
fc
ef
00
03
f8
17
f2
10
f2
10
0e
f5
08
01
f6
15
fb
f7
0e
02
f8
06
0a
12
01
e9
f7
0b
08
f2
03
09
f8
f8
01
f3
06
fe
f8
09
e8
08
08
f0
0e
0f
fd
10
f6
09
f4
03
0b
fe
e9
ec
0e
f0
10
14
00
10
fd
fc
08
1d
03
0d
d7
f8
f9
fd
08
fe
0f
f1
04
f8
15
08
05
0d
fc
f6
f3
fb
fd
02
f9
fe
1d
0e
01
00
fe
f4
07
04
fd
f4
02
06
f2
02
f8
12
0e
07
09
08
fc
04
07
f8
fd
16
fe
0e
f4
06
13
09
ee
06
06
0c
fc
f2
fc
f8
f4
12
0d
10
ff
eb
0b
fc
ff
fc
fc
04
01
12
14
02
f8
04
f8
fb
fa
f7
fd
01
fe
00
11
f9
05
ef
f2
f7
06
f2
f8
01
01
f0
f2
ed
07
00
f1
06
0e
fb
08
0b
ff
01
13
fa
ff
0a
01
fc
03
09
02
f4
fb
08
fe
f9
06
fc
f6
11
f7
0d
09
07
09
f6
fc
f8
f3
00
fc
07
0d
04
f6
ee
f8
13
f4
f7
fd
fc
fb
09
06
fc
01
02
fd
01
f5
ff
0a
f4
f9
05
fc
f6
06
eb
ff
05
01
fd
f8
f6
f6
f9
fe
f9
f9
e5
00
fe
f8
0a
07
07
fa
03
05
fb
03
06
0c
ff
08
fa
f9
f6
01
09
f7
08
fe
f8
f4
06
02
ff
01
ff
03
fe
fc
f5
fb
04
ff
fd
f0
fd
f5
0c
01
f7
f6
08
05
e9
08
0a
fe
0a
01
0b
06
fc
11
ff
ef
13
f6
f8
f8
f7
07
fa
01
05
f6
06
06
05
02
01
ff
fe
0a
ff
f0
fd
02
fe
f9
00
f9
fa
f6
05
00
f0
f9
01
09
f8
09
03
fb
fd
f4
ee
09
00
f9
fd
ff
f2
f9
e9
00
ff
02
06
10
0a
00
f0
01
fe
f0
0a
fe
f5
ff
03
fb
fc
0b
10
06
f6
05
f7
01
06
f4
19
12
f4
fc
ff
ff
0b
fd
03
f5
fd
ff
0f
fa
ef
01
08
01
fb
02
07
04
fc
03
f9
10
15
f3
04
03
04
01
ff
fe
07
00
fd
ff
ff
02
06
fc
02
08
08
03
fc
11
f5
f9
11
fa
fe
f8
07
f8
0f
f4
fa
0c
f5
08
0c
ff
15
ff
f7
f9
f9
03
fd
f6
f8
ff
f7
0c
03
fa
04
e4
f7
f7
fa
03
0a
f9
05
04
ee
0b
f9
f4
f3
0d
f7
02
02
00
f7
f7
0c
09
fe
fd
ff
fb
0a
07
0f
fe
ff
06
fe
fb
fc
fb
fe
0b
f1
f6
f9
02
07
f4
fa
01
01
f7
f8
03
fa
ff
f4
09
01
1b
0c
05
fd
fc
fa
0b
f8
f9
14
05
02
fb
ff
fd
fe
fd
02
f8
01
f1
00
fa
05
08
05
f4
03
f4
0a
fa
03
01
f9
12
fc
00
01
05
08
f9
fe
f6
fe
06
f0
ff
02
13
f1
15
f8
06
01
0d
06
04
04
0b
fa
02
02
0e
12
07
ff
06
f1
09
09
0b
ff
fc
0d
f6
09
03
00
03
fb
00
fa
0d
fd
05
fe
10
fe
04
f9
05
fc
f4
fd
05
f0
07
fb
07
f6
13
fc
fe
0d
00
09
f4
03
12
0a
f8
fb
00
f8
ff
02
f6
00
f8
01
f7
fb
f8
03
01
f3
fb
02
08
03
fd
f9
06
f2
08
f6
ee
00
1a
02
07
00
13
06
ef
f7
0c
03
04
07
fc
01
09
f9
11
08
04
f1
07
f9
05
03
fd
02
fc
06
fc
05
fd
0a
ff
0f
0d
00
fb
00
fc
f1
03
06
f5
06
0b
ff
f1
eb
fe
fc
07
0e
fe
f8
06
ee
02
19
05
0c
00
fd
fe
05
fb
05
09
00
f4
04
fd
00
f6
f6
f7
06
05
02
ee
08
f6
f4
fd
0a
01
00
09
ea
03
f7
f2
00
17
f6
0f
09
02
04
08
fa
fa
01
f6
04
0c
02
02
ed
fc
02
0d
f7
09
f8
ec
eb
0b
04
fc
00
ec
10
08
f9
0e
08
fe
15
03
fd
ef
f6
04
fc
f7
fd
fd
08
08
07
fd
f2
fa
f9
04
f8
f5
10
09
ff
fd
0a
ef
ea
f9
fe
05
0c
0d
1b
f6
fe
fb
f1
fc
0e
08
09
0b
0b
fa
f8
ff
00
05
14
fc
05
09
fc
04
f1
f7
fb
01
fc
0b
0b
12
05
fa
05
f3
01
f1
f8
f0
f7
fb
e9
07
02
0a
f9
fd
ed
0c
ff
f1
00
03
0b
01
f9
ea
f8
ff
01
02
f8
04
01
17
03
0b
16
f2
e2
fa
0b
00
00
fe
fd
0e
05
fd
0d
0a
0e
0d
f3
f4
f4
0b
fc
e7
0d
f3
ff
13
fe
ed
fd
f9
ec
ff
1d
00
f6
0f
07
00
02
ec
f2
07
07
09
0e
fd
11
e2
fd
f6
08
fa
02
0a
07
f6
fd
00
f4
19
01
02
0d
f5
fe
11
f6
ee
f8
fd
ee
14
f2
03
0e
15
ee
0f
fc
07
0c
03
0c
0a
eb
08
01
f1
01
f7
f8
f2
13
12
12
01
0d
f7
ee
ff
fd
06
ff
ff
fe
17
06
08
ff
0c
01
fb
01
f2
f7
f9
fd
01
05
14
01
0f
04
0a
ed
10
11
13
ff
0c
26
14
01
07
01
fd
fa
f0
06
f9
03
01
eb
00
fc
fa
f9
fe
0c
f8
fc
04
06
e1
fc
03
ea
10
fb
f5
17
ff
04
11
00
00
02
0e
01
f4
03
f7
05
0a
01
f7
02
f9
0f
04
10
fb
fc
eb
e9
0c
fa
0a
fd
04
fa
07
f5
0a
fc
fc
01
fc
f3
f0
04
fc
14
0f
1f
09
04
0d
0e
09
f2
fc
f1
06
fd
fa
f5
f1
fb
08
ec
0a
10
f4
f6
15
f1
02
05
fa
f9
03
f1
12
f7
fd
f4
f5
07
fc
00
07
fa
08
ff
f4
0c
fd
07
f7
08
f2
fb
08
f3
fa
0b
fb
02
13
f5
ff
09
f0
f8
f9
15
0f
08
f7
f3
05
0f
ff
06
ef
15
fb
ff
f1
f9
01
fe
01
01
12
e7
09
0e
0c
f9
08
fc
fd
0b
f7
0a
02
f9
fc
02
1e
17
f0
fd
09
05
fc
f6
06
06
00
0a
ee
f1
f6
0d
04
fc
00
e5
09
0a
fd
06
01
fe
01
09
f8
01
f9
13
0c
04
fd
f9
09
f4
f9
0c
ee
03
f4
00
ff
e9
05
e9
03
eb
fb
0d
fe
02
f3
01
18
ff
fb
ec
f6
0d
ff
f9
11
06
05
07
f8
ef
f0
fb
fe
02
f7
fd
e3
09
05
15
1b
ef
00
03
f2
0d
fe
ee
04
fb
0b
06
01
ff
06
03
0f
12
14
12
fb
0c
05
ef
fb
f9
fe
fe
fb
09
fb
ea
09
14
03
fa
0b
f6
eb
f0
0d
11
ff
fa
0d
1a
0d
0c
fe
0a
06
f0
03
fb
f5
fd
f5
fa
04
0d
0b
ff
fd
00
fd
0e
01
ef
fe
f1
f5
fd
06
fa
f3
00
fa
08
0a
02
f8
f8
05
f3
01
08
f3
f0
e9
fb
06
10
02
07
f5
00
04
00
13
09
fa
fe
fc
07
0a
0d
03
e7
ef
ff
fd
f9
fd
fe
05
f1
fc
fa
f1
0c
0c
07
04
ff
07
f8
fc
f1
08
0a
fa
00
f7
0b
f9
04
05
0c
04
fa
06
06
02
f8
fe
0e
02
07
ed
13
06
03
f3
fc
0c
02
19
09
07
fc
0d
06
f5
00
05
0d
06
05
03
f8
02
03
f5
0a
09
04
ed
ff
f9
0a
0c
fe
f8
fe
e7
0c
00
06
04
f3
06
00
05
0e
00
0b
02
12
02
ed
00
06
f6
06
fc
f7
fe
0e
fa
05
04
04
f5
f2
f7
01
00
12
fd
fe
06
0a
fe
10
0a
fe
fa
0f
01
0e
f4
01
0d
10
fb
f7
f3
f8
03
0c
0c
04
fc
f6
f2
09
10
f1
04
14
16
fe
f1
0d
fc
10
14
09
01
de
08
19
09
f6
f2
ea
f5
04
02
03
f3
00
08
ff
01
05
1a
08
fa
09
02
0e
04
fc
fb
00
0a
fe
0f
fa
0b
04
0c
fd
00
1c
fe
fe
03
02
0d
08
0b
f8
fa
00
03
09
fd
01
f8
09
01
14
f3
04
11
fc
fd
10
f7
00
09
09
f6
05
00
f6
fd
00
ef
00
01
f5
f5
02
fd
0c
10
03
02
03
10
fc
fd
10
10
f3
ef
f9
fc
f1
03
12
0e
fc
f9
ee
01
fc
f5
07
0e
ea
fc
fe
f6
03
13
fc
04
f6
f5
08
0d
f8
e6
fc
08
0b
04
fe
0b
fc
eb
03
ef
09
0a
fe
fa
01
0b
0d
04
07
04
15
1a
f4
17
f0
0a
ff
f4
0c
ff
1c
fc
03
1a
03
03
10
11
f0
0f
fd
f7
fc
f2
14
18
06
06
01
01
fa
ed
f5
fe
e9
03
0c
f2
f4
f9
fc
f9
1e
02
0d
04
05
02
f2
1e
fd
fa
03
18
01
07
fa
00
ed
f7
03
0d
fe
13
ec
07
f7
ef
01
06
0a
fe
0b
11
00
00
ef
fd
f8
f5
12
11
09
ff
09
03
04
0d
fa
fa
fb
1a
0e
09
f7
01
02
ef
fc
f9
01
f8
08
fd
f3
05
f3
f9
fc
f8
fc
0d
fa
f7
0b
02
02
0b
09
06
f4
fd
1a
03
00
02
01
02
fe
f1
f6
04
f8
02
00
fc
f1
f8
06
03
fc
0a
0c
04
f8
01
04
11
f8
02
02
f7
07
06
fc
e0
ff
07
f0
06
ff
ff
09
f7
0b
f1
fc
ef
09
04
f3
08
f4
ff
03
f7
ef
fa
0a
fb
03
fd
e8
f9
08
02
02
f6
fc
f6
0c
f1
00
03
0a
02
fe
f8
07
f4
04
07
0b
19
0b
fc
03
f2
f7
f6
08
13
fc
fc
fe
f9
03
f9
00
19
fb
f1
fa
07
f7
0d
f8
0a
fc
f8
fc
09
fe
f7
f7
f7
01
07
06
ff
fe
f7
f9
0f
09
fc
21
fc
f4
fe
01
f5
fd
f7
0a
07
0d
fb
0c
01
fb
10
03
12
13
f9
10
09
03
f6
fc
02
fb
02
15
03
fa
f0
06
13
03
08
f7
04
0b
fe
07
e8
06
ff
08
f5
eb
03
0c
03
07
04
f3
fe
f9
13
ff
fd
fe
05
02
06
f5
f4
fc
0a
ee
f1
f4
f9
fb
f7
fd
0e
14
ff
fe
01
05
02
06
00
00
ec
04
fb
0a
fc
16
0f
fe
01
f7
03
fe
f5
08
07
08
0d
02
01
03
0a
06
12
fd
03
ea
ff
06
fc
fd
f8
07
19
04
01
00
f6
fe
f4
ed
07
f2
05
f4
07
fa
01
01
f7
10
02
ed
10
04
f9
01
0d
fb
fe
03
05
fa
f9
0e
fc
fd
f9
eb
04
0b
f3
00
f1
f0
06
07
f7
02
01
e8
0b
04
03
fd
fb
f8
00
0d
0d
04
09
f9
f6
04
04
f5
f2
f4
02
03
ff
02
00
ff
05
fe
06
06
07
fa
05
fd
09
07
04
15
ff
0c
fe
12
fc
f8
f0
02
0b
f7
ed
04
ea
fa
fb
05
0d
fa
03
fb
03
16
f9
fa
05
0b
07
f3
f4
02
02
09
14
0d
0f
ee
f8
08
e6
01
07
f7
03
06
f9
fa
f9
f8
0b
08
08
00
fd
f9
06
f8
09
f2
0d
0f
05
0e
12
fb
ff
fc
f4
fc
06
f0
f9
0f
fd
0b
07
04
ea
06
01
03
fe
ff
0a
ff
ff
04
f6
08
fc
fd
0b
09
fe
05
fa
01
eb
f5
04
fc
f6
10
11
05
fe
05
f6
f4
f1
fd
0d
11
0b
f1
f2
f5
02
eb
0b
02
ff
04
11
07
f7
0e
00
f5
05
fd
17
f8
fe
fc
f5
00
08
f7
10
f9
0a
fb
09
f7
11
06
f9
fa
05
00
f0
0c
f2
14
ff
05
06
fb
01
05
f9
f8
03
18
0e
fc
fd
04
e9
fe
fe
f2
fe
07
f4
fd
16
09
ef
fb
fc
f9
f3
f7
10
f9
04
f6
02
fa
f9
06
fb
f2
f9
f6
fe
03
f7
03
fb
07
00
05
08
05
12
f7
06
0c
0f
fe
04
fc
06
03
05
f7
05
fb
f6
03
0f
0c
04
f8
fe
04
fe
f3
07
0d
0c
0d
fc
07
1a
00
fd
0a
04
0d
fe
01
fe
09
f0
08
ef
09
0d
f9
fe
04
f1
ec
ed
f9
f3
fa
f7
f3
f8
fa
01
f3
f7
f9
09
0a
0e
e7
08
fe
05
f8
0d
04
fd
03
fe
01
f5
05
ff
0a
17
f6
06
fd
03
09
f5
01
00
0d
08
03
fa
00
04
ef
08
ff
04
fb
fd
f3
02
f1
fa
f3
05
ec
04
07
f6
ff
16
fb
01
04
1d
ea
04
fb
03
fd
0f
fb
03
fe
f6
10
f7
f1
fe
f9
f8
f7
fc
fc
f5
04
f6
fd
fc
f4
0a
fd
0e
ef
06
fc
00
05
00
03
f3
fe
0b
00
f7
fa
07
14
fd
04
08
ff
08
02
10
f9
04
fe
01
01
f9
f7
08
03
03
f2
0a
04
01
f7
f3
07
ff
10
02
f8
df
0c
01
06
0a
ee
03
fb
f1
f0
f5
00
f1
06
04
ff
0a
f6
08
e0
05
0b
fd
fb
ef
06
09
fe
17
fd
fc
11
07
fa
05
fa
ee
07
f6
f9
f7
0d
f8
0c
04
fb
fa
f8
ec
06
03
0a
f7
09
f7
0a
ef
f0
f5
0d
fa
f2
05
ff
f2
05
ef
08
00
f5
ff
04
06
01
fd
05
f5
eb
07
0d
ff
00
ef
f9
11
eb
f8
04
0f
f9
e6
fc
13
01
0d
02
05
e4
08
01
1b
16
ee
04
eb
f9
00
f5
07
f8
f3
f5
02
0b
ef
03
05
f1
fd
ec
f8
f2
f8
f9
02
f2
0a
f3
fc
f8
f6
fc
e5
0a
05
0d
07
19
06
fb
fb
fc
0c
ee
f7
f9
02
0f
ff
08
fe
13
f9
00
fb
f0
0c
fd
f8
fc
ef
ff
14
00
00
fa
0c
06
00
01
f9
f6
fa
04
0a
02
fa
f2
10
fa
f8
18
05
09
22
f9
e0
10
e9
06
02
ff
f7
01
02
01
05
fa
06
05
09
11
0b
e9
03
07
f9
f1
f1
fe
fe
00
11
fc
00
e8
15
ec
f6
05
f3
08
fa
f4
f7
ff
fc
00
09
fb
fe
11
03
f7
00
0c
fb
0d
f9
f9
0b
fa
f8
0b
1c
fd
0a
fe
00
06
ef
f4
02
02
f7
ff
f1
ff
f6
0b
fd
fd
ee
1a
fc
f7
f1
0d
e3
ff
d6
fa
0d
fb
04
f2
ff
02
f0
eb
0b
f1
02
03
fb
08
f8
07
10
07
02
ef
02
fa
06
f7
06
00
fc
ef
ff
ff
04
0a
04
fb
fe
07
08
f2
ef
f2
fd
f1
fd
f8
01
f1
fa
04
f6
01
ef
11
eb
f4
0e
02
07
ff
ff
02
06
fa
f4
f6
08
04
ee
fb
05
fa
08
07
f7
fe
08
e8
f0
f4
0c
02
fe
ee
09
f9
02
fd
fe
fc
fb
01
0a
fc
f9
03
f9
1b
f4
00
06
f4
ed
10
12
05
fd
eb
1a
ff
06
05
f6
dc
f7
f6
fd
01
01
ea
0b
02
eb
fb
e3
ed
03
09
ef
fe
fc
05
f7
f4
fc
01
ff
03
12
06
fe
ec
0e
f0
fa
f2
f9
0e
04
fd
12
04
ed
07
09
ff
fa
ee
0d
0d
0f
18
00
ff
fd
22
eb
f7
ee
07
f4
01
f7
fd
03
f9
0d
e5
10
02
00
01
0e
e2
e9
fa
ff
0b
ef
09
0c
02
fd
09
e5
fe
06
f3
fe
12
f4
fb
16
27
0b
0e
02
f6
09
ff
fb
f5
eb
0a
eb
02
05
15
06
fb
0a
03
e8
14
09
fd
f5
e9
f3
fb
ee
15
03
08
01
04
e6
fd
02
f3
02
f7
fa
fc
0c
f6
07
e8
f3
f7
06
f0
f7
f5
f3
fd
08
12
0d
f6
09
06
01
00
13
fa
07
02
f3
14
0b
f8
01
05
fe
06
08
10
fa
12
11
fc
f5
09
06
05
f1
f5
e9
ed
fd
fc
0a
13
00
e2
ff
0a
ef
f0
05
04
fc
f8
ff
e9
07
05
02
1e
11
13
05
0c
12
01
16
02
0f
fb
f3
f1
08
e5
f9
02
ee
02
ef
0d
f2
fe
ee
01
05
00
f5
1d
18
06
12
0e
0a
06
14
ef
fe
07
08
19
f1
0d
13
09
fb
f4
f5
0d
04
0a
02
04
f3
03
f5
00
ec
fb
f4
05
e8
01
22
fa
17
01
f6
f8
fe
07
03
fb
04
07
18
09
f0
09
f8
01
06
05
e1
12
fb
ee
07
f6
f3
f5
ef
ee
01
13
fd
fb
11
f0
0a
00
05
0b
19
f9
f6
e5
fe
0c
f0
fd
09
08
e7
02
f9
14
0a
07
13
fa
07
fd
fd
ed
f4
01
e7
ff
f6
08
ff
11
fe
db
0a
08
ff
fb
03
05
fe
ed
03
fd
0e
07
07
00
05
05
f7
07
02
0c
fb
16
fc
02
04
f8
f1
ec
05
fd
07
e8
fd
fd
06
eb
ff
04
f1
f2
f9
03
f4
1c
fb
10
09
10
fd
0d
19
f6
02
f1
fc
0d
0d
06
f8
fd
0c
02
fc
fa
fc
1c
00
16
04
ed
fd
fa
03
fe
04
f8
0d
0a
ff
f5
ef
ee
00
f3
f1
02
e2
0c
02
01
f2
fd
e5
0a
f4
fd
fc
02
01
f3
08
f9
fc
0b
09
db
e8
fc
02
fa
f3
11
ef
00
08
ee
0c
13
fa
0a
ff
fd
ef
ec
f7
0b
07
e6
0d
09
07
f9
f4
00
07
ef
08
fa
07
fd
0f
fa
f8
0b
24
1a
01
0b
03
12
14
ff
fa
16
f9
00
f9
f2
f3
02
fc
14
04
09
0d
fe
f5
f8
f8
ec
0b
fa
10
fc
0e
fe
07
18
00
05
0a
0b
04
16
e6
16
09
03
fc
03
ff
0a
f0
ee
03
10
ee
fb
0b
ee
01
fc
db
07
ff
14
08
fc
0c
10
f6
06
05
f3
f8
01
ee
16
01
16
0c
06
0a
09
f6
f6
17
f9
0a
06
e5
07
0f
0c
09
18
0b
07
f7
03
0a
f4
0d
fa
fb
f2
0c
fa
fd
fe
11
0b
f2
f7
04
09
f8
eb
03
fa
ed
07
03
f9
02
0c
19
e2
fd
05
ff
09
f6
06
10
08
0b
0c
ff
08
fc
02
fc
06
f7
fc
00
04
ff
13
f1
eb
12
11
03
06
fd
fc
00
14
01
08
08
f3
fb
fe
17
1c
ff
ec
fc
11
01
f6
06
f2
05
f1
1b
f2
0e
f3
1a
fd
07
09
f7
07
06
09
06
02
00
0a
fc
06
02
17
f0
f1
11
01
fd
12
f2
f2
f6
04
12
0e
0c
01
0d
f3
eb
ed
0a
05
fc
fb
fc
02
0d
f9
0f
04
05
19
1b
03
18
07
09
f6
f6
05
0a
fb
fb
e8
fd
0c
fc
f1
0b
0a
f5
0b
00
16
1f
e9
0c
10
0a
f9
ff
0e
fb
0a
04
f6
fc
f8
0f
08
13
f5
f4
04
09
f3
0a
f2
08
e5
fa
f3
06
f9
23
09
02
02
02
08
f5
f4
00
11
fa
fb
03
f9
f2
ff
0b
07
01
01
03
ff
f6
fa
fc
14
f7
00
f9
07
f8
f7
08
01
00
0e
ea
ff
0b
ff
ff
f3
13
eb
09
f9
ec
0a
07
ee
0c
0c
f4
00
0a
fe
0b
06
fe
ff
00
0c
fa
07
f2
ff
f9
07
fd
12
0c
fd
f4
00
0c
01
12
fb
fa
07
f5
f1
0a
08
fa
09
fd
09
fd
f8
01
05
07
00
0a
0d
ff
02
0a
fd
04
fd
12
09
f7
ff
09
f6
06
ee
0c
ea
fa
07
0e
fe
f8
f7
fd
0c
10
0e
ff
f6
f8
05
f7
01
07
ea
00
05
02
0b
03
f3
0b
ff
f5
01
05
04
f5
f5
03
05
06
e1
f5
0e
ff
fa
eb
f3
04
ff
07
06
f8
f1
00
02
f8
04
05
ed
fb
05
f8
13
10
02
19
08
ff
f1
f5
f5
fc
f0
06
0c
14
e9
07
01
fc
0c
ec
10
05
ef
09
fd
05
0a
ff
fc
02
de
ed
17
0d
09
0c
01
f5
ee
fe
04
01
05
ff
f8
00
0a
fc
0e
fb
fe
f8
09
f8
ff
08
0b
10
0f
08
08
04
12
0d
fb
00
ee
0f
fa
16
ff
fd
14
f2
f5
e6
02
f2
fa
eb
0a
f9
02
0d
f1
ed
fc
02
fa
0d
0b
0a
01
ee
fc
f7
f1
04
f7
02
07
f5
13
07
04
f9
04
02
04
f9
01
05
fc
fc
ea
fc
00
0f
03
0d
ef
0a
e0
09
f5
f3
0d
f9
04
0c
eb
01
fc
f8
fe
fd
14
14
fb
f0
fc
f8
08
f7
02
f7
07
0d
1e
03
0f
04
f3
f3
fe
fb
fa
04
ee
ff
f7
06
f8
f6
08
00
02
0c
f1
08
f5
ff
f3
ff
02
05
00
00
fb
01
0a
f3
0e
f6
0a
13
01
0e
0a
07
03
0d
03
11
01
ec
fc
00
f6
01
01
fc
07
fc
09
08
16
ff
0e
fd
f8
fd
f5
ff
12
0d
ec
17
01
fa
02
fe
f3
fd
04
f8
fd
0d
00
07
09
f9
0b
f7
08
f8
0e
08
0f
f6
09
f4
f4
00
f8
10
f7
02
fb
04
fd
fa
0b
fb
07
06
1d
f2
04
14
01
f9
0c
f9
0a
09
0d
fd
f6
21
01
0b
13
fa
03
19
02
fa
f2
01
2b
fb
f9
01
f8
f8
06
0a
fa
00
f5
07
f5
f8
1e
06
ff
05
fc
02
e9
fa
03
00
0a
fe
ff
e8
f4
e9
03
08
fb
f2
02
08
01
03
04
00
17
f1
09
fa
fb
05
ef
f7
fd
f0
fe
07
08
03
10
13
04
0d
f2
fe
ed
fd
fd
f6
f8
f3
19
f4
06
06
0c
06
03
05
05
08
fc
0a
fe
05
1b
0c
e9
f5
fd
05
f4
03
f2
fb
fe
ef
f2
06
03
03
f9
fb
f9
f2
18
08
f0
01
06
11
0a
fb
10
18
e3
fb
ef
04
08
01
06
f3
14
fe
f2
13
f7
00
05
f9
f6
fa
f7
07
05
ff
0b
07
04
08
02
fe
fb
07
03
ed
02
f9
01
fa
09
0c
ff
07
0a
f8
f5
06
f8
f9
06
0f
fd
05
0e
f3
fd
f5
fb
f4
f4
f8
f5
03
03
0f
ff
0d
fd
07
07
01
00
fa
f3
02
00
02
f1
e8
f5
f7
fd
0e
05
f3
f8
ef
fe
f7
ea
ec
01
0b
f8
08
fe
0d
03
21
f9
01
fd
05
fc
00
01
f9
fa
f0
fc
08
01
02
f4
09
f9
fe
10
fd
f6
10
fc
01
06
00
eb
07
fa
01
f6
f5
f8
0f
09
02
ff
fe
00
f9
f6
0f
ef
07
e6
01
12
12
fa
08
fd
02
f8
06
04
04
06
03
07
ec
f6
fd
fb
0d
04
fb
ef
04
04
09
02
ff
07
f4
07
f9
0f
08
0f
f8
f5
ec
01
02
ff
ff
10
11
0c
0d
f5
05
04
fd
06
04
01
ff
04
fd
04
09
f2
00
0e
04
f4
f1
f2
04
fe
fc
fc
f8
05
04
e7
0c
0d
03
f7
f6
fa
fe
fa
08
ff
04
09
f2
02
fc
f3
f8
0e
08
fd
fe
03
0f
05
0b
fa
f1
fb
f2
fa
0e
fc
00
fc
ed
09
08
ff
f3
02
f3
06
02
0b
f4
05
04
00
04
03
fd
01
f7
f7
fa
0b
03
fb
f1
08
08
01
f8
0b
00
02
fd
08
f5
f2
fc
06
fc
fa
f3
00
05
0a
fd
fb
f0
00
07
f6
11
00
11
f3
0c
fe
01
01
06
09
06
03
08
0b
fa
0e
0c
fb
01
fa
f9
06
00
f5
02
fa
01
09
fa
03
0c
04
0a
00
08
fa
04
07
f1
f6
ef
f5
03
fa
f8
12
00
10
fc
fe
fb
f3
f8
02
04
01
0c
06
02
fe
06
00
02
07
f6
fc
fe
f8
f4
fd
05
f9
0d
06
ef
fc
fb
f0
fa
ff
fd
e7
ff
01
fd
05
fe
f5
ef
08
f8
f3
f5
05
0d
f5
0a
f7
fe
04
08
ff
fa
fe
fc
07
fa
fb
06
10
f6
fa
04
fb
f9
06
08
f8
09
0f
e4
f3
fc
07
f7
05
f1
ff
f7
03
06
0d
f9
0b
01
02
00
01
0a
fc
ff
01
02
f6
fd
fc
fc
fc
ff
f2
f4
04
08
0a
06
08
fb
fd
f6
04
10
0c
f9
f3
05
07
f4
f8
03
0e
fa
ff
05
07
ec
f9
03
00
f9
ef
f8
0e
fa
0d
f5
0d
fc
e9
0c
0e
19
fd
fd
19
ed
f9
0d
fc
f3
ef
10
f9
fc
ee
0d
08
f9
fd
08
0a
0e
08
fa
00
fe
f9
05
fd
07
09
fc
0f
03
fc
00
08
0a
fe
13
fb
04
fa
ff
f9
ff
fb
00
fe
01
fe
f5
06
f7
ff
04
06
08
0a
0b
06
0c
ea
0e
fa
09
0a
05
f4
03
e8
02
04
ff
06
fd
03
01
ec
f7
f9
02
f9
09
0c
00
0e
00
01
f7
ed
0a
fd
05
07
09
00
fa
06
f8
f4
f1
0e
06
f6
04
09
f7
02
01
0a
05
07
fb
f7
eb
07
f5
0b
03
00
0b
f5
06
0b
f3
04
0f
06
fa
f8
15
0d
0b
fd
11
fa
07
fa
fb
fc
fb
05
0c
00
0b
06
f9
f9
06
06
f3
05
07
f5
10
ee
f6
0a
03
fb
f5
f6
01
f2
fd
08
16
f6
02
f1
fa
0b
03
02
00
07
09
01
fc
09
fc
ff
f2
00
0f
14
fd
07
f9
f1
f1
04
f3
fe
f5
f3
f6
f5
ef
f8
10
05
02
03
06
f8
fd
04
06
05
fb
00
fd
fe
0f
03
fd
ff
f3
0a
f5
05
f8
f9
f7
fe
fc
fc
02
0c
fc
ff
ee
f2
02
0c
f2
0d
ff
f9
ed
0a
01
f7
0b
f0
09
02
0c
00
10
00
08
e7
eb
03
f7
f4
f7
01
0c
00
ee
02
f7
f9
f7
fe
fb
ff
fb
0d
ec
08
ff
e7
0f
f4
08
fc
01
f7
01
f9
0e
01
0d
fd
f8
00
fe
08
06
f5
fa
06
fd
fc
06
04
fd
10
00
0a
f8
f8
09
fc
0c
04
00
08
fa
05
00
f3
08
f5
f2
ea
f3
05
f9
0d
03
09
05
17
f2
f9
f0
f6
0d
ee
fc
0b
05
f2
f8
ff
fc
ea
00
0d
f8
fe
02
07
05
0b
01
08
08
04
08
f8
fa
f1
f5
0a
f3
f4
fa
0f
fa
f9
05
f9
01
08
08
fe
03
0d
06
14
ea
15
15
09
07
09
02
01
17
0b
f6
f4
16
fe
f8
07
04
0b
04
f5
f2
f4
06
f0
ff
fa
0b
ed
06
06
05
e6
00
f7
fc
ef
fa
fb
01
f8
f7
00
f9
f5
02
f3
f9
00
05
00
07
09
f9
09
03
f0
03
09
01
17
07
0a
0e
ef
15
04
fa
07
fb
06
08
08
0a
f7
fc
01
fe
fe
0c
04
09
f7
fc
fd
08
fb
fa
f2
f9
f0
ef
11
0a
04
f7
0b
12
07
14
02
02
00
ff
f8
eb
01
f4
f7
fe
07
fe
ee
0b
ff
06
02
f3
09
fa
02
f4
08
0e
07
05
0a
f7
fa
f3
f9
f6
00
05
0c
02
f4
fa
06
07
f4
01
00
f9
05
14
fa
ff
00
05
ff
f9
05
fc
ef
17
fc
f9
fd
05
06
08
0a
fc
07
f2
fd
13
fb
fd
f8
06
15
ff
05
fc
03
0b
fd
00
05
01
f9
fb
09
11
fe
0d
f5
10
f9
04
fd
13
08
02
05
fd
07
0f
05
0c
08
01
05
0b
0c
0c
fc
08
0b
fc
0f
f6
09
fe
f9
01
02
ff
ef
f9
f6
fe
05
09
01
ec
fd
f7
ef
00
ee
ec
fb
0b
01
f8
fa
fd
08
00
fd
08
04
fe
04
00
ea
fc
00
0d
06
0f
03
f9
12
12
f6
f5
0a
03
ea
1a
14
f0
f5
03
ec
fb
03
fc
09
01
07
0d
fb
f3
05
09
08
fe
ff
ff
0d
01
07
09
01
06
00
fb
f2
f1
0a
fd
04
0e
f5
ea
04
10
05
0e
f6
f9
02
08
07
0b
fa
0e
e8
09
fe
f6
07
03
0a
00
fb
01
03
04
f5
08
13
fa
f3
04
f0
04
03
03
fe
0a
09
08
00
11
f5
03
08
f1
f4
ee
fd
fd
f9
fe
00
ee
fa
15
f9
f6
02
f8
f3
fa
f0
ef
fe
f1
0c
17
04
0a
e2
0f
f4
16
0a
09
f2
f7
f3
10
17
02
f7
fd
00
ef
11
0c
fe
fd
05
00
fd
07
f1
10
fb
fa
0d
11
08
fb
06
07
0c
01
16
e8
00
04
fc
f8
f8
f7
06
03
f4
f9
f1
ff
06
12
fa
fd
fb
fd
f6
fa
07
f7
fc
00
07
01
f6
0d
fc
f7
fd
0f
f7
03
06
07
f9
12
f5
04
01
f0
0d
02
09
10
02
0c
f0
01
ec
f5
ff
0b
03
03
f8
07
fd
0d
fa
fb
f5
0a
02
00
fd
02
03
02
fd
03
03
0d
ff
07
03
e4
02
ff
f4
07
f7
fd
f4
eb
fc
ff
0f
05
fe
f2
07
02
07
f1
13
f9
04
03
f8
f7
f6
07
03
00
04
07
eb
fd
00
f1
f2
f9
f5
0a
f9
f8
eb
f9
02
10
fa
ed
0e
fa
fb
ff
fa
f8
fc
f8
fe
f4
fb
f5
fe
fd
f4
ff
0c
fc
0e
fa
fd
fb
01
ff
06
f8
fd
07
07
09
11
0b
eb
05
f7
fe
eb
f4
fd
f8
fc
f6
e4
f3
f5
f0
fd
0e
fe
f7
f3
0b
fc
09
f6
ff
f5
f5
f8
04
f9
fd
fe
f2
07
f8
fa
02
f7
f8
00
f9
f9
f9
f8
10
f4
f2
fb
ff
f7
07
0d
ef
08
01
01
04
01
f4
fc
f6
fb
08
03
f4
08
04
06
fb
02
f9
03
03
06
05
0b
fe
fd
ee
fc
ff
15
ff
16
f7
0a
02
ff
f8
fd
f8
fc
f0
0c
e9
fe
fa
02
01
05
15
04
f7
01
07
03
03
04
fb
fb
0a
01
02
ff
02
f7
fc
eb
09
f0
14
e7
fb
0a
fe
09
f6
07
fb
f4
12
09
ee
ff
09
06
14
05
f5
07
f8
fb
0f
03
0b
02
fc
f6
f5
0b
0c
f2
f9
f8
f2
f4
00
03
f3
09
05
0b
01
f6
e5
0b
06
fb
00
f6
eb
01
f7
0a
fd
fe
06
f1
0c
f9
ee
0a
00
00
02
10
07
fc
06
fe
01
16
0b
f9
02
f4
f6
0d
f6
f6
f5
ff
0d
04
fb
04
0d
01
16
09
f9
0a
f8
05
f9
fc
f0
18
f8
07
0c
f2
fb
1a
f8
18
f4
08
ef
ee
f3
0e
0d
f4
fa
f6
0b
f9
f8
0a
ff
0c
fd
e5
0c
03
13
0c
fa
f0
f5
fd
fd
f8
0b
03
0c
f7
ef
0e
fe
fb
07
05
f9
f3
01
01
01
fe
ff
f9
f5
08
fa
04
00
fa
07
15
02
f3
f8
f8
0b
09
00
03
0d
fe
03
f7
0a
00
f6
0a
02
05
f9
0c
05
0b
fd
f2
f6
f7
f8
01
02
f5
f5
04
f0
11
0b
0d
f8
04
03
fc
fc
fd
15
02
f1
0c
08
fa
ef
fa
f2
f7
15
f3
fe
f4
f5
05
fc
08
fe
10
fd
f7
02
0f
fa
03
09
fe
0a
09
0b
11
e8
03
0a
f7
06
f3
01
f6
de
0a
01
15
0a
f0
f2
03
00
06
11
f3
df
09
00
f8
09
1f
e7
ff
09
02
fc
fd
f9
dc
fa
14
fc
fa
f6
00
01
f1
f8
f7
0f
07
0b
06
0b
f8
00
fe
03
0a
0a
f6
10
e7
07
fa
12
00
f8
ff
f8
fc
fa
11
04
06
ed
0a
0f
f0
07
f7
09
fa
0d
05
f3
02
f2
f4
16
fe
12
0c
f6
0a
fe
eb
02
01
f2
12
0d
28
fe
ec
08
0c
f4
f6
e6
0a
12
fc
03
ef
06
09
02
ec
0a
f6
0d
0c
0f
03
00
ff
03
15
1e
ff
01
fb
fa
12
00
0c
02
e9
11
fc
06
ff
fd
22
f4
eb
fb
f9
00
05
03
10
0b
01
ff
fb
1c
00
02
f9
0b
ff
0d
fc
0a
f1
f8
0f
f6
f2
17
f4
eb
ff
fb
0a
07
fc
02
fa
01
09
fb
f5
ff
01
fd
01
02
0d
ef
ef
fd
ff
15
03
f3
02
f6
f8
f1
fe
04
0f
fc
00
01
fd
f7
f0
fd
fc
02
ff
eb
0c
08
f4
ff
f4
05
fc
04
ec
f4
06
04
fd
fa
f0
0e
f9
ea
f1
07
f2
fe
eb
0a
0c
f3
f8
0c
0f
ff
10
ed
e4
00
02
ec
ff
f6
fa
01
00
1d
00
f5
ea
1e
0b
00
00
00
fa
f1
f6
f6
f3
17
f8
ff
f8
02
01
06
04
fd
f5
06
0b
f7
fc
f1
0a
de
00
fc
ec
ff
fa
f8
fa
09
18
f9
12
ff
e4
fb
0f
05
13
02
08
fe
00
f2
ef
01
02
11
fa
f4
08
0f
f1
08
08
ec
07
fb
f5
ea
13
f7
f7
0b
fc
07
f7
01
04
fb
0d
f6
f5
f9
fb
fc
f8
01
06
fd
0b
06
0c
1e
10
f0
11
fd
11
1a
ff
fa
fa
ff
02
f3
ec
13
f8
fe
e9
00
ec
07
f8
fc
10
11
f2
07
08
0f
0c
26
f6
02
f7
02
fa
02
08
e2
00
09
0c
f1
05
19
f7
12
0b
ed
09
fb
fd
fd
fb
05
f5
f6
f5
05
fe
ec
f3
07
04
f3
fc
0a
f1
00
04
fb
11
f4
03
fb
00
09
12
10
ff
1e
fa
09
fe
02
fe
0c
13
f9
fa
05
fd
fa
08
f4
0f
13
05
00
fd
fa
16
ff
fd
08
0a
ef
09
fa
00
f0
fb
0d
00
05
06
fe
ec
13
04
02
e1
f7
0b
f6
0a
f4
0b
06
ff
13
0a
04
fc
08
f3
03
f4
f9
ef
fe
ff
f9
11
eb
0a
f7
0f
e7
04
f7
f9
0f
f8
fe
00
f8
18
fb
f6
fa
0a
01
0c
03
f5
06
03
f8
0e
ff
04
ea
f4
07
ee
09
f9
e9
f0
04
f5
f1
18
05
fd
01
00
fd
ff
cb
0c
07
08
0c
f9
f7
0f
01
0e
ec
04
00
0a
fd
01
fb
f2
f5
f9
ff
f6
fe
fd
f6
0b
09
e4
0d
06
04
f6
e3
00
f6
01
fb
ff
0f
02
02
11
fe
08
f9
05
ff
1c
fb
fb
f4
08
05
fb
0e
f1
e6
08
0c
fa
f7
ec
f7
08
ff
fe
0d
f9
06
09
ff
08
03
f3
f7
06
fb
11
06
f7
f9
f4
ef
13
0e
fc
00
f1
1b
04
04
12
0b
ef
ea
16
eb
00
04
01
09
f4
fb
f9
1a
05
fa
ef
05
fe
0d
1e
01
06
03
f6
1a
f4
0b
01
fa
f6
f9
f6
fb
fb
fa
fc
fd
05
15
f9
fb
0d
00
f8
00
f7
08
01
fd
03
0b
05
0e
fa
01
0a
f8
0b
fc
f1
fc
fb
0a
ed
0e
05
0f
07
f8
f4
ff
fd
e4
f6
02
08
fa
fe
09
01
00
f4
01
04
f4
06
fd
f4
02
fd
03
0a
00
00
02
f4
fc
04
f0
17
f4
0b
fa
01
f0
0f
09
14
f9
00
07
f4
fc
0a
f6
02
f3
f2
f9
02
02
0e
0c
fd
f9
ee
01
fa
04
fe
01
02
0a
0f
0b
fc
0d
03
11
fa
ef
f6
fb
00
04
0e
e8
fb
ea
0c
ff
fb
f9
0d
0c
05
f4
f3
0c
03
f4
fe
05
09
14
f3
05
00
f9
15
fe
00
fb
f7
10
00
06
f7
03
0a
04
ff
0d
02
01
ee
e4
0e
07
05
00
fd
e8
08
fb
01
09
09
fe
07
03
fe
ec
00
00
fd
fe
ff
fb
f4
00
f6
04
ed
ff
f2
f5
ed
00
f9
02
f3
02
f9
05
f0
f4
f3
f2
f6
04
f9
f7
f8
fd
06
02
f7
1c
f5
0f
fd
06
0b
f9
f4
ff
09
03
fc
0e
00
03
f8
fd
ed
03
fb
fc
f4
09
e4
f5
01
06
01
07
fb
f2
f2
fe
00
09
f3
09
f7
f5
14
ff
f7
08
fb
02
f5
fc
f6
02
00
0a
fd
02
00
f5
04
01
0f
f9
fc
16
fb
09
ec
ea
f6
03
09
0b
f4
fa
ff
ef
03
e7
f4
07
00
16
ed
fa
0f
f9
ff
00
f4
ff
18
00
02
0c
fd
0a
0e
fc
0f
fc
11
e2
05
0c
fc
04
fc
0c
fb
0c
02
fe
18
01
06
f5
01
fb
02
f1
f6
04
ef
0f
f8
02
fe
02
09
15
00
01
02
fa
03
eb
f7
0a
ff
05
f3
01
06
11
09
f2
0f
07
06
f9
03
18
00
02
07
fb
08
00
0d
09
f9
fc
ec
0f
fe
00
05
ee
f5
0a
0f
05
07
f2
0e
06
fa
ff
f1
f9
11
0b
f6
06
16
f7
00
f1
00
fa
03
e3
03
05
09
08
08
ff
12
f5
05
01
07
02
f4
02
ee
00
0d
0b
fb
05
fe
ff
01
f9
0f
f8
fc
04
12
02
04
f5
f1
fc
f9
fe
f5
02
03
fa
f9
0e
e6
ed
1e
0d
fe
f2
08
13
00
f4
ed
08
05
f6
12
f7
fb
fa
01
f2
f9
f0
f3
0c
f5
03
ff
f9
0d
f2
07
08
fa
04
fd
19
00
0e
01
00
07
07
0c
04
f5
fb
10
0a
ef
07
05
f1
00
0e
f6
f8
f6
dc
0a
1e
f6
0b
02
0d
17
15
fe
01
fa
fb
fa
fd
f8
03
01
fd
fe
eb
0d
0e
18
de
f6
fc
0e
1c
f5
00
fe
f7
0b
fa
0b
fe
fe
fd
ec
ff
29
05
fc
03
fa
eb
08
fd
04
01
fd
fb
f7
f0
f7
00
f7
07
06
ec
e9
fd
14
0a
ec
0a
07
f2
fd
fb
18
f0
f0
f9
eb
01
ff
f3
01
e9
08
fc
ff
db
0e
f1
07
f0
f0
02
00
12
fc
05
fb
f3
ff
10
ff
0d
f5
01
fc
0f
fd
02
03
f4
00
fc
11
0b
0a
fc
19
0d
f4
fc
04
0d
05
f6
fa
10
14
06
f7
f1
05
00
eb
01
09
04
f9
f5
00
f1
01
1b
fb
08
05
f6
ff
ea
0a
18
f7
09
fd
06
f2
10
0b
fd
1b
01
f8
e7
09
fa
18
10
14
00
f1
fc
14
01
fc
07
f7
fe
09
28
fa
f9
02
fa
f4
11
06
12
fa
fd
ec
07
0f
fe
fc
fd
0a
0e
fb
02
f7
f6
08
09
e3
05
10
fa
0e
16
f1
f8
f8
0b
05
05
f4
00
ff
f1
0a
07
04
ef
fc
0a
ff
0d
09
01
02
07
f0
10
01
01
09
fe
f5
02
fe
fc
10
fb
f1
f5
02
06
f2
fa
f9
0f
f8
0b
0c
f3
f3
0a
0c
0e
f8
f5
01
0b
f8
f3
05
ff
fd
09
e4
fb
0f
00
0c
e4
ff
f8
03
09
f1
0d
13
08
03
f6
11
fa
f2
11
f6
02
03
12
fa
06
fb
f8
15
f9
01
18
0f
fe
f2
09
fb
0d
18
00
00
0a
f4
ef
07
08
0b
0d
02
ff
0c
0d
f5
06
04
02
f6
0a
f4
f4
ff
02
f3
ff
fb
fe
fe
0a
f1
e9
07
06
14
15
fd
ff
f6
eb
f9
e9
03
0c
fa
ed
f9
ff
01
ed
1e
05
04
09
08
08
0b
00
f9
f5
fe
ff
06
17
01
0f
1a
fa
04
0b
04
fa
f2
0b
06
fc
07
0f
ff
fe
1b
00
f0
ed
10
fc
0a
00
fb
fd
fb
09
f9
fe
f5
fa
0a
f8
f8
f7
ff
fb
07
0e
02
01
11
fb
fb
03
11
ef
f2
06
ee
fa
f9
01
04
f8
08
10
fe
04
07
f0
f2
f3
05
0d
03
06
ff
04
15
f8
02
04
02
03
fb
02
03
fc
fe
f2
11
f2
fa
09
f9
0c
10
09
f6
11
f9
05
0d
18
06
09
f8
03
f3
02
ff
0c
f2
03
08
ea
e6
04
f1
09
0a
15
f9
f6
08
f3
ff
f7
f8
0b
f6
fd
12
05
f3
ff
fe
06
f9
20
0a
0f
f1
e8
f3
ea
03
fa
04
03
0c
0e
02
10
f9
ff
07
f9
fc
00
02
14
fb
14
f1
11
f2
f0
fa
f8
fe
fe
07
02
f4
fa
f3
fc
f8
ed
02
07
00
f0
0e
f5
01
e7
0f
09
0f
02
07
00
07
06
ff
fb
fb
f3
06
0c
f9
f2
e7
13
03
fa
07
fa
fa
ff
fc
fa
00
f5
fc
fa
08
ff
ed
09
14
f9
f9
01
02
05
fd
07
f4
05
11
12
09
f7
07
0a
f5
f8
f5
15
f4
f6
ea
f8
f6
fa
f5
ff
12
00
fb
00
10
01
03
f6
fe
00
05
ff
ff
13
f1
01
10
fb
fc
0a
f3
fc
eb
fe
f0
01
f9
e8
0c
f8
02
fb
ff
03
09
0e
fe
f5
03
05
07
fd
fe
f0
06
f6
f7
fb
f8
f0
fc
f8
1c
0c
03
15
07
f1
fd
11
f7
f8
08
f6
0d
00
ed
05
fb
f9
02
05
e2
01
f8
f1
07
f9
13
fe
0a
e6
fe
fc
00
09
fc
f8
f6
fe
f6
f7
ff
05
00
00
04
f3
ff
02
f7
f7
fb
fc
00
fd
05
04
0e
08
0a
02
02
15
f8
11
f6
fa
f9
0e
06
04
08
04
07
02
fd
f7
fe
f7
fc
fb
08
08
0a
1d
00
09
01
f3
06
05
f7
ff
00
f4
f9
f5
09
f5
0b
12
fd
f0
fd
f6
00
00
fe
06
07
03
f5
ff
0b
f7
f4
f9
fc
13
f9
00
07
16
f8
fb
0e
04
fe
0d
11
f6
0b
09
03
f4
f3
fe
fe
f6
f9
0d
0d
fc
fe
07
0c
fe
f3
04
03
05
05
fc
07
0b
f9
fa
f7
ed
07
06
ff
f9
11
fa
04
fe
fa
f9
09
f9
f6
f5
11
06
10
f6
03
05
07
fb
ff
ff
fc
0a
f6
07
ff
04
02
05
ed
ff
f8
fe
05
f6
f4
f0
10
04
f5
0a
06
08
fb
00
0a
00
08
19
fe
12
03
00
fc
f3
fd
ff
08
06
ec
ff
04
04
01
0f
14
02
f7
ff
ea
fd
0f
fa
07
09
13
06
07
06
14
04
f3
ee
0c
0a
06
f8
ef
fe
f9
e5
09
01
f4
f9
fc
07
fc
0e
07
fb
03
ff
08
0d
03
fd
12
f8
f9
1c
00
0f
12
fa
fd
f6
eb
f8
f7
ff
09
f8
0a
fc
07
04
00
00
0a
01
f5
02
fe
0b
13
fc
0d
09
07
fd
03
ff
ea
02
10
f6
fb
fc
fa
fe
fd
06
f3
03
fe
0c
f5
06
12
fe
e9
f6
04
fe
08
12
f4
08
f4
e6
0b
03
00
fe
fd
09
fa
03
f5
06
f4
fe
04
f7
f7
01
07
fa
fc
fd
fb
fa
04
06
0c
e2
f5
05
07
08
fd
f3
06
ed
fb
fb
03
eb
09
06
fc
fe
01
fe
fb
02
05
03
06
fe
0d
fc
ff
eb
00
ed
00
05
0e
f9
08
05
02
01
fd
06
01
f8
ff
fb
13
f5
02
04
06
05
fa
fe
ed
15
0d
f0
fd
fb
f9
08
06
fc
00
15
f9
ff
fe
07
fb
01
1b
fb
f4
fe
f9
16
f5
fd
08
f8
09
0f
f5
f5
01
fc
09
f2
0c
f2
0a
0f
01
01
ff
08
12
f8
f0
04
02
00
10
f8
08
f0
0b
ed
04
fc
f3
fe
09
f8
03
f5
fa
09
f4
05
f2
04
19
f7
fa
fc
07
0c
e9
f7
05
06
20
0e
e7
00
0c
f8
fe
f7
0d
09
ff
0d
01
17
fc
08
07
00
04
07
0f
fb
01
0f
f5
fc
f6
03
0b
03
f6
1c
f5
fd
fd
fd
ef
00
f5
02
01
f1
08
fd
15
0c
fe
f8
f7
06
f7
fd
ff
04
ed
00
fc
00
fa
0d
fa
f8
fa
06
f1
07
fb
14
08
07
03
10
0c
02
12
e9
05
0b
fc
fd
f5
09
fe
07
ef
0f
f8
11
f7
e9
04
f5
12
06
ed
f7
f7
ed
04
04
fc
fc
03
08
f0
03
04
f6
01
16
08
ea
f9
04
11
0c
01
0a
ef
0a
05
e6
ff
fb
ec
1c
07
f7
0f
f5
fc
fc
fb
0b
11
10
03
0b
17
eb
08
ff
fe
fc
08
05
05
e9
06
fb
03
f4
01
fb
f9
07
ec
f3
0b
0c
08
fd
fa
03
0a
f0
03
fa
0a
fb
04
0c
f9
10
fd
f1
f8
fa
f4
02
09
ff
00
09
15
f8
fd
f6
f5
03
0e
fc
03
f4
06
fa
0b
00
03
08
fc
fa
0e
0b
0a
12
16
fc
f9
02
0f
fe
fa
0a
01
0f
05
09
f5
ff
ff
f7
fb
f3
04
08
f3
fd
06
04
01
f3
fd
fd
f5
0a
05
08
ff
f1
07
18
01
ee
03
12
10
f5
f8
f5
0a
fe
17
f8
f7
f7
03
f7
f0
fa
0b
03
00
fe
f6
f3
f0
0c
21
0e
f9
0d
fe
fc
fe
0f
fa
fb
fd
08
f6
0a
0b
05
01
00
fc
0f
fb
fe
03
02
ff
08
00
02
0b
ed
fb
f3
07
fb
f3
01
04
f9
f9
1c
fc
f5
f5
fb
10
ff
10
fe
0a
05
fa
03
07
fa
fc
f2
01
04
ef
fb
01
04
f6
0b
0d
06
06
ff
0c
06
f3
fe
01
f6
04
07
f3
f8
f0
0a
fe
0b
10
02
00
0c
03
f8
11
e7
10
fa
f3
f4
04
fa
fa
05
0d
0f
ff
f4
fb
06
ff
f9
f4
09
0d
f7
fd
06
13
dd
0a
ff
f4
f9
f3
0d
00
ee
fa
ff
03
11
00
0e
0c
fe
fd
07
f1
f8
fe
04
03
f6
18
fd
02
0b
f4
0e
02
09
ff
09
01
00
f0
fb
fb
0a
05
f3
05
f5
f8
0c
05
fa
06
fc
f6
f5
02
07
fd
02
08
f4
14
0a
ea
00
fd
04
07
05
f4
fe
f8
10
0c
04
ff
f3
07
21
fd
01
f5
06
0a
f7
e9
ff
03
fe
f1
fb
f0
f8
f5
f8
0b
f9
10
ff
04
0d
ee
f5
0e
fc
f6
07
fb
05
05
03
03
07
fc
f0
07
00
f3
fa
17
e4
02
05
fc
03
f6
f4
0f
fe
0c
0a
f4
07
f3
15
ff
0b
fe
eb
00
fc
f9
f9
00
fa
10
fb
13
fc
ff
11
f1
fa
f9
f1
ed
13
fa
f4
00
ee
fe
10
f5
0b
08
0c
f5
02
01
06
0f
0d
03
da
15
f7
04
ff
f3
f1
0b
0a
0d
f1
07
02
05
0b
05
ee
f6
fd
16
ed
f3
f8
f0
f3
01
f4
f1
0e
10
fc
07
ef
00
f3
09
05
03
fb
01
ff
07
14
f3
00
e9
f8
fc
ed
05
09
f9
09
fb
04
fb
08
07
f2
00
0b
f7
f1
03
0d
0b
09
e8
e8
f6
16
0e
04
09
fc
09
09
f8
fc
06
0a
fd
f1
06
ff
16
ed
f8
fa
f7
fc
13
09
ed
0a
07
ff
ec
0c
09
eb
0e
1b
11
ef
f9
e7
fa
13
04
fb
12
f4
f9
f3
0d
09
06
fc
03
ff
10
f6
06
20
f3
e1
fb
09
02
f2
fd
02
16
1b
fc
07
fd
01
f6
f4
f6
fa
00
04
f0
0d
0d
fd
ff
fd
fa
fe
fa
fd
fc
f9
0a
0a
f6
f5
04
00
00
fa
f2
f5
05
05
05
05
0b
19
f8
0a
0d
09
fe
03
0d
fd
fc
0b
07
e6
ff
f4
ed
f8
01
0e
03
09
05
fb
f7
05
00
e7
07
13
f8
03
f1
03
01
0b
f4
08
0b
f5
ea
0d
0d
f5
0d
ea
02
0b
05
fe
09
fe
0f
f7
fc
fd
f9
06
f8
0f
f6
07
05
0a
07
f5
08
ee
00
ed
09
f3
02
f4
fb
ed
ec
f0
0d
03
ff
03
f7
f7
ff
f1
f8
fb
0f
06
01
1c
f8
0b
0c
fc
fc
02
0d
ed
0a
f6
fc
16
11
fd
f7
f8
ee
fd
fa
07
fd
ef
fa
ef
07
f5
ed
03
05
e7
06
ff
f7
f9
0c
fe
f3
ec
e8
f2
08
fb
0a
04
05
0a
13
fe
02
f5
f9
1c
02
fa
fd
0b
04
07
0a
0f
fe
ef
f6
0e
fb
05
f2
02
0e
03
f2
f7
ef
f1
f5
fc
09
07
05
f1
03
f4
f3
01
ff
e8
fb
12
11
fa
f9
ff
fe
ec
0b
f2
08
00
0d
11
e2
09
f3
fb
0a
f0
fb
f9
09
01
fd
ff
fb
0d
fb
01
0d
ff
08
fc
01
18
10
fa
fa
ed
f6
11
fe
11
fd
09
fe
00
00
08
f1
05
fe
0a
00
f0
e9
fb
fc
0d
fe
01
0f
0f
fd
01
0a
22
f4
07
f6
02
05
0b
04
07
00
f1
f8
01
f9
ff
06
25
f4
f4
0f
ed
0c
e9
f7
15
0f
06
12
ee
08
f9
02
01
0b
f1
0c
ed
06
03
0b
fc
dc
0a
02
fd
00
19
06
f4
0b
0c
f5
fb
0f
0a
08
0a
04
fd
00
f0
f8
ec
04
04
01
0b
f9
e3
02
0b
04
02
f4
19
fb
f5
0e
ff
06
fa
f8
ef
06
f8
0a
fd
07
06
ff
06
f0
02
10
02
22
08
f7
02
fa
f3
fe
0d
0c
fb
09
e7
0c
fd
f9
fe
fa
f3
fc
e5
fa
fe
05
f2
f9
f4
fc
03
07
17
01
06
f8
f8
05
ff
e2
f4
0b
0f
fb
09
0c
01
fe
0a
0a
07
0b
e5
04
f1
01
0f
eb
fc
fa
02
fb
04
04
fd
f2
07
e9
f3
11
fb
fd
15
16
f0
08
0a
03
f6
f0
fa
ff
ee
f8
14
01
0b
0b
00
fd
f6
ff
fd
0f
02
0a
ff
1d
fb
03
fd
12
03
06
29
f7
02
07
f6
0e
f1
f3
04
f5
f8
ef
f8
fd
04
03
ec
ed
1b
ef
fc
f7
16
00
07
fd
09
03
f7
fb
fd
10
02
fb
fe
00
f5
04
07
0a
03
01
f5
04
08
ff
f6
f9
f9
ff
01
f0
09
11
02
0b
09
10
04
f4
fc
f7
0a
fe
17
03
f7
f8
00
02
0a
04
03
0b
fd
ff
fd
fe
fb
09
fc
f6
fd
f7
f1
f0
f5
06
fd
04
ff
f9
03
f6
01
ff
fd
f4
01
0d
0a
02
01
ff
12
f4
0e
0a
00
0b
07
09
07
f6
f3
e9
f9
03
0f
02
00
14
f9
06
0f
05
ed
f6
00
00
fd
02
02
f0
f8
06
f3
08
02
00
06
e8
0a
ea
02
ff
05
08
04
f5
00
04
09
fa
f5
02
14
03
04
0d
0a
f8
f5
03
f3
f1
f9
09
02
fd
01
08
fd
0e
18
06
02
f1
18
06
fd
ef
f7
04
fc
ed
0a
09
0b
fa
04
0d
fa
16
fb
f7
fe
fc
fa
ee
08
0c
f5
07
0b
0f
f6
05
f2
fd
f9
07
0f
0e
01
05
06
07
01
08
04
01
ea
07
0f
15
f9
07
17
ff
e3
ff
fa
f2
08
08
15
05
07
ff
fb
0f
00
00
01
0d
fb
06
16
03
f2
00
13
0a
ff
f3
03
04
17
ff
00
05
02
17
02
14
04
02
10
ff
f4
0f
0b
0d
02
03
0b
0c
f7
04
f3
fe
f9
0d
0d
16
08
09
04
02
ff
00
01
0b
1a
03
05
ea
ee
f0
f8
eb
fc
fc
02
ee
04
1c
05
11
f5
04
eb
02
f0
0b
08
f7
10
06
fe
00
f6
f6
e5
0d
01
fc
f4
f7
ff
f5
08
f0
02
10
fa
10
05
f1
11
f9
0c
f9
ec
db
ff
ff
00
1c
f3
fc
0d
0e
00
fd
02
f7
f6
06
02
03
f1
f3
06
07
07
12
01
f7
ee
fe
0b
fd
f7
f3
fe
0f
fb
06
0e
fc
02
ff
04
ed
07
03
02
02
02
eb
f1
01
fe
01
f4
fe
f1
00
ec
07
06
01
01
ff
02
0d
f3
12
ee
f9
01
06
df
08
05
fe
06
02
07
fc
00
ff
05
ea
f9
0a
ff
fd
e9
00
f6
fa
05
fe
0d
02
ff
05
f2
f5
f4
0e
02
ea
fc
f4
05
fe
06
06
0c
fe
eb
fb
f6
05
0e
0e
08
f1
fe
00
fe
0c
07
03
f8
07
07
10
07
02
04
03
0d
10
fd
fb
ea
f2
07
ec
f8
06
0d
f9
f5
f9
0d
0a
f9
00
04
fa
fe
fa
f1
12
0e
13
0a
f6
e6
f6
18
f7
05
15
f9
0e
fa
fb
06
08
fc
ff
01
f8
00
fb
12
0b
fc
fe
fe
f0
01
ff
fa
ec
00
fd
06
f9
0a
01
06
02
fc
ff
0a
05
ff
f8
fd
04
09
00
f9
02
03
f1
f0
11
14
fe
f0
00
11
04
fc
0a
fa
08
fa
0f
fe
f4
fd
03
05
ef
f6
09
f8
f4
f1
05
f2
07
09
f7
f4
01
04
04
fb
05
ef
04
fb
0a
01
f2
08
0e
f9
fa
fa
f5
ff
fc
14
02
09
02
08
e8
ec
09
f8
06
0e
f3
f9
0e
0b
f1
11
15
f2
0e
05
fa
f5
fa
f7
04
f4
fe
fb
0c
02
fc
01
eb
12
00
01
ed
f5
0c
09
06
fd
f4
0c
08
fc
0b
e4
fa
fe
04
00
06
00
fe
0a
07
f9
f5
03
0f
fa
03
05
f9
ea
fd
03
02
01
e6
f3
f9
f5
00
02
04
01
0b
05
f8
fb
f8
fa
ed
02
f5
ff
0e
09
ff
04
ee
f8
ee
f5
fe
00
05
df
00
f9
ff
06
f6
f8
01
fd
03
10
05
f5
f6
e4
07
fd
08
03
07
ef
0b
fe
01
f4
fd
05
f2
02
f1
0c
eb
f7
02
06
f0
01
fe
fe
00
0e
fe
f8
eb
f9
fa
f7
f9
f7
f1
ff
19
04
02
01
05
fc
fd
04
03
0b
01
f0
02
f9
01
06
f1
03
fa
01
f8
fb
0d
f5
f8
11
f9
03
fa
f3
07
11
ed
eb
f8
08
00
06
f5
fa
19
08
00
0b
04
08
06
f4
09
1c
09
13
06
fb
f5
0b
05
fc
f2
0e
00
0d
09
f7
f5
f7
01
0b
06
eb
00
01
0d
ff
f9
01
f6
02
03
fb
01
19
fe
ef
fb
fb
0f
f4
fa
0d
fc
f7
ff
ff
0b
f4
f9
fb
00
0c
04
f7
01
ff
f4
0c
0e
0b
0a
fb
06
ef
05
f9
fa
04
fb
fc
01
eb
fc
07
fe
eb
09
f9
fa
f9
07
f8
f5
f5
fd
ff
fb
fd
fc
fe
ff
fb
07
f8
f6
f8
06
ff
fb
06
f7
fb
e4
f0
02
fc
03
f3
05
00
fa
fb
f5
1c
fe
0b
03
07
f5
09
f7
12
08
ea
07
05
0c
ff
f8
fe
09
05
e3
07
0a
0b
f7
fb
f1
0d
09
ef
f4
fe
01
09
f4
03
00
10
f8
01
10
0d
03
09
f9
07
f9
fa
04
01
f3
11
04
0d
f9
14
1a
00
0e
02
07
fa
f0
f4
02
08
f8
11
f9
f1
09
0c
f5
05
fe
e9
fa
ea
06
f5
11
0d
05
06
1a
05
fa
02
10
fc
f8
fb
fe
f7
f4
fb
fe
06
00
f9
12
e4
f7
fa
f4
ff
02
01
10
ea
04
0a
05
f6
07
01
02
11
f5
f7
fd
fa
00
13
f1
fa
09
f7
01
10
01
ea
01
fb
f6
10
fe
00
04
fe
e7
01
fc
03
ff
f4
02
f8
0c
f5
ff
13
15
f9
ee
02
17
fe
08
fa
0f
fa
02
f8
f9
08
f4
05
f8
10
f5
02
fe
ee
fa
11
07
01
17
ef
03
fa
f8
fe
ff
f2
ed
18
00
fc
f7
03
f0
0e
fb
f9
fd
f9
f4
0c
11
03
ed
00
ff
10
08
0c
ed
fb
ff
fc
f8
09
e9
02
f8
0c
fd
04
07
f6
15
e9
f2
f7
ff
0a
f3
ef
06
0f
03
0b
01
f4
ef
f1
fe
00
f7
fe
02
0a
f4
0c
f1
02
f3
18
06
f2
0e
03
ef
0f
02
08
09
07
09
04
04
ff
fd
f9
18
04
e0
01
fc
fd
0b
0f
ef
fc
0d
fd
f7
f0
0c
f4
fb
f3
17
f7
0c
f4
ee
06
03
fc
f9
fe
07
1b
f4
18
01
fb
f9
f3
fa
0c
fc
e4
08
fe
0b
0e
06
09
f1
f5
f3
fe
10
f3
0a
0c
02
f2
f7
0f
04
01
07
00
f0
02
02
f2
05
f3
05
f7
f3
fe
fd
fa
f3
0b
ff
00
fd
ea
02
f7
00
ff
f8
04
f1
fc
f8
0f
0f
02
12
fc
f3
02
fc
07
fe
07
fb
04
09
09
0e
04
f9
fa
fa
fd
06
0d
f6
fc
01
f2
11
09
fe
06
fd
03
0f
fa
f8
fe
03
04
05
ff
02
e9
05
0b
fd
fa
f2
f6
f6
fe
fe
06
07
fe
06
ff
07
f9
05
05
0c
fe
f2
03
fd
01
0a
09
fa
0a
04
00
09
f4
eb
03
01
03
03
09
f3
0f
09
0e
16
fb
f0
15
ef
0c
ff
06
f0
09
0c
07
0e
fa
fd
0a
fe
03
f9
ed
ef
fa
f9
f1
fb
f2
f8
09
f2
06
01
f0
00
09
09
fb
ff
fe
07
02
f0
17
04
fe
03
f9
01
0a
04
01
01
f0
ff
01
f9
f6
1c
01
fb
0a
09
11
02
f7
fa
0a
eb
f3
fe
f0
e9
ff
f4
f7
04
19
02
03
f7
05
fa
f9
02
ea
01
03
ff
05
01
ed
06
19
11
0a
24
f2
13
fc
f8
08
0b
0a
07
f2
0e
fa
fb
fc
ed
f5
f4
fd
ea
f2
0a
05
ff
f5
ff
06
f6
0e
f8
ee
05
0b
fb
14
e5
06
f4
0b
ee
03
02
05
08
f8
10
f0
fe
08
e4
f9
ed
ff
ff
0b
fa
05
f3
ed
01
fd
f9
f5
0d
0b
f6
02
f0
0b
04
f0
fb
0d
09
fb
f9
03
ff
07
f4
fd
f6
f2
fa
fa
00
07
fb
03
f4
09
00
01
f1
17
07
f7
12
0b
06
f1
08
f9
01
ff
04
03
fc
e6
0d
fd
fa
fb
05
0a
0b
f9
09
06
04
13
00
f2
10
fa
04
fc
02
fe
fa
ed
fb
01
0b
04
07
04
12
14
0a
16
19
01
28
ee
ec
02
02
01
f7
06
0d
0c
fe
06
08
ff
ff
10
17
06
f9
f2
01
03
f5
00
fc
f4
f9
05
fe
06
fe
0c
02
0b
f4
fe
01
03
19
15
fe
fe
fa
ff
ff
f4
ee
0a
f5
01
f3
04
fe
04
08
fc
ef
ff
01
06
0d
f8
0e
06
fe
fc
f7
13
fa
f3
0f
00
09
0e
0e
f2
14
17
0d
f6
00
ff
fe
f9
00
ff
f7
fd
1b
00
1a
00
0c
15
f5
04
08
07
f2
fd
04
02
00
ed
05
e5
0e
f8
05
fe
00
0b
13
07
f1
02
fd
0d
06
02
14
05
ef
ef
05
e6
fb
ff
f4
01
f2
f9
f8
f7
fc
0f
0b
14
fb
ff
0c
fd
09
fe
00
0d
06
f2
06
ef
06
f4
f9
ea
fe
0a
f4
07
f6
0c
07
fa
13
0c
f5
04
15
e8
f2
07
ff
00
f3
05
f8
0b
04
05
fb
03
0c
05
04
ec
fc
f4
03
ff
fe
fe
05
fc
09
10
fe
01
f9
0d
10
00
ef
01
fa
0b
ff
fc
fc
00
0a
ed
f8
0c
08
03
03
02
01
fb
fa
f6
0e
01
01
ee
01
0f
ff
06
05
ea
0e
03
08
04
fd
f8
04
fd
f9
fb
0d
fd
0f
ed
02
13
00
08
08
01
02
04
05
01
f5
00
f9
03
00
00
03
f9
f2
03
fc
fa
00
ed
ff
00
fa
f4
ec
19
0d
00
fb
06
10
f6
fe
00
ea
06
f8
f5
fe
ee
08
1a
0c
01
03
02
fe
07
ef
fe
02
f0
ee
f2
00
02
07
04
ff
15
02
05
f1
0f
05
f3
f4
08
0d
fc
fb
fd
16
e9
fa
f8
03
f5
fc
06
f3
f3
02
04
0d
04
01
f4
09
14
f4
f5
ee
11
f7
f7
fe
09
18
0f
0e
00
02
fa
01
0a
11
fb
08
02
fd
f7
ff
f9
01
fa
f4
04
fe
f6
ee
02
fb
13
04
00
fa
15
f9
00
f5
ff
fa
f0
0b
0f
06
f1
f8
11
18
f8
01
02
f9
f5
02
fe
0d
03
03
00
04
fc
0f
f6
fd
f8
fe
0e
fb
0a
ff
03
04
f8
f9
f8
f8
fe
08
0a
fc
fd
ed
0a
01
07
fd
fe
02
ff
fb
02
0e
f5
00
fc
03
0a
f8
ff
04
02
f8
09
0b
f4
04
f2
f3
fa
08
07
01
0d
0b
f7
f6
fd
01
0a
f9
0e
ed
0a
05
09
f6
fc
f2
0f
03
f3
f0
01
f8
f7
f8
00
05
0f
f0
09
f0
ff
fa
06
0b
fc
05
22
09
ef
07
13
0d
ff
fe
f4
19
0a
f1
fb
ff
f1
05
02
fe
fa
ff
0a
13
fd
17
03
0e
f5
f8
ed
f8
fb
07
0c
e7
e8
03
fa
14
fc
00
03
05
0f
f3
09
fb
f9
f6
04
04
09
08
04
fe
fb
05
17
f4
12
f4
fd
07
fa
01
ff
02
10
08
0b
0b
ff
0b
04
f4
fe
f6
02
f7
00
0b
03
0e
09
01
e9
01
e8
08
0b
fa
05
05
fe
f0
fe
f9
0f
05
02
f7
f3
02
04
fd
0e
e6
05
fa
05
03
fe
08
04
ef
0f
fb
fc
02
fc
fb
02
fa
f3
f7
05
07
0a
fa
ff
fe
04
f4
f8
f9
0a
fd
0c
fb
00
0a
f8
0b
07
eb
0f
08
0c
0a
16
f2
00
fa
06
ec
06
02
fa
04
02
f8
ed
f1
f1
ff
00
f3
f8
07
f7
f3
10
0c
fb
03
0e
0e
0b
03
02
00
fd
f4
02
01
fd
04
fd
fa
03
f5
07
fa
0b
fe
02
06
0a
0d
12
09
ff
f8
fb
14
05
08
12
fa
09
01
fe
fc
fb
fd
13
00
f4
14
07
fc
ef
08
ff
f5
07
f1
e7
09
ef
05
00
f7
ec
10
ec
fc
01
08
02
ff
08
f5
1e
fd
00
ee
04
ec
06
e6
0c
fc
fc
0d
09
0e
ff
ee
fb
0a
08
06
f9
00
17
02
f5
04
08
fd
1a
10
11
06
0b
f3
fd
ec
f8
fd
15
f5
ff
f3
0c
fb
0a
fd
fc
fa
e3
eb
f3
fe
00
f9
04
fa
eb
04
ed
fc
05
f3
fe
04
02
11
f9
f9
e9
09
07
fe
fd
e2
12
11
0c
15
f4
02
1d
fc
fa
00
08
f9
07
16
23
f8
1e
f5
17
fa
03
02
0b
f6
fa
f7
ff
f1
ee
08
f7
f9
07
f0
1a
14
0e
0c
15
07
fe
ff
09
f4
13
f1
f7
f3
06
10
f2
f4
fa
fd
1b
f2
ff
e7
0c
11
f5
01
29
ff
f7
01
0c
04
00
ef
01
f4
fb
fa
24
f1
fa
fb
f6
02
0a
ec
02
fc
05
07
00
02
0a
10
07
f7
fb
00
03
0f
04
f7
07
10
0a
ed
00
11
04
0c
ed
e2
ee
fa
0b
0f
14
12
ed
09
e9
07
04
f5
00
d8
f7
1a
f4
05
f8
02
ff
0b
08
0c
14
00
f7
08
08
15
fa
f6
f2
00
fc
02
f9
0c
11
ed
05
f2
05
f8
fb
19
01
05
e9
dd
f3
f2
f7
e9
fe
f9
04
01
fc
0b
f3
04
01
01
07
08
ff
f8
07
12
ec
12
05
13
01
0d
08
f6
07
fb
01
f5
03
05
00
0e
0e
f2
01
01
0e
17
ff
f7
fa
00
0b
0e
06
10
01
19
09
fa
fe
00
f7
fb
f8
f4
e4
04
f9
fa
07
07
f2
05
fa
0f
05
f6
0f
fd
f8
fd
0c
05
f7
01
f8
06
1c
03
01
07
10
00
0f
fa
0e
df
fc
1c
11
e9
05
fa
02
14
f7
e4
ef
e9
f9
09
11
07
f1
0b
f7
03
f5
eb
17
04
fa
0d
03
04
17
ff
e9
fe
f1
f1
fb
f9
07
02
16
f4
12
e0
ef
06
f7
04
10
fb
00
0d
fe
05
0d
03
02
15
12
04
f9
fd
ff
ff
fc
0e
f9
f2
f9
0c
02
10
fb
23
ed
04
01
1c
0b
09
0d
ec
04
fc
fb
fb
09
fd
ff
09
ed
ff
2d
0d
07
f0
f3
fa
f2
f3
fd
ed
f8
f7
e8
fc
eb
01
04
0b
ec
da
f4
01
ff
10
09
f7
10
e4
11
fd
fe
0f
f7
f9
f9
e9
fe
05
f7
fe
e6
06
05
0b
0d
f3
01
01
fa
f5
04
f7
fd
f9
fe
0a
f5
ed
0d
03
f0
0a
e2
fc
05
00
05
f9
04
fc
fc
f8
ed
f6
03
09
f5
ff
f7
f0
ef
ef
07
09
fb
fb
01
f9
02
07
ee
f3
fa
07
ee
fd
da
12
07
fd
03
fe
10
00
07
f1
f2
fe
fc
fc
fa
13
fd
01
fa
0b
fd
06
0d
f0
0d
1a
fe
fc
02
f3
ff
ea
00
f5
01
0d
fe
0c
ec
11
0f
05
fb
01
11
0a
f9
06
0d
0c
04
f9
02
ee
fd
f7
01
f1
11
0e
00
11
ec
fc
fc
10
eb
ed
11
f3
07
02
f8
10
0b
05
fe
f7
fb
04
05
fc
f6
02
05
09
fe
05
f7
0b
0d
0b
0d
f6
fa
fd
05
fa
08
01
04
07
07
04
ff
fe
02
ff
f3
06
f7
f3
fb
fa
ef
01
e9
0b
0c
0f
05
fb
0b
0a
fb
f9
08
0b
09
08
fa
01
07
01
06
03
fc
09
02
1a
f8
f5
06
ea
05
f0
fe
f9
fe
fe
f8
08
05
05
06
fb
1b
0e
ff
0a
0c
06
00
fb
12
f5
15
06
08
00
00
f2
f7
f7
00
fc
09
f9
07
05
10
fa
f8
f0
09
01
0e
f1
12
06
0a
06
fa
fa
00
f7
0b
ff
07
04
fd
f2
fc
11
f5
ed
10
ef
17
fd
10
0f
fe
e9
10
f6
ff
ff
05
00
f1
00
07
f7
fb
05
fb
f1
f9
fc
09
f6
06
16
fc
ff
f1
fe
12
06
0b
02
00
06
04
12
ff
07
01
ff
fc
09
0c
ee
ff
01
05
0e
08
ff
03
fb
f5
fc
09
01
0c
ed
09
fa
03
fa
0f
01
fc
05
06
f9
f9
02
01
04
06
08
fd
fb
10
f7
07
00
f7
0c
0c
10
03
fe
00
00
f2
00
fc
0b
04
fb
03
f0
f2
f9
02
0e
f8
fa
0f
f9
18
f7
18
02
e7
05
00
ef
00
00
01
f7
fd
0f
f5
0a
12
fb
0b
f7
ee
fd
0f
fd
f8
f0
fd
01
05
f7
08
06
01
f1
f3
fd
fb
f4
f6
f4
14
fd
fa
13
f8
fa
f4
f6
f7
06
14
01
1c
ea
02
03
f8
02
fb
fa
04
01
05
f5
07
09
f7
03
07
f2
dd
03
08
f9
02
f6
04
f0
ff
03
06
fd
05
04
fb
fd
f5
fd
04
09
04
0c
08
ed
fb
ff
08
06
02
f9
f6
fa
06
00
0a
f8
f5
10
e6
f9
f8
fc
07
fa
f2
f8
fb
01
09
01
f7
00
03
02
f5
05
fb
fb
0d
08
01
f3
ff
fc
01
0f
f3
fb
06
f6
01
06
ff
11
fd
02
0d
f5
01
ff
fa
ef
fc
02
0a
07
fa
0b
02
0c
00
17
ed
ff
06
f3
ff
f7
ff
f6
f5
f9
fc
fc
f9
f7
f7
fd
01
ed
fc
0a
0d
09
f2
fe
f9
fa
f4
f2
f5
f7
08
ed
fb
f4
07
09
f8
0d
fa
fb
f0
ee
04
10
fc
f8
f0
00
02
0b
f8
ef
16
f7
ef
04
00
fa
f0
0d
03
f8
f4
00
02
0a
10
fb
0d
f0
05
f9
02
05
e2
f8
f5
00
f2
02
02
f3
03
06
fe
06
fa
0a
f8
f3
0f
f3
e3
fb
18
ef
09
f5
02
0b
06
f7
09
f4
eb
f6
ff
f3
0a
03
fb
16
f9
ff
03
fb
f6
e7
12
f5
f9
0e
00
ee
f7
06
ec
fb
eb
fd
23
0c
fa
01
03
11
f6
04
09
f4
fd
fe
fe
03
19
f5
f7
03
ff
0e
07
12
0e
02
f2
02
fc
08
05
ed
fc
f6
e4
06
03
0f
01
fa
fb
18
03
ff
09
1b
f6
eb
f1
f4
f2
02
0e
fc
f9
04
07
06
f9
f1
28
0a
f9
fd
f8
f6
f2
e5
ec
00
fe
12
f9
f5
fb
0e
fb
fc
03
10
06
ef
f1
0a
08
16
05
07
02
ff
0e
f6
04
09
ec
02
03
06
02
0a
f5
fc
02
fc
fd
11
09
e6
03
fb
0d
0f
01
08
17
00
05
0f
ff
10
06
fe
ea
fb
ea
fd
06
f0
0a
05
f3
fb
12
01
08
0c
07
07
f8
ef
13
08
f0
0f
fc
f5
f6
fc
fe
22
08
0c
f7
f6
f3
fa
05
0c
f6
07
fe
0b
0b
ff
09
fc
0a
ff
0c
fb
05
0d
06
10
fa
f3
f9
05
01
01
09
f8
f9
01
f2
02
0b
17
fb
fe
f9
f1
04
17
01
24
06
08
f2
f6
f1
fa
02
fd
14
12
02
fc
1e
f9
f9
ec
0e
01
07
ff
07
04
03
03
0b
f8
eb
f8
f8
f3
01
fb
f5
fa
04
0d
f9
f8
15
16
f3
f0
00
f9
07
fb
06
07
fd
15
f0
ff
fc
0d
fc
0a
10
f0
00
14
f6
06
e2
09
f9
03
04
0c
06
f4
15
0a
ff
e9
f4
0d
11
fa
fc
fa
08
0c
08
01
03
ed
0e
10
f7
16
0e
07
f2
05
f2
11
f9
09
d4
01
fa
f8
10
09
fa
ed
f1
e7
f7
f2
fb
f4
0c
04
0b
0b
f3
06
ea
10
01
0c
09
00
05
10
01
03
01
05
21
fe
0b
05
f3
00
f5
03
03
fb
f3
15
13
00
06
ee
01
f4
0a
00
05
ff
fa
e3
ea
ef
0a
0a
0b
14
fd
25
11
14
fe
00
ee
01
fb
03
0a
0d
14
f9
08
01
ec
f6
00
f6
fc
10
00
0e
f5
f0
03
f8
03
0b
0a
f1
01
07
10
fd
e8
09
01
eb
0e
f0
f4
05
fa
0d
0a
e7
ef
f4
02
f6
f8
f9
0c
08
01
e9
05
f7
f6
00
14
f4
06
fc
eb
00
fc
f8
11
03
01
f0
04
e6
e6
fe
00
03
f9
f4
07
f1
11
f9
d7
0e
f4
04
02
16
fc
07
fc
f4
04
f2
05
08
01
f9
09
0a
0a
12
f8
0f
ed
14
05
0a
00
f4
0f
fd
00
0d
11
fa
ff
fe
09
02
fd
eb
05
05
da
16
f8
08
ff
0d
0f
fe
f1
08
0a
15
f1
f5
e5
e7
f4
fc
f1
00
ff
02
09
fa
f9
04
ed
ea
e9
f2
0b
ec
03
05
0a
fc
00
06
f5
01
ee
f3
0c
e6
07
fc
00
04
fd
0c
08
15
00
ec
0f
ef
14
15
f4
14
fe
0d
12
02
0f
fc
03
06
08
0f
fc
02
04
0e
f6
05
01
fb
05
ff
00
fa
0b
0e
03
ff
fc
01
f0
05
ff
07
04
07
fd
02
17
01
01
ff
ff
04
0b
04
06
0c
0e
00
fe
03
09
05
02
0b
01
04
0a
08
fd
11
13
10
0f
f0
0a
0b
07
05
08
09
fa
03
fc
05
05
0c
f7
05
02
fe
07
f3
01
ff
fa
04
fc
05
03
02
ff
08
f4
14
08
ff
01
08
f1
07
f3
03
f8
05
fa
fa
08
02
02
f5
f9
ff
02
fe
04
01
02
0d
f7
f9
fd
03
fc
05
f4
05
fb
ff
03
fe
f2
f6
fd
0d
00
05
02
ee
0b
fa
f4
f2
f8
fa
02
f5
fb
fb
fc
f5
fc
f8
f6
0a
00
04
f7
05
f2
0a
fa
07
fe
fb
fd
03
fc
00
ec
06
04
f9
0b
02
f9
06
ff
09
0b
03
0b
07
ff
0c
f6
14
08
08
f9
09
05
f4
ff
fc
fa
fe
f3
00
0b
ff
0d
03
07
04
ff
f0
ef
ff
08
06
fb
02
06
08
09
09
f7
04
fc
0c
04
fe
01
0a
05
ff
09
f1
fa
ff
07
09
05
fc
fe
03
fb
f9
08
01
0f
f8
f5
f6
f6
fa
07
fc
04
07
04
01
09
0b
09
06
05
ff
fe
04
fc
02
f6
0a
0e
03
f8
06
01
0a
03
fb
11
04
04
ea
f1
fd
fe
01
fc
02
01
fd
05
06
01
ff
fd
fc
f0
0a
04
07
07
0a
03
02
0d
0a
07
08
02
f7
07
0c
fd
fe
0a
f7
ff
f9
05
0f
01
f6
04
06
fd
fc
0d
07
fc
10
0f
04
fb
03
fd
07
0b
05
0c
02
fe
ff
0a
08
f8
f0
f5
04
02
00
00
f9
03
f4
02
05
05
fc
06
07
00
00
05
f8
11
fb
0b
12
fa
fb
0f
18
0d
06
08
f7
fd
0c
07
05
fb
fd
f5
07
08
f7
f4
fc
ff
03
f7
fc
0e
f8
01
13
06
fb
04
02
12
fa
f7
06
f9
04
fc
f1
fb
00
f6
03
07
f9
02
fb
06
03
ff
0e
f6
05
fd
09
01
fd
f7
09
f7
fe
01
02
00
fb
fd
fd
fc
01
05
04
06
08
04
f8
f4
f8
0e
08
08
06
fc
03
12
ff
07
00
ed
0c
0a
fc
09
fe
f0
f3
05
13
fc
05
04
f8
fc
f0
f4
ed
02
0b
09
ff
04
08
fe
02
fc
07
f2
01
01
08
0a
f5
06
08
06
05
09
fe
08
07
fc
04
04
f6
fa
fb
04
04
00
02
0b
ff
f8
08
fa
01
05
ff
0a
12
f9
05
f5
f8
fc
f9
08
ff
03
f8
e8
03
00
f4
fc
07
fe
fe
02
fc
12
07
f1
fa
02
ff
09
f8
08
04
00
fc
03
fd
f9
03
ff
fd
05
fb
0b
02
f5
02
05
f6
fb
fd
07
02
07
0a
0e
f9
03
fe
17
fe
05
f7
fd
03
fb
07
01
04
fa
ff
f5
05
f3
03
fb
fa
05
fe
09
f7
f6
06
f8
fa
04
fd
0e
f2
f8
fc
07
f9
fc
01
0b
f7
06
fc
05
02
04
05
04
fd
0c
ec
fb
0c
fd
f7
0c
fe
00
01
08
07
13
fc
00
02
fa
fa
f8
05
fc
05
03
fe
0f
f8
07
ff
f4
fc
fb
06
19
01
08
0a
fe
fd
05
02
f6
ff
00
06
fa
05
0d
0b
0c
01
01
01
f5
f7
fc
00
06
05
f9
f6
f4
06
fd
05
f4
0a
08
01
fa
04
02
f3
ff
f5
fa
fd
ff
00
f3
fd
f8
00
f3
00
f5
f3
07
f4
f9
ff
00
ff
05
ed
09
0e
fb
09
04
0a
ff
f6
07
f7
04
0f
fb
ff
06
09
01
04
09
f5
06
fb
01
00
f9
fe
fe
05
fc
fd
f2
03
04
06
f8
06
06
11
00
04
ff
f7
fe
fe
fb
03
f7
02
f2
03
fa
ff
08
19
08
0a
03
02
f1
f7
01
0b
21
f6
01
f2
fe
12
0a
06
03
06
14
fc
fd
0a
04
f9
04
fe
06
02
fe
02
07
fa
fb
fe
fa
f7
fe
01
02
ff
08
ff
02
04
fd
06
f9
f4
f9
10
f9
02
f5
fc
06
0c
fe
fd
08
f5
f8
fe
f8
07
04
ff
f7
00
0e
03
f5
02
03
fe
f4
f9
0f
07
fc
01
fc
f7
f7
f9
06
0b
12
01
04
0c
ff
fc
f9
04
f3
fd
0c
f1
f8
08
fc
00
f6
0e
0b
ed
08
f5
10
f6
fa
04
fd
0b
fe
f8
fd
ef
fa
02
fe
0d
f4
f9
04
f4
0a
0d
fe
14
08
fc
0e
f2
06
0c
fd
fe
03
03
ff
fc
fd
08
f7
01
04
ff
fc
ff
f7
fc
ec
10
00
f6
fb
08
02
06
f9
fb
f7
fa
09
1b
09
05
01
01
08
06
fa
fa
fe
0e
ff
0a
0f
fb
f2
ff
03
ef
00
0f
fe
ff
04
03
0b
0f
02
ff
03
00
fa
fb
05
06
f6
02
18
09
ed
f9
ff
f5
00
08
00
01
0f
00
f5
f4
f9
ed
01
05
fa
f5
fa
00
0a
02
fd
0c
f2
09
0e
0c
fa
fa
0c
01
09
04
0c
0e
0e
02
00
fd
0b
0b
07
ff
fc
06
f8
00
f7
ff
01
f8
f8
f8
fd
f8
02
fd
08
04
01
f2
02
fa
12
0a
01
10
f8
05
ef
11
fb
05
f9
02
fe
fc
08
0e
fd
fd
f5
0d
0c
fa
f6
17
fa
f5
f6
10
fd
fa
03
15
0f
05
09
f6
0c
01
06
04
0f
06
0c
09
08
06
02
0c
f6
09
09
f1
18
0c
ee
fc
ee
f5
f9
01
f3
08
fd
f7
f6
f8
00
f4
08
01
fa
03
0e
ef
f4
ff
fb
fa
07
ed
09
05
06
fa
ff
04
f8
03
16
07
06
00
fd
f4
05
fa
04
0c
f7
fd
fc
f1
02
04
f7
fc
f1
06
fb
04
03
01
fe
00
08
fe
eb
f5
ff
0e
fa
00
09
01
fa
f5
f2
0f
04
07
03
00
02
fa
fd
ff
03
e8
0a
ef
04
0e
04
01
0a
03
0f
0e
fd
13
ed
04
07
0b
fe
01
01
12
04
10
08
0d
ff
eb
f6
d4
d4
f1
05
ff
fd
0f
0a
fa
10
0f
12
11
fd
05
14
0a
01
ec
0c
e4
0f
02
0a
03
f9
06
08
ff
09
ff
f5
11
0c
f2
f1
fa
f1
ff
08
0f
0e
0d
f7
07
13
fa
10
ec
01
f7
16
04
eb
11
0b
0e
f7
de
fa
fa
ff
ec
04
fa
fe
0c
ff
08
0e
e8
01
02
fb
00
ed
fe
07
07
f0
01
0c
f9
11
f6
f8
e8
f1
13
f3
01
04
04
0d
fe
fa
1b
01
f1
ff
fe
06
08
06
ff
e9
0f
ec
fa
f1
0c
ff
02
fc
1c
00
ff
fd
0a
f7
01
17
f9
fd
fd
01
0d
06
02
02
06
08
10
07
22
f8
f9
15
ff
e6
10
fb
19
0e
d5
00
0d
f8
01
fa
fe
ef
f6
0d
17
f3
ef
0a
10
05
f7
01
17
fe
f1
04
04
ee
fb
fe
fd
fe
08
f2
f4
10
fd
f8
1b
0b
12
f4
14
0b
19
19
0f
fe
f8
04
0a
f8
19
f6
01
f7
08
0b
ee
fd
06
f1
f1
fe
f7
02
12
0c
fc
06
16
0c
10
f4
fd
01
11
0c
fd
ee
fc
0f
fc
f6
fc
fe
12
10
e1
02
f4
f7
e4
18
f7
01
11
09
fb
00
04
fd
0b
1b
0f
09
f6
08
fc
0c
fe
0a
f6
0b
00
fa
fe
0e
08
00
f7
01
ef
f7
1a
00
1d
0a
11
fb
ef
08
f6
f6
0e
f6
0c
fb
f9
f4
05
05
14
0b
f6
0e
00
f8
17
0b
0b
0a
f1
e2
04
f4
0f
13
ef
02
f4
ff
fe
15
ff
08
0c
ee
f8
fe
fa
ed
1e
e6
01
f0
0d
e4
05
03
ff
15
f9
f2
fd
05
24
18
f6
06
03
fd
02
08
00
f9
fa
fe
14
14
fc
fe
02
f3
0a
ff
fe
f2
fa
08
0d
14
fb
f3
ec
fc
f8
fa
00
f4
03
04
00
ff
ee
14
f3
e0
ea
08
fe
08
06
0c
fa
f2
ee
fa
fe
13
f2
07
0c
10
06
03
09
01
ed
f6
06
e8
09
01
ef
ff
09
08
ff
f0
0a
f4
18
13
f1
0c
02
02
fb
05
f8
f8
f1
fe
ff
fb
07
ef
07
fb
f7
0f
05
fb
f1
05
01
f2
ff
17
fe
fd
05
ea
09
04
f9
07
db
06
05
ef
ea
0a
f7
fe
fa
f1
04
0a
06
f8
0d
14
f7
f0
03
05
f5
f7
f7
0d
00
fa
f8
ea
f5
fb
14
02
01
1c
02
05
ee
0e
01
f8
00
10
06
03
03
fe
f0
ff
0c
0e
07
f8
06
fc
ff
fe
fc
eb
10
f7
04
02
f3
fa
0b
01
f9
ff
1b
01
09
f6
fc
fc
08
e6
f5
0e
f1
f3
0d
f2
f7
fc
f8
14
ff
ef
0f
00
14
f9
02
15
16
fe
fc
f1
02
15
f2
03
fe
0c
f6
02
00
07
04
06
06
03
fe
01
0d
0c
13
f4
06
ec
04
00
01
03
fb
fc
05
fa
02
f8
f5
f4
f9
09
03
13
01
00
05
00
07
00
ff
0a
04
fa
02
01
01
fc
ee
f0
f8
fa
fc
04
f4
fc
0d
06
f3
fc
03
14
03
0b
06
00
f6
05
fa
f8
06
04
10
ff
00
02
fd
fc
f9
0e
01
ef
fb
0b
f3
fc
17
05
07
04
05
fb
00
fc
04
07
0b
fd
ff
02
f3
f9
fe
ff
fd
f4
09
e8
f3
fb
08
07
fd
fd
fa
11
00
02
fc
f9
00
0b
07
06
05
ff
0c
fc
f6
07
ee
f7
00
f5
fe
03
fb
0c
05
fd
09
f3
f6
00
02
0e
00
f6
04
07
fe
f4
fa
09
09
fc
02
02
0b
05
08
07
02
05
08
02
01
07
07
01
eb
ff
fd
fb
fa
fd
04
f2
f5
09
0a
0b
0e
fb
06
05
09
0c
04
fd
f6
03
14
f3
02
f8
13
0a
ff
02
f6
ef
f4
02
0a
04
f8
14
f2
0c
07
10
0d
0b
0e
fe
f6
e9
ee
02
f2
0a
00
04
10
f4
14
f7
05
06
f2
f7
f9
f8
10
04
fb
ff
f8
04
01
f8
0a
02
09
fd
f1
f3
f7
0e
ed
08
f8
eb
02
f5
03
06
fa
fe
ff
ff
fb
fd
00
0d
ed
0c
ec
05
0a
09
05
f7
03
f9
fa
ff
fe
f5
fe
03
09
ff
14
11
05
02
0b
0a
02
02
fe
04
06
00
12
00
ef
05
0d
02
f8
fa
fe
0b
03
f9
0b
ed
03
02
f5
0b
fd
f3
f5
f7
ff
f3
0a
fc
f8
ee
ea
02
17
0d
f9
f3
fe
0e
02
0a
06
f3
0d
07
fb
f3
06
05
fb
04
ff
04
09
fe
f5
02
f3
06
0e
fe
08
fd
f4
02
f5
f4
01
04
f8
04
ff
03
f8
fa
f8
fe
f4
fe
fb
fc
f4
f2
fd
0b
ff
01
fc
f2
00
fb
fa
02
06
07
09
ee
01
07
03
06
07
ef
03
00
01
03
fb
fa
f9
fb
00
f9
00
02
fd
01
08
ec
f9
01
0a
06
fb
f1
f4
fc
fb
0b
02
f9
05
fd
0d
fc
02
fd
fc
00
fb
fc
f7
fd
fe
0b
02
ea
f5
08
12
06
f4
01
fd
0a
09
fa
fb
03
ee
f4
fc
fc
05
f9
fa
0a
08
f2
f0
03
0e
09
0e
05
fe
01
19
0b
05
08
fd
f4
fd
01
ee
fb
f8
03
f9
fc
ff
ec
04
00
fe
ff
04
fa
ff
05
06
12
fe
07
ed
09
06
09
f3
fa
09
f8
f7
fe
09
fb
01
02
fb
f6
fd
0a
f9
f7
01
00
03
02
09
f9
f5
fd
f8
f0
f7
02
03
01
02
f7
fb
00
01
f8
03
0c
10
fb
08
0c
f7
fe
fa
ff
fb
00
04
0d
ff
01
f7
04
00
e9
f4
09
05
f8
04
ff
07
08
fc
fc
fc
f3
ff
13
01
fb
f8
f4
fc
f3
fc
0f
00
f4
08
03
0e
01
10
13
f5
f5
04
06
02
f8
f7
ef
f5
fd
fe
e5
0b
ff
06
f4
f0
0f
15
e7
05
07
ff
03
fb
f3
04
16
f7
0b
06
04
08
f4
f9
ef
ff
f6
07
f0
0a
06
f8
03
ec
08
07
13
fb
09
04
e9
f9
0a
fb
06
12
f6
04
fe
12
eb
f9
f0
07
ee
f1
f2
f0
10
fe
06
03
fd
02
17
06
f4
ff
fd
fe
03
f5
02
0b
0b
fa
11
04
1c
ee
fd
f6
eb
13
e8
04
03
f6
fe
03
08
fa
f1
02
05
0e
fc
fe
f8
03
fb
fb
fd
0d
08
11
fb
0a
02
f7
04
14
05
06
f4
01
01
01
11
f6
fc
ee
07
e8
fb
09
fa
0f
07
ed
f3
e9
f6
fd
03
ef
eb
0c
0b
e4
e7
fa
de
05
f6
ff
0c
00
00
06
11
f6
13
fb
fb
fa
00
00
04
fe
f9
ff
f8
ee
09
fd
07
16
06
ff
06
fa
ff
f8
ea
f7
08
fd
fa
13
0f
f7
fe
13
0b
0b
02
f2
fe
00
fd
05
f3
01
10
06
0b
0b
01
fd
0f
04
07
15
fd
09
fa
fe
0a
fb
ff
15
01
17
0d
0a
db
f4
f6
07
fa
f4
0c
1b
0a
ff
0a
15
e8
00
0c
fa
fb
06
08
f2
fd
05
fe
09
02
08
fd
ec
01
0f
06
12
0a
f5
0f
0b
03
0c
ff
0c
f7
ee
07
05
00
fa
fe
04
f9
06
f7
06
03
fa
03
08
0d
f0
f0
00
03
0c
f3
01
04
e1
fd
01
00
f9
f5
fa
07
ec
01
0e
f5
fc
fe
ed
10
02
00
05
17
f8
0f
01
fa
0e
f7
f4
14
03
02
05
0c
09
f5
ff
fe
fc
e0
f5
0f
f8
0c
fb
0b
05
fc
f2
05
f1
04
06
f7
fa
fb
03
fc
fa
f7
f8
ff
00
0e
03
ff
f0
05
f7
03
19
f7
f7
f4
07
f4
16
04
07
11
f8
ee
02
00
06
13
f8
07
f6
f9
fd
17
f4
01
f8
05
07
06
0d
e2
0d
09
fa
f9
00
02
f9
06
0d
fe
09
0c
06
f4
01
f1
08
f7
fd
02
fe
fa
0f
f2
fc
fa
ee
00
fe
05
fd
0f
07
04
f6
f7
01
e8
09
ed
05
fa
eb
13
ff
01
03
08
0e
06
0a
0c
0a
f8
06
f0
0e
06
14
00
f1
03
10
07
04
f3
0d
f7
fb
e7
f7
08
07
06
00
04
fc
02
f8
fe
06
07
f4
02
02
06
01
f0
f7
ff
04
10
fc
f0
f8
04
0a
fd
02
f1
0a
0e
f4
02
ef
00
05
05
fe
fb
13
06
f7
f2
f6
03
f2
f5
fd
f3
05
04
04
fa
fa
f4
fd
03
10
05
ed
f3
f3
fc
06
03
fb
f2
06
1d
fd
0a
12
1b
06
0f
07
0f
f7
fc
02
fe
03
05
fe
fd
03
ff
f7
0e
f8
f8
ff
fd
03
17
f4
00
02
f3
00
fd
fe
01
fd
09
11
eb
f9
f5
01
00
00
12
0c
fc
f9
06
08
07
fe
fc
09
0a
fb
f4
0b
05
f9
07
02
08
0d
fe
f7
fb
01
f6
09
04
08
ec
f7
0b
08
fe
fa
fe
05
f1
10
06
01
04
fc
fd
f7
f8
f3
f9
fa
f0
0c
00
02
ff
f7
02
fc
0f
f9
01
f0
0e
fe
ef
09
11
f9
ed
0e
ff
ff
02
ff
f7
04
f6
06
f2
fb
05
f2
05
02
1a
f4
06
01
08
0b
01
19
ff
0d
01
00
07
07
08
02
fc
04
0a
fb
0b
11
08
09
04
07
10
f4
ff
f8
0a
fe
01
f1
08
ee
f7
e8
03
04
12
01
09
0a
02
ff
0a
05
08
ff
02
0f
0d
02
f2
06
05
f5
fc
f3
02
06
07
05
00
0d
e9
0f
00
05
02
0b
02
02
02
04
f8
0a
07
ff
0d
fd
f7
07
09
02
05
f7
f2
15
0b
f0
f2
f1
00
09
fb
f9
0a
01
00
ee
ff
f9
08
fc
fe
04
fa
f2
02
f9
1a
07
fc
0a
04
ff
fb
f3
08
f9
f5
fb
fd
f6
ff
0d
0f
01
fb
11
00
ed
fb
04
ff
f8
0b
0b
ee
f8
f9
f5
f3
01
11
0c
fa
f7
0c
fb
0f
02
f3
f0
06
fe
fa
01
fb
f7
fc
fb
f4
fe
04
08
09
01
0a
fb
00
08
ff
08
06
04
03
02
11
02
ef
fa
f2
09
ef
06
f8
0d
0d
fc
fe
03
fe
01
02
ef
f5
fc
f2
fb
f5
0c
f3
0a
04
fa
0b
0b
14
16
fd
09
fc
f0
0a
10
0c
00
f7
f7
ff
fa
0a
04
f5
00
fe
f6
f6
0a
04
05
02
02
ff
12
07
ee
ee
01
07
07
f2
ff
04
12
08
fb
fa
f0
f4
fc
fc
f8
15
08
fa
f9
fd
0d
fe
fd
04
04
07
05
09
06
fc
08
f6
fd
01
02
fe
0f
05
0a
ff
ff
01
08
ef
0d
f6
16
fd
fb
0a
0a
09
08
e9
fd
eb
eb
02
03
fc
07
02
0c
0b
03
f7
ed
fe
01
f5
08
0e
01
fe
f6
f7
02
f5
00
0f
12
04
fd
02
f7
03
02
f6
fe
03
02
02
ff
0a
f5
03
16
05
1a
0d
08
f5
06
fc
11
13
06
fa
eb
0a
fe
f9
02
07
11
07
29
ef
01
fc
f1
0e
05
01
ff
04
04
0d
0b
f1
fb
08
fe
f1
fe
ff
fa
fe
01
ff
00
04
09
fa
09
f4
0a
0f
fd
09
f9
10
f6
f6
0e
02
f6
f8
16
03
10
07
04
07
12
0f
0c
fe
0c
0b
ff
12
00
0c
fe
f0
00
00
03
08
07
fe
0b
fa
03
0e
10
0f
0d
01
fa
f5
19
fd
00
08
ff
ed
00
fc
fe
10
fb
0b
f9
fe
f5
fa
ff
06
06
0a
04
f8
09
ff
03
10
1a
f5
fd
0b
15
02
fe
0c
fb
06
0f
17
f5
0b
f0
05
fe
e6
f0
09
0a
f2
fe
07
14
ff
01
12
01
f2
ea
06
05
fa
ff
fa
f1
f8
f5
03
ff
0f
0b
fd
fd
04
f4
05
fe
00
15
f3
ff
00
fc
0e
00
10
fd
e1
f0
f1
ef
04
f8
06
07
0a
17
03
0c
f2
0a
0d
07
fa
ff
08
13
07
f6
f5
06
f5
00
f2
03
04
06
fd
08
09
07
0d
08
ff
f9
05
05
0b
07
04
04
08
fe
09
f9
ff
f4
03
01
f9
fa
05
02
f8
09
ef
11
15
f7
07
fb
04
f7
fa
fb
07
04
00
07
0b
11
fb
f6
0b
0d
12
fe
00
fe
0b
0d
04
0e
13
fa
09
07
12
02
f7
f8
fd
f7
04
f8
07
01
f0
05
0e
0c
f5
fb
02
ee
05
00
00
f9
0b
04
0a
0e
f4
01
fe
01
fe
ff
fb
01
fd
fd
05
09
10
16
f7
0b
10
01
05
ff
f7
09
ff
fe
fe
14
01
07
14
0c
fb
10
0b
08
0a
0e
03
13
fc
03
f2
21
04
08
f4
07
ee
0a
06
15
08
fc
08
fb
f8
06
09
06
0b
fa
e9
05
f3
ec
05
04
04
f8
02
08
01
ff
0d
fa
0a
0c
f6
11
03
0e
09
0a
01
07
fb
f9
f0
01
0e
fd
f7
fc
fb
f2
01
11
f8
0d
f7
07
fb
ef
fa
fe
f7
04
f4
09
00
01
07
0b
f8
fa
14
08
fd
f5
f6
ed
f9
ef
06
f8
fc
f7
0d
fd
ee
f5
f7
f0
f3
f3
f2
09
f4
fa
01
0d
07
0b
07
f5
07
f2
ed
05
f3
fe
fd
06
05
0b
f9
ff
0f
fa
ff
17
f9
f6
08
01
03
f1
15
0f
08
04
11
ff
fa
f9
ff
0a
ea
f2
fe
fd
fb
09
f6
0c
ff
f8
f9
ff
0c
fd
f7
02
04
05
fe
0c
00
04
fa
01
ff
06
ff
0c
f9
f7
fe
09
07
fb
09
f4
ee
0a
fc
00
13
02
1c
10
fe
f7
fc
fd
18
00
0e
03
09
0a
fe
02
ff
02
f4
03
ee
00
ef
f1
04
09
15
fd
f7
08
0c
00
ff
fb
f2
fd
ff
0f
06
f6
fe
0a
fe
01
02
ec
f4
01
fd
0c
14
01
f7
1b
04
fe
f4
1a
f9
0e
fe
01
0b
06
f0
0a
02
fd
ed
02
fe
fd
17
fd
fc
02
07
03
f8
06
ff
13
0c
0f
fb
fd
02
05
fe
ff
0f
f9
fc
f5
0f
10
09
06
0e
ee
f3
0d
01
f1
f3
04
06
ec
ea
07
00
f1
0e
0c
0a
fc
01
eb
05
fd
f3
11
e9
fd
0a
fc
07
fa
fd
f3
fa
02
01
03
fe
ef
04
02
eb
03
fe
fd
0c
f7
00
fc
01
f7
f8
ec
fc
ff
01
0a
fb
fd
ed
15
0f
01
f0
04
0c
fb
f4
ff
ea
03
fc
fe
f7
03
11
0e
ff
15
02
02
fc
02
01
f6
f4
ee
ef
08
fb
fa
fa
f9
04
f7
04
f9
f4
fd
ff
ef
fb
05
f1
06
0b
ff
0a
1c
02
03
08
01
0f
f9
ff
f9
fa
1b
0f
05
ff
04
14
fd
00
fb
ff
03
02
16
fc
15
23
fe
fd
09
0c
f8
f6
fa
03
f0
06
01
f7
fd
fe
f2
00
f6
0a
fb
02
15
ed
10
16
14
f8
fe
df
0e
f3
ff
12
14
fd
fc
05
03
ff
18
f6
10
0b
f5
1d
14
03
04
03
06
1c
12
06
eb
03
03
01
fa
16
f6
00
ef
14
1a
0a
05
04
08
eb
f0
f0
01
f9
0a
11
0c
14
05
ec
f6
05
09
1c
03
08
16
06
ef
fd
ee
0c
fb
fe
01
01
f9
fd
f9
07
f5
0b
00
06
fe
f2
fc
00
06
06
03
fd
0b
fc
15
1a
06
02
03
0e
13
f6
f9
14
f9
fb
f9
ed
1d
08
ff
f8
fa
fe
07
0c
0d
03
01
00
05
02
04
f9
f6
08
fa
f9
06
eb
0e
10
0b
f8
f6
10
f3
fc
06
07
fc
fc
14
f1
00
f3
05
f5
03
0e
22
f4
09
07
f1
03
10
07
0f
fa
18
06
0a
fd
06
01
1c
14
f0
fb
05
fe
e2
f2
03
0d
d9
17
f4
07
25
04
f4
e7
fd
f0
ff
02
f2
fb
06
ef
0e
ff
f7
08
de
fc
03
f5
0c
07
fb
0d
f6
fc
17
03
04
f3
ea
f4
04
06
fd
01
fe
00
12
06
f4
f6
fe
04
f8
09
f5
00
04
f9
00
1f
ee
fd
ec
11
ee
fc
1e
fb
ec
ed
0f
f9
fa
f7
18
f9
04
05
f7
02
13
0b
fa
f2
f1
08
0b
fe
02
f7
ff
00
fb
ea
05
fe
02
0d
06
00
f1
01
05
f4
01
11
0c
04
0a
fe
05
f4
14
02
0a
0b
1a
0c
ff
ed
f9
13
fb
ff
fb
0a
f6
18
01
fb
03
f9
fa
f4
02
0f
f6
fc
17
fd
04
0d
0a
0e
12
08
07
02
07
fc
04
01
e8
15
0a
fa
f7
f4
0b
15
fa
07
0a
f5
f4
fe
f1
ef
f4
ed
f0
12
fb
fa
fb
f1
fb
f2
0b
16
1f
01
17
12
01
03
16
fb
09
1a
01
fc
fd
03
0b
0d
19
00
f0
03
00
06
fc
07
fd
fe
f9
fd
03
f8
fb
f2
07
07
0b
ef
10
06
09
0b
f3
00
05
00
02
f9
fc
07
02
f4
ed
f9
14
11
f8
f3
10
fe
02
0a
09
d7
fc
02
0e
00
00
fe
0b
08
09
0f
09
fd
fa
00
02
07
f5
ec
ef
1a
fa
f5
f5
0d
0b
04
ff
07
00
04
f0
00
09
1d
f3
e9
04
0e
07
17
04
06
19
01
f7
04
f2
fd
fe
fe
fd
07
e7
11
f4
12
01
09
04
f4
0e
e1
12
09
02
15
f9
f7
04
fb
f3
eb
fe
f9
00
15
f9
fe
01
fb
07
15
12
f7
01
13
fd
0a
03
15
07
f5
19
02
0d
07
ee
0c
f2
f6
12
fd
09
f5
05
f6
ff
00
fc
fd
fd
05
f8
f7
09
f9
0e
0e
08
02
06
04
02
0b
fd
ff
f2
f0
ee
0d
f8
f0
0c
0a
01
00
00
fb
05
fa
fe
f2
f0
ff
00
fd
00
0b
fb
ff
0d
fb
00
0c
fe
fe
0c
11
0f
ef
ec
13
19
0e
fa
08
fb
fd
06
fd
11
02
11
f7
fb
fe
10
13
03
07
00
06
0a
16
ff
06
f9
f0
0c
fd
ef
f8
ec
fe
fb
0c
f1
fe
fe
fb
13
fc
f9
01
15
f9
08
f4
07
0e
00
eb
03
09
00
fb
f4
0c
e0
0a
f8
ff
f6
fe
06
12
02
fd
f3
01
f3
02
08
03
01
fe
fb
ee
fb
11
11
ec
05
eb
0b
10
0c
03
05
fd
fd
f9
fb
f9
0c
fe
fb
11
fb
ff
07
17
f7
0c
07
10
10
08
02
f8
f4
eb
0e
ec
fd
f6
fc
fa
fe
fd
13
f7
03
07
fe
fd
fa
fd
01
f5
06
04
fc
ea
0a
05
05
03
02
14
12
03
13
fa
f5
f0
00
0a
ff
11
f7
ef
fa
0e
ff
06
fd
f7
01
09
0f
f5
14
f9
fe
0a
12
0c
16
f9
09
dc
0a
fc
f7
02
03
fb
16
e4
fa
fb
08
01
f3
05
f5
f8
07
0c
f7
f6
e7
05
09
08
f4
fd
f1
ff
f1
0a
03
f2
fe
ff
09
0e
f5
fc
f9
fb
1a
fa
0b
06
0e
03
f6
0f
ff
0c
06
f7
ff
06
f9
05
ff
fa
f7
f9
05
04
07
15
05
fc
fb
fe
04
ff
fd
04
09
11
0b
00
03
02
06
02
0f
0e
fd
03
16
02
03
08
17
0c
05
f4
ff
fa
04
fe
15
07
09
09
01
09
09
10
04
0a
fc
03
03
0d
10
fc
15
07
f3
01
ef
07
04
fb
f9
0b
00
11
08
0b
09
ef
f8
03
0a
fa
fc
ff
04
fa
eb
e9
14
06
fe
10
01
fe
0a
fe
ff
f2
fc
00
07
02
02
e6
0c
02
fe
fc
06
fe
01
fe
0d
03
01
0a
f3
fe
ff
07
06
05
03
fd
ff
08
f8
03
f8
0c
f4
0c
0b
1a
0d
f9
07
f1
06
e4
00
e9
0e
0c
14
f0
fe
f5
19
ee
f2
f9
02
16
fb
14
f4
fe
f8
0e
02
fe
ff
ff
00
09
0a
f8
f8
f2
01
fa
fc
0d
f6
09
f1
10
fd
ff
14
1d
f9
04
09
0a
fa
fd
fe
03
0a
f9
f6
11
04
09
03
fb
fd
03
0f
f2
f5
06
0d
fc
f0
0c
0f
f7
12
fb
ed
ee
03
0e
06
fb
f6
07
01
06
0d
f4
12
fc
f5
fe
1e
fd
0b
f6
03
f9
f9
fd
f4
1b
f9
0e
0c
0f
ed
05
f9
f4
0b
0c
fb
f8
fb
fe
fe
f9
03
fa
04
ef
f5
f1
05
0a
0c
08
ff
f0
0c
0e
00
ef
f8
ff
f6
fc
0c
08
fd
0a
f3
12
ef
f9
11
f4
1e
f8
fd
10
12
fd
10
f5
ff
09
04
ff
f6
11
02
04
0e
02
00
00
f7
00
02
05
09
05
f7
19
f0
0a
0a
00
01
02
03
15
06
0e
fb
f4
0d
0e
15
f9
f9
07
03
08
0a
03
f9
06
12
09
fb
fd
f6
fd
f9
08
0d
fd
f8
0a
09
19
fe
0f
01
0d
06
00
f8
f5
ff
ee
0f
03
fe
0a
fe
16
08
fd
04
05
0b
fd
fe
08
01
f9
fd
0f
ee
fe
fc
03
f9
f1
1a
fb
09
06
0b
08
03
00
01
04
00
e8
08
f8
fe
06
ff
0c
02
ff
04
ef
fc
0f
0c
f4
01
f3
f3
04
f8
fd
00
fe
00
f2
06
f9
03
0c
fe
ef
fe
fd
0d
0c
07
f7
f7
00
f8
01
f3
ff
07
04
07
0e
fe
0b
fd
fc
0b
f4
06
fa
f6
06
f2
07
f8
03
fb
05
03
f5
04
02
05
05
ed
f7
04
fc
fd
fb
eb
01
f9
fe
fd
0c
ff
f7
fd
06
f8
0b
f4
fc
01
01
f9
fc
ef
ff
f9
fd
04
02
fc
04
03
00
01
0f
ef
03
fc
0d
05
fe
05
fd
01
fb
03
0e
f6
f3
f2
fb
04
fd
01
06
0d
09
08
fe
f8
04
f6
fe
01
f9
0d
f2
0f
07
fb
fc
04
fa
07
0d
04
fd
10
07
06
0a
05
fe
07
06
0a
f4
f7
01
ff
06
07
0a
01
01
ff
03
0a
f7
04
0b
f6
01
fc
ef
03
07
f5
02
00
0c
fc
0b
08
16
06
00
ff
00
f9
fd
fa
ea
ff
14
02
0c
f6
fd
08
f2
f1
02
ff
02
02
08
04
fe
08
fd
f2
00
fd
02
01
03
05
05
fc
fb
00
06
f7
f7
fd
03
01
fa
fb
0b
ff
0c
f8
fa
05
01
f9
01
00
05
fd
08
0b
ef
01
10
18
0f
01
06
03
09
fa
0b
fc
f7
fa
fd
f8
02
0f
fc
00
15
01
09
ff
07
04
06
f4
fe
ff
05
f1
04
f9
02
f9
f7
06
fd
02
ec
14
fa
f5
f9
f8
09
fa
08
0b
f6
f2
04
ff
fa
f7
11
01
fd
ff
02
f8
f8
09
0c
03
0a
0e
07
f5
f5
fc
07
ff
10
f8
08
eb
02
f9
01
02
f7
06
14
0b
f7
0c
06
05
f9
07
ff
00
f0
fc
05
fa
03
f6
11
f7
fb
07
f8
fb
02
f4
03
06
19
fd
fc
fa
f8
03
fd
01
fa
03
f9
10
fd
0c
07
fa
02
10
fd
fe
fb
0a
f5
03
ef
fd
03
02
f3
f3
f2
03
03
f7
f8
fe
ff
04
04
fe
00
f5
04
00
f9
04
13
0c
07
08
04
05
ff
f5
10
fa
fe
04
0d
fc
03
fe
fa
f3
0b
14
02
00
f2
02
f3
fd
f2
f6
07
fd
01
ff
09
f8
ff
fc
05
0c
fe
01
fc
ff
03
f9
f8
ff
18
03
15
0d
04
ff
04
08
eb
07
fa
fe
14
f9
04
01
f6
ff
0c
00
f4
fe
fd
02
03
02
00
fc
03
fa
03
17
ff
0a
08
06
f4
0b
09
fe
fe
f7
09
06
16
fd
09
0d
f3
07
f0
f4
05
fd
07
09
04
0c
f3
f4
05
07
04
05
fc
f7
01
01
02
fb
f7
ee
00
04
ff
05
0a
e8
fe
04
07
e8
0d
14
f5
ff
05
02
0c
07
e2
0d
0f
03
f0
fc
f6
f7
fd
f3
f6
e8
06
08
08
fb
fe
00
fe
fb
00
0a
0d
04
03
07
00
03
01
07
06
f7
e9
f3
fe
03
f8
f9
fd
04
f1
f9
06
0a
fe
f8
fd
f2
06
06
0a
18
02
0c
07
16
0b
f9
f9
08
f0
08
04
0b
05
01
02
00
06
18
00
09
ff
fa
07
ff
04
02
04
08
ef
f7
ff
06
fe
ec
e7
0d
fe
04
00
19
01
04
05
fc
03
0a
f9
ed
f7
06
0b
02
01
18
01
fb
fc
fe
0f
07
f7
02
fe
ff
ff
f1
f9
02
ed
f8
12
fe
08
ed
04
f8
06
00
00
05
f8
fc
10
f7
13
02
02
f6
04
f5
fd
f1
0c
fe
02
f8
17
ec
02
17
0d
01
06
ef
0a
04
f9
01
12
f9
f5
0f
f3
03
15
fc
04
0d
f7
02
09
0e
02
10
ff
0b
fe
02
05
0c
ff
fc
01
07
05
02
fc
02
05
06
11
09
11
04
01
05
f8
00
f6
04
0e
f5
0f
07
fe
01
09
06
fe
03
f1
0a
f7
01
13
f1
fc
01
08
03
fe
04
f6
0a
04
f1
f1
01
fe
f6
03
14
fe
08
fa
04
f4
0f
ff
ff
04
0c
0a
fd
f6
11
fd
0b
fe
03
f9
08
09
f0
01
fe
0c
00
0e
ee
03
04
fe
03
04
06
04
16
07
0e
f6
f5
fe
0e
00
f8
00
05
00
09
0f
0d
06
00
11
03
f8
ff
0d
09
fa
fa
0a
f8
fd
f4
0f
04
02
fc
0b
f1
06
fd
15
ff
0c
fe
04
f4
05
ec
f4
fe
0e
03
08
0c
08
07
01
fc
f3
05
03
fb
01
13
04
ef
08
03
02
01
ff
ff
02
0d
02
04
15
09
07
fa
f9
04
fa
ff
0c
01
05
02
fc
fe
f3
ff
f1
09
09
04
08
07
08
08
f9
04
f3
fc
fa
06
fb
09
f8
0d
fe
f8
ec
f6
f3
03
fc
0e
03
04
15
10
10
fc
f4
06
00
0d
00
f6
f7
f7
ff
0a
0a
0f
03
f7
fa
0d
e9
f8
ff
fe
0a
fd
04
06
03
0e
f8
07
06
fe
fa
fe
fa
f4
03
0b
06
ff
16
f4
09
04
07
f2
f6
fe
0e
02
15
00
13
fc
08
f7
00
02
ff
fd
02
0d
00
0b
16
06
00
04
02
1d
f3
09
03
01
f5
f5
fb
f8
02
f9
0e
06
fa
e3
f0
fc
fb
09
fb
02
fd
00
0b
fe
fc
0e
f8
f9
09
fb
13
07
f7
0e
01
00
05
00
05
fb
fc
09
ef
f1
ff
ea
ff
ff
00
f3
0b
fe
0d
09
fe
03
fb
04
fd
00
fc
fc
00
f6
f9
fd
03
10
0a
03
fc
ff
04
00
06
0c
02
0a
03
00
00
ff
05
0b
0d
fb
0a
f2
01
f2
fd
0d
06
f7
00
08
0a
fd
f2
f4
07
fd
ff
fe
06
0e
ff
08
fc
f5
04
03
f1
17
07
09
08
eb
fc
0e
09
02
fc
ec
10
f3
02
06
0c
fe
08
f2
fa
ee
14
00
0f
f3
01
0a
fe
09
f6
0d
0b
fd
02
06
0b
fb
f5
f8
08
ff
11
e2
f2
f3
13
01
07
fb
0a
11
07
0d
fc
01
fd
02
fa
0a
05
eb
fe
16
08
0a
11
02
02
01
f7
00
fd
f2
0c
03
ff
0e
fa
ff
06
0f
ee
00
16
19
f6
03
03
fb
06
06
0e
fa
02
0b
0a
f0
0e
f2
05
0a
07
19
06
fa
0e
e6
07
e6
f8
03
07
fe
09
f3
f4
00
0b
fa
eb
fb
f6
09
fc
00
18
00
0e
f6
fa
13
f4
fb
14
01
ef
03
ea
e9
0b
08
08
f6
fc
09
02
e7
ff
ee
fa
01
03
0b
05
f3
04
0c
02
07
e3
ea
06
04
06
fc
02
fc
fe
fc
06
0e
11
ff
ed
04
05
08
04
fd
17
fd
fa
07
e3
0d
f0
e7
fc
12
01
ec
06
02
00
f4
0b
0a
fa
07
fe
05
0f
19
fa
0d
f6
03
03
00
f9
07
f9
ff
01
0f
f6
fc
0b
03
f9
f7
e8
0a
f4
f9
1a
02
01
0f
f2
02
05
04
f7
0e
ff
01
fd
1a
fe
0c
fb
fc
06
10
04
10
07
fe
1c
05
e8
09
0a
fa
07
ff
fd
f1
02
f6
fe
fe
fd
ef
f3
0f
ff
09
16
fe
ee
06
ff
f6
0c
08
fb
06
f8
0b
12
12
fd
f8
04
f3
f7
13
04
f6
e6
00
f6
09
f2
00
05
f9
f4
01
02
ef
09
ec
0a
eb
0b
f2
f7
00
07
fd
00
08
10
fd
00
f7
fa
07
11
05
f1
04
00
07
e9
00
f0
00
05
06
f9
f9
00
02
f8
10
10
01
f4
04
09
f1
f4
f1
1f
11
fc
01
fe
02
00
0a
ff
f4
09
04
f3
00
ed
f6
fe
fb
01
0b
f6
1a
fc
08
0c
0a
ee
0c
00
f6
ff
05
ff
09
09
0a
07
05
01
ef
f0
0b
10
13
01
f5
fb
ff
02
f3
f0
fe
f6
f6
f7
f4
0f
08
ef
04
03
eb
05
ff
fb
ee
02
0a
0c
0b
ee
fa
00
0a
ed
01
f4
04
f3
12
04
0d
fa
fc
fa
0f
f4
ec
03
0a
f8
f7
fc
00
06
0c
f0
11
fb
06
00
f8
fb
00
01
01
03
fe
04
fe
12
fd
05
01
07
fb
1f
12
fd
19
f2
08
16
03
14
03
fd
f7
00
ed
02
05
0c
fa
fd
f9
02
e3
f1
02
fa
01
eb
00
f3
03
0c
fd
0d
0d
00
e4
03
fc
fa
04
f9
11
0b
f7
fb
e1
03
f6
f8
03
0e
fa
0f
f7
f7
ed
ff
ff
f2
06
0e
03
1e
fe
eb
02
ec
01
07
02
fa
11
0e
04
01
f1
0c
0a
fc
02
f8
00
fa
0f
04
03
e7
f5
fb
06
0a
f5
fc
ff
f6
ee
fa
f4
ef
fb
fb
f9
10
f8
ee
fd
10
ed
ff
10
02
02
fc
07
03
f9
05
02
e8
00
fc
fb
f5
06
ed
00
00
04
04
01
09
03
fd
fd
03
0c
00
08
00
0e
01
0b
fd
06
07
07
ed
f5
f3
04
03
fa
12
05
fa
05
fd
e2
00
11
06
02
0c
00
0a
e5
0c
11
fa
08
09
02
fb
11
fe
fc
e4
0c
f5
09
f9
05
02
0a
02
02
f3
fd
14
f7
f7
fc
06
fa
0e
f8
fe
fa
0d
f9
f1
0b
eb
02
05
fa
03
05
ed
06
05
f9
05
f1
0f
14
f5
fd
f3
0a
07
09
0d
f0
f6
f1
11
fd
11
08
fd
00
0b
12
f3
f9
ed
06
f7
0e
03
f3
0a
01
f9
0a
0a
ff
03
03
f9
f6
0c
00
f9
04
16
fc
f3
ee
0f
00
03
f9
f7
0d
18
fe
ff
fb
f9
f0
e5
fa
02
fe
f9
09
fe
0b
fe
f3
08
03
01
fe
fb
06
ff
fd
f6
02
fe
fc
06
05
01
e6
f7
f4
f3
02
04
f4
01
06
09
19
06
0e
15
f3
f3
ff
11
08
f3
f8
02
ee
04
f5
f2
0b
e9
fc
f6
1e
fa
f5
08
fe
0d
03
00
f7
05
13
fd
09
fd
fb
fc
f8
fc
fc
fa
10
e5
f9
08
fc
0b
f8
fb
f2
07
fd
fa
ee
fc
f4
f8
f5
fa
fe
fa
f3
f6
fb
fd
0d
0b
ff
06
fa
fa
ff
de
fd
01
f8
0b
f8
eb
f0
12
06
04
06
f8
05
04
f2
00
06
13
e8
01
f3
0f
ff
fc
0f
02
f8
08
ea
04
fc
ee
02
09
08
ed
ff
fe
07
f3
fd
18
f4
04
fd
f4
f8
fe
fa
fc
12
01
12
f7
fb
07
06
0e
fd
f9
ea
ec
05
0c
f8
04
f0
07
08
09
09
f8
ff
f7
02
fc
fb
05
0e
0e
0c
14
fb
fb
f1
f7
f1
04
0c
f5
09
06
0c
ef
fc
00
ee
02
0d
f5
f7
18
0a
f9
02
fb
0d
01
fe
f8
fb
0c
09
ff
07
f8
f3
f4
08
f3
03
fd
0b
e9
f4
09
f5
15
fb
03
f5
0d
0d
f0
f9
f6
06
fe
10
ff
03
fc
05
f7
fe
eb
0a
0e
fc
0e
fd
0e
08
00
ee
10
00
03
04
f2
fc
08
fa
12
0c
fc
10
fb
05
01
f6
0a
fc
fa
fa
07
08
13
06
ec
f5
fd
13
fe
fe
f9
f8
01
ef
02
ed
05
f1
fa
fa
fd
1c
0a
fd
f4
f9
0d
ee
0f
05
ff
fa
fd
09
02
0a
00
0a
f5
f8
fa
09
fc
f6
f8
fe
f7
07
f6
08
11
13
06
fb
0a
01
06
05
17
07
0b
f4
08
0c
00
0e
f3
16
f6
fb
06
f5
04
f3
19
f4
fd
01
f9
07
fd
00
f6
03
fb
09
f0
05
15
f9
f6
fe
05
f7
fd
05
12
09
0a
f6
0c
f7
05
f5
00
11
e0
fd
f9
fd
04
0c
00
f3
f9
f3
ed
fa
02
1e
09
f4
0f
fc
f1
0b
03
f6
0b
00
ef
00
02
01
07
f0
02
f7
ff
f0
f0
fc
07
0b
0e
04
ef
1b
f8
03
fe
fc
e5
02
08
ea
f5
ff
0d
f2
f1
e8
01
f6
02
f3
04
fd
06
f6
12
ed
1f
05
ff
e9
0e
0b
f4
fe
f3
04
1c
f8
ff
0e
0e
f4
f6
14
03
fb
f2
f1
f4
fb
f5
eb
0f
dc
e7
0b
f9
05
12
15
f6
07
fa
12
ef
07
08
fd
00
f0
02
ef
f0
ff
0a
e7
00
01
e9
f3
fe
f3
0a
f9
f3
16
08
1f
f6
0f
02
07
fe
05
03
0a
07
ff
09
fc
fd
14
fe
fe
ed
ee
0c
27
ef
03
1b
09
fd
fe
0b
0a
14
d3
fb
08
16
00
e3
f2
05
e5
f3
08
ed
0d
21
10
1d
05
12
06
fa
f7
12
e6
17
f2
0d
02
01
18
14
0d
0d
f0
f8
e9
08
0e
f1
00
fa
0b
e6
f4
f1
04
01
06
08
0d
f5
ec
f7
02
fd
04
08
08
0e
05
0a
e4
10
02
06
02
fd
02
f8
f7
eb
0c
1a
12
18
f6
02
f5
fb
ff
1c
08
fb
06
09
0f
0a
03
0e
27
f5
0a
fc
fe
ff
03
08
02
16
e1
f2
22
f2
05
fd
00
f0
00
09
fd
02
00
df
d9
ff
0e
ee
06
09
04
fd
23
03
f9
0f
09
1b
fd
f8
ff
13
1b
09
fe
00
09
06
ee
1c
dd
f9
e8
f6
ff
f5
fa
e8
07
fe
10
0a
f6
08
0e
fc
04
fd
f8
0c
03
12
02
fc
f0
03
fe
04
0c
f1
0d
fa
20
01
07
ff
f4
f8
f7
06
07
fa
e9
09
1d
eb
fb
fe
f9
0a
fd
ec
09
01
1b
01
fd
f1
01
f6
fe
02
f5
fe
0e
04
03
fa
ec
ec
e2
1b
0a
f8
f8
28
05
0e
0d
ff
f6
f2
e3
f6
02
eb
f7
02
fe
09
04
f7
fb
0c
0b
08
0e
fb
01
ff
10
0c
f8
f9
f1
00
1e
ec
f1
0a
1f
13
0a
17
ef
03
ee
0a
fb
f7
f9
0b
04
f7
03
01
fc
fe
ee
09
d9
f8
01
ef
06
04
0a
15
03
03
19
1d
06
19
0c
16
02
ff
f6
e9
0e
0d
0f
fd
02
e9
13
13
f0
10
fb
e8
0a
17
fa
fb
f1
f7
01
f6
e2
ee
08
01
25
fb
0d
f6
06
f4
f3
03
06
0b
ff
fe
15
1a
f9
fb
ff
e8
fa
0f
fc
f2
27
fd
f8
f1
f4
f5
02
01
f4
f2
fe
06
ff
f9
ef
f2
00
05
07
0d
fe
fc
04
0b
fb
ff
05
0e
08
ec
f3
00
09
19
10
12
fa
fc
12
fb
f6
04
f2
0f
f2
e1
0e
07
e2
0b
fe
f5
f2
f9
e6
f8
1a
f6
f8
ff
14
fa
fc
09
0c
17
02
10
18
ff
20
fe
f1
f4
ff
05
04
03
1b
f6
00
f7
04
fb
02
ff
07
ef
02
14
f8
f8
fe
0e
02
05
ff
02
f7
0f
11
04
03
f7
f3
f5
f2
fb
0b
fe
07
0b
fc
05
f3
0b
05
0f
0b
18
10
07
09
0c
07
0a
02
06
0b
ff
fc
f1
fa
03
0b
f8
07
fa
f3
f7
f4
fa
eb
f1
fd
e7
08
01
08
f1
f9
18
f7
f3
02
0f
05
03
fa
17
00
01
0c
09
00
f7
0f
fd
09
01
0c
00
f5
ff
02
fc
eb
0e
0b
03
01
09
06
0a
fb
f8
06
fc
fb
19
0a
06
08
02
05
fd
f0
f8
fa
02
00
01
f3
f8
0a
0c
00
02
04
05
f3
f3
f8
07
fc
06
fe
04
0e
f6
09
09
05
00
f6
0c
fd
08
fb
fd
03
fc
f8
f9
02
01
04
01
0d
ea
09
f3
02
ff
06
01
fe
f2
0d
09
02
08
00
f0
fe
ea
fa
f7
14
06
fc
fb
f6
fb
f5
04
0e
1e
02
f5
03
fd
ff
0b
0c
04
fb
1a
0a
f7
fb
e7
03
02
f4
fa
06
f8
fa
fd
0f
06
fe
fe
f9
02
06
ef
fe
0c
12
f9
00
07
ff
f7
f8
01
0d
f7
e8
0f
02
05
08
f5
e5
fc
f9
07
f1
f1
07
0d
e6
07
0b
04
0d
ef
f8
06
f8
f5
05
fb
03
0e
f7
f7
0c
0c
f9
f2
e4
fb
07
09
ff
f2
08
00
fd
00
04
02
06
09
02
03
01
0d
ff
fa
fe
01
f1
f2
f4
14
fd
0b
ff
03
09
f8
eb
fb
fa
f5
f0
f7
03
fc
fe
f2
04
03
f3
06
f0
00
fc
06
0d
f9
03
f2
07
05
f7
0a
14
12
04
05
fa
fd
fe
fc
10
05
0e
fe
f8
f3
fa
ef
fd
fe
0d
0b
09
0c
08
fb
f9
fa
f6
f4
02
03
de
11
07
fe
07
00
04
01
fc
0d
fe
13
f6
fa
fa
08
fc
f7
ff
07
ff
05
07
01
fd
00
f3
ea
02
01
f8
02
fe
04
11
fa
03
00
07
03
04
0f
0e
f4
16
f8
fe
f8
f3
e6
07
08
e8
ff
02
03
13
fb
ff
f0
12
07
02
fc
f9
fe
fb
07
09
03
f6
0f
fb
09
06
11
f3
05
0d
09
ff
fe
09
06
f3
f7
fc
fe
f6
07
fa
19
fd
17
f0
fd
12
ee
00
02
fc
f9
fe
fa
ff
0f
0c
04
0a
05
0b
f6
0a
00
f4
eb
18
01
f9
fe
03
f6
f5
fa
05
f3
10
ec
01
e6
01
fd
18
02
f8
0a
02
04
fc
fb
0b
fb
f9
f6
fd
06
15
08
09
f0
14
07
04
fd
06
00
02
ee
04
0d
fe
0e
f9
fb
08
00
f8
f7
f1
f6
05
01
06
ef
fe
0c
05
0c
0a
0b
0e
f5
07
fd
fc
f2
06
ff
ef
fc
0b
0b
00
06
09
fe
08
07
01
17
05
fe
10
02
ed
f8
00
f5
08
eb
f7
06
f3
16
11
03
ff
f3
fb
09
10
0f
ef
18
fd
0d
f8
01
0b
0a
00
0a
f7
07
00
00
0e
00
fe
f2
0a
04
fb
fb
02
0a
00
03
04
07
fd
ff
f8
f9
f8
fc
0f
f2
03
01
0f
0a
09
0b
ff
fc
ff
07
f5
0b
f8
f7
ff
fe
f9
0a
fd
f7
0a
f3
ee
07
02
f7
fb
fe
fb
01
f1
ef
03
05
ee
04
f0
0b
10
f9
13
ff
09
00
f8
04
fe
02
01
09
ec
fa
0e
f9
05
06
f1
f8
f4
fe
01
0a
0e
12
09
f6
f5
07
fd
f7
03
f8
f8
00
ff
0a
02
0e
e9
f7
0e
f0
e8
f2
fd
02
f3
fd
f4
10
f5
0c
05
02
05
fc
06
05
00
ff
f9
04
f5
00
0e
00
04
ff
f8
f8
05
00
09
0e
06
05
ed
ea
03
01
0c
fe
04
01
01
f2
03
f6
07
0e
07
fb
08
01
f2
09
f5
06
03
fe
05
08
f1
fc
00
f0
08
03
04
13
f1
00
01
fb
09
fb
06
fa
08
ef
14
01
fc
07
f0
09
07
08
fe
0c
f7
01
ff
03
02
f9
0a
fa
f0
08
0c
05
00
01
01
fb
fd
0d
fc
01
06
03
11
03
01
f1
07
0d
1f
f9
f6
08
05
fb
03
fc
00
fb
fa
f6
f5
06
07
f8
fd
fd
ff
01
fd
00
08
ff
fc
07
f8
01
00
00
f1
06
fe
04
00
04
ee
03
0f
f6
fd
00
00
06
03
fe
00
0a
fe
09
07
03
e8
ff
01
f3
09
01
f8
06
04
f8
00
00
ff
06
11
fa
f6
06
fb
ee
ff
0c
f6
f9
f1
09
f7
09
f1
0b
ff
fe
fb
f6
fe
f8
04
ff
07
01
fb
04
fd
f2
f7
ff
fd
f4
fc
fb
02
00
fe
06
0c
0d
02
f2
06
f9
02
f9
f1
00
08
0a
04
04
f8
fe
0b
07
f9
fc
fb
ec
07
fd
fd
f5
f4
08
fa
f2
06
fe
f6
03
12
f8
03
fc
ff
02
03
07
0b
01
fe
fb
f7
f1
01
f6
07
fd
f8
0c
f8
0f
fc
11
00
00
0d
07
01
08
01
f3
09
f9
04
01
04
ff
09
fd
0d
f9
f7
14
f8
01
f7
06
f5
0c
02
00
05
02
01
09
06
fb
06
0d
01
f4
12
f4
fe
12
f9
f8
04
f2
0b
0a
03
01
03
fd
fc
fc
0d
03
01
f4
02
10
0b
ff
08
fe
05
03
fb
06
f4
08
f7
fd
06
f5
f8
f6
04
04
ed
04
0a
0b
0c
f4
f3
00
ee
fd
08
00
fa
12
02
fe
fd
fd
00
10
fe
0e
f2
f7
00
01
03
08
ff
f9
00
fa
12
10
fa
f4
03
01
01
fb
ef
03
03
ff
fd
0a
09
0b
ef
f9
fe
f8
ff
01
0b
07
02
fd
ff
08
fa
f4
fb
07
03
fa
f2
13
07
f7
f9
05
02
fd
ff
f2
fb
03
0d
fe
0f
ff
09
f5
02
fd
fd
fb
04
f7
01
04
10
fe
fd
0d
0c
0a
0a
11
14
ff
f9
01
f9
03
f6
fc
09
09
fd
f3
f1
f6
fe
19
ff
f0
11
0b
05
05
f9
0a
ed
06
fc
01
06
00
f5
ef
01
fd
01
08
fa
f5
0c
f4
02
fe
fe
ea
f3
f1
f9
18
fc
ef
07
fe
0b
fb
f7
f5
f8
fd
fb
f7
11
01
ff
00
04
00
fe
f6
ec
f8
09
f4
10
f3
06
1c
f5
fa
01
f2
14
04
06
f6
fc
f9
06
02
fd
16
02
f4
d7
0a
0e
07
08
08
ee
fa
fe
00
e6
02
f4
fc
f3
f7
fb
fb
f2
18
12
03
ef
f6
fe
f2
06
f9
07
0c
08
1d
fb
05
11
09
f9
d9
0e
fa
06
0f
fa
0d
ec
f0
09
0a
ff
0b
05
fa
07
08
f8
00
05
04
ec
fe
06
f7
0a
02
ff
02
0c
f5
1c
14
06
fb
0d
f7
12
f6
0a
08
f9
f9
0c
0d
f3
0b
f1
fe
ed
f4
f8
0a
f4
04
06
fc
17
f6
fa
f7
03
f6
ff
f7
05
18
01
f5
03
f0
11
fc
f1
01
ed
15
ef
f8
ef
16
ff
f9
e8
0d
f6
11
f9
05
fb
00
f8
ee
ee
fa
04
f0
f5
08
f9
ef
17
04
ef
0d
10
f3
02
f9
0b
fc
ef
02
02
05
1b
fd
0a
0c
1e
fe
19
00
fb
04
0c
0a
fa
0d
f2
0c
07
f7
ec
fe
fb
fd
02
12
05
fd
f9
f4
04
ec
ff
00
0a
00
11
fe
fb
13
fc
f6
08
08
ef
0d
f4
f3
07
0a
09
0e
fd
0a
14
03
fe
fb
f7
fa
f5
07
08
ff
07
0b
11
0a
f2
f4
e8
f3
ef
f7
f9
f7
fe
f1
19
fd
fa
f5
ef
e7
f5
fb
f6
fc
08
ef
15
f8
e0
1a
0b
f2
07
0d
01
fc
1e
11
f2
fd
0f
17
ff
07
f1
10
fa
09
f4
08
f2
ff
e9
01
f0
03
0f
f1
14
fe
ff
fc
09
f0
09
15
20
ff
f8
fc
fa
fa
0d
04
e7
04
03
11
ff
fc
f7
fa
fe
ff
0e
01
05
fe
f2
f9
00
05
00
fe
e7
0f
f4
10
fe
f4
ff
f5
e6
ef
ff
f5
f0
05
f8
f5
f8
0c
ee
fb
11
f6
f5
f9
ed
0e
ef
f7
fd
f6
0d
05
05
e9
fb
0a
0e
15
08
ee
f1
ed
ef
07
01
f0
f1
03
08
ff
05
fe
eb
03
0a
14
fb
f0
0b
fe
f1
0e
f5
ff
01
f7
0c
fd
09
08
e8
ff
07
fe
01
fd
ed
fb
0b
0e
ff
fe
09
00
04
eb
fb
00
ff
f3
10
02
05
02
f4
00
fb
e2
f2
f7
0c
fc
f9
f7
e8
02
10
09
04
01
fc
00
f7
f3
06
ef
e4
fb
00
12
02
f7
e9
08
fb
08
19
0b
0c
01
02
05
fd
02
f3
09
06
01
0a
fc
0b
fe
ef
ff
08
0d
0b
06
f8
fa
fa
f9
08
ff
05
1d
07
f6
f5
09
e4
f2
fd
0a
06
f1
01
f2
f9
01
ee
01
f1
04
ff
13
06
03
f9
1d
f8
08
00
fb
fb
f5
01
06
fc
03
01
f9
01
fd
06
ff
02
f9
fa
fd
f1
f4
f0
fd
ee
fd
0c
f1
05
ea
02
11
fc
f6
01
09
fa
05
ff
04
f0
15
fb
10
f9
07
08
f5
fd
0d
0e
f4
f2
08
f8
ef
04
fd
fb
e8
11
fe
0a
07
06
05
fc
00
04
fa
0d
04
ff
04
02
fc
07
f3
07
fc
ec
09
06
fc
fd
04
04
0b
0a
08
0b
f2
fb
03
f6
f9
0b
00
0a
fd
04
f4
fa
fc
f9
f9
fc
ff
fe
f9
ff
0b
fa
fc
08
00
0d
ee
ff
04
0c
01
01
ff
fa
03
0c
06
fe
01
f9
05
08
10
fb
05
08
00
fd
03
09
fc
f5
ed
09
ff
fd
17
01
0a
17
0e
fc
f7
17
0b
ea
f7
e7
07
fb
f6
09
f4
01
18
ed
03
0f
03
f9
02
f0
ed
11
fc
fe
00
fc
fd
fd
00
fb
f4
f2
f8
05
00
f9
f7
01
04
04
fc
e8
ff
0e
0f
03
fb
f4
fc
fc
f9
fd
ed
08
18
10
f9
03
01
06
fd
fc
10
fd
f6
00
00
00
ec
02
e8
06
fc
09
05
01
ff
0b
02
fe
fc
0a
fa
f5
fd
fd
07
00
09
fa
fc
00
09
0e
fb
f7
04
f0
04
f4
03
fd
07
01
fc
0d
fd
fb
ff
f1
02
fc
00
f9
fa
f6
04
f8
ed
09
09
03
0d
fc
f7
f7
0b
0a
fc
fe
00
ff
fb
fe
02
f7
fc
05
0b
07
11
0c
03
fe
08
f6
e9
f9
03
fa
fb
fd
01
f2
ed
04
02
03
f8
f4
f3
f3
0c
03
ff
06
fc
01
f2
fe
0e
17
14
f3
ec
f9
09
f3
f4
06
0a
fe
09
0f
f6
09
f3
0a
06
fc
18
0d
00
0e
ed
14
f4
07
17
03
fe
08
fb
12
05
0e
f9
fc
fa
09
fe
f6
0d
fa
fc
06
f6
ff
09
f7
fe
f3
0d
00
f9
f0
08
fc
fc
f4
09
0c
0d
ff
06
00
fb
fe
0a
06
0e
f9
0f
0c
0b
0c
f8
ff
02
01
fd
fa
05
00
07
08
f1
fe
f8
e7
03
09
0b
f9
01
0a
01
06
06
07
f1
06
fc
04
fb
06
08
f5
0c
0c
ff
fa
f2
fc
fd
03
f8
02
f8
f7
fa
f4
f6
fb
06
05
09
ed
ff
00
f8
f0
01
06
00
f6
ff
f3
ec
07
12
07
02
f7
f4
0b
11
11
00
04
02
0d
f1
01
01
09
08
05
fa
f5
f5
0d
f6
fd
0a
f7
fd
f7
f4
02
0b
f9
f3
fb
05
10
06
0a
f7
fc
f0
fc
0f
01
0f
fb
f7
0e
fa
fc
0a
01
f4
02
ff
04
fa
06
f3
f9
03
f7
fd
f7
f1
fa
e6
11
ff
f5
ff
fa
f7
00
05
e0
fc
03
06
02
02
09
fc
00
05
06
f4
0b
04
f4
13
05
fd
fb
05
fd
0e
f6
06
fd
fa
fd
f2
04
08
fb
01
f1
0f
f0
00
04
fe
00
ed
0d
04
01
ff
f5
07
04
fd
f2
f6
07
fd
00
f5
0a
09
08
01
07
05
0c
fe
fc
f7
04
0c
13
02
fc
10
04
03
02
fd
fb
fe
f9
00
fd
fc
f7
07
08
fa
0b
f7
fd
02
02
f8
11
f0
fa
07
01
04
00
ff
05
00
fb
05
02
fc
fc
0e
f2
ef
fe
fe
f8
f4
09
f0
10
fc
04
f9
f8
05
00
00
f9
fb
fb
02
ff
07
f3
11
03
05
06
06
04
fd
04
04
01
fa
09
07
fa
f1
06
05
11
0f
08
f7
08
fd
eb
0c
f4
fa
fc
f1
11
14
ff
f1
ee
10
12
fe
fb
11
ff
0e
fc
09
f9
fd
f1
0b
ef
ff
0b
f5
fa
ff
f2
03
14
0d
0d
04
fd
00
18
fb
03
f3
ff
06
f9
10
17
f5
03
ff
00
03
01
09
f3
fc
0f
02
fd
fe
ff
ff
fd
09
01
0e
0e
06
10
f2
f3
0d
01
05
f8
fe
fc
fd
fe
00
ed
07
05
00
fc
fb
0e
00
fd
00
f7
00
f0
fd
fd
05
01
0b
fd
05
fd
ff
fd
00
fe
ff
06
ff
00
ef
f7
03
01
f6
11
06
f4
fe
f2
fe
0e
08
f6
02
f6
fa
0d
fd
04
0b
00
09
fe
fc
fb
03
fe
0e
f7
ff
00
fb
06
fc
03
07
06
ff
ff
fb
05
fe
f8
fd
fc
16
07
04
f2
05
0b
fd
fd
04
02
03
03
fb
03
fb
fb
00
f4
05
17
fd
fd
f4
00
14
0b
fe
fb
07
f5
fc
fd
f6
f5
fe
f6
f5
08
fa
04
02
06
03
05
03
f7
09
fc
fe
01
10
ff
14
06
05
05
09
00
08
fb
f8
0f
01
10
fe
04
0c
04
0e
03
14
f2
fc
fb
09
0b
05
06
fe
09
fd
f9
f8
03
16
07
f9
0e
06
f7
f6
fe
00
f3
05
ff
01
01
0b
fd
09
f6
ff
f6
0c
02
0a
01
ff
ff
01
f9
f3
fd
fa
f7
05
ef
04
fc
fe
00
1a
00
f2
02
fe
00
09
fb
f4
fd
01
f5
04
00
fd
f8
fc
f9
f8
01
09
fc
0c
07
02
f9
fe
08
fa
f5
13
f5
fb
fb
05
fb
f6
01
03
08
0a
f6
f4
fc
fa
fa
0c
0e
f1
fe
00
ff
02
fa
ff
f7
0b
0e
01
01
fe
06
fd
0f
08
10
03
00
f9
05
12
f6
05
fd
04
fa
10
f1
01
02
fe
fe
fc
fd
00
ff
fe
fb
ee
01
f3
f6
00
04
08
f8
0f
ff
0c
05
fd
fe
03
06
07
fd
07
fc
0c
0b
01
fe
00
f1
08
0a
05
0a
f6
00
09
17
09
f9
03
fc
fe
06
03
07
fb
fa
02
fe
fd
0d
05
09
fd
fe
01
f4
fc
02
fd
0d
fd
05
01
0d
fa
10
fd
f6
ff
f8
07
08
fd
0d
f9
fc
00
13
fc
f7
07
f4
f7
08
00
eb
00
01
fd
04
06
07
f6
05
05
f9
f4
07
ff
01
0a
fa
f4
f4
06
fb
fb
f1
03
ff
f5
fa
f9
01
09
f8
03
f4
fa
f4
08
00
fe
05
00
fe
12
02
fb
ff
f5
e4
07
03
0c
05
fc
06
f9
f2
fe
fa
10
fe
08
f6
f6
ee
fa
0c
f7
07
fd
03
fc
ff
0e
05
f9
0b
f5
fe
f5
02
06
ff
fb
08
fb
f5
fb
08
01
08
06
f7
00
00
11
0c
ff
09
0c
f3
f7
f4
04
05
01
ef
0c
09
0b
00
0f
0c
fc
f7
fb
f8
01
08
05
ff
f7
f4
ef
0c
02
09
f3
06
fe
f7
0f
07
f4
f7
09
f5
fc
01
fe
f5
01
08
f5
02
f9
09
03
06
05
e7
0d
fd
00
ff
fa
f8
ff
ff
04
04
05
0d
03
f0
06
0c
f9
00
f8
0b
f9
fc
f9
09
f3
fd
0c
0b
f6
03
01
fe
10
fe
f9
06
fc
06
01
f6
00
f9
f0
09
fa
f4
06
ff
f9
04
00
ef
ff
f7
f3
0a
08
fa
08
12
03
0a
07
0c
fd
f6
0c
08
00
fd
08
02
ef
f2
fb
04
fa
f6
06
10
f5
f8
f2
f8
00
08
09
fa
02
03
05
15
08
10
07
05
fa
09
10
09
00
00
09
00
00
12
f8
07
f4
00
04
f7
f8
fc
07
07
05
00
f9
0b
02
fa
fb
03
f8
03
f3
02
05
0f
ff
f9
09
f2
06
15
fc
f7
0b
0a
ff
ee
06
06
f4
f5
f7
05
02
0f
f8
fe
04
fa
fa
04
fc
07
07
00
ff
0d
fd
03
fe
f6
02
09
fa
fe
04
fe
01
00
00
02
00
fc
01
e8
04
f9
00
03
09
f8
f7
ff
ed
ff
02
fb
ff
07
ed
0f
fd
08
07
f7
03
01
f8
00
fd
f8
e9
fa
f8
03
17
00
fc
04
f4
f0
06
05
11
ed
05
fc
fc
f1
f6
05
fe
09
01
fa
00
05
fa
ff
12
00
f5
fb
fd
fd
03
fa
ff
fd
0b
04
02
f9
0e
f7
f9
03
02
0e
f6
f4
07
f7
f8
01
02
03
0b
fa
0e
fe
00
04
ec
f1
05
f0
f4
ff
fa
f8
04
05
f6
f4
0f
02
02
eb
04
fc
fd
ff
ed
09
f4
0a
fa
ff
01
fa
f7
fe
07
0a
f9
0f
fb
ef
f2
f6
0f
05
09
04
09
0e
0d
fa
12
04
06
f4
f2
09
06
02
14
02
05
05
1a
e3
fe
01
09
fc
03
02
0f
ed
f1
0e
f9
0b
00
07
fd
00
0b
fa
f1
ee
fd
02
f7
00
0e
07
0f
ff
09
fd
fb
01
0b
f8
f9
ff
12
f5
fe
fa
f7
fc
fa
fe
00
06
03
11
fb
f6
08
f9
04
04
02
fa
ff
fe
0d
0d
ff
f4
ff
0a
f6
06
02
0b
12
fa
01
0f
03
0b
f5
0c
fa
fd
03
fb
f0
06
ee
f9
ff
f6
f9
ff
f4
ee
f2
fb
09
fa
fc
fb
0b
f7
01
fa
08
fa
fc
04
07
fb
fb
fb
f8
fe
08
05
02
0e
f6
04
fd
06
ed
ff
ef
0a
fd
01
fa
09
f5
05
ef
e8
03
10
08
02
fe
0e
0c
05
13
fd
04
13
0b
fb
f9
f2
fb
07
05
02
0b
f6
0f
fb
fc
03
00
04
f3
e8
ff
07
e6
ed
f6
e8
00
f0
f9
f9
ee
0d
ef
0a
fc
0e
0d
09
0f
10
12
0c
02
fe
fe
00
03
0c
0d
09
ff
ff
13
f5
f8
ff
fa
03
00
06
04
fd
0c
03
fc
03
f9
f2
f9
01
10
0d
00
05
fd
19
ff
ec
f8
fe
04
14
05
f2
f1
fe
0c
f7
f8
0e
08
fc
05
0c
0a
fb
fe
f7
15
01
ff
11
f9
f5
e8
f0
f7
08
0c
f5
fc
fd
f1
0c
fb
0b
f9
04
03
0a
f3
05
11
f7
fc
00
0b
f7
ff
ef
ff
0d
07
fa
f3
07
fa
04
f2
12
f7
fd
07
03
f3
00
f5
ff
01
0d
f9
fb
fe
f6
07
00
f8
06
04
12
07
04
0a
f1
0f
fa
0b
f3
f6
06
06
ef
01
ff
0f
e1
09
fd
fe
f8
16
fa
f1
0f
09
f9
f5
14
0f
fa
03
f5
0c
ff
f0
05
0d
f8
26
0d
13
fe
f8
ff
0c
f4
13
f9
f6
04
0a
fb
00
0a
fd
03
1a
01
0a
ee
07
f3
0c
ff
fe
09
06
fc
fa
ea
04
fe
0c
f8
f5
0f
f8
06
14
05
04
f9
eb
14
ff
07
fa
06
f9
03
0f
07
07
ff
ff
f8
00
ff
ef
04
07
10
16
ff
f0
01
0c
08
02
06
f8
13
09
fd
03
fa
12
1a
05
ef
01
0f
02
05
0d
f3
fa
13
f0
08
16
e9
0a
ef
09
05
fb
08
0e
ff
02
01
09
09
0e
04
f7
0d
f8
0f
f7
0e
f6
fe
fd
0a
05
0d
fd
fc
15
f8
fd
f9
01
ef
f4
28
03
eb
0d
01
0f
08
01
0c
fe
06
f9
0d
05
04
eb
11
08
0f
f7
01
fc
0a
03
04
0c
ff
01
03
08
07
00
eb
0c
fc
0d
fa
ff
14
fe
07
02
ff
fe
f1
03
00
0f
04
0b
04
fb
09
fe
01
02
14
12
0b
fc
0e
fe
00
10
fd
10
fc
fa
f0
fc
0c
fb
fa
15
00
f7
fb
05
01
10
fc
fc
eb
07
f8
10
f8
f5
0f
fb
ec
f0
05
f5
fd
fc
f7
0f
f8
fc
02
ed
14
02
fa
11
05
f2
00
0d
02
00
02
04
ee
fb
01
00
f5
ff
f0
f9
fa
03
05
02
ee
f6
f9
10
0c
f6
12
14
10
0d
fe
f5
00
0c
09
07
1c
f7
11
f8
1b
eb
ef
0a
f0
04
14
f3
04
06
0f
08
07
f3
07
03
ff
06
03
03
e9
08
f5
0b
0f
00
01
02
f0
07
0d
f8
ef
04
fd
03
f6
19
f7
06
f4
0a
0c
f9
01
05
0b
03
0c
03
07
fc
f2
fe
ee
0b
05
21
fb
12
f8
09
01
09
10
10
ee
e9
00
f8
ff
0a
ea
f5
02
f7
09
f2
f4
f7
02
ff
0d
04
04
0f
07
01
f9
fb
02
ec
fb
03
08
02
fa
09
f2
ff
00
04
ff
02
ec
0e
06
0c
fb
03
f9
01
fa
18
ef
f4
09
09
fc
ff
f9
07
0a
03
f9
02
00
fc
01
0b
f9
f4
00
f0
05
f6
f4
09
fe
f9
11
01
08
15
f2
07
0f
f9
f6
03
ef
00
0d
fe
fd
0c
fe
f7
e5
f9
04
f6
eb
fe
f0
f1
11
05
05
f8
f8
00
fd
04
02
f4
f7
f3
fe
08
08
fd
00
02
fa
05
fa
0f
0c
f9
f0
01
e9
07
fc
f7
00
0d
ff
02
f4
fc
f7
fa
08
08
f5
fb
fe
f9
fe
f4
fe
f9
ea
f2
0f
06
00
f2
12
fe
05
01
f7
ff
07
f7
fb
fa
03
09
0c
02
fb
f1
fd
00
fd
ff
f9
ff
06
08
11
fd
17
f5
f4
f9
fe
f8
02
14
01
00
f9
f2
fe
04
fc
01
07
ed
02
f4
fb
04
ef
f9
fd
03
05
09
05
01
f2
fe
f5
f4
0c
f9
e3
03
f6
08
f8
06
09
fd
fe
f2
11
08
f7
04
08
f5
f9
fd
12
ff
07
0a
f0
fb
fb
03
eb
fd
f9
00
fe
05
02
00
0e
06
fe
0a
f9
08
f8
01
f8
11
f4
0a
f5
fd
fe
f7
f8
fa
f7
fd
f3
00
fa
f9
ff
00
f1
01
09
06
e2
04
eb
f1
00
f2
03
14
f8
08
fb
fc
00
f5
ff
04
fb
fa
0b
fd
f6
01
f5
e7
06
0c
f3
00
f8
06
f5
09
02
09
0d
16
ed
00
10
02
f2
01
0a
04
1c
06
fe
0b
f6
0d
04
0d
ff
e8
03
e8
fe
04
04
03
ff
f5
08
fe
06
01
f2
0c
fb
f5
03
0c
f9
fe
fc
fb
07
fb
f6
ed
ff
0e
ff
06
00
06
ff
f0
03
01
02
01
f4
09
04
fb
03
02
fb
0c
05
06
03
07
07
05
02
04
00
fd
fe
02
08
f5
04
01
fc
01
fc
05
fc
fb
fe
fc
05
ff
fb
06
00
eb
ff
f6
0c
04
0e
07
18
07
f3
09
f0
f4
15
00
f8
02
fd
f1
16
03
f8
f5
0a
03
09
fb
0f
fd
00
07
07
11
fc
fa
ec
fd
02
0b
fe
0b
fc
f7
01
07
fb
04
fa
04
0a
04
f5
ff
01
03
03
fc
f5
01
fe
01
f3
02
03
fd
ff
03
05
fc
fc
f3
ff
02
03
f6
03
07
f1
ed
09
fb
04
05
0c
fa
f9
00
f6
f4
fe
f1
fc
08
08
09
0a
03
08
1e
09
00
f4
f5
14
02
f9
f9
04
04
fd
02
f2
ff
f9
02
0e
09
fd
fc
ed
f7
05
fa
fe
fc
09
09
04
f7
f8
f6
f5
fd
f6
ff
07
06
f9
01
ea
0d
0e
fe
f5
01
fd
fd
fc
f4
f4
06
09
01
f9
0b
04
f4
0a
ef
fc
fc
0c
07
00
fc
fb
09
07
07
0e
05
f6
08
02
0a
06
04
08
0b
fa
fc
0b
fd
13
0c
12
fa
fd
05
06
ff
01
f7
f9
f1
07
f9
ff
ff
07
03
0a
f8
f7
fb
0e
fe
01
10
0b
07
f7
05
fd
02
fc
02
f8
01
04
fd
f7
fd
f8
02
08
f9
fe
08
f0
ff
fd
08
f9
fc
00
f9
f2
fa
06
fe
fc
00
01
0e
01
03
f7
03
16
05
ff
0d
06
f9
09
fd
f4
03
07
00
00
fa
03
fc
0e
03
f8
fa
0c
03
07
00
10
03
01
05
fb
f8
f3
f9
f5
06
06
f8
12
01
04
0c
01
fc
0a
02
05
ea
f2
06
f8
04
0b
07
0b
14
0c
03
07
f3
0c
fd
03
06
f8
fd
ef
f6
fe
f7
fc
00
ff
ed
0b
fb
ec
ff
01
fd
18
f7
fa
00
02
03
01
f8
01
ff
0d
fe
06
06
07
07
02
12
f9
03
04
15
fa
07
f8
fc
f5
09
0a
0c
12
10
13
01
fa
ff
04
11
04
fe
00
ff
14
06
f3
05
05
12
20
01
09
06
fb
11
06
ff
fd
00
00
03
10
ff
0c
fa
04
f4
01
ff
fd
09
0c
fd
0b
0a
f9
ff
05
00
fb
09
fa
fb
f0
f6
07
fc
04
f6
01
f3
04
fe
fe
fa
0f
fb
ff
fc
0f
fa
fc
10
06
ff
11
02
fd
fc
16
03
06
fc
fe
03
0a
f8
f8
10
10
04
08
f5
fd
0e
07
0a
f6
06
05
04
0b
05
f4
fd
02
08
00
ff
09
00
00
ff
f3
0d
f3
0c
0a
f7
06
0d
f3
03
08
f9
fe
05
f9
f8
02
06
fd
ef
f6
fd
f3
08
fe
10
fc
f8
02
f4
ef
f7
f3
fb
ed
04
f6
05
fc
f7
05
f6
fc
f8
03
10
00
03
fa
00
09
f9
fe
00
f6
eb
f4
07
fc
f8
ff
09
02
12
f1
f0
00
ff
00
0c
f9
fa
fb
ed
0b
02
ea
0a
00
ff
06
08
02
04
f8
fc
0e
fe
fd
ff
02
08
fe
f9
09
01
00
12
f9
0a
0e
ff
00
f9
03
07
03
f8
fa
08
f7
05
02
0b
fe
0d
fe
0d
02
08
f1
fa
0b
00
01
06
f9
fa
0e
fc
06
f5
fa
fa
05
f9
fe
ff
0f
05
f4
0d
09
f1
f2
05
f5
16
0a
fa
0d
0c
01
f3
0b
fe
ff
0b
e9
f1
04
00
f3
09
15
f9
fc
fc
fe
09
f2
ef
13
03
01
f3
03
05
0a
03
fd
02
00
04
f8
0f
f3
ed
fc
ee
f7
f9
07
e7
01
f2
f3
07
0d
04
0c
0a
fe
09
ea
03
f4
03
0b
fe
17
f4
fb
08
01
08
06
fd
fb
f5
ea
09
02
fe
fd
0d
00
03
00
0a
fb
fe
f0
03
f0
07
00
f5
0b
0e
e6
fa
03
02
08
ff
02
02
ff
0a
0b
0c
0f
0c
f8
0c
fb
fb
f4
06
05
f2
fb
f7
f0
fb
06
09
f9
0b
03
f6
ff
01
0d
04
0e
07
01
0a
f7
fb
fe
f4
10
fe
04
fb
10
11
e1
e3
09
01
e6
00
ee
00
fc
15
13
f7
00
16
0a
fd
06
04
02
09
ef
0f
19
ef
fd
e5
f5
08
0f
fe
f6
07
e7
f8
f2
02
08
f5
e5
fa
0a
fe
f4
02
fd
f5
04
e6
05
08
f6
ef
f8
04
05
09
f0
ea
04
ea
ef
f3
04
00
15
08
ff
ea
03
00
f8
f8
fe
08
01
fa
fa
f1
ee
02
00
01
0f
14
f3
f8
f1
ff
0b
fb
0e
ed
f7
16
14
fe
e5
00
11
fb
19
0e
0d
f9
06
00
01
03
fc
f6
fc
06
fa
ef
00
07
fd
03
07
fb
fb
f0
fe
12
02
f7
04
f3
07
03
f8
fc
fd
05
09
fc
e9
fd
f2
f2
13
0e
05
02
02
ea
08
17
05
fa
00
00
00
08
fd
0f
d6
f3
f5
ee
ed
fe
f4
10
05
f5
fb
0d
16
04
00
f4
0a
f9
f0
0d
ff
02
06
fa
ee
de
f9
12
fb
05
04
04
ff
09
09
f9
f5
df
04
f7
21
f9
09
08
07
f5
f1
fb
e7
f7
f9
f2
16
fe
ed
fe
0a
18
00
0c
f9
08
05
fa
07
1a
06
21
10
ed
01
0e
00
f8
f9
f5
06
e6
e5
16
08
0b
1a
01
f9
01
00
0c
13
ef
f3
fd
f4
f6
1e
fa
ec
fe
05
fe
1a
05
fb
e8
1b
ef
0e
f3
ec
f2
05
09
05
f8
05
f3
04
f8
03
05
10
f1
f8
00
1b
ff
fd
de
fc
07
02
13
fa
ff
02
04
fd
f6
08
f7
f5
de
f9
0b
f6
0f
01
fc
f4
00
f5
03
13
05
17
f4
e1
0a
01
0d
09
07
11
0e
08
02
07
fd
fa
08
fe
09
04
fc
0d
f2
00
f0
0e
04
00
00
0b
05
14
f6
02
0d
fb
f1
fa
f9
fa
03
0b
0b
f8
fb
f5
fd
0e
08
fb
07
eb
ee
f8
ed
06
07
07
09
ed
ee
12
06
07
15
07
fa
ee
ff
0c
00
fa
04
f6
16
fd
fb
09
e9
04
ee
ff
f9
ed
07
fa
e3
04
06
00
03
f7
10
05
08
08
08
0e
07
15
f2
ff
02
ee
fc
fb
f2
03
fd
0b
f4
07
ea
fb
18
f4
05
f8
09
06
f5
0e
0a
0d
fb
f1
06
03
06
ef
03
eb
06
07
0d
00
0e
18
f6
18
f7
01
0b
0b
fe
15
f1
f7
f6
0c
01
e4
01
0a
07
07
0c
f9
23
05
ef
06
16
02
05
00
f1
09
11
ec
09
fc
01
0e
0d
f9
0b
00
e0
f0
f7
00
f5
08
19
f9
06
fb
06
05
e5
fc
e0
fa
04
18
00
fd
f1
09
ff
fd
0d
14
03
03
09
f6
09
0f
fc
07
f9
e9
08
f4
18
16
fc
fe
00
0d
fb
f7
00
f4
f1
0b
fd
0b
fa
fc
07
05
fa
03
0b
e4
f8
1b
01
ff
0c
05
0e
0b
11
ea
fe
0c
f8
f4
0a
0a
f3
fc
14
fd
19
1a
0d
fd
e4
f4
0d
02
f3
04
eb
f7
0a
08
10
08
fd
0b
26
14
fc
07
f4
f9
f6
08
f5
ec
f6
f9
ff
fe
16
05
f4
f7
08
18
10
fe
fd
15
0b
11
ff
07
07
02
e1
f6
05
ec
fe
e0
f5
09
00
06
09
07
fb
fc
fb
f7
fb
f8
f2
f3
f5
02
09
03
f7
fa
01
02
08
f1
e6
f8
03
f3
0e
fe
f4
fc
ff
01
fa
0c
12
0a
f2
f6
00
ff
fe
07
f4
ed
10
f0
00
0a
02
09
0b
fe
f6
16
00
f7
09
09
f6
e6
f2
00
02
08
02
f1
04
fa
09
17
05
01
e2
fb
00
00
f7
01
0e
f6
02
fd
f9
07
05
05
f0
08
f2
09
ee
ed
10
09
f0
ff
0c
08
0f
f5
04
24
01
09
15
04
f3
06
11
fb
f3
07
ff
0b
f1
00
0f
f6
0d
06
01
0a
ec
f1
05
f5
fb
ff
0a
04
fe
01
00
0a
ef
f9
1a
f9
01
e5
11
01
fb
fb
08
f7
fc
10
f6
07
08
07
12
f8
07
19
00
00
f1
02
02
fd
f6
17
08
0e
03
fb
08
0e
13
06
f9
e7
01
e4
fe
15
08
fa
fa
08
18
11
f8
fe
0b
01
fb
f6
f6
ea
f3
0a
0f
16
fd
fd
0e
09
1e
0a
ec
fa
fe
f9
ff
11
e8
09
fb
f5
05
06
ff
07
04
01
eb
fe
f2
fd
e4
e9
f5
e1
01
04
ff
0a
08
f9
ef
03
07
03
11
1b
0c
02
0a
05
0c
ed
f6
fe
0f
ff
fe
f0
f5
fc
09
06
09
1a
ff
fd
18
00
f4
06
fc
ff
10
01
02
13
0d
ef
13
06
03
05
fe
07
0e
0b
10
e8
fa
07
0b
07
f0
0c
00
f3
02
0b
10
fb
f6
f8
06
0f
01
0f
0e
f3
0d
07
0f
01
0d
f1
04
f3
06
fd
00
f7
04
f5
ef
f7
09
0e
0b
09
f7
fe
03
fa
fe
00
01
0a
20
0b
fc
17
f5
01
03
fb
0f
03
fc
12
15
0a
fc
0f
ed
02
0c
18
0a
11
11
fa
04
16
fe
f1
01
ff
09
12
0b
01
09
02
07
f9
ff
08
f1
fd
ff
0f
0c
07
06
04
12
f0
fb
0b
0f
f6
06
03
f2
f0
fd
04
05
03
10
f9
fd
fc
06
00
fd
fe
f4
09
0d
0a
ff
0e
1d
08
f8
f1
03
fc
fe
fc
f2
e9
09
fe
f8
0b
fd
f4
fb
17
f6
07
ff
ff
0b
12
02
f7
02
12
ff
f4
08
00
ff
ec
fb
06
15
01
ea
06
07
0e
e6
10
f3
02
0c
fd
0e
fd
ee
16
02
03
f5
01
fb
0a
1e
10
f6
13
fd
07
05
f9
01
08
16
04
00
fa
07
e9
03
fb
05
ff
fb
ea
00
02
f4
ff
fa
f4
0b
05
fc
07
f2
09
f9
0b
fd
10
0a
ef
05
07
ff
fe
f8
0e
04
f9
fb
e8
fb
f6
fc
04
f6
15
ee
18
f5
16
02
00
08
06
f4
fb
f8
21
02
0d
f6
e8
09
0d
0a
fb
f7
f5
0c
ef
00
0b
00
08
0e
09
06
fd
02
09
e4
fc
e4
fb
f1
fd
f7
f5
11
fe
f1
06
17
05
0e
03
ee
0d
00
04
14
04
fc
00
27
fa
06
00
0c
fc
f6
04
fe
13
01
0f
11
13
05
0e
f8
f3
f4
07
03
fa
1c
1d
f4
f3
eb
19
12
f1
fe
fb
00
fb
f6
11
fe
01
13
05
0c
fa
fc
fd
04
00
07
e9
fa
f5
e9
ee
0d
fc
11
ee
14
f5
05
14
e3
f7
05
00
14
00
ec
04
fb
13
f6
ee
0f
09
08
f9
fa
f2
0b
f9
ee
fe
ee
f4
eb
db
f4
f3
08
f4
ff
00
fd
01
02
06
0f
fe
ec
04
06
0d
01
14
09
f7
08
04
0d
0b
02
09
fb
04
fc
1a
0f
0a
08
f4
fc
02
07
f5
f1
07
09
fc
0d
ff
e9
12
f2
0f
f6
fd
f6
f6
0e
0b
ea
0d
08
e9
f5
0c
ff
ed
02
07
08
00
f0
16
fb
ff
f8
0e
02
0f
03
0e
fd
0a
fd
f4
fa
fa
ee
e6
f4
01
00
26
02
e1
05
ef
ff
fe
f2
fe
de
15
11
0a
f8
05
00
f7
0b
ec
ea
f7
fe
0a
1b
03
f0
fc
05
f1
ff
f7
09
f7
1b
f6
f0
f8
02
02
fd
ee
02
08
ff
fd
ff
10
00
f1
0b
02
06
fc
07
ec
fc
e7
04
e2
01
01
07
0c
00
fd
01
0a
09
04
00
f6
fc
06
fc
0b
fe
0e
f8
04
01
f4
f2
fe
0c
0c
e9
f5
00
19
fc
05
f9
f7
02
f2
fd
e9
fa
09
07
0d
fc
fc
f8
ed
f2
16
0a
fc
09
01
ed
f8
05
0b
f2
04
0b
fa
12
0f
0e
ef
f5
0e
ee
ee
09
f4
f1
db
15
06
10
f4
03
06
f5
05
ff
07
05
07
00
00
ff
f8
06
04
0c
09
fb
f2
f8
f3
fe
02
0e
12
02
0e
14
05
07
06
fd
ff
03
fa
0a
f8
14
07
02
ff
0c
08
10
f9
0d
fb
05
04
f8
03
f5
fa
10
19
ee
12
fd
fb
f8
14
f7
0c
f8
09
f5
14
0b
09
f8
06
fe
15
f4
fe
00
fd
07
07
0c
0a
fa
07
e9
01
08
fe
1a
fe
fa
0c
11
fd
f6
fc
f4
f6
18
ff
eb
fc
12
11
03
0f
01
01
01
fa
03
f0
01
f8
f0
e9
f4
f4
0b
fc
f0
00
ff
0e
fd
fd
07
10
02
f8
fd
f8
e4
09
f7
06
05
06
ff
0d
f4
fb
