20 c0 1 1
31
26
ed
22
0b
26
1e
b4
fe
08
f6
fc
1f
1f
01
0e
02
d5
df
e2
f0
10
fe
0e
ec
fc
21
24
e4
37
c3
f7
09
04
f5
f2
03
cb
06
09
dd
ba
28
f7
f3
10
08
e1
db
d5
16
05
f0
09
ed
ec
f4
40
36
0b
1c
de
fa
ee
17
c8
00
04
fa
1e
10
f1
ed
01
fb
02
09
22
0d
32
0b
cc
fd
ea
1a
0b
e7
dc
d0
e5
fa
14
1c
e9
ed
fc
0e
2e
fa
12
2a
dc
ed
e3
25
0f
f4
ea
df
eb
04
18
fc
1c
d2
fc
eb
41
ea
dd
ea
f0
2d
ff
eb
ef
13
0e
05
0a
17
ef
2c
e4
f6
02
08
f8
19
05
17
fd
f1
20
31
f6
13
ef
fc
f2
22
1f
ee
39
c7
ea
f6
2a
ed
fb
e6
00
22
d4
1e
e1
f6
0d
0a
21
04
14
d3
11
3d
26
e2
2b
fb
16
17
02
f6
05
15
0f
e7
fe
f6
07
fb
06
ed
de
16
10
02
1d
e7
f8
eb
01
05
2b
01
f3
ff
06
18
ef
ce
ed
e2
0e
1e
e6
ee
e4
e2
06
03
05
05
16
fa
f3
04
08
e6
25
0b
0f
e5
fd
fa
06
02
09
0e
0c
05
11
f8
17
ff
09
df
fe
f1
fe
ee
01
ea
f4
0e
19
ff
1e
f3
24
05
f6
0f
f4
f7
1d
e9
da
f2
ee
0c
fb
e4
17
02
08
03
11
0a
0f
07
fd
34
ee
e2
06
f4
00
f6
f7
fc
ea
ba
f6
06
00
df
f8
09
d5
1d
fc
17
d5
f4
18
ff
fa
0b
f6
e3
ea
08
0d
0b
fd
03
f2
f6
0b
f8
0d
0b
e2
e9
01
01
14
1b
3f
19
18
04
f2
fb
ec
02
df
f9
0e
1d
e0
d9
0c
1e
e8
fd
cf
03
11
02
11
0c
ff
f5
0d
05
ed
f1
05
ef
fb
f4
06
f4
0a
11
23
ff
f7
f7
1b
ff
fd
3f
21
f9
ee
04
2b
0a
09
13
07
fd
f1
fc
ee
f1
f2
ff
f6
04
f0
1b
07
01
12
05
e3
1c
1b
f4
13
26
15
03
10
06
ff
f3
0e
ff
ee
07
10
ef
0d
0b
02
17
0c
f5
fe
15
0c
14
ef
09
0f
02
01
1c
0c
1e
0d
ea
01
fe
f6
0b
19
f0
2e
01
e9
ea
e8
1b
1e
11
0a
f1
04
fc
03
10
2c
de
15
eb
f3
f0
db
e1
0d
17
25
20
06
06
f7
d7
d3
1e
fe
08
fd
02
03
2c
04
ee
ea
ea
25
fe
df
ee
0c
18
08
fb
08
00
41
ff
01
38
fd
2d
f5
0d
eb
ff
09
14
fb
e5
e3
2e
fe
eb
00
0f
02
ea
02
07
0a
1d
fe
04
09
12
10
0f
f3
e5
f1
05
f7
1f
f9
01
e1
02
f6
08
fc
00
ed
06
f4
fc
0f
05
02
1c
0e
fb
12
1e
03
e6
0d
f6
ff
33
ec
f9
f2
fb
26
f7
00
03
14
fc
ee
12
10
0f
1d
fa
f0
ee
fc
d0
02
f7
13
17
1b
ec
08
1f
eb
0a
0e
2a
bb
2e
09
e2
dc
fb
34
ee
07
e8
04
fd
2a
21
e7
07
28
f8
e3
d5
12
0c
df
06
f1
f7
1f
39
cb
18
e5
0b
ef
d6
f4
ec
fa
f9
db
22
27
d4
f8
bd
0d
22
27
fd
f0
05
ec
22
1a
c2
0f
0e
ee
fe
07
f9
de
0c
09
17
be
12
ea
20
d7
04
b9
32
1d
0f
e6
0e
1d
09
e9
08
01
20
05
f1
e9
da
07
1c
ee
ef
c2
1e
e2
e4
f3
20
f1
29
d9
fb
bb
f4
db
1b
09
fd
c8
ee
e6
06
1d
fb
e3
01
f0
0d
24
2f
ed
25
13
fb
d5
f6
02
13
19
fc
f3
06
d1
d0
09
ff
cc
f1
ef
17
ee
22
e7
ea
bd
e5
06
e5
ec
cc
eb
dc
09
e4
2c
1c
23
e3
f4
06
cf
0a
dd
e7
0b
25
f7
0b
0e
e9
f4
f9
f1
e9
f1
0f
d3
fd
fd
d8
04
1b
19
ea
0f
f7
04
fe
15
f1
f3
d6
1c
01
0d
fa
06
06
25
04
f1
f0
02
16
d3
fa
11
fa
fe
06
37
08
eb
d7
09
0b
0a
f7
e7
fe
f1
09
f0
ef
04
03
f6
d4
12
13
f6
f1
00
04
f1
12
22
f2
15
07
f8
09
ff
f0
36
0f
e3
1a
f7
00
1b
ff
01
1a
0d
ed
e9
06
0d
f8
ed
03
ed
fa
e7
0f
12
de
ed
19
f5
ec
05
f9
fa
f3
de
dd
06
07
07
fb
f1
10
fb
0c
fd
0e
03
00
d4
13
e1
0d
35
fe
14
f2
d7
fa
f7
05
f7
fc
15
f7
fe
06
13
10
04
03
e8
f0
e5
ef
00
fa
1f
0c
1a
f6
fe
da
f8
e6
03
fa
db
f5
11
f6
f2
0d
19
f7
19
0a
0c
07
ff
eb
1f
f4
da
07
29
e9
ea
cd
e8
0e
bb
0b
2a
fc
ec
19
13
26
07
05
e8
11
ed
1f
0e
f4
0b
e5
17
31
1c
f1
09
01
07
21
f2
ee
f9
02
1e
28
f9
01
ec
1b
fd
08
e7
1f
02
11
ed
e6
fc
fe
0e
e4
1c
07
1e
ff
0e
f7
04
ff
16
fa
f6
f4
0c
10
ff
09
f4
17
f1
f9
08
fd
fc
07
d9
e9
11
09
fb
0f
18
e8
1b
12
0f
fc
05
db
0e
2b
1f
f7
ff
ef
16
25
fd
15
0b
fe
0f
04
02
14
ee
05
f8
0a
02
1b
1b
0c
02
0d
23
ef
0c
ed
05
f1
fd
0f
e9
fe
03
08
1f
17
ec
04
0d
fc
02
01
00
24
0f
f2
02
ed
02
0c
d2
00
e3
cd
01
0f
f9
e2
0a
e8
f1
15
0c
e2
e5
f4
f9
fd
0a
ec
ed
1b
fa
03
f9
05
1d
fe
f9
08
1b
13
08
e2
14
0c
fd
02
04
21
fa
e5
fb
28
0d
07
0e
19
fc
1b
fa
f7
0d
10
ff
10
00
0a
13
ed
0d
ea
01
0b
f5
14
ee
f7
fc
0f
07
0a
f8
f4
0c
0c
f9
e4
13
fa
ee
f4
09
d1
e0
f6
0e
f2
e1
ef
09
18
00
00
d7
e0
e6
0d
d6
0e
0a
e7
f9
05
d1
12
0e
e9
21
e8
f4
31
14
03
16
0e
fa
ed
32
02
12
f3
ff
fd
fe
e6
2e
eb
00
2b
11
08
fd
e4
33
42
0e
ec
09
ef
0a
de
1c
ff
01
fd
f0
fc
cf
21
d7
03
d1
29
f2
12
f7
0b
e5
17
28
ee
e4
ed
d2
fc
00
fc
f0
f2
18
04
fb
06
f4
2b
dc
f9
fc
db
e9
0c
13
17
0c
0c
3a
0b
21
ec
ee
fc
fe
16
27
22
f2
08
0e
fe
fc
fa
f7
eb
ee
0e
14
10
f7
0c
df
f2
d6
0e
2c
11
db
12
f4
09
26
f5
15
0c
0c
19
08
e5
c2
3a
18
03
fa
f4
eb
fb
04
0d
e6
0d
19
cd
05
09
02
f0
12
f7
21
d8
0f
0a
ef
c0
fd
dd
1a
f9
de
07
ce
27
08
00
00
ff
fc
fa
f5
27
0b
f9
15
31
f7
4a
d6
0c
2c
e7
09
f6
0c
d4
19
fd
f5
db
13
e0
15
00
03
02
fc
ce
29
2d
12
ef
00
d6
f1
1a
f9
e4
26
10
21
4c
cd
f5
da
fa
20
13
1e
e6
f9
ea
3e
fd
1b
28
fd
17
f0
03
e9
23
fb
0d
04
03
03
d6
fa
e8
23
27
ed
09
1e
ec
0a
ec
da
01
14
25
fa
e4
e8
da
11
f9
15
0b
2f
0c
21
39
e9
03
14
c4
f5
08
17
22
dd
e3
ed
f9
ed
24
f7
19
f6
12
ff
b4
21
f9
fa
09
f6
05
21
12
da
ce
e4
00
f8
38
ff
0a
17
ab
ef
20
0a
fa
f0
26
d1
21
21
f6
1d
02
e8
fc
eb
13
1e
e1
26
de
14
fc
10
d0
45
0c
e4
05
31
12
2f
11
4a
0d
f3
01
1a
19
1b
0e
e4
09
d8
39
ec
f1
36
f8
35
e0
fd
01
f9
1b
01
fa
06
11
07
04
24
f5
e8
f3
16
f2
f0
f6
15
fd
13
1c
06
d9
d6
36
de
ee
f9
d0
fa
d5
f4
0a
d7
10
02
f8
ec
16
07
f1
f7
13
fb
ef
1b
0f
ed
ff
1c
1c
f6
ec
27
e6
ff
e9
f5
17
ec
14
0d
0d
f9
df
f2
0d
12
01
e2
29
35
1a
10
ee
0d
ea
f9
f9
e1
d1
02
fb
fc
fe
f5
e6
1d
14
f0
1d
0d
15
09
f1
e6
22
f7
fb
09
e6
00
0b
d2
fe
e4
ee
fd
02
ec
12
f4
06
fa
05
25
fc
1c
e4
0e
f1
08
0c
ee
e0
ff
fc
0b
f8
11
03
26
fa
f7
e3
f0
d4
f9
e4
ec
d7
10
ee
f1
fc
15
06
26
19
da
f2
1d
f6
e8
08
f6
09
02
0b
d8
ef
f4
0d
08
19
d0
02
02
0a
fa
21
fa
11
f8
f2
06
1f
e2
0f
04
f1
32
fb
02
21
1e
03
fb
07
0c
fd
fb
04
04
ee
16
f8
e9
2e
24
1a
0d
eb
01
20
d1
d9
ea
dc
c8
e3
f1
0d
ed
0e
f6
19
17
2f
0d
02
00
0b
21
02
e6
f3
f5
1c
1a
0e
3b
27
e7
0f
f6
1c
36
2b
eb
1c
f4
23
fd
ee
1f
de
fe
15
0a
f6
32
e9
d4
08
2b
17
fd
09
00
0c
23
1e
d5
dc
21
0b
0e
f3
28
2f
18
f4
24
d5
fe
e8
10
fc
04
15
03
10
fa
28
e7
1a
0c
db
0d
33
f6
10
12
f3
e7
d6
0b
f7
d9
f9
ed
bf
31
0d
3d
fb
f5
d1
0d
08
fe
25
0b
24
05
fd
1e
0d
f3
f7
0a
eb
07
f0
e4
ea
2a
00
1e
32
4a
f5
f1
08
e6
ec
10
15
1d
25
fd
d8
fe
e4
0c
fe
31
f9
f8
f1
0c
f8
f6
15
30
f5
0f
1a
29
e2
04
e3
f9
30
0b
fd
0c
2e
1e
d6
39
07
df
ff
00
21
f3
e9
07
fb
1e
24
28
0e
e2
ff
24
15
e7
02
35
f2
ea
04
11
e1
1e
f4
28
dc
27
00
06
e9
0a
23
f6
12
16
0a
e5
11
0d
0b
06
11
ec
16
11
f8
eb
f2
19
fc
16
04
0a
e3
1a
2b
f0
e9
13
17
e2
07
e8
20
2c
26
02
f8
0c
f9
12
f7
02
16
05
06
fc
28
f6
14
14
f0
03
18
d9
e8
0e
f1
fd
0f
f2
16
0e
fc
f7
e9
f7
07
0e
28
ef
12
01
15
fe
07
fe
e8
f0
e2
d7
dc
f8
f8
1e
19
1e
e6
fb
ec
0c
24
ef
fa
08
eb
0f
09
25
19
ed
ea
09
03
1c
ee
36
41
e6
d8
e9
22
26
05
f0
fc
ee
ff
14
e1
d8
12
f0
f3
0f
f1
d7
ef
06
ed
18
0c
03
05
ff
0e
1a
07
cf
fd
0c
e8
02
e4
0d
14
e5
f1
fc
f2
e4
e7
eb
fe
12
03
dd
14
02
38
f9
e9
f0
18
00
0d
e8
18
16
fe
f0
1c
eb
f7
00
0f
02
2b
10
14
0b
0b
de
fd
e2
01
fc
0a
ea
de
0d
f5
f3
f7
35
ea
fb
00
02
dc
05
07
f8
e1
f4
28
f8
00
15
f2
e4
d5
ec
27
28
b5
fd
ee
03
1e
e8
0a
f5
e1
03
e1
25
de
0e
18
1c
df
40
0b
05
ee
f7
dd
0e
1d
f1
02
09
2f
11
26
e7
02
ca
01
1c
0e
e0
d9
04
f4
d5
21
f5
0b
d4
13
f3
fd
f1
ea
ff
e6
11
34
2d
1d
0e
e5
2d
eb
df
0f
c8
ec
da
0b
ee
fb
0c
cf
13
f4
d5
11
05
f4
1c
fb
0c
f7
03
ed
f0
05
08
0c
f9
0b
0a
f4
02
da
b2
11
f8
bc
ed
fc
24
f9
03
33
c9
fe
0b
1d
dd
d6
20
f5
d4
25
19
02
1b
ea
22
de
e6
fb
2c
18
05
30
19
e4
fa
f6
f1
e6
ca
1e
09
fa
08
0e
14
c3
fa
df
ec
0a
f4
f3
f2
07
2b
06
dc
29
51
f8
01
25
ff
ca
2f
f2
f4
d1
f7
dd
f9
f5
0c
36
d8
e5
ea
17
07
06
ea
1e
f8
18
18
e6
fd
05
04
e0
fc
e3
f5
d7
2f
03
09
f4
d2
05
1e
dd
03
f7
fe
0d
02
0e
2f
07
d0
fe
0d
1d
16
f9
16
26
e4
f1
fc
f0
0f
fd
fe
0d
07
f8
3f
09
0a
15
11
e1
2b
e3
2f
03
17
08
08
23
47
10
e8
0e
f0
f2
3a
e5
01
ed
f4
f1
27
e7
3e
02
ee
3e
03
e3
e2
c3
11
f7
08
2b
12
2f
ef
13
f6
12
14
f7
db
09
eb
18
0b
e4
f2
d3
ff
fb
f1
ff
18
f3
12
1f
05
e9
eb
eb
1d
0e
fa
13
13
e2
1d
f7
f9
ef
31
de
cd
2a
da
07
ff
09
13
d3
ca
01
dc
f5
08
e5
14
2b
11
fc
fe
d7
09
e1
f7
f6
c6
55
05
1e
f4
fc
13
e7
08
cd
e9
10
17
01
03
e3
d8
fd
04
14
fe
23
0c
0b
03
11
10
fd
e3
da
fb
ca
01
19
f0
0d
13
f9
14
00
1b
df
0c
33
0e
ef
ff
d5
c9
f9
e6
20
fe
f2
0b
04
fa
0b
1a
27
10
f3
3d
f9
f5
15
1e
15
0d
03
08
08
e5
f6
eb
f6
07
42
22
ea
2e
13
10
d9
f4
f8
e9
e5
11
fc
15
d6
e7
f5
22
08
38
2e
fe
fa
ed
04
05
10
0b
21
fc
08
35
fe
e3
d1
17
f3
fc
1e
30
1d
ff
e5
05
f2
0a
02
24
14
13
f1
fa
da
f5
f2
19
02
04
f6
18
0f
11
ff
e0
f2
fa
e2
f4
18
09
ef
0a
f4
00
db
26
f2
17
12
fd
f2
01
10
16
da
0c
1f
dc
09
01
4d
d6
e9
1e
27
05
29
f5
0d
0b
f9
ea
16
fc
eb
e2
fc
f8
29
e8
18
f7
fa
e4
f4
d1
09
03
e4
e5
06
43
d3
f1
21
f0
db
f0
2b
0d
e7
f7
ff
e9
11
0b
dc
db
09
24
2d
ee
0b
13
fc
db
b6
23
07
fb
02
07
09
08
11
fa
16
2d
36
0b
1b
0a
ed
f8
f2
02
e1
e4
f4
23
dc
15
0a
0e
1a
fa
ec
f5
19
12
15
fe
06
f1
20
0f
d2
ed
fd
04
e8
fe
2f
e3
2b
01
0e
20
19
14
e4
10
03
04
e9
fb
fa
01
04
43
0b
00
fa
0d
17
19
e7
35
01
e0
0c
e9
04
13
0f
18
fc
0a
e9
d2
fe
25
fe
0a
13
2a
e7
fa
f5
e6
04
19
f2
fc
01
08
14
02
23
03
f4
20
0d
0f
fd
f3
ff
02
fa
0d
27
28
06
ef
ff
f6
01
05
fc
3a
0d
35
1d
0a
12
e9
d9
f4
18
04
18
24
d6
dc
24
1d
0f
0a
18
fe
fb
01
d5
0f
f0
29
fb
f5
d9
0f
fc
eb
15
f4
d8
d8
f3
f9
f7
02
e0
fa
f2
01
13
fa
fd
0a
01
f1
09
1c
11
d4
e8
0f
de
01
f3
f9
06
f8
f0
f9
fb
0a
ff
ec
f8
f9
e6
1d
f4
07
1d
10
01
f8
02
fd
ec
d4
fa
f7
01
0b
ee
07
16
05
01
fb
f9
e6
e6
eb
02
e0
04
f7
f8
fa
fa
06
f7
1e
1c
e8
f6
fe
e5
0e
2a
f0
17
e0
01
f4
04
12
fc
02
23
1a
04
07
fe
10
01
ef
f7
12
e3
df
f4
07
0a
0b
ff
13
fa
f7
f6
fa
27
f9
01
d8
f5
02
eb
00
1e
0c
e9
0a
02
0a
ee
f7
ef
fd
03
ef
f7
f1
35
da
f3
fd
10
19
e5
f7
f3
ec
ff
0a
d2
08
13
f0
1d
e8
f4
01
ff
03
fb
e5
fe
0f
1a
e7
06
28
08
08
07
e8
13
fe
fe
e6
02
12
ff
e4
06
08
e3
e1
1e
f4
0b
f1
0e
f3
0d
0b
1f
03
ff
15
e5
eb
e3
23
14
0b
d5
f4
0a
01
06
02
12
fb
05
0a
1e
fb
0f
18
0e
f8
fc
ea
eb
01
30
ec
2a
06
f7
09
ef
ee
0c
0f
d4
0d
15
1a
f5
3d
00
ec
28
05
27
0d
07
08
3f
07
34
e1
eb
f2
12
09
d0
1b
08
17
0f
08
ef
16
eb
27
da
0b
2b
18
03
0c
09
e4
f1
0d
fa
04
f9
12
df
09
da
d7
e8
f9
02
1a
0c
d3
00
ec
28
07
f4
e8
04
d8
ed
0b
0a
f3
d6
03
fc
e7
0d
2a
28
ff
1b
02
d6
0a
12
f7
04
11
00
12
1f
f8
fe
09
d3
d1
0a
1f
05
d1
15
e8
0d
09
e4
12
fb
f4
19
2a
fb
18
23
08
f9
f5
0a
e4
11
ed
09
d2
01
05
f4
fa
07
13
ee
08
3b
03
ff
1f
db
e7
e9
15
0a
2c
1a
04
04
12
f0
15
1d
07
fb
07
d7
14
11
08
ef
00
f0
dd
f6
c2
fd
ec
f5
00
d3
25
d6
1b
0d
f8
fc
fb
1b
00
12
e0
0b
1f
13
00
08
0d
cd
10
e8
fd
07
27
f7
1c
ee
ff
cc
e5
fa
d9
eb
f4
fa
da
fa
f2
1d
02
f4
f4
01
e5
f4
e3
e7
f8
ef
0d
00
0b
04
f7
02
06
fa
03
11
ff
22
05
09
20
37
fa
d6
f7
f0
17
20
20
02
e6
19
01
01
16
12
0e
fe
dd
ef
0a
f2
14
03
01
11
01
ff
00
da
fe
04
0f
39
08
17
0b
12
06
00
00
da
04
de
e6
f5
d9
14
15
cb
fe
e8
d3
02
02
02
04
1b
fe
ff
15
25
e7
fc
19
12
14
d4
02
22
e2
28
e1
fd
e7
02
1b
04
1f
fe
00
ed
d8
20
2d
e5
cf
09
f7
f8
00
f2
0b
1c
01
03
09
08
fe
f4
12
05
e5
eb
07
e9
10
f1
19
f2
2c
0e
02
ec
f0
0d
0c
f0
f6
ff
12
22
35
04
f9
12
05
0d
16
fd
e3
e4
fe
07
18
0f
fd
17
04
35
f9
f7
ed
03
39
e8
ee
fc
ed
e0
14
ee
12
da
16
14
07
04
3f
0f
ca
01
e9
d6
ec
16
0c
15
31
2b
e1
25
0c
f6
11
01
f8
fe
2a
fa
f1
0f
2d
00
11
0f
d2
03
dc
eb
09
08
26
05
ed
fd
e3
e3
0c
16
04
1e
fc
10
f9
be
25
e8
0e
11
1f
cc
18
e3
04
12
02
ee
0a
e9
f5
23
1c
15
20
12
15
f4
e7
3b
0e
1b
fd
fc
08
08
1c
0e
11
f3
02
ee
dc
11
25
0c
ef
14
19
fb
eb
01
d3
11
15
e8
10
f9
d0
ff
0d
06
dd
f8
dc
10
dc
22
0b
0b
2c
fa
02
1d
11
e9
fa
f1
e1
37
f9
09
fa
0f
1a
cb
05
01
e6
fd
fe
f6
04
f3
f6
fb
24
c9
ff
f8
00
c6
11
c9
e2
04
21
1f
f5
05
fe
f0
00
fb
cc
e9
3b
f4
fe
dd
11
14
2c
06
08
df
11
05
07
0b
03
11
fe
d9
ea
0c
fb
10
1a
18
0a
e3
2a
1f
f7
f8
e4
f1
1a
e8
f9
e2
f9
2c
0f
fa
05
e4
0b
f7
fe
2d
2a
f0
08
19
20
05
f8
03
05
32
ec
eb
01
12
13
f9
f9
19
f9
27
08
24
06
e8
16
08
2e
e6
f1
04
e8
01
00
2d
21
1b
ee
2e
f8
11
26
fc
fc
1f
06
f1
03
e9
ed
08
2f
fe
2f
f7
f2
19
09
0b
11
f8
14
0b
f9
09
ef
e8
f5
fd
35
fc
04
17
f4
f2
e6
0b
05
15
18
30
f0
07
29
e0
22
18
13
fd
f5
f0
ec
f6
fa
fb
24
f8
11
0d
41
f9
e6
f2
f7
f9
0a
f5
e5
29
18
33
d7
1d
f4
fd
1c
d3
e4
1b
bb
06
18
f9
05
1b
f4
ca
21
e2
ed
d9
0f
0e
f7
c6
21
0e
fe
fc
f4
23
f1
0a
e9
f2
0d
f8
f7
eb
05
08
13
16
fa
ff
0b
c8
dd
cd
09
22
f2
e6
f2
06
d9
2c
13
04
06
05
08
0c
11
30
f2
09
ec
19
03
00
27
ec
f9
1a
2c
03
ea
da
a4
15
16
e3
0a
0f
21
fd
24
22
24
ed
23
0f
04
f3
e6
15
23
f7
00
20
f5
03
26
e6
d3
eb
f1
04
08
f9
52
0b
d6
ef
1f
01
f9
14
dc
22
ea
e0
e3
ec
27
f8
f5
e1
26
02
18
e9
f7
f7
ef
33
25
19
04
e9
1f
fb
20
10
d5
1e
e8
1f
f8
02
e3
f5
e5
ea
0b
33
df
12
e5
cb
0b
f6
d7
11
e7
09
1a
0a
eb
1d
09
09
15
20
13
da
1a
28
1a
ea
10
18
13
eb
df
11
ed
2f
18
eb
ee
09
0b
ef
0f
de
eb
21
09
0c
06
fc
dc
fe
04
e8
1c
02
d4
df
ef
05
e6
e8
f2
e8
e4
23
20
29
dd
0f
fb
1b
03
fa
1b
fe
14
04
f8
12
01
12
f0
dd
de
0b
04
00
f3
de
0c
08
e9
0d
e4
fe
fb
da
f9
ed
05
e6
eb
e7
19
4d
41
28
c9
1a
0c
14
01
0b
f6
01
c4
da
d6
fd
0b
07
0d
07
34
07
3d
f5
07
24
db
f7
0d
f8
15
da
1b
23
27
f9
04
f7
c4
f8
e1
fc
06
b8
e9
0b
ee
f1
d1
e2
fa
ef
e1
f7
0f
fe
e5
c7
05
f9
20
26
ea
01
de
f5
08
fa
ca
f8
fe
bd
08
2c
09
dc
e7
1f
01
ff
db
0e
ea
e1
1a
b3
35
0f
05
e3
32
f5
26
e2
07
f4
e2
e2
fc
f3
16
0a
e4
20
12
d6
f7
ef
06
06
1d
13
07
23
ef
09
0c
15
2d
19
10
ff
fc
e3
13
d7
de
f8
0a
02
01
eb
ca
ee
ef
ed
05
14
d9
d4
14
e4
b6
10
ea
25
f6
10
f3
fe
12
08
fc
04
fa
2e
ee
02
05
f5
15
19
03
12
d5
eb
0c
d0
04
f1
d9
ff
ff
ed
14
fd
0e
04
0d
16
e3
e7
32
12
04
fc
11
21
0f
06
41
fe
00
f9
1a
11
e6
f1
f1
15
30
ed
0e
06
37
21
fc
0f
16
2e
10
17
24
d3
fd
fd
0b
15
16
ec
1c
11
fb
e2
09
1c
03
0f
d2
e3
03
07
24
e9
0f
e6
eb
1a
0c
fe
00
1a
ec
1f
08
dc
13
12
17
fd
ee
eb
e0
fc
03
f1
10
02
29
13
25
16
c8
ff
16
25
0b
f9
f4
02
d6
f0
0f
da
ea
fb
13
1d
db
fc
ed
f4
02
27
20
14
d5
28
cf
f8
2d
42
11
ee
f8
11
f0
e1
1d
29
f0
0c
01
e9
f7
07
35
d9
01
10
ed
cf
ff
1e
d7
3c
df
f3
01
de
e7
16
1b
36
fe
fa
f6
0b
18
e7
0e
e8
ea
20
f1
29
11
03
15
08
26
fe
ed
fd
0a
f0
11
de
f3
08
00
f8
f9
f0
f2
19
0f
d6
eb
1f
1b
ee
d7
13
07
0c
07
e5
f4
1e
f5
e9
e8
e8
f6
f1
16
07
dc
05
1c
b6
0e
08
00
f9
f9
0f
ca
fd
d4
ee
f8
e4
f9
e6
2a
f0
05
14
db
0a
28
f2
00
06
0d
ff
f1
00
11
e7
fe
ea
0c
01
e7
26
f3
2e
dc
f6
1e
0c
dd
e7
e5
d4
0c
e5
e4
d4
fa
09
e3
d4
05
12
fa
f0
e5
f9
f6
04
f3
12
0b
05
45
14
fa
f9
f9
eb
05
2e
e6
20
e7
1b
0b
05
f0
ed
f9
d5
15
e7
09
ec
00
cd
d0
0d
f9
f1
0a
db
2c
d9
1c
25
fc
f7
00
d3
03
10
0c
fc
e4
e2
e5
0c
04
f0
12
0f
e2
10
11
f4
31
36
0e
0d
22
15
ee
dc
02
02
e7
22
dd
00
06
29
cf
de
f0
03
f9
3a
1d
e9
fc
07
23
1e
36
13
09
0f
ee
fb
01
1b
0d
f7
eb
37
1e
dc
d5
f4
10
11
1d
22
eb
ff
f5
da
08
f5
f4
db
1b
02
05
fb
10
07
10
26
f4
da
ec
e4
cc
fb
f1
fb
17
02
10
df
2d
f9
ef
0b
ff
e7
ce
0d
06
ff
fd
0a
f0
00
ee
ec
e3
f2
10
e3
22
fe
03
1d
3d
0b
25
03
23
f9
20
09
13
0d
19
03
03
de
0d
18
0c
02
09
fc
fc
fc
1a
1c
d5
f0
14
f6
1d
fd
0d
20
fd
00
13
0f
fc
fc
1b
eb
01
e4
f1
d8
25
f2
0d
0a
38
f8
00
e0
f1
07
02
f2
0a
d3
1a
ef
fe
e0
0b
0f
0d
03
e4
04
f1
e9
df
06
e8
f4
02
1c
22
ed
13
d6
0a
18
0b
d9
eb
02
da
f4
02
f8
27
f1
2a
0a
fa
f4
21
09
fa
06
1e
ea
d7
0b
07
f2
fd
1b
0d
24
15
da
fc
fb
ee
1d
0d
17
05
1e
fe
f1
04
0f
ec
f7
01
ee
1f
fc
09
f9
03
e2
ec
f3
09
f6
e0
f2
fc
24
c7
fb
f6
1c
de
e8
0b
10
e5
f8
09
fb
20
01
0d
f3
e1
0d
ff
fc
fb
0e
0d
02
f7
0e
ff
f1
dd
30
0f
e4
f1
17
f9
ca
e0
1e
14
13
f1
0a
ec
f8
f2
15
08
ee
0c
ec
f9
d9
f2
17
09
0a
17
11
f8
f7
00
07
09
cb
ce
19
0b
12
03
1b
0b
05
fc
1b
ff
08
13
0d
e2
1b
19
df
03
e7
ec
08
0d
db
ed
f7
28
15
f0
10
f3
ed
00
f7
f8
06
0f
fd
16
06
fc
09
36
ea
01
05
04
e9
09
00
2b
04
fa
f5
e7
07
14
10
17
07
ef
e7
f6
24
0c
f6
e1
20
46
fe
eb
05
fc
de
e5
e1
f4
35
fe
00
e2
29
df
cf
17
f3
06
10
03
e9
ec
21
4a
f0
06
19
d1
0e
13
13
e2
05
d1
fb
0e
f8
f4
08
15
e8
3b
0f
f7
06
18
ef
0f
0a
1f
f9
f4
1a
d6
06
fa
04
20
03
16
1f
fc
f6
db
f5
d9
07
ea
00
0f
11
0f
2c
cd
f0
0a
f1
f8
f5
17
14
0a
eb
eb
e9
28
2e
09
11
02
02
e2
e8
1a
0e
2c
13
ff
07
f3
02
04
17
ea
f7
05
17
f3
e6
0b
ff
01
0c
eb
0d
f3
e6
e8
fd
0e
10
d9
f3
10
e6
0d
11
e3
05
e9
fb
d9
e2
0a
28
df
0f
1d
d7
fd
05
f4
05
f4
ef
fc
ff
0b
3c
fc
01
27
11
f0
da
14
24
ed
ee
d3
fc
fc
f9
f7
db
f7
f7
00
ea
0b
07
eb
f9
fb
0f
ce
04
eb
f2
05
26
27
15
02
ff
c6
f5
fb
f2
07
0d
c3
c5
f3
06
14
24
fc
fc
c7
e4
fa
e1
00
fd
ea
ed
e3
11
fc
14
0a
e5
f4
07
1f
0c
fc
fe
25
1f
f3
13
f0
f9
2a
06
ec
e2
f6
0b
21
ef
db
da
0f
03
0a
0f
dd
fb
07
07
ee
2b
fe
f2
f1
df
0f
21
f6
21
bb
01
0b
ea
23
e8
da
ff
15
0e
04
d4
e6
d8
23
f8
19
00
14
e5
ea
e8
04
ee
03
03
02
e3
0b
21
12
fe
0f
1b
07
1b
07
03
ee
de
ed
06
ff
e8
e6
ef
06
1e
07
05
fa
10
25
f0
18
f5
0f
ed
09
e0
06
04
f7
24
f5
db
22
d9
f2
0e
16
12
d8
e7
f8
ef
f7
e9
ed
39
fd
0f
19
1a
17
f0
f5
e6
ff
d6
24
0f
f0
12
f6
26
dc
11
0a
0f
fe
0a
e9
1b
f2
08
ed
ea
10
05
ed
0b
1a
22
f5
f8
16
c9
e9
e8
f1
13
f5
2a
12
f5
f1
ea
ea
fe
0f
f2
04
eb
f9
1b
22
f1
10
f5
f3
fd
13
1e
0d
f4
ec
ef
f6
f6
f4
12
35
05
f3
27
09
12
0e
1b
f5
d5
d3
0a
f0
14
eb
01
e7
0c
19
f9
ff
f5
18
f6
2e
11
da
f4
0f
e7
19
e7
ed
1c
1e
0e
10
f8
e9
0c
0d
fc
fe
09
e0
1b
e5
05
15
f6
0b
37
fc
03
e4
dd
0d
29
fb
0c
f4
13
0e
ef
06
e4
07
1f
ff
1c
d2
01
1d
e3
14
e2
fa
e6
e7
df
04
ee
c9
c6
ee
f5
e6
fc
15
f8
0b
10
fb
eb
0c
09
cf
13
0c
04
04
17
03
f8
04
06
ee
1c
27
0f
31
fc
0b
ed
fd
ec
29
02
f8
cc
f7
1c
02
f6
fa
fa
12
0b
16
03
04
e9
f7
f8
14
ff
e3
08
20
f3
14
28
1b
07
ff
f4
00
03
f8
09
23
fd
fa
f5
f9
38
10
05
fd
25
e2
f6
ea
c5
f3
02
0a
15
f9
04
fa
0e
03
f4
2c
1a
00
1a
1f
f7
06
1d
0a
29
e4
fe
27
05
1d
f0
06
03
de
da
23
db
06
01
06
f3
11
f8
dd
e8
ff
0d
fe
13
2a
e8
03
03
1e
02
15
fd
ec
16
08
02
eb
0e
09
f1
f8
1d
03
ed
ea
fd
1f
19
21
ea
04
e4
fa
0e
e6
14
f7
01
f4
13
f5
0c
02
e5
fa
ee
03
0b
e9
f7
ed
0c
f9
0c
fe
08
e1
07
1a
06
23
10
ed
ed
10
e6
fb
e1
03
07
14
fc
1c
f8
05
3d
04
fe
13
15
19
0c
db
07
1f
f3
0d
f9
d9
10
fc
fd
01
05
10
01
1a
17
13
41
dd
db
15
f9
f7
03
e7
f0
0c
e4
11
e1
d4
05
ef
15
15
f3
26
04
02
33
ed
f7
1f
e1
f5
f3
2c
2b
ed
fb
f7
28
15
08
1a
19
d3
dd
2c
c9
25
03
31
08
32
01
06
19
d5
eb
eb
f9
01
2f
2d
0e
e1
08
0f
0d
0f
13
17
27
2f
02
0b
25
3a
f4
03
e7
00
f4
f0
0f
03
0c
fd
04
34
fa
e5
f0
cb
00
10
f6
1b
ea
0f
05
f3
0d
0a
38
05
0d
f2
0d
34
0e
f9
00
18
e4
10
0c
fe
2d
10
3c
25
dc
09
14
fe
eb
12
b5
11
fb
00
d6
08
fd
d4
0f
f9
f2
d8
e2
07
e9
29
f0
df
08
e4
f9
10
d8
e7
12
f7
d5
fb
ee
0c
f4
08
f4
2b
ff
0f
dd
06
fe
f7
fc
01
00
ea
c2
df
ee
05
e0
10
02
fe
e6
e7
f3
de
f3
01
00
ea
f6
e9
f8
e1
eb
fd
e8
f4
db
ff
0b
fe
01
c9
d9
0f
ea
f7
0d
0d
e1
fb
17
f7
02
34
05
e6
f5
e2
16
cd
49
fc
19
f8
32
0c
44
fd
dd
fa
03
1d
fc
2e
fd
0b
1c
f1
f3
f6
d6
fc
40
10
21
e2
0d
12
d1
05
0b
de
dd
13
eb
12
0d
f9
06
f0
ff
10
f0
18
ed
f8
06
05
db
0b
f1
1d
e9
eb
05
f5
f1
18
03
f2
0d
15
ef
1b
eb
f9
0f
00
f0
e0
e9
ec
ec
0e
1a
28
0a
18
0d
17
00
11
f0
fa
0d
1a
10
30
26
0f
d6
f1
f3
ec
21
19
0f
02
e8
1b
f3
03
02
05
e4
ca
ec
fe
01
1b
f6
ef
06
f7
d2
29
fa
35
25
12
1b
e2
17
26
fb
eb
e6
f7
f5
f3
0d
0c
fa
06
12
10
10
0c
e3
02
f6
df
e6
02
ec
21
30
e7
12
01
e4
fb
05
f1
f9
e8
f9
fd
ff
28
f1
e0
e6
04
e1
23
01
ce
ec
f6
06
15
f8
d7
e9
10
07
e9
07
14
06
11
2d
1f
19
14
ee
01
cf
ff
f1
0c
f4
f3
f3
0d
eb
fc
19
e3
fe
d9
19
ff
d1
f4
d4
02
1d
d2
36
da
06
ee
05
03
0f
fd
04
14
e4
22
01
e8
13
ff
07
01
20
fc
fe
e2
00
05
3c
39
16
e6
11
e5
11
0f
fd
f4
fa
17
d1
1b
fd
f2
e5
11
fa
c2
02
db
ec
0a
12
c8
05
27
e9
f5
00
04
f6
f8
e9
fc
0b
03
0f
12
22
03
12
14
0a
0f
ef
0d
cb
f3
09
00
d5
fb
25
0a
0d
e4
fd
12
ed
03
1c
ef
ff
d0
01
18
04
eb
0b
fb
05
e8
11
29
